e n</w> 1423551864
e r 1300703664
e r</w> 1142368899
i n 1130674201
c h 933581741
a n 845658658
t h 811639783
e n 780050874
u n 661783167
s t 592856434
e i 579569900
a r 494774817
a l 444331573
o r 439176406
th e</w> 432025210
d i 420568858
o n 415006482
c h</w> 412666758
i n</w> 407887548
r e 406196188
t i 400406791
o n</w> 388410690
e l 381816555
o t 377428340
e s</w> 362958482
a u 357013846
l i 352330101
d er</w> 342921790
q u 322406848
s ch 319544096
e d</w> 316109104
s i 313518836
o s 295879379
in g</w> 294023626
a s</w> 290648823
qu ot 285449910
& quot 284479833
&quot ;</w> 284479833
a t 278826224
g e 274292573
a p 268097834
r i 265210615
an d</w> 263417041
e in 262564895
r o 259579874
t o</w> 254402092
w i 252913320
- @</w> 251371932
@ -@</w> 251371932
di e</w> 239038195
b e 236893926
s t</w> 232063687
u r 231880117
d e 226695687
t e</w> 223688966
d en</w> 219536181
un d</w> 218416938
a n</w> 212800715
o f</w> 212294107
a t</w> 210677368
m i 208270983
ap os 199385170
& apos 199372218
i s</w> 196097621
o u 194837441
o l 187582880
r a 185390821
o r</w> 179871362
o m 176984411
t en</w> 168777606
a s 162510283
a b 161506814
v er 158979321
l e 158517580
g en</w> 156364359
a m 149839044
s e 149746735
h e</w> 146480725
&apos ; 146080916
i l 140696930
a l</w> 140306887
a g 137208176
e s 132424490
i t 130539981
un g</w> 129406823
d e</w> 124188703
t er 120777739
l e</w> 120184782
s p 119599212
h r 117884034
t er</w> 115915204
n e 114736882
l a 113585796
n i 111076910
d er 107950841
ch t</w> 107903412
v e</w> 107570879
u s 106873172
w h 106291362
en t</w> 105961599
a r</w> 102059758
i e 101489093
a c 97936031
t h</w> 97610994
l y</w> 97257914
en t 97128537
a ti 96871120
f ü 96366949
t e 95576477
n o 95395571
i e</w> 93530851
h a 90573157
&apos; s</w> 90058760
ei n</w> 88015993
mi t</w> 87427403
S t 85918490
c e</w> 85380404
f f 85025039
th at</w> 83340291
f or</w> 83139700
u t 82799443
g e</w> 82403608
i m</w> 81322658
c k 80864522
v on</w> 80463284
z u</w> 80315140
w er 79744626
i t</w> 79465438
l o 79311319
b er 79131760
s a 79020033
v i 78555338
e m 77791983
w as</w> 76447123
s h 76367602
u m</w> 75409061
w e 73554661
i r 73157624
d a 72701129
d as</w> 71982417
au f</w> 71919398
ein e</w> 71564777
s e</w> 71514456
e t 71130668
i st</w> 70944052
e h 70404653
S ch 68823199
fü r</w> 68452218
m a 67503395
s u 67124018
o p 66526754
de m</w> 66266248
r u 65874193
a d 65650411
g en 65213101
a h 65068418
d es</w> 64329163
r ei 64179818
wi th</w> 64018545
A n 62872284
f or 62569178
T he</w> 62348066
u t</w> 62220032
t s</w> 61855395
si ch</w> 61453349
b er</w> 60584565
a ch</w> 60427199
g h 60318941
w ei 60274255
c on 60155921
i m 60029782
a m</w> 58845254
i s 58691177
e m</w> 58433725
an d 58171193
2 0 57725025
t z 57029267
b e</w> 56781128
ch en</w> 56434459
D ie</w> 56183170
al s</w> 55326836
ni cht</w> 54898174
a f 54679498
s o</w> 54630819
V er 54296690
sch en</w> 53901689
t a 53514597
el l 53463088
&apos ;</w> 53291302
p ro 53111189
c om 52378653
ti on</w> 51921417
u l 51521321
g i 51379372
ar e</w> 50829029
ei t</w> 50071476
in g 49684347
e c 49381943
e st 49304279
h is</w> 49137904
p o 49077860
li ch</w> 48630013
u m 48282927
A u 48009307
k e</w> 47953379
i d</w> 47695176
i c 47642749
u r</w> 47534669
au s</w> 47413371
er e</w> 47236641
e b 47144042
er s</w> 46895549
al l</w> 46295294
l d</w> 45999333
al l 45668145
a ch 45656055
s en</w> 45313681
w or 45203306
e x 44958221
c o 44606972
a hr 44588544
ä n 44500677
au ch</w> 44243033
i g 44072102
e y</w> 43964515
ou t</w> 43911203
m en</w> 43731165
S p 43685282
I n 42520525
b y</w> 42281867
r an 42140229
l l</w> 42039279
R e 41578143
ha ve</w> 41489778
m e</w> 41189827
ati on</w> 40748925
as s</w> 40598292
ro m</w> 40320468
p er 40274493
be i</w> 40000119
T h 39849055
d o 39848623
an n</w> 39822410
C h 39049876
e l</w> 38995413
o o 38889675
un g 38834174
sa id</w> 38788108
U n 38383710
f rom</w> 38262028
on e</w> 38247943
B e 38032322
ü r 37867488
st en</w> 37519952
at e</w> 37447348
in d</w> 37361687
ch e</w> 37334900
i el 37199954
h as</w> 37145107
d en 36859967
th er</w> 36807443
l u 36501588
un gen</w> 36439885
e u 36320003
n en</w> 36253520
ein en</w> 36247203
o h 36129724
on s</w> 35968138
v er</w> 35831998
h ab 35513016
ou ld</w> 35492866
ein er</w> 35261345
w ar 35169198
c i 35051581
g er 34907719
b ei 34653250
h er</w> 34583660
c k</w> 34580389
20 1 34507622
au s 34482037
t ra 34461109
wi r 34150574
y e 34120945
re s 34033700
gh t</w> 34011239
wi ll</w> 33947656
G e 33884477
er t</w> 33676552
p ar 33508595
l ei 33359331
i ch</w> 33191080
ou r</w> 33084520
h at</w> 33018298
m e 32720382
s o 32668718
ag e</w> 32610035
d ass</w> 32448400
in e</w> 32192860
no t</w> 32172625
l an 32039276
0 0</w> 31901583
z u 31832122
n ach</w> 31812111
p e 31469203
da y</w> 31241656
t ed</w> 31225093
D er</w> 31199563
ge b 31005420
i st 30991517
ein em</w> 30949028
en d</w> 30920437
t o 30886906
si e</w> 30863437
P ro 30815414
y o 30772772
i ch 30739968
ä r 30734511
ol l 30722328
wi e</w> 30667108
t s 30424794
d s</w> 30344645
ü n 30305558
er n</w> 30181460
m er</w> 30170212
d u 30150922
g er</w> 29909777
m o 29831265
wer den</w> 29774894
u p</w> 29552646
t r 29454887
w ar</w> 29308994
A l 29305554
E n 29302458
g an 29164528
t y</w> 29075147
g el 29048389
f t</w> 29033793
g t</w> 28996319
v or</w> 28952112
m an</w> 28853415
E r 28552336
sch e</w> 28550154
p p 28450651
h o 28326181
w a 28198183
h r</w> 27811120
al i 27665603
au f 27200970
or e</w> 27170575
th is</w> 27131179
n e</w> 27019506
t t 26980262
sch af 26914030
b ut</w> 26876823
s el 26818390
f i 26630035
p la 26571599
A r 26472112
wh o</w> 26413608
li e 26391354
m an 26316456
D as</w> 26247335
th ey</w> 26208982
I n</w> 26151757
ei r</w> 26044540
m ent</w> 26021065
z i 25990751
no ch</w> 25782593
ung s 25756031
g o 25719370
f in 25558597
s ind</w> 25534708
k om 25494059
a k 25240223
th eir</w> 25121860
yo u</w> 25106603
ü ber</w> 25089915
or t</w> 25031112
M ar 24937920
d ur 24749771
s er 24712410
m in 24684666
s en 24564742
ha d</w> 24402562
l and</w> 24331888
d ing</w> 24265492
w ur 24204105
wir d</w> 24153524
h e 23935140
D e 23888486
h al 23818165
u s</w> 23796933
f a 23684670
s ag 23475982
g r 23461050
t en 23433624
b i 23246648
k l 23223856
a d</w> 23219543
n er</w> 23101982
&apos; t</w> 23065999
h en</w> 23055829
f e 23042879
al ly</w> 22934785
am p 22847292
w n</w> 22839156
o ff 22800785
ö n 22782304
r ä 22702491
v or 22694504
g ro 22608047
an n 22497796
be en</w> 22476024
ati on 22241933
y s</w> 22193619
ol d</w> 22148098
h i 22129444
B er 22068732
st ell 21975291
w en 21961734
ö r 21913472
e t</w> 21861143
b o 21860701
h at 21850080
E in 21696268
hab en</w> 21678324
w e</w> 21631060
ti on 21544826
g u 21510460
ur e</w> 21509700
z um</w> 21463237
M a 21408159
t ei 21290321
el l</w> 21269159
ä h 21260111
te t</w> 21209224
wer e</w> 21153672
eh r</w> 21148894
z ei 21068866
l at 20811614
it y</w> 20794620
r ü 20788349
di es 20776053
k ing</w> 20733552
e p 20677269
A b 20667524
os t</w> 20636360
m p 20616134
am e</w> 20561758
t ri 20488557
D i 20454871
P o 20451739
u b 20410510
s he</w> 20409484
si on</w> 20320600
st e</w> 20307668
ab er</w> 20302420
V or 20252858
1 9 20227749
m ar 20198075
J ahr 20086886
wh ich</w> 20066633
P ar 19977909
in ter 19939203
m ore</w> 19937068
b t</w> 19935770
ie l</w> 19842291
om e</w> 19790455
ne u 19768552
c an</w> 19763249
k t</w> 19748421
i r</w> 19729138
i hr 19678040
m on 19672178
v en</w> 19628670
l in 19628343
de s 19624753
I t</w> 19547546
b en</w> 19539160
re c 19447810
os e</w> 19277921
or t 19248550
j u 19223254
st a 19187334
l er</w> 19168736
p ri 19153500
s on 19136203
ar s</w> 19031723
d ed</w> 18957747
er en</w> 18836127
s ol 18813639
ab out</w> 18786527
o m</w> 18622224
t ung</w> 18621679
t w 18619477
an der 18586245
ent s</w> 18575048
f ol 18557998
m er 18527832
ye ar</w> 18485382
A us 18481368
f ir 18461264
ge gen</w> 18410991
k s</w> 18347493
j e 18325566
o der</w> 18247566
p re 18213072
n ur</w> 18212251
M it 18118849
an t</w> 18076634
p a 18076537
b r 18053028
k en</w> 18015204
k ön 17903419
t u 17901754
h ei 17807955
w ould</w> 17757459
al so</w> 17711834
m u 17707618
f e</w> 17705882
li ch 17596617
af ter</w> 17567881
g h</w> 17552882
m en 17522880
st i 17510425
sh o 17458110
st r 17278223
ing s</w> 17269032
m ehr</w> 17254802
it s</w> 17239127
st er</w> 17238734
s c 17068492
f f</w> 16901166
ac k</w> 16855077
ü ber 16793668
es s</w> 16790400
sch l 16727846
D a 16691425
li chen</w> 16667838
t re 16593199
ri e 16479005
L e 16412982
s on</w> 16381882
l t</w> 16351149
M e 16315308
i h 16312754
de ut 16236521
po li 16206114
in c 16103068
il li 16082009
S ie</w> 16037344
wh en</w> 15995691
an s</w> 15995348
d ar 15983448
ge h 15908933
on g</w> 15878634
f en</w> 15861894
on n 15857064
er i 15845074
ab le</w> 15830849
ar d</w> 15760898
g ra 15709713
se tz 15601115
ti me</w> 15579685
no w</w> 15575056
wur de</w> 15373491
b is</w> 15347893
hat te</w> 15315626
at ed</w> 15279505
o b 15249764
l en</w> 15248142
e st</w> 15166145
l as 15047617
schaf t</w> 14948383
r e</w> 14934820
s ein</w> 14921893
0 00</w> 14863816
li che</w> 14837807
el y</w> 14792629
us s</w> 14733768
t ing</w> 14721063
o ther</w> 14712525
H e</w> 14603949
M on 14579390
b ur 14554713
f o 14469258
st ar 14466754
b u 14451930
N e 14447273
th an</w> 14418259
K on 14345198
z ur</w> 14336088
al e</w> 14327021
der n</w> 14290550
un d 14266844
ar y</w> 14264290
mi s 14231506
d ent</w> 14220036
si ch 14214736
el t</w> 14208478
f er 14187105
ah r</w> 14174358
G r 14155013
20 0 14149086
l ä 14089788
y ing</w> 14085688
wi e 14016969
ou s</w> 13998668
m y</w> 13994480
Z u 13993410
ap p 13990143
op le</w> 13972777
il e</w> 13968346
be t 13923472
t ur 13903961
com p 13891056
or i 13807521
s k 13805916
ge w 13777629
c es</w> 13720849
st eh 13695254
h er 13683343
er ung</w> 13663546
un ter</w> 13663394
Po li 13549285
wa y</w> 13528433
v ing</w> 13459448
l es</w> 13457855
oo d</w> 13440170
se i</w> 13417189
o ver</w> 13414129
re ch 13359567
ur o</w> 13353565
ta g</w> 13335337
l au 13284636
p h 13280761
fü hr 13280540
in s</w> 13261610
ü ck 13244823
th ere</w> 13235990
an ce</w> 13235885
g a 13191457
d o</w> 13187881
B ut</w> 13171350
J u 13150059
un ter 13108091
E s</w> 13104818
Au f 13071461
ü s 13032140
re d</w> 13018520
d r 13008750
ne h 13006581
dur ch</w> 12996800
ä ch 12973947
v ed</w> 12896493
ge sch 12882090
es e</w> 12869377
ver y</w> 12868202
wi r</w> 12861051
ä l 12842002
pe ople</w> 12828308
at en</w> 12825264
E uro</w> 12825212
d re 12811643
au se</w> 12801969
re e</w> 12784294
v es</w> 12751462
De ut 12749365
in to</w> 12735016
m al</w> 12671036
es s 12638281
an i 12605224
tw o</w> 12561087
f ahr 12555857
ti g</w> 12550308
re p 12510496
w s</w> 12494749
an y</w> 12493802
ti c 12490748
fir st</w> 12489788
E u 12488641
le tz 12483263
sp iel 12460212
en s</w> 12445467
B un 12429592
ß en</w> 12421579
f u 12392536
mi t 12359895
in n 12347212
sag te</w> 12310908
t ro 12222364
ju st</w> 12197028
ag a 12196852
b el 12185882
o k 12158080
en ce</w> 12153260
il l</w> 12139053
ub li 12103829
p r 12037710
er te</w> 11953266
k ann</w> 11889741
eb en</w> 11871782
il l 11849619
d on</w> 11844166
h im</w> 11832049
k er</w> 11781321
th ing</w> 11777772
ne w</w> 11775783
R o 11743953
co un 11737889
ro p 11728550
M in 11718353
Un ter 11694466
wh at</w> 11683472
la st</w> 11677715
f ri 11650914
ß e</w> 11622988
ex p 11614116
k e 11611465
M en 11545047
re s</w> 11536900
ge t</w> 11531524
en de</w> 11527449
L i 11510458
n o</w> 11484693
st ri 11479810
li ke</w> 11471593
as e</w> 11469385
u e</w> 11465828
i f</w> 11455583
Pro z 11441483
h el 11436223
p er</w> 11415075
ye ars</w> 11403242
hab e</w> 11397138
l li 11383257
m t</w> 11379189
f ac 11313005
H er 11305224
a u</w> 11233425
we i</w> 11229837
z t</w> 11213201
s ch</w> 11204850
as s 11167177
kom men</w> 11152874
wie der</w> 11151560
a st</w> 11118635
th em</w> 11101803
ge s 11097165
s y 11082174
si g 11052704
we e 11034258
ber ei 11032647
z e</w> 11029822
t on</w> 11016358
F ran 10976469
j o 10914849
e d 10884880
a st 10837458
ti ve</w> 10837236
N o 10807224
s h</w> 10795462
ti ons</w> 10769590
er n 10752834
sch on</w> 10743885
h in 10686251
c ould</w> 10635011
ri ch 10632259
v om</w> 10596027
or s</w> 10592362
im mer</w> 10590738
a ff 10587359
S e 10572715
m ei 10565986
w al 10532433
b ack</w> 10522052
en n 10516857
ä hr 10515907
in v 10474309
m at 10456458
g lei 10440923
de t</w> 10417649
ro u 10394204
or d 10392693
st at 10390697
Jahr en</w> 10382058
a y 10360066
z en</w> 10339065
H o 10335260
la r</w> 10327696
du c 10320594
an g 10309457
r au 10277835
un k 10245952
k eit</w> 10223291
C o 10194492
m ost</w> 10186420
st er 10180683
J ahr</w> 10176801
W e</w> 10171837
d a</w> 10170942
or y</w> 10169616
m s</w> 10161135
u n</w> 10151860
s ei 10145691
h ä 10126787
be c 10108781
st e 10090898
w er</w> 10087949
kön nen</w> 10046440
B ri 10008990
mi li 9999904
om e 9992354
s ome</w> 9975044
oll en</w> 9950051
& # 9947328
ti es</w> 9946006
lo o 9933005
K in 9910627
ne t</w> 9909153
vi el 9899816
2 0</w> 9874361
O r 9873377
en den</w> 9837684
st ra 9831235
in gen</w> 9803245
N ach 9795616
z wei</w> 9757366
c l 9753719
ge f 9747989
si dent</w> 9745436
o s</w> 9741154
ac c 9723633
for e</w> 9721945
Proz ent</w> 9718825
an t 9699358
o ff</w> 9694607
d ann</w> 9669104
f er</w> 9634361
n ah 9619571
en d 9610855
F ü 9581790
m ö 9577237
a v 9562210
In ter 9557886
ati ons</w> 9528090
n ation 9518677
äh ri 9499201
ac k 9491130
sta g</w> 9483798
F ra 9465153
st and</w> 9452724
s s 9450280
el le</w> 9438862
on ly</w> 9437716
i l</w> 9433421
ein es</w> 9428704
W ei 9400361
gi bt</w> 9394783
wen n</w> 9389713
Un d</w> 9381487
p ubli 9378386
der s</w> 9370512
d y</w> 9360225
un den</w> 9355167
h and 9347394
wei ter 9341671
F or 9327994
ri t 9304630
b le 9303303
p res 9302850
h eit</w> 9291625
b le</w> 9278208
M illi 9275163
T a 9271182
. . 9267656
ge st 9257855
G er 9254574
com e</w> 9249973
b en 9248436
ge m 9243077
ch te</w> 9238997
g ung</w> 9224606
ar bei 9221294
ad t</w> 9192435
ar i 9181375
S te 9172242
k on 9161303
bei m</w> 9148321
c ri 9139167
in i 9123115
ar t</w> 9115584
al le</w> 9102915
B o 9094248
sag t</w> 9080989
ihr e</w> 9079600
U hr</w> 9071336
n ing</w> 9063359
ou gh</w> 9050574
f ra 9050561
s eine</w> 9040332
n ed</w> 9033370
t or</w> 9032889
al le 9012550
T e 9012053
L ei 8995760
g te</w> 8988249
M o 8969985
V i 8959984
p lan 8954239
I m</w> 8952256
for m 8950093
m üs 8938953
W ir</w> 8937404
e v 8932943
e f 8914294
ec t</w> 8913543
mi tt 8907284
em ber</w> 8905926
c re 8899558
si de</w> 8893587
r y</w> 8890272
un der 8875843
w oh 8847430
oo k</w> 8844436
E in</w> 8826517
s ur 8805211
be g 8786870
l ed</w> 8783454
l ung</w> 8773330
sch ä 8773075
ol o 8771727
D o 8728596
g re 8722014
wh ere</w> 8710589
t el 8707501
l ine</w> 8685841
f re 8685654
1 0</w> 8683712
min ist 8673988
d ung</w> 8670027
3 0</w> 8664128
sol l</w> 8660774
Bun des 8642233
E r</w> 8636789
an g</w> 8631094
T ra 8617054
do ch</w> 8597248
Q u 8579524
be fore</w> 8577989
c u 8577047
c ar 8573530
y our</w> 8561930
ho w</w> 8552331
at t 8551852
op p 8536790
at es</w> 8523123
b ar 8517927
os s</w> 8503575
an c 8492473
be ing</w> 8466129
L u 8463445
i ck 8458735
&# 9 8448117
I ch</w> 8447602
T o 8415470
S o 8405744
U m 8401385
geb en</w> 8375668
W o 8363534
st u 8359918
c al</w> 8354169
5 0</w> 8351343
z wi 8350398
en s 8349267
S o</w> 8345442
f all 8322296
Au ch</w> 8316401
W e 8301504
ti m 8292219
r en 8291255
c ent</w> 8279968
U S</w> 8247039
r on 8239464
.. .</w> 8229212
wh ile</w> 8224062
b all</w> 8206997
in ce</w> 8203050
w ing</w> 8195628
Sp iel 8186299
in a</w> 8179202
d el 8172958
pla y 8171724
Re gi 8157619
bec ause</w> 8154300
m ann</w> 8123586
wor den</w> 8123404
n ach 8120874
g o</w> 8112896
St a 8112724
war en</w> 8112210
ter s</w> 8106589
in k</w> 8097416
ot e</w> 8094058
s s</w> 8090171
do wn</w> 8089302
F rei 8069465
w ür 8061573
En t 8059878
man y</w> 8045619
a b</w> 8030296
g ab 8017895
gen en</w> 8016592
ver n 8014715
l ing</w> 8009317
e ar 7999662
on en</w> 7980247
v ie 7958984
B ei 7944415
th en</w> 7943706
An d</w> 7918537
po in 7905353
an k</w> 7904671
ter n</w> 7884562
w ell</w> 7880953
l er 7878693
zwi schen</w> 7870683
im p 7847537
kl är 7847170
sch er</w> 7842069
M an 7829640
k ed</w> 7819112
l än 7810072
M u 7808019
k eine</w> 7804374
sh i 7801235
z eit</w> 7800061
Men schen</w> 7796436
at ing</w> 7796088
Ch ri 7795457
an z 7783905
inc lu 7752353
bur g</w> 7747558
st ru 7742719
en n</w> 7727607
est i 7719404
a th 7707650
en ti 7707336
po si 7690318
i li 7684484
G es 7668588
le a 7661494
un s</w> 7659215
neh men</w> 7657241
ma de</w> 7649105
s or 7635077
en g 7615254
T his</w> 7607122
el t 7596094
T ru 7593268
k o 7586998
Z ei 7571628
i te</w> 7570201
s einer</w> 7563629
F l 7524885
M it</w> 7500270
th ree</w> 7496769
ch er</w> 7496451
1 0 7467245
er k 7466119
me di 7455335
P re 7443486
s eit</w> 7443297
Jahr e</w> 7429525
ou s 7424441
c c 7416796
su pp 7402124
g s</w> 7400706
C om 7399521
S a 7393877
S u 7380002
Eu rop 7377454
ma ke</w> 7360505
in st</w> 7359363
N ach</w> 7342201
p f 7327794
z wei 7308269
B et 7307335
t old</w> 7302647
P e 7299999
P er 7286994
sch ei 7283058
C on 7279014
K om 7275179
wor k</w> 7271378
b st</w> 7269775
S y 7257877
ä t</w> 7257454
an ge 7256980
ä u 7256666
b re 7216732
St ra 7207256
m uss</w> 7206340
N or 7206025
wur den</w> 7205629
e i</w> 7200563
geh t</w> 7182780
un i 7181614
aga inst</w> 7180686
z ah 7168463
se e</w> 7167233
us am 7162303
b ar</w> 7148515
al en</w> 7141898
K ar 7129339
co ur 7125699
au p 7123922
er ten</w> 7122094
sp e 7102928
st s</w> 7099595
dies e</w> 7091209
s at 7086470
dre i</w> 7081228
di s 7077894
F a 7065727
z ur 7060776
c y</w> 7059788
et zt</w> 7059460
th rou 7058640
E x 7057053
ti gen</w> 7056291
sch ie 7045420
ü tz 7037009
t es</w> 7030220
b ot 7012458
t in 7010372
B ar 7002664
F ahr 6998210
w om 6988581
at er</w> 6987549
se hr</w> 6986741
es en</w> 6981018
ber g</w> 6977746
fu l</w> 6968878
B il 6947744
se hen</w> 6947417
z eu 6941601
sel f</w> 6909686
em ent</w> 6908918
K o 6902292
mi lli 6901069
p l 6896302
lo w</w> 6888018
h ol 6883882
sch land</w> 6874845
n is</w> 6874298
i schen</w> 6862507
ö ff 6855137
er g 6840707
su ch</w> 6839241
U ni 6837612
hal ten</w> 6826041
ic i 6822626
lat z</w> 6802318
e g 6800672
G el 6799578
di e 6787192
si ve</w> 6775286
e ven</w> 6772097
ö l 6762667
ch il 6756530
tr y</w> 6751785
sch n 6750194
d ri 6742613
as on</w> 6729869
ch en 6722087
wee k</w> 6715197
A k 6709809
er sten</w> 6698110
go ing</w> 6696804
sp ec 6692545
n un</w> 6691003
oh n 6681552
u p 6680017
v en 6678929
A mer 6674208
e f</w> 6669669
res s</w> 6666073
si tz 6660859
h ar 6659701
ch ar 6652890
B ür 6645614
1 5</w> 6638710
eu te</w> 6632499
us ed</w> 6617703
B u 6612417
dies er</w> 6604129
f te</w> 6602739
berei ts</w> 6594457
Deut schland</w> 6587244
di d 6571569
F in 6569017
C ar 6564649
w in 6557427
Th ey</w> 6556742
ol le 6550847
p rä 6549707
ff en</w> 6539928
Ü ber 6538657
f l 6516934
it ed</w> 6515578
ci al</w> 6514977
be k 6512006
st o 6509905
S he</w> 6506327
at ur 6504459
u te</w> 6503046
sh ould</w> 6491717
en e</w> 6482034
mu ch</w> 6481630
g ut</w> 6468312
g ar</w> 6464825
Ar bei 6461410
b ri 6452179
i g</w> 6442993
g lich</w> 6439315
R ei 6438585
H ar 6438522
sa ys</w> 6433068
l in</w> 6427048
G em 6421633
, 000</w> 6414682
di en 6393218
Fü r</w> 6393101
ü ck</w> 6390612
t al 6370215
ma cht</w> 6362694
B r 6361892
w är 6347636
st än 6336848
at s 6332666
z ie 6325715
el n</w> 6321185
v el 6314277
oll te</w> 6312994
N eu 6312645
k ur 6312333
vern ment</w> 6300270
d ro 6285736
st ill</w> 6282093
am es</w> 6277446
die se 6275350
P r 6269099
stell t</w> 6268418
I s 6265655
Ne w</w> 6261315
s ome 6260323
wor ld</w> 6250865
s ed</w> 6246694
throu gh</w> 6237683
En g 6220648
c ed</w> 6210520
H ei 6208374
T ei 6203687
ati ve</w> 6193154
i cht</w> 6185770
ta ke</w> 6175813
c le 6175574
x t</w> 6168683
us si 6166225
mar k 6164452
ti g 6157485
ver b 6154067
ag o</w> 6147751
th ose</w> 6132935
steh t</w> 6119943
G ro 6119841
diese m</w> 6108761
di ff 6108115
v ol 6108081
M r</w> 6105019
un der</w> 6086575
E U</w> 6084050
f el 6080566
w a</w> 6078781
ta in</w> 6067516
and s</w> 6067075
c ap 6062377
a si 6056848
st im 6049216
ing er</w> 6046082
v e 6044834
c lu 6039437
i k 6038567
h ome</w> 6036152
ell en</w> 6030192
as ed</w> 6009724
F u 6009676
Be i</w> 6002615
f ten</w> 5997761
da mit</w> 5994116
G en 5988974
E l 5980877
A ut 5977172
di d</w> 5974794
p os 5974614
g ood</w> 5970104
wi th 5963370
. de</w> 5956513
te am</w> 5952071
ou se</w> 5951816
t t</w> 5950469
w an 5944027
i hr</w> 5938566
ri ght</w> 5930696
1 2 5926011
las sen</w> 5925951
B au 5920465
th ink</w> 5914232
k ün 5905280
ö h 5904497
ap pe 5904045
t lich</w> 5903000
e ff 5889109
wei se</w> 5884019
neu e</w> 5883187
ti k</w> 5882808
ig er</w> 5879041
un de</w> 5863026
ah l</w> 5851380
Sch ul 5847476
a de</w> 5845743
v iel</w> 5831495
ou t 5829995
ar o 5823822
se t</w> 5810032
R i 5807633
Z eit</w> 5807065
in ed</w> 5798223
p en 5797446
S ie 5794977
is ch</w> 5787443
as si 5783216
J o 5778760
ru pp 5777872
ti ge</w> 5775181
kön n 5767030
m p</w> 5759909
ck en</w> 5754318
b il 5753104
com m 5750798
Amer ic 5742732
d ings</w> 5739164
Y o 5725849
L an 5723302
b ro 5721338
H a 5718917
ch t 5716896
ü h 5714264
in er</w> 5692225
le ss</w> 5689320
wi ck 5681734
müs sen</w> 5676927
re gi 5672566
milli on</w> 5668020
i c</w> 5667143
am m 5665027
F re 5662347
E ine</w> 5660255
gra m 5643745
A m</w> 5640326
er in</w> 5637095
K ri 5634830
n ung</w> 5631586
W or 5631504
et s</w> 5626678
ut z 5622867
te m 5622799
en en</w> 5611760
s einen</w> 5610115
f ur 5610081
nation al</w> 5598839
f t 5597351
ma y</w> 5594361
En de</w> 5586138
s m 5583798
we gen</w> 5583663
aus ge 5582940
l ar 5579433
sel bst</w> 5573167
er klär 5571593
to o</w> 5569547
O b 5567998
W al 5567250
s ince</w> 5563953
w ed</w> 5563043
l ong</w> 5558201
sa y</w> 5554567
viel e</w> 5554441
ag ue</w> 5554406
ch ten</w> 5549087
f il 5547450
c all 5542344
wei ter</w> 5528225
bel ie 5516026
te l</w> 5514710
aro und</w> 5507365
r und</w> 5504968
d ra 5503318
ent ly</w> 5502736
shi p</w> 5496713
li g 5494403
Th ere</w> 5489762
te te</w> 5488177
t ten</w> 5486370
ähri ge</w> 5482195
L and 5471336
c t 5471285
i ce</w> 5470353
inv est 5468988
er st</w> 5468595
j etzt</w> 5468033
W i 5466230
&apos; re</w> 5464256
gen d 5461806
se l</w> 5452925
s es</w> 5448144
wei l</w> 5446496
ei g 5443779
1 . 5423166
k now</w> 5420613
Tru mp</w> 5416955
us e</w> 5410716
Gem ein 5407813
or d</w> 5402156
k t 5397873
g ar 5391394
h app 5391311
we en</w> 5387525
k onn 5387011
Milli onen</w> 5386451
ma chen</w> 5373661
P rä 5370969
se con 5363168
M ich 5360695
dur ing</w> 5339985
1 8 5339944
ihr en</w> 5330892
O p 5330700
L on 5330019
le g 5317376
b or 5308869
s ame</w> 5305761
hat ten</w> 5302572
li fe</w> 5290662
steh en</w> 5281804
so wie</w> 5281788
t ran 5270531
c t</w> 5265506
1 8</w> 5260514
m a</w> 5258287
re ad 5256759
ver si 5253261
Ber lin</w> 5238977
em p 5233575
gan g</w> 5224599
kom mt</w> 5219434
sch lie 5216800
neu en</w> 5214159
am en</w> 5213405
s einem</w> 5209968
sp iel</w> 5203757
y p 5198721
rei s</w> 5192664
ihr er</w> 5182799
in nen</w> 5176472
ander en</w> 5173132
Do ch</w> 5165951
b ra 5164804
re sp 5155770
H e 5155449
ge l</w> 5155144
hi er</w> 5153937
k es</w> 5150622
st ed</w> 5140357
L o 5135952
ig h</w> 5134004
c la 5133570
or en</w> 5131903
D em 5129542
w ant</w> 5128719
k en 5128358
ne xt</w> 5127060
W ir 5125355
mi ly</w> 5123044
oh ne</w> 5109195
ch s</w> 5108416
S P 5104389
et wa</w> 5104152
&apos; m</w> 5103782
th s</w> 5098259
woh l</w> 5087375
for m</w> 5084539
b lei 5081517
I f</w> 5076188
bet ween</w> 5070833
war d</w> 5068711
ch an 5060271
h in</w> 5058236
1 2</w> 5055906
or ts</w> 5055018
per i 5054860
ur s</w> 5054013
A f 5046372
A ber</w> 5044622
d ru 5042455
st ag 5041823
ge hen</w> 5039190
gem ein 5038635
d an 5031720
setz t</w> 5031162
th ese</w> 5031014
P f 5028431
b eit</w> 5027640
R ich 5022756
l s</w> 5022439
S am 5022303
n um 5018457
k te</w> 5016102
S onn 5015650
W h 5015579
&apos; ve</w> 5010902
z ei</w> 5009023
i ge</w> 5007988
gan z</w> 5000503
Ge sch 4992151
sho w</w> 4991127
st em</w> 4987500
alle m</w> 4984943
de ci 4983494
w w 4972876
el s</w> 4969949
P ri 4969047
t z</w> 4965773
st an 4965546
st and 4964258
i es</w> 4961589
ni ght</w> 4959774
f all</w> 4958173
par t 4953096
St u 4950094
B i 4945628
ec ted</w> 4944204
go vernment</w> 4938909
in ing</w> 4938498
ga b</w> 4932561
b us 4932303
2 5</w> 4929946
ö ß 4927140
am t</w> 4926313
s ing</w> 4921688
for der 4920186
R u 4917685
g s 4914812
G re 4913630
19 9 4910985
B es 4909447
S ei 4907902
J an 4904945
p a</w> 4902770
sei en</w> 4901786
eb en 4901508
T u 4899036
a k</w> 4898728
g ame</w> 4881178
c ra 4878598
de f 4877733
t ru 4868023
ic k</w> 4868021
M i 4867675
S A</w> 4866574
g ing</w> 4862772
G eb 4859951
o wn</w> 4858262
vi er</w> 4855267
k no 4845229
es day</w> 4844628
g ri 4840510
fahr en</w> 4840254
e p</w> 4838385
k ra 4832640
ag er</w> 4830849
N ation 4829223
de l</w> 4824966
it al</w> 4812762
stell en</w> 4812547
n a 4809714
4 0</w> 4809571
son dern</w> 4806892
r at 4806020
w o</w> 4805154
tion en</w> 4804958
R ück 4801209
i sche</w> 4793890
K l 4790254
wa ys</w> 4786623
be st</w> 4778337
ver gan 4775033
f ul 4770618
se ason</w> 4765498
gab en</w> 4764387
f our</w> 4762969
c tion</w> 4757150
vi ce</w> 4756510
par t</w> 4746209
d am 4743317
glei ch</w> 4740107
m us 4738077
pro duc 4734774
di g 4731619
st re 4730359
t te</w> 4729256
ni s 4719902
st ei 4714380
L in 4712721
su m 4706063
S c 4705531
au m</w> 4700948
dur ch 4700831
W ie</w> 4700148
V or</w> 4694271
ur n 4692978
W er 4692640
Yo u</w> 4690984
wi ch 4690751
G o 4688834
au t</w> 4687483
vie w</w> 4682322
G ra 4681240
la gen</w> 4678865
c ur 4675904
P h 4671191
an other</w> 4670085
a ir 4667486
et was</w> 4666478
m or 4662483
g ed</w> 4653467
Lon don</w> 4650037
St adt</w> 4647248
J un 4643584
an y 4643329
str ali 4638983
secon d</w> 4626494
i a</w> 4624150
d pa</w> 4618425
er r 4614674
w el 4613468
Th at</w> 4608283
st it 4602740
pla ce</w> 4600375
lan g</w> 4598386
go t</w> 4595907
ot o</w> 4594583
for mer</w> 4593122
1 1</w> 4591658
H am 4590045
usam men 4589880
da bei</w> 4588590
th ough</w> 4587429
ne ed</w> 4580804
U r 4580610
1 4</w> 4579990
f rei 4578117
v o 4571083
to p</w> 4566202
l os 4561511
1 6</w> 4560106
dr en</w> 4554022
ti c</w> 4550870
B ay 4550161
Poli zei</w> 4545661
p s</w> 4543215
le ft</w> 4542044
as h 4542023
Di en 4533785
fall s</w> 4528893
ä tz 4525428
poli ti 4522543
k a</w> 4520857
Bür ger 4517715
fa mily</w> 4510717
h ere</w> 4508265
S er 4505689
neu es</w> 4501835
fü n 4500491
o ver 4497407
coun try</w> 4494466
be h 4489957
z eh 4487555
st adt</w> 4486162
la g</w> 4484961
f li 4483856
di es</w> 4478848
est er</w> 4473743
G u 4468626
l age</w> 4468323
g lich 4466374
Au strali 4462311
Min ist 4461617
ä ter</w> 4461610
e ch 4452914
w ollen</w> 4451548
201 3</w> 4449712
am a</w> 4445943
tra g</w> 4444608
ti v 4442256
201 4</w> 4438770
con c 4430588
i er</w> 4430177
t ter</w> 4414950
t ag 4413408
th e 4411592
op er 4407734
olo g 4405817
er h 4404981
sp o 4403640
ih n</w> 4401363
ver y 4397852
con tin 4395112
re ally</w> 4386765
inc re 4386756
fo und</w> 4383302
201 5</w> 4383275
ie der 4381988
ar e 4381565
da ys</w> 4380736
n or 4380103
fa st</w> 4376091
Mu si 4374454
a z 4373913
I m 4372536
amp i 4372456
st al 4370021
bi g</w> 4369055
den en</w> 4359692
n s</w> 4359624
us s 4358645
tei l 4357813
at h</w> 4357718
Un ited</w> 4356222
M ün 4355319
Eu ro 4350462
1 .</w> 4349878
ent r 4349543
j a</w> 4346734
w in</w> 4345583
pr ot 4343299
ou th</w> 4342932
e ver</w> 4339665
wer de</w> 4337323
su b 4336764
re la 4335826
M at 4333750
ck t</w> 4332326
tr ä 4332108
qu i 4323767
inclu ding</w> 4319245
Kin der</w> 4317380
J oh 4316078
rei ch</w> 4315731
T V</w> 4312949
1 , 4308045
publi c</w> 4306337
ar ed</w> 4306038
S en 4305717
ne y</w> 4303388
ar ly</w> 4302540
w r 4297337
gr öß 4295454
ne ver</w> 4291926
M c 4288598
r .</w> 4282441
t schaf 4280166
all er 4278724
o b</w> 4278053
la ck</w> 4276715
ti sh</w> 4275569
Au f</w> 4275359
di rec 4274812
ih m</w> 4273816
au er</w> 4265667
B ra 4256750
sat z</w> 4253604
mei ster</w> 4252523
h igh</w> 4251880
201 2</w> 4250503
st ä 4250321
vergan genen</w> 4248053
p le 4247100
om men</w> 4244249
W enn</w> 4243280
ac e</w> 4243084
h eute</w> 4239438
ver k 4237238
H and 4237067
schä f 4236003
1 ;</w> 4235400
&#9 1;</w> 4235400
A s</w> 4234923
ck e</w> 4232040
resp on 4230347
p ut</w> 4230214
t ä 4227242
bot h</w> 4226348
Al s</w> 4224710
k ei 4221701
et t 4221355
k un 4214750
3 ;</w> 4212717
&#9 3;</w> 4212717
bek ann 4212244
ü l 4208621
chil dren</w> 4207937
ch e 4205097
d ge</w> 4203208
W ar 4202873
sp ar 4199936
read y</w> 4198129
am s</w> 4196776
Fu ß 4196302
be son 4194565
se ar 4189915
ou ght</w> 4186440
B re 4184254
a den</w> 4182960
ber ich 4181406
d ür 4171931
S k 4165188
1 00</w> 4157015
bu il 4154652
s ollen</w> 4154492
ß t</w> 4153163
pla y</w> 4152473
b l 4150871
1 7</w> 4150758
1 3</w> 4149653
ander e</w> 4147912
d or 4142248
c el 4141691
u le</w> 4140453
c or 4138832
z o 4138704
al d</w> 4137853
h än 4137193
F ri 4134811
f rü 4131478
Me di 4129210
d i</w> 4129070
sh ed</w> 4128109
m em 4127773
Le ague</w> 4125759
ah l 4124261
ein mal</w> 4123912
st ar</w> 4123630
1 5 4115178
g es</w> 4114449
el ec 4111026
me hr 4106588
fol lo 4105435
diff er 4104064
gh ts</w> 4103647
mon ths</w> 4103232
a el</w> 4102614
V on</w> 4099888
ation en</w> 4093461
& amp 4092020
&amp ;</w> 4092020
bei den</w> 4090082
S h 4089261
M or 4088361
Fa mili 4086554
D ar 4085856
th er 4078013
f est 4076904
i er 4073352
letz t</w> 4072366
es si 4065420
it z 4062894
tt ing</w> 4061940
a il 4054151
Sch l 4041967
gen er 4040722
al t</w> 4039193
br au 4038501
201 6</w> 4034503
ähr end</w> 4032472
le y</w> 4030120
l y 4029867
loo k</w> 4028039
vi si 4023714
oo l</w> 4023606
c er 4023221
a way</w> 4023186
ir e</w> 4022935
h ard</w> 4018525
minist er</w> 4011135
pro f 4010282
W est 3988035
Eng land</w> 3986640
d au 3986586
er z 3985735
D ur 3983505
w on</w> 3977306
O ber 3972885
st ate</w> 3969225
n er 3966330
al ity</w> 3963334
S .</w> 3962932
h ist 3961681
fi ve</w> 3960060
W elt 3958405
F lu 3957513
W elt</w> 3952806
tic al</w> 3951406
en z 3950808
all es</w> 3950489
ck s</w> 3950399
g l 3950252
No v 3938320
zei ch 3936703
or gan 3936363
Y or 3935798
o l</w> 3934893
St ad 3931891
or ding</w> 3931654
m ents</w> 3930009
c ou 3928156
M ann</w> 3917208
b an 3910712
c o</w> 3910259
ag es</w> 3910078
c ent 3910067
geh ör 3907064
all en</w> 3903688
am er 3895939
Kon z 3890092
p or 3887833
ch es</w> 3887507
ber s</w> 3886005
wei t</w> 3882856
k s 3881243
B ro 3880982
lo s</w> 3875644
n t</w> 3874760
aup t 3868320
R a 3867641
mis sion</w> 3866720
W il 3865434
ur y</w> 3863271
tim es</w> 3863087
ber t</w> 3862556
an no 3860919
m ent 3860840
e con 3854852
hal b</w> 3851974
S ep 3850401
v el</w> 3842635
mon th</w> 3839865
hel p</w> 3839171
en k 3838144
os sen</w> 3834553
ent lich</w> 3828030
Chri st 3825126
c amp 3818242
P latz</w> 3817150
b ie 3816726
in ess</w> 3816173
mi r</w> 3809727
wom en</w> 3809495
k ein</w> 3808601
. 0 3805385
pro ble 3801504
schl and 3788447
6 0</w> 3787301
wi s 3785582
pro vi 3785397
n äch 3785179
f as 3784807
c an 3784381
tt le</w> 3782915
k ri 3779230
M ann 3774133
ke hr 3773825
la tion</w> 3773686
g lie 3772329
t schaft</w> 3770143
SP D</w> 3756909
a cht</w> 3756758
r a</w> 3755041
U . 3754766
in de 3753519
f iel 3750480
F or</w> 3749008
ah n 3748291
H ol 3748060
we ver</w> 3747325
e very 3747054
letz ten</w> 3741882
f äl 3741862
off ici 3741265
te ch 3741207
al th</w> 3740989
f un 3740882
Fran k 3740542
is su 3739312
ß er 3736990
hi gh 3734448
call ed</w> 3734277
Da vi 3733462
t ook</w> 3725075
e k 3722423
T r 3722040
W in 3720158
ch ts</w> 3718899
ge stellt</w> 3718491
z un 3715356
mi c</w> 3711115
comp any</w> 3707368
un kt</w> 3707248
poli ce</w> 3706373
re tur 3701824
m b 3700344
w at 3699898
de st 3699479
f ach</w> 3690741
d ort</w> 3690422
deut schen</w> 3687643
lo t</w> 3679967
könn te</w> 3677892
t ungen</w> 3676338
S V</w> 3669038
Mich ael</w> 3667786
W ol 3667564
h op 3664666
u res</w> 3664458
T re 3661763
H al 3660611
en der</w> 3660063
it ät</w> 3660033
2 1</w> 3658405
i gen</w> 3658041
V ol 3651085
re su 3644030
S ich 3638865
ah n</w> 3636008
A d 3635907
B el 3634568
den ti 3632050
s er</w> 3626842
k am</w> 3626842
ous ly</w> 3624896
re m</w> 3622902
201 1</w> 3622833
sch rei 3621928
ac t</w> 3620594
se en</w> 3620022
e very</w> 3618879
K ur 3618448
da für</w> 3617890
k n 3617197
c e 3613771
deut schland 3613540
U SA</w> 3612051
in s 3611991
mi d 3604875
fin den</w> 3604788
l l 3604123
hal f</w> 3597022
ti l</w> 3591953
F i 3591038
ab ili 3589098
2 4</w> 3586681
sa m</w> 3586361
F il 3585574
ha m</w> 3580319
ut es</w> 3578975
F C</w> 3577799
W as</w> 3576668
an der</w> 3574977
on es</w> 3571277
rupp e</w> 3569190
1 7 3566660
- -</w> 3565971
schlie ß 3563430
p as 3562540
p ra 3557814
off en 3557026
li ck</w> 3556618
K re 3556224
D an 3554311
m el 3552735
Gr und 3552185
in di 3550708
ge st</w> 3549017
sy stem</w> 3547634
u al</w> 3546214
h u 3544746
r oss</w> 3544593
i z 3542799
l d 3542460
lo b 3541940
tion al</w> 3540704
mi ght</w> 3539362
konn te</w> 3536395
W hen</w> 3535924
ep t</w> 3535738
deutschland .de</w> 3531468
mi ch</w> 3528378
er st 3526761
gen ommen</w> 3525604
gen d</w> 3523884
h t</w> 3520875
mon ey</w> 3518683
t ary</w> 3517511
gro up</w> 3513647
li ttle</w> 3512230
1 9</w> 3510758
fe w</w> 3509327
J e 3508292
zi al 3507223
A le 3501939
führ t</w> 3499733
W ohn 3498921
ad ded</w> 3496512
mu si 3495362
sch ein 3494036
f ic 3493562
Sep tem 3493289
bi li 3488756
sp ro 3488645
ich te</w> 3488575
st ütz 3487147
os p 3484102
di g</w> 3483832
si ble</w> 3483166
lä u 3483124
al ten</w> 3481948
F rau 3481101
K ir 3481037
1 3 3475439
lich er</w> 3474178
ver s 3473868
t in</w> 3473215
rep or 3472931
Septem ber</w> 3472470
b lo 3471550
L ie 3470999
s ollte</w> 3470706
Pro ble 3470250
gre at</w> 3469191
s ure</w> 3468323
fin an 3466107
hei ts 3462858
ol e</w> 3462638
b and</w> 3461924
L and</w> 3461685
en ing</w> 3461480
J ah 3452913
Jan u 3450658
D u 3449736
Sc ot 3449331
c ame</w> 3443135
v al</w> 3440066
aga in</w> 3439032
t ly</w> 3437445
tei l</w> 3436084
star t</w> 3433324
t om 3429841
S un 3425000
L a 3420779
S el 3419647
be l</w> 3416636
gro ße</w> 3416223
C ity</w> 3414262
da zu</w> 3413798
fün f</w> 3413102
n at 3412621
de m 3410047
sp rech 3408719
o w 3407677
O n 3405538
n ess</w> 3399044
con si 3398216
u ten</w> 3397923
je doch</w> 3397672
de al</w> 3397401
b ab 3391925
i ert</w> 3391758
m m 3391622
G ar 3389730
all er</w> 3388834
be ss 3384622
re le 3383524
re ma 3382971
ni chts</w> 3382363
p le</w> 3380356
F ir 3378905
au en</w> 3377110
A n</w> 3371249
v al 3370799
2 2</w> 3369841
t ure</w> 3368094
ne e 3364660
Th em 3362510
A pri 3361996
G i 3358429
stell ung</w> 3358313
wär e</w> 3356684
em s</w> 3355879
en ds</w> 3354412
gr ün 3351588
cla im 3349663
num ber</w> 3348459
L eben</w> 3347610
setz en</w> 3344249
y er</w> 3342140
ti ert</w> 3339815
Ch ar 3338560
fac e</w> 3337508
auf en</w> 3335516
kom men 3334929
Sp iel</w> 3334718
Th om 3330408
ch ed</w> 3328455
zur ück 3327957
gro ßen</w> 3327475
posi tion</w> 3326572
c a</w> 3326233
at or</w> 3325815
W it 3325700
ein ge 3325691
Fra u</w> 3321817
201 0</w> 3321177
il y</w> 3320914
chan ge</w> 3320024
bet ter</w> 3319902
D a</w> 3319600
a ig 3318782
Ta g</w> 3317335
ap pro 3313688
pri v 3312803
Apri l</w> 3312376
w ent</w> 3311044
A s 3310213
cle ar</w> 3306107
Yor k</w> 3305678
lat er</w> 3304621
ß en 3304180
with out</w> 3303677
ih rem</w> 3303440
ar ing</w> 3303359
b ach</w> 3303302
al ways</w> 3302529
eu er 3302190
Gen er 3298236
ri ty</w> 3298078
b st 3296982
aller dings</w> 3296858
ing t</w> 3293989
b s</w> 3293953
poin t</w> 3293789
er ste</w> 3293600
ck er</w> 3293153
1 4 3293047
am ent</w> 3292596
C or 3292544
Ge or 3290729
is h</w> 3285939
bi sh 3284794
did n</w> 3284040
H aupt 3283809
ot en</w> 3281349
ab ge 3278080
comp le 3276768
Ber ei 3275945
Davi d</w> 3273490
play ers</w> 3273462
fin al</w> 3269766
ant wor 3269123
nah men</w> 3266517
al y 3265809
oll ten</w> 3264980
H el 3263949
Ch ina</w> 3261853
O ne</w> 3259403
T ur 3257875
Nov ember</w> 3257797
f ar</w> 3256670
ha ving</w> 3254162
com ing</w> 3254155
A m 3253930
S ti 3253853
Ob ama</w> 3248487
wh e 3246244
ä mp 3245054
su cc 3244831
in n</w> 3243802
f ron 3243123
Bri tish</w> 3242787
U. S.</w> 3242172
H il 3241440
st ie 3240231
form ation</w> 3239190
S ü 3236032
f eh 3235099
H in 3234875
wir k 3234350
sp r 3231654
Sonn tag</w> 3228247
C D 3226636
L än 3224186
ge gen 3223955
some thing</w> 3222972
1 6 3213114
si cht</w> 3212289
fo ot 3209585
kei ten</w> 3203928
nah me</w> 3201426
sp ra 3200371
ec u 3198778
con tro 3195778
An gel 3194012
to ber</w> 3192492
dies es</w> 3191860
g g 3190339
on i 3188316
Arbei ts 3187272
O ff 3187218
L eb 3186741
Gro ß 3184081
m un 3181718
z w 3180949
spec i 3180273
si ert</w> 3179095
o t</w> 3178001
c ase</w> 3177182
in f 3177170
lä s 3177164
e y 3171603
Au gu 3169283
de vel 3168100
t lichen</w> 3167781
en z</w> 3166024
h aus</w> 3161681
P au 3161504
. co 3160435
wür de</w> 3158277
qu esti 3157051
D onn 3154910
c ity</w> 3150977
ti gt</w> 3150610
camp aig 3148870
w o 3148517
Fl ü 3144761
at s</w> 3143868
M an</w> 3140586
K an 3140528
clu b</w> 3140260
bo dy</w> 3139013
T ri 3138639
is ed</w> 3137580
he ad</w> 3135908
R ussi 3132761
l ungen</w> 3129627
ou ri 3127863
äch st</w> 3127558
ot s</w> 3126834
le t</w> 3126493
su cht</w> 3126275
S on 3125733
sch ul 3125340
par ty</w> 3124354
H ö 3124337
den ce</w> 3122924
sch i 3121214
U K</w> 3120900
den n</w> 3115013
eh t</w> 3114763
ä d 3114480
St re 3113024
weiter e</w> 3111643
ti k 3109391
Sa is 3106924
gew esen</w> 3106043
P al 3100888
te mp 3099494
th ings</w> 3097964
lie gt</w> 3093496
3 0 3090894
th ers</w> 3090321
Di ese</w> 3089918
Te am</w> 3089030
J ährige</w> 3082952
S al 3082558
ot el</w> 3082299
Sich er 3082110
w ach 3081480
lan ge</w> 3078973
c as 3078802
l ö 3073300
si x</w> 3073137
re g 3072276
de o</w> 3069405
or e 3069293
ar t 3069237
li k 3068177
ma j 3064123
en ed</w> 3060983
Bun de 3060812
supp ort</w> 3059648
an stal 3055843
D enn</w> 3053892
al ready</w> 3053278
F ol 3051529
Bay ern</w> 3050601
k re 3049156
ni e</w> 3047063
ex c 3045815
ti e</w> 3045640
N ieder 3043919
e ach</w> 3042758
P or 3041403
Bes u 3039866
war ds</w> 3038701
zur ück</w> 3036493
tion s 3036448
P unk 3031710
n en 3027853
T i 3025327
un ser 3024714
stim m 3023813
rei chen</w> 3022942
sch t</w> 3022093
b ed</w> 3018686
öff ent 3017276
gram m</w> 3016395
F o 3015900
B eh 3014272
W er</w> 3011254
ing ton</w> 3010592
e vi 3008313
Ju gend 3007634
D es 3003272
mark et</w> 3003048
2 . 3002806
Americ an</w> 2997415
z er</w> 2997276
b au</w> 2996054
in t</w> 2995207
so gar</w> 2994947
Uni versi 2992970
N et 2992925
mu st</w> 2991561
zei gt</w> 2988006
gr ap 2987829
k tion</w> 2984123
Unter nehmen</w> 2983549
b illi 2981543
c ul 2981465
Wor ld</w> 2981250
B C</w> 2980782
B a 2980217
ut t 2978118
sh al 2977168
zeh n</w> 2977153
per cent</w> 2971600
S om 2971587
ly mp 2969167
ir d</w> 2968898
2 3</w> 2965251
Euro pe 2964973
O n</w> 2964884
ol le</w> 2963468
L ö 2962846
m om 2962372
i de 2956258
f ig 2954664
da von</w> 2953179
n ot 2949413
per son 2949231
tw o 2947839
um s</w> 2947245
si s</w> 2945590
sch aff 2943993
c ol 2942917
sch en 2938304
do es</w> 2936454
des sen</w> 2935823
ma king</w> 2931564
Mit glie 2930574
Tra iner</w> 2930342
ge ment</w> 2928704
se x 2928362
ter n 2928226
D ie 2925254
O lymp 2923735
yo ung</w> 2919702
h um 2915810
b ank</w> 2914223
CD U</w> 2913607
d ly</w> 2911339
si te</w> 2908723
si eht</w> 2908239
Mit two 2906580
un til</w> 2902924
hä tten</w> 2902328
W hat</w> 2901215
Sta ats 2898817
com es</w> 2896288
C up</w> 2892484
kun ft</w> 2890064
Al l 2889811
M al</w> 2889548
19 8 2888546
c li 2887821
äh lt</w> 2886015
ch ang 2882095
pa st</w> 2882061
g n 2881737
bus iness</w> 2880270
sti an</w> 2879343
m ed</w> 2876330
F all</w> 2876158
ut ure</w> 2874377
fe st</w> 2872763
f an 2872644
Augu st</w> 2872521
gro ß 2871580
H u 2869683
au th 2868262
cur r 2866528
Joh n</w> 2866127
t liche</w> 2865553
Donn er 2865266
N o</w> 2864872
ru n</w> 2863252
se ver 2861774
c ti 2860145
ge macht</w> 2854142
f ind</w> 2853747
b in</w> 2851745
Frei tag</w> 2846941
F eb 2846315
te ten</w> 2844369
et ing</w> 2844305
fel d</w> 2843677
re ve 2842850
for t 2842818
Wo che</w> 2842435
di tion</w> 2841250
An dre 2841239
.co m</w> 2841157
eh ic 2839291
nis se</w> 2836756
201 7</w> 2836312
z el 2835069
z war</w> 2832644
Sun day</w> 2831296
s al 2827633
Gr ün 2827170
to day</w> 2826656
T or 2826568
mo ve</w> 2825936
f le 2824307
hei m</w> 2822186
F ac 2822088
imp ort 2821798
se cu 2821689
Sam stag</w> 2819013
er fol 2813259
D is 2812996
Ho ch 2810148
er war 2809465
al lo 2809449
fü h 2807832
K ran 2807650
Pre sident</w> 2802712
Ma y</w> 2799514
h ö 2797639
ch ing</w> 2796954
S ol 2796750
rec ei 2792716
k ers</w> 2792401
Per son 2791944
b in 2787644
g ent 2785272
ot t 2783676
co ver 2783392
gab e</w> 2782770
Sp ort 2782704
Europe an</w> 2782099
a h</w> 2780829
We g</w> 2779981
f s 2776618
A t</w> 2774066
ch o 2773215
w elt 2773053
Pre mi 2773026
b is 2771620
ap p</w> 2771518
g ir 2770968
li c 2769359
gi ve</w> 2769014
c olle 2764553
se a</w> 2764471
ri s 2764263
K un 2761830
R en 2760452
th em 2758746
dies en</w> 2749456
st en 2749126
stra ße</w> 2748345
ak tu 2748332
Milli ar 2747845
I r 2747648
D on 2747401
anno un 2745069
lau t</w> 2745054
differ ent</w> 2744895
wom an</w> 2741913
Er fol 2741412
an z</w> 2740981
R om 2740452
ges amt</w> 2740239
f ree</w> 2739670
sp re 2739386
in ten 2739381
lig a</w> 2736800
ge ther</w> 2734506
in du 2734127
h ouse</w> 2731486
wh y</w> 2731337
v oll 2729299
der t</w> 2722884
Thom as</w> 2721058
n ei 2718426
5 0 2717041
sch le 2715111
ta ken</w> 2714946
k ti 2714340
f ang</w> 2711866
g li 2709600
qu ar 2708735
l a</w> 2707784
K at 2707737
der en</w> 2707427
re al</w> 2707382
p op 2707060
l and 2705578
lik ely</w> 2704908
de c 2704549
Kin der 2700982
Feb ru 2700567
Regi erung</w> 2700563
acc ording</w> 2699101
c ar</w> 2698999
B or 2698050
ell er</w> 2696703
ell ing</w> 2696572
sp äter</w> 2696192
br ingen</w> 2695065
on line</w> 2693988
F rie 2693788
gi ven</w> 2692603
te i</w> 2690800
di sc 2689370
ag ed</w> 2689326
v ot 2688130
sear ch</w> 2687743
ei gen 2687542
ta in 2684992
Frau en</w> 2684160
wor king</w> 2681415
P la 2681239
Pro je 2678354
200 9</w> 2677991
rei s 2677527
Gel d</w> 2677255
ser v 2674856
jo b</w> 2674609
S ach 2674475
p u 2673677
le ben</w> 2673385
on y</w> 2672914
f lo 2672336
tri tt</w> 2671060
gel e 2667270
olo gi 2666940
pa y</w> 2666882
K a 2666433
F oto</w> 2665682
Z usammen 2663343
lo ve</w> 2663290
&apos; d</w> 2663208
ch ester</w> 2661936
devel op 2661456
o ft</w> 2658782
a ir</w> 2657540
amp f</w> 2657477
p ic 2652610
d ou 2652501
Wo chen</w> 2651912
sa gen</w> 2651662
ab end</w> 2651367
In di 2649311
ri cht</w> 2648573
st är 2648123
ear ly</w> 2647834
il s</w> 2646870
Fri day</w> 2646496
Pe ter</w> 2644211
an a</w> 2644027
stat t</w> 2641822
ful l</w> 2641680
whe ther</w> 2640942
schl uss</w> 2638054
su g 2637823
M ö 2634789
Mit tel 2630503
del i 2629593
schl ossen</w> 2628946
schaf ten</w> 2626409
rep ort</w> 2625370
Ver ein 2624478
B est 2623697
pp ed</w> 2622992
W est</w> 2622424
Ar beit</w> 2621745
ähri gen</w> 2617934
Ch ampi 2617499
un t</w> 2617469
as ked</w> 2616192
arbei ten</w> 2614990
be come</w> 2613553
on ce</w> 2612854
Prä sident</w> 2611629
T er 2610447
h im 2609807
to gether</w> 2609473
B an 2608831
er ungs 2607616
c ted</w> 2607001
we ch 2606445
deut sche</w> 2605370
us ing</w> 2604493
th re 2604410
li er</w> 2603370
ur s 2603131
L ab 2602592
be wer 2602431
r un 2600019
ra cht</w> 2599620
M är 2598010
ein fach</w> 2597571
M än 2597537
4 5</w> 2595600
um p 2594717
Fra ge</w> 2593073
medi a</w> 2592429
Ent schei 2591382
qu e</w> 2589483
sp i 2586210
en ter</w> 2585889
5 00</w> 2585053
ei genen</w> 2584458
sa ying</w> 2583543
deut lich</w> 2582528
st or 2581467
T it 2581384
T el 2579780
s ung</w> 2579754
tran s 2579723
B l 2579136
en ough</w> 2578059
y ed</w> 2578022
K ra 2576946
ri ch</w> 2576883
en er</w> 2576448
ta king</w> 2576149
c a 2572253
2 8</w> 2570460
dar auf</w> 2570215
ür lich</w> 2568608
th ought</w> 2568364
Sy ri 2567677
ro om</w> 2566421
sch w 2565094
wür den</w> 2564786
Pro du 2564750
tra gen</w> 2562786
si ons</w> 2562435
he ad 2561793
S atur 2560346
zwei ten</w> 2558122
Flu g 2556531
W ed 2556116
k ill 2555789
200 8</w> 2554004
fin det</w> 2552637
campaig n</w> 2552244
An t 2546689
de te</w> 2545439
zu g</w> 2544783
An gaben</w> 2544158
Da bei</w> 2541108
dar f</w> 2540699
loo king</w> 2540193
I N 2539294
p unkt</w> 2539209
K il 2538313
T im 2537314
Fin anz 2535805
at ely</w> 2535775
le ast</w> 2534979
rit ten</w> 2534819
&apos; ll</w> 2534064
ru ch</w> 2532503
i se</w> 2531115
rei ch 2530189
inn ing</w> 2529933
sch ool</w> 2529222
Flü cht 2529020
vi ces</w> 2527827
hei ßt</w> 2525427
ut z</w> 2524970
R es 2524942
Af ter</w> 2524417
w ährend</w> 2524096
er ed</w> 2523888
pr o</w> 2523294
invest ig 2521023
th ird</w> 2520608
ri ed</w> 2520586
Fahr zeu 2520207
as sen</w> 2517357
c are</w> 2516806
is m</w> 2515917
ti schen</w> 2515611
an s 2514682
sh ar 2513414
H ouse</w> 2513261
un ity</w> 2512156
mö glich</w> 2511868
G l 2511813
w as 2510786
as se</w> 2510065
ex peri 2508573
e k</w> 2508212
h or 2507399
ie f</w> 2507186
ih nen</w> 2504467
Europ a</w> 2504328
ra tion</w> 2502938
fiel d</w> 2501419
ke ep</w> 2499760
ok ed</w> 2497961
r ate</w> 2497385
Uni on</w> 2495733
s ing 2495429
w . 2495050
t ungs 2494761
der zeit</w> 2494216
de sig 2491407
Fü hr 2490764
tre ten</w> 2490085
e er</w> 2489713
ot o 2488723
sp ort</w> 2488495
we g</w> 2486851
ec ts</w> 2486701
wen iger</w> 2486688
W ahl 2483581
gh ter</w> 2482021
b it</w> 2481475
Bri tain</w> 2478666
S tim 2477545
li ve</w> 2476628
ac ross</w> 2476620
ci p 2476304
g ten</w> 2476117
O k 2475520
viel en</w> 2475438
usam men</w> 2475401
u tion</w> 2475220
p ot 2475169
P res 2473260
7 0</w> 2473209
ger ade</w> 2471400
K ö 2471071
di o</w> 2469890
lich keit</w> 2466595
si e 2465455
sch ri 2465371
os ed</w> 2464850
pre sident</w> 2464387
d ents</w> 2464200
gen ann 2463896
Mon day</w> 2462244
läs st</w> 2461043
gr und</w> 2459763
ch ter</w> 2458727
Di es 2458443
der ung</w> 2458388
Mon tag</w> 2458157
ta x</w> 2457382
en ten</w> 2457120
d at 2456614
it ä 2456007
Mar k 2455638
d one</w> 2455276
In v 2453433
c ro 2451809
di re 2451404
ye t</w> 2451044
Tei l 2449703
li ght</w> 2448489
b ased</w> 2448465
hr en</w> 2447950
K ap 2445683
H au 2445678
Re publi 2444617
f ei 2444547
fi ed</w> 2444289
Deut schen</w> 2443232
Tu esday</w> 2443167
j ect</w> 2443072
ww w. 2442827
M ei 2442714
a in</w> 2441767
ent wick 2440351
contin u 2437456
mus ste</w> 2437364
inv ol 2435966
cour se</w> 2435024
at ten 2433843
2 7</w> 2430994
mo ther</w> 2430820
b lack</w> 2430259
B en 2429207
il t</w> 2427857
spiel en</w> 2426387
follo wing</w> 2425829
fe el</w> 2424268
hä tte</w> 2423141
h it</w> 2422245
t ar 2421426
. 000</w> 2421402
Mün chen</w> 2421092
m us</w> 2420257
V iel 2419704
Satur day</w> 2418723
wen ig</w> 2416672
G ol 2415651
ck ed</w> 2415630
glei ch 2415048
st om 2414326
B ur 2413205
ent schei 2413123
kno wn</w> 2412443
de sp 2410438
Wed n 2410355
2 , 2410212
dor f</w> 2409012
se chs</w> 2408697
ge geben</w> 2408535
2 6</w> 2405327
Sch war 2405246
Pro f 2404126
Mittwo ch</w> 2403846
Tei l</w> 2402572
poli tical</w> 2401197
b oo 2401116
Z wei 2400536
ver l 2400315
so ci 2399296
Stra ße</w> 2398607
po wer</w> 2397862
Wedn esday</w> 2397634
j ährige</w> 2396457
M is 2396132
D en</w> 2395946
Mit arbei 2395757
z ed</w> 2395534
beh ind</w> 2394845
F euer 2393601
Ste u 2392251
m als</w> 2391449
Leb ens 2389422
p ur 2388406
Mar tin</w> 2387573
F e 2385243
emp lo 2384185
en ding</w> 2383542
l ate</w> 2381194
g st</w> 2380880
fri end</w> 2380570
we hr</w> 2378539
K ul 2378122
ak ing</w> 2377164
Donner stag</w> 2377003
l le</w> 2376188
K u 2376179
ger n</w> 2375533
ro w</w> 2372565
di gt</w> 2372307
ge t 2372093
Fuß ball</w> 2367621
si mp 2366420
N i 2365587
sch ö 2365302
st ing</w> 2364799
geb racht</w> 2364707
ld n</w> 2364376
t ali 2362986
ra l</w> 2362744
Th urs 2362194
lie gen</w> 2362189
A ll</w> 2361692
S outh</w> 2360917
G ä 2358430
b li 2358295
Is ra 2357338
r at</w> 2356714
Er geb 2355232
ein ige</w> 2354263
erklär te</w> 2353748
L au 2352357
3 5</w> 2350432
Co un 2349086
Thurs day</w> 2348979
blei bt</w> 2347310
Th e 2347200
ur t</w> 2346774
sch ule</w> 2346386
w ollte</w> 2345998
cl ose</w> 2344739
est s</w> 2343478
8 0</w> 2343424
n ers</w> 2342555
F ar 2340613
B ank</w> 2339802
Zei tung</w> 2338070
u lar</w> 2337556
er ing</w> 2337525
cour t</w> 2337507
k rä 2336892
k i 2335618
en a</w> 2335603
ass er</w> 2334447
j ahr</w> 2333363
Stad t 2332321
do ing</w> 2331393
g ames</w> 2330623
f uture</w> 2329816
de mo 2328594
fil m</w> 2328548
p p</w> 2328390
h ör 2327185
M ad 2326365
sc or 2325953
poin ts</w> 2325508
Dien stag</w> 2324903
abili ty</w> 2323967
b y 2323503
C ol 2323228
ac coun 2323058
Them a</w> 2322848
3 . 2322751
ori es</w> 2322246
fa il 2322163
zun ächst</w> 2321377
pe ti 2320859
Min uten</w> 2320517
E le 2319849
H is</w> 2319328
he alth</w> 2318658
D ru 2318150
201 8</w> 2315929
play ed</w> 2315098
k ey</w> 2311241
import ant</w> 2309994
Wit h</w> 2309859
F el 2309829
ani schen</w> 2309097
tic s</w> 2309006
h and</w> 2308819
l te</w> 2308329
p ort</w> 2307791
in e 2305887
econ o 2304186
W illi 2304071
St and 2303775
M erk 2301723
Ent wick 2300138
ie t</w> 2296555
pl an</w> 2296501
wee ks</w> 2295616
P at 2295542
al ed</w> 2294603
g än 2294417
M al 2293360
w ri 2293263
hä lt</w> 2293011
w ahr 2292540
t le</w> 2292183
wer s</w> 2291970
N at 2291478
m ut 2290940
l on 2286902
Ch ef</w> 2284711
ot z</w> 2284602
s ere</w> 2284137
T ran 2281682
inter national</w> 2281682
B us 2280555
es sen</w> 2279828
M el 2279153
am ed</w> 2278339
exp ected</w> 2277469
A ir 2277373
ge tting</w> 2276137
bur ger</w> 2275125
Vor sitz 2274039
sm all</w> 2273106
2 5 2272741
m ati 2268836
f tig</w> 2268097
tschaf ts 2266729
M ot 2266557
z usammen</w> 2265418
ti v</w> 2262609
con tra 2261143
Milliar den</w> 2259692
G eh 2258075
Lan des 2256797
so cial</w> 2256517
in formation</w> 2255803
ti sche</w> 2255776
se h 2255513
f ans</w> 2255119
spiel t</w> 2254605
ar ds</w> 2254260
ap s</w> 2252565
Par tei 2249689
l ost</w> 2249364
p latz</w> 2244875
rec ent</w> 2244396
2 .</w> 2243735
ne ws</w> 2243587
M r.</w> 2243539
b ig 2242442
on al</w> 2239954
A pp 2239195
Ges prä 2235033
ag re 2232715
ar ri 2232668
ac tion</w> 2231851
k o</w> 2231660
9 0</w> 2230946
Australi a</w> 2229785
Bei spiel</w> 2229355
F ern 2229136
la w</w> 2229013
for man 2228051
fron t</w> 2226800
di sp 2226603
con t 2226202
T wi 2224904
a y</w> 2224634
or ity</w> 2224421
olog y</w> 2223631
bet on 2223311
S eit</w> 2222232
n ame</w> 2221908
20 0</w> 2221603
K op 2220386
fa mili 2219865
deci sion</w> 2219631
Ge schäf 2218051
Sei te</w> 2216853
c um 2215823
ei cht</w> 2215394
Ge gen 2213063
R os 2211690
blei ben</w> 2211243
k einen</w> 2211235
ehic les</w> 2210512
erklär t</w> 2209404
on a</w> 2207588
ne te</w> 2207330
g ilt</w> 2207188
S it 2206046
ge sp 2205110
d om 2205003
su ff 2204649
Sch w 2203613
per son</w> 2203174
eben falls</w> 2201646
I tali 2201453
ser ies</w> 2200679
ol lar</w> 2199007
y le</w> 2198515
ander em</w> 2196767
fra ge</w> 2193097
are a</w> 2191261
wi fe</w> 2189617
Minist er</w> 2188804
D ass</w> 2188691
D re 2187844
di gen</w> 2187664
Man chester</w> 2187178
H aus</w> 2186240
s li 2186209
sch es</w> 2185072
b au 2184812
am ong</w> 2184734
ä um 2184618
ser vice</w> 2183975
W ash 2183549
m ein 2182302
J os 2182008
d lich</w> 2180788
w ater</w> 2180741
tech ni 2180061
on d</w> 2179615
Sch ü 2179208
sch wer 2178638
b it 2178599
B la 2178480
g rei 2177481
ßer dem</w> 2176569
es n</w> 2176238
Ho wever</w> 2176043
ag en 2173832
gu te</w> 2172216
po ol</w> 2170993
o ften</w> 2168501
es se</w> 2168367
Sie g</w> 2168073
sho t</w> 2165303
fol ge</w> 2164704
al most</w> 2164660
t ot 2164066
Me hr 2161943
B al 2161091
A t 2160475
0 0 2160138
näch sten</w> 2158146
h om 2157639
eb ook</w> 2157062
o li 2156734
su chen</w> 2156288
play er</w> 2152468
Nation al 2151740
A fri 2151218
än de</w> 2150579
pre vi 2149861
lo cal</w> 2149325
fac t</w> 2149166
tu n</w> 2148312
de ath</w> 2148304
sch lag</w> 2148237
2 9</w> 2147242
s wi 2147117
an ts</w> 2146867
Inter net</w> 2146552
ti eren</w> 2143439
pro c 2141955
t yp 2141874
d in 2140810
Te ch 2138957
In form 2137408
comp ani 2136032
Ma i</w> 2135436
Sais on</w> 2134360
ch i 2133199
Geschäf ts 2132811
Re ch 2132792
belie ve</w> 2132135
p ut 2130616
le b 2130369
Sp rech 2130128
billi on</w> 2128571
p lat 2128189
eu rop 2126836
ran t</w> 2125172
hr e</w> 2123916
är e</w> 2122691
s ollten</w> 2122666
re fer 2121762
re cht</w> 2119431
F rü 2118848
bish er</w> 2117718
Gesch ichte</w> 2114216
Sp e 2110230
g an</w> 2108801
l en 2108524
M il 2108136
k aum</w> 2106415
p ass 2104715
W M</w> 2104009
f ran 2103072
Ber lin 2102572
in es</w> 2102563
M os 2101622
führ en</w> 2100721
de ta 2100348
19 7 2098849
zie hen</w> 2097744
m ember</w> 2097277
k ten</w> 2095149
ser i 2094123
K rie 2092810
B rü 2092809
E i 2092510
h au 2092274
iel t</w> 2090773
ti vi 2090745
ver schie 2090237
Frank fur 2089595
bess er</w> 2089062
st ein</w> 2088270
par tic 2088063
Bürger meister</w> 2087361
H or 2087218
schn ell</w> 2086347
w ood</w> 2086206
Wash ington</w> 2086101
führ er</w> 2085573
wan ted</w> 2085286
zie h 2083282
on nen</w> 2082163
der e</w> 2081163
d le</w> 2080092
3 1</w> 2080008
T age</w> 2079842
2 4 2079461
ell schaft</w> 2078997
En erg 2078739
stat ement</w> 2077917
St rei 2077627
tri es</w> 2077392
M er 2076784
Pau l</w> 2075554
lä tz 2075547
te st</w> 2073843
D or 2073780
Mann schaft</w> 2073446
off ic 2073097
T ex 2071752
c ing</w> 2071696
mem bers</w> 2069187
us h 2068773
Fac ebook</w> 2068745
P a 2067802
sever al</w> 2067602
b ack 2067452
cou ple</w> 2066341
kön ne</w> 2066149
al ität</w> 2064820
Par is</w> 2063990
et te</w> 2063750
him self</w> 2063441
ad ing</w> 2062982
ic s</w> 2062690
schn it 2062637
zo gen</w> 2061028
S i 2059398
for t</w> 2056511
do esn</w> 2054835
ent ed</w> 2054543
P ol 2053946
le ad</w> 2053800
ge plan 2053491
v a</w> 2053434
ul l</w> 2053310
en th 2053094
Lei st 2053027
ho urs</w> 2051191
cel eb 2050311
rich ten</w> 2048163
Z um</w> 2045907
m ä 2045607
fur ther</w> 2044871
tr ying</w> 2044292
repor ted</w> 2043557
A R 2043556
le gen</w> 2043497
rei se</w> 2043043
Z iel</w> 2042980
sa w</w> 2042652
an geb 2041650
c at 2041418
Me ter</w> 2041319
a i 2039430
hin ter</w> 2039120
en te</w> 2038274
zi ert</w> 2037624
Nor th</w> 2037039
Famili e</w> 2035222
T o</w> 2035093
ec k</w> 2034952
G rü 2034848
Ale x 2034424
k an 2034186
Mon aten</w> 2033194
w ahl</w> 2033118
man ager</w> 2032944
t ät</w> 2032226
secu rity</w> 2032058
mi l 2031211
d ungen</w> 2029995
sich er 2028850
r ing</w> 2028168
zah l 2028014
min utes</w> 2027381
sp ort 2027222
Z u</w> 2025758
schl ä 2024675
ut ter</w> 2023461
Pr ot 2022668
beson ders</w> 2022218
mat ch</w> 2021251
wei ß</w> 2020874
sk i</w> 2020113
W el 2020012
lin gen</w> 2018644
r en</w> 2018242
k enn 2017559
lu s</w> 2015540
ab sol 2015532
be kommen</w> 2014307
ul t</w> 2013592
un ds</w> 2013147
r os 2013088
ar beit</w> 2012928
Da mit</w> 2012781
könn ten</w> 2011554
de b 2010402
for ward</w> 2010385
Twi tter</w> 2010227
Europ e</w> 2008728
kon z 2007928
p i 2007570
b all 2007444
gen den</w> 2006839
b ir 2006353
t ors</w> 2005787
di um</w> 2005240
M y</w> 2004631
An fang</w> 2004575
m mt</w> 2004534
im pro 2003990
gehör t</w> 2003058
w n 2002779
C an 2002713
star ted</w> 2002359
St unden</w> 2002314
fa ther</w> 2001157
ff e</w> 1999833
st elle</w> 1999787
St utt 1999716
retur n</w> 1999377
op en</w> 1995469
f rie 1994324
bekann t</w> 1994244
Ex per 1993918
ing ly</w> 1992664
gro und</w> 1991899
ro und</w> 1991875
Or gan 1991072
ex per 1989418
se e 1988922
te e</w> 1987075
ck ing</w> 1986551
x i 1986508
st age</w> 1985752
hel p 1985119
&apos; I</w> 1984960
ver s</w> 1984587
P ubli 1983395
e ad</w> 1983022
Jun i</w> 1982394
Ver anstal 1980860
Nation al</w> 1979545
sich er</w> 1978051
P hi 1977173
ph one</w> 1976828
o c 1976716
ver ein 1974112
st et</w> 1973722
maj or</w> 1973699
re st</w> 1973545
mö glich 1973277
So zial 1973201
du e</w> 1973064
wr ote</w> 1972716
is ation</w> 1972027
ah len</w> 1967957
vi du 1967500
rei cht</w> 1967241
ach er</w> 1966120
d ungs 1963707
k lar</w> 1963657
J ames</w> 1963425
ra ther</w> 1962676
W is 1962619
e e</w> 1962517
u ally</w> 1961220
b ad</w> 1960733
Ber u 1960127
se qu 1959646
h of</w> 1958482
y m 1958073
sat z 1957815
so ur 1957609
d t</w> 1955979
J ap 1954174
for d</w> 1954005
des cri 1953128
k ämp 1952790
schließ lich</w> 1952584
la w 1952304
vol l</w> 1952105
mit ted</w> 1951656
N ot 1949386
s qu 1949229
b al 1949202
spiel er</w> 1948407
Arbei t 1948200
G oo 1947900
pla ying</w> 1947590
ch all 1947362
S an 1946882
c all</w> 1946094
elec tion</w> 1945089
att ack</w> 1944763
g lichen</w> 1944586
priv ate</w> 1942531
Bil d</w> 1938581
vi deo</w> 1938361
li sh</w> 1937826
Mö glich 1937663
le vel</w> 1937627
la un 1937419
z en 1937298
ff t</w> 1937126
eh em 1936330
lo oked</w> 1936084
p rü 1935656
foot ball</w> 1935582
m lich</w> 1934953
ver sch 1934647
rec ord</w> 1933397
neh mer</w> 1932713
ge kommen</w> 1932641
T ab 1930947
eu er</w> 1929992
un be 1929934
z ö 1929525
tei lt</w> 1927650
c ut</w> 1927133
wis sen</w> 1926427
den ten</w> 1925811
M us 1925398
R uss 1923503
c tor</w> 1923316
ex tre 1923288
I I</w> 1922635
pro du 1922275
fü r 1922255
Poli tik</w> 1921737
je der</w> 1918859
K las 1918570
P ap 1918134
Sch wei 1917822
pos sible</w> 1915768
di ed</w> 1914907
per forman 1914165
ne t 1913923
forder t</w> 1913161
Mär z</w> 1912796
d s 1912523
wer k</w> 1911550
ro le</w> 1910850
tu ally</w> 1910673
z usammen 1909714
inter est</w> 1909225
offici als</w> 1909027
leg al</w> 1908449
pro per 1906579
K öl 1906570
ell eicht</w> 1905626
y n 1905229
chil d</w> 1904705
l ose</w> 1904246
Au s</w> 1904241
3 .</w> 1903617
hel d</w> 1903547
St ates</w> 1903102
g lau 1902411
al ist 1902369
h on 1900360
kn app</w> 1899469
cu stom 1897717
stie g</w> 1897650
auf ge 1896953
hal t</w> 1895115
en jo 1894868
ear lier</w> 1894065
Re g 1893797
le ar 1893680
g lob 1893108
finan cial</w> 1892308
B y</w> 1891827
Ok tober</w> 1890554
S il 1890220
vi ol 1890069
m et 1889434
on g 1888263
Merk el</w> 1887979
200 7</w> 1887382
af f</w> 1887029
Be g 1886571
ru p 1886402
sum mer</w> 1886065
Ein satz</w> 1886016
y al</w> 1883048
li cht</w> 1882659
y si 1881941
J ul 1881171
ander s</w> 1878703
m ul 1878546
ü ch 1878099
3 2</w> 1878082
si tu 1877490
str ong</w> 1875788
wh ite</w> 1872639
zu letzt</w> 1871886
with in</w> 1870969
Ar t</w> 1870810
Kran ken 1869744
B ru 1869193
sel ves</w> 1868912
stell te</w> 1868646
str y</w> 1867869
z te</w> 1867838
D ec 1867697
sp ok 1867007
setz ung</w> 1866469
com peti 1865928
y ers</w> 1865636
In nen 1864582
Ver k 1863883
Au ßen 1863348
Ch el 1862918
P lan 1862897
n u 1862229
führ ung</w> 1862073
F est 1861084
en ded</w> 1860676
re si 1860276
fin i 1859091
An geb 1858607
di t</w> 1857403
f lu 1857010
der ed</w> 1856624
Wh ile</w> 1856474
or der</w> 1856313
al ong</w> 1855346
d on 1855282
Zei t 1855079
me t</w> 1854406
j un 1854270
f al 1854235
Mar ch</w> 1853724
resu l 1852977
c las 1852484
o d</w> 1851534
t ou 1851505
m al 1850773
op s</w> 1850146
s ent</w> 1850083
Par t 1849086
ah ead</w> 1847538
S im 1847024
U m</w> 1846861
zah len</w> 1846670
ein ander</w> 1845646
In stit 1844992
El tern</w> 1844007
mitt el 1843677
ac ks</w> 1843068
Or t</w> 1843008
nat ürlich</w> 1842239
f en 1842180
de u 1841522
ol l</w> 1838812
f ung</w> 1838291
I de 1837297
re co 1837120
zei gen</w> 1836826
G ruppe</w> 1836463
Fran ce</w> 1836017
o thers</w> 1835369
Spiel er</w> 1835242
Ta gen</w> 1835171
mom ent</w> 1835156
h il 1835022
d u</w> 1833995
Hei m 1833671
K ün 1833400
Zu sch 1833277
kommen den</w> 1832141
ä ischen</w> 1832130
J er 1831409
b un 1829306
D en 1829080
w us 1828820
z entr 1827748
N icht</w> 1827093
om y</w> 1825363
c ost</w> 1825050
Ge f 1824858
ist an</w> 1824618
fri ends</w> 1824022
ti ker</w> 1823456
f ar 1823224
sti c</w> 1822940
gef ähr 1822601
E R 1822498
f an</w> 1820411
reve aled</w> 1820158
gen de</w> 1819952
proble m</w> 1819415
am p</w> 1819279
lan g 1818195
ex ecu 1817985
rep res 1817615
Par tei</w> 1815948
D ann</w> 1814624
d ress</w> 1814073
ad v 1813381
fall en</w> 1812795
schaf ts 1812676
ne ar</w> 1812592
De z 1811723
an aly 1811514
r än 1811452
ne ben</w> 1810858
ins gesamt</w> 1810470
me ans</w> 1810462
at e 1810170
e hr 1809879
c al 1809536
Zu kunft</w> 1808018
sch wer</w> 1807954
ch ance</w> 1807179
a il</w> 1806850
Poli zei 1806788
p ost</w> 1806727
Chri stian</w> 1805783
fo c 1805765
ter m</w> 1805387
j ün 1803466
car eer</w> 1803142
st ers</w> 1802910
T at 1802387
Is la 1802228
de shal 1801506
Jul i</w> 1801350
b an</w> 1801329
deshal b</w> 1800961
B lick</w> 1797613
3 3</w> 1797376
en zen</w> 1795897
n te</w> 1795697
zei t 1795404
spok es 1794595
s ha 1794590
k ind</w> 1794497
m y 1794248
m m</w> 1793323
th y</w> 1793092
B ot 1793063
lea der</w> 1793025
Universi ty</w> 1790111
li st</w> 1789638
it ing</w> 1789170
r ates</w> 1788082
al te</w> 1787649
un sere</w> 1787440
Entschei dung</w> 1786362
out side</w> 1786261
ben ef 1785432
s ci 1784846
Americ a</w> 1784102
st rei 1783618
Lab our</w> 1783284
Jun e</w> 1782654
st on</w> 1781488
K li 1780869
gen au</w> 1780175
ch ief</w> 1780159
lie ß</w> 1780101
hist ory</w> 1780074
ste ad</w> 1779849
pa ir</w> 1779511
er halten</w> 1778977
e di 1778798
compani es</w> 1778798
D ollar</w> 1778639
Ö ster 1778563
ec tion</w> 1778412
part ment</w> 1778116
tr au 1777704
diff ic 1776914
indi vidu 1776486
konn ten</w> 1776226
no thing</w> 1774239
in ci 1772724
inter nation 1772573
a de 1772437
Premi er</w> 1771522
f s</w> 1770367
Geor ge</w> 1770135
ti ger</w> 1769618
li e</w> 1769448
Le hr 1768896
ex pla 1768561
Punk te</w> 1768251
su ch 1767173
M et 1766726
est er 1766222
ni mmt</w> 1765681
4 . 1765089
as ser 1764520
kur z</w> 1764304
Wo chen 1763804
S ar 1762725
i eren</w> 1762190
ur en</w> 1761243
lin ge</w> 1760806
h nach 1760556
eh er</w> 1759801
mo v 1758466
19 6 1758155
f ood</w> 1757507
Janu ar</w> 1757239
ris k</w> 1757086
M ili 1756929
T ür 1755848
ev ent</w> 1755634
s ätz 1755555
b ür 1755298
p ati 1754816
o w</w> 1754248
arbei tet</w> 1754153
star k</w> 1753916
ri es</w> 1753721
i denti 1753251
lar ge</w> 1750447
ini ti 1749797
Kö ni 1749736
St o 1748935
Dur ch 1747730
pri ce</w> 1747295
S U</w> 1747238
V ehicles</w> 1745683
se ven</w> 1744543
l an</w> 1744414
Dez ember</w> 1744074
ap er</w> 1744062
C lu 1743622
us er</w> 1743538
H ier</w> 1742455
an ti 1741831
N ur</w> 1740678
eig n</w> 1740451
teil te</w> 1740393
spre chen</w> 1740013
sp richt</w> 1739764
gele gt</w> 1739407
mar k</w> 1739053
Ne w 1738961
ü b 1738242
i or</w> 1737643
sch wi 1737180
pot enti 1736247
off er</w> 1735649
ter t</w> 1734626
stan den</w> 1734242
z um 1733456
6 . 1732917
No w</w> 1732369
zu vor</w> 1732156
ab ri 1732126
ter e</w> 1732027
3 , 1731773
d ent 1730457
av ail 1729667
be au 1729334
ell s</w> 1727633
U l 1727352
F A</w> 1726533
sto p</w> 1726418
ol a</w> 1726386
h osp 1725850
mehr ere</w> 1725083
bor n</w> 1724369
rü ck 1724338
sho ws</w> 1722427
Mitarbei ter</w> 1721467
wer k 1721420
ma kes</w> 1720975
tr a</w> 1720796
lich es</w> 1720166
Erfol g</w> 1719500
g ers</w> 1719039
coun tries</w> 1718348
is mus</w> 1717747
ec i 1717316
re st 1716768
sc re 1716266
Mar i 1716130
ci l</w> 1715951
k in 1715544
announ ced</w> 1715355
7 . 1713642
ro r</w> 1713467
Br and 1712422
so zi 1710373
sh ort</w> 1710096
weiter en</w> 1709425
direc tor</w> 1709074
be tri 1709007
g ress</w> 1708851
c aus 1707299
gan gen</w> 1706640
a mi 1705794
ra ce</w> 1704743
ran ge</w> 1703486
am ent 1702482
lea ve</w> 1701694
ser vices</w> 1700718
pa id</w> 1700590
st ory</w> 1700443
p at 1700358
Chel sea</w> 1699421
ie ty</w> 1699289
rie b</w> 1698992
sch ung</w> 1698989
lei ch 1698902
dam als</w> 1698602
Wir tschafts 1697512
bo ard</w> 1697338
W at 1697256
any thing</w> 1696909
th ern</w> 1696425
ger ich 1696280
m ot 1695911
F ren 1695765
Ne ws</w> 1695076
rau m</w> 1694679
as se 1694441
b asi 1694349
rela tion 1693799
Kil ome 1693151
M ül 1692862
f elt</w> 1692779
L it 1692651
mili tary</w> 1691473
cl os 1691422
h aup 1691363
mar kt</w> 1691067
gegen über</w> 1690729
g res 1690269
l ungs 1689844
t a</w> 1689104
G ri 1689004
mor ning</w> 1688609
issu e</w> 1688236
B ad</w> 1688099
se x</w> 1687435
conc ern 1687099
W ett 1686830
B BC</w> 1686138
Qu e 1685901
mä ß 1685647
b ul 1685313
in si 1684437
tur ned</w> 1683671
ch ampi 1683539
Gä ste</w> 1683360
tra di 1683343
st ance</w> 1682911
sig n</w> 1682791
n ä 1682015
qu ali 1681850
St ate</w> 1680573
si on 1680467
oo t</w> 1680350
a gement</w> 1680224
ol s</w> 1680223
W a 1680127
D at 1679779
j e</w> 1679235
müs se</w> 1678759
V o 1678265
ab ly</w> 1677578
dau ghter</w> 1676420
D eb 1675164
R ah 1674705
mei sten</w> 1674188
Di es</w> 1674100
rec ently</w> 1674037
Gr und</w> 1674013
h y 1673721
some one</w> 1673675
mit tag</w> 1673005
On line</w> 1672617
f unk 1671016
w on 1670753
Sch ule</w> 1668622
be s 1668508
ad s</w> 1668260
dar über</w> 1667520
wie der 1666565
z z 1666457
n ut 1665379
F ach 1665294
- - 1663710
ic al</w> 1663709
unter stütz 1663628
Jah res</w> 1663351
ber ger</w> 1663305
a di 1662412
wh ose</w> 1662162
ti sch</w> 1661346
Berlin er</w> 1661344
tur n</w> 1660819
ing s 1659981
2 8 1659944
kl einen</w> 1658583
k ar 1658383
re li 1657267
wa gen</w> 1657086
v ote</w> 1656750
be stä 1656537
contro l</w> 1656403
bili ty</w> 1655611
resu lt</w> 1655297
ali si 1654851
ge ts</w> 1653879
H otel</w> 1653408
ei ght</w> 1653114
ke ep 1652865
h us 1652341
si eben</w> 1652043
go al</w> 1651487
zu dem</w> 1651248
kill ed</w> 1650441
h under 1650297
g ol 1649512
m ing</w> 1649252
Ma il</w> 1649213
letz te</w> 1648989
o cc 1647933
Er mitt 1647782
c anc 1647025
ver letzt</w> 1646032
I ra 1645744
t or 1645196
was n</w> 1644845
Don ald</w> 1644840
vi a</w> 1644627
f ass 1644375
h oh 1644287
J ohn 1643784
s le 1643563
ni fic 1643517
M ur 1643060
Gemein de</w> 1642993
5 . 1642909
A N 1642776
Män ner</w> 1642735
Deut sche</w> 1642421
Prä si 1641969
ani sche</w> 1641818
par ents</w> 1641192
0 , 1639586
D er 1639114
M ag 1638242
W hi 1637607
bec ame</w> 1637428
s ent 1637363
r o</w> 1637292
Ver kehr 1637084
h ie 1636750
ma ß 1636657
ob s</w> 1635862
m as 1635610
hop e</w> 1635560
st aff</w> 1635484
Au to</w> 1635220
poli cy</w> 1634747
er sch 1633212
ri d</w> 1632694
en erg 1632447
fi ght</w> 1631046
at ors</w> 1630816
a w 1630655
St .</w> 1630612
ess es</w> 1630512
9 . 1629767
P lat 1629436
g art</w> 1629286
experi ence</w> 1628806
eig entlich</w> 1627721
con fir 1627200
ga ve</w> 1626915
ful ly</w> 1626483
H af 1626264
P ra 1626190
Bei m</w> 1625428
c ally</w> 1625211
H an 1624710
l len</w> 1624563
curr ent</w> 1623558
ge setzt</w> 1623419
in ge</w> 1623198
F ans</w> 1622135
L ast</w> 1621495
sug gest 1621260
wal t</w> 1620883
sur pri 1620243
em ents</w> 1619143
contin ue</w> 1618815
par ed</w> 1618766
K olle 1617660
wee k 1617143
at temp 1616188
plan s</w> 1615664
j ährigen</w> 1615093
econo mic</w> 1615002
ne w 1614927
off ice</w> 1612699
opp ort 1612671
I S</w> 1612630
ehem ali 1612372
Z ahl</w> 1612045
bre ak</w> 1611991
d ing 1610696
b ook</w> 1609879
3 4</w> 1609523
H oll 1608806
c s</w> 1608705
hei ten</w> 1608376
ne c 1606395
desp ite</w> 1604349
R ad 1604298
gen heit</w> 1603870
Wei hnach 1603697
wor th</w> 1603503
ap e</w> 1603282
d ate</w> 1602800
en ces</w> 1602724
tei lung</w> 1602536
F eh 1602214
dat a</w> 1601755
vi c</w> 1600861
avail able</w> 1600237
su sp 1600044
Russ land</w> 1599733
Rich tung</w> 1599569
vi ct 1599402
i en</w> 1599391
Z entr 1599191
al o 1599178
Al ler 1598722
es sen 1598121
re gel 1597799
da gegen</w> 1597435
zu folge</w> 1595657
ul arly</w> 1595457
E R</w> 1595012
fe at 1594527
Par k</w> 1593709
mo der 1593675
happ y</w> 1593114
si schen</w> 1591700
H aus 1591694
vor ge 1591439
fir e</w> 1591406
Regi on</w> 1591288
ot os</w> 1590611
pa ar</w> 1589747
3 6</w> 1589610
se um</w> 1588926
wirk lich</w> 1587833
ill s</w> 1587508
Phi li 1587135
C lin 1586987
Australi an</w> 1585894
N acht</w> 1585736
H inter 1585483
ge worden</w> 1585186
Inform ationen</w> 1585080
Frü h 1584878
sh are</w> 1583998
D ra 1583783
ne ut</w> 1581996
Par l 1581409
n a</w> 1581379
beg an</w> 1581052
sch uss</w> 1580868
b ung</w> 1580390
A T 1579818
qu ite</w> 1578233
Hal b 1577889
proc ess</w> 1577630
gef unden</w> 1577299
P i 1576771
H i 1576541
z us 1576263
Janu ary</w> 1576113
Sü d 1575782
St ar 1574998
a ver 1574059
Unter stütz 1573852
s ön 1573651
Vol ks 1573331
äch lich</w> 1573058
S or 1572926
je wei 1572895
sing le</w> 1572733
performan ce</w> 1572598
me eting</w> 1572141
me as 1571326
ho wever</w> 1571095
we b 1569942
12 4 1569936
stand ing</w> 1569763
ver tre 1569512
Stutt gart</w> 1569112
Ber n 1568788
Sch n 1568623
ne l</w> 1568471
sho wed</w> 1567235
6 .</w> 1566604
äu ß 1566106
ck et</w> 1565879
St ein 1565750
m ess 1565677
ma chte</w> 1565375
regi erung</w> 1564593
N ord 1564216
Ver ein</w> 1563680
trä ge</w> 1563650
nee ds</w> 1563650
or ig 1563356
Whi te</w> 1561780
fahr er</w> 1561688
w and 1561618
d y 1561521
u ation</w> 1561224
ge ber</w> 1561169
we hr 1560970
inn er 1559279
up s</w> 1557863
Champi ons</w> 1556812
we st 1556078
öl k 1555389
mö chte</w> 1555386
ali tion</w> 1554483
schä tz 1553670
c y 1552708
Mitglie der</w> 1552609
mo ved</w> 1551910
tra ining</w> 1551017
ac tually</w> 1551002
g le</w> 1550670
k ul 1549388
appe ared</w> 1547399
zi g</w> 1547290
wech sel 1546157
sch o 1546010
gr ü 1545800
p assi 1544786
dien st</w> 1544773
Russi a</w> 1544239
D et 1543714
amp le</w> 1543018
st ens</w> 1542940
ar en</w> 1542586
W ür 1541998
em o 1541092
an e</w> 1540661
il le</w> 1540088
every thing</w> 1539455
hus band</w> 1539352
lo c 1538359
kl ag 1538345
spo li 1537491
S ome</w> 1537387
si l 1536694
stell er</w> 1536670
as y</w> 1536157
offici al</w> 1535851
ter in</w> 1535718
Ger many</w> 1535484
rit t</w> 1535029
B is</w> 1534659
Pro gramm</w> 1533638
re qu 1533158
lin es</w> 1532293
E v 1531899
stu dy</w> 1529890
R au 1529382
ch s 1528425
am o 1528307
s eines</w> 1528189
ess or</w> 1528102
E s 1527932
econ omy</w> 1526778
em and</w> 1525827
Fil m</w> 1524166
en ter 1523975
pro gram 1523598
Sch au 1523059
Vi er 1522634
indu stry</w> 1522344
ei st 1522022
Ch in 1521711
No t</w> 1521529
er inn 1520212
Sicher heits 1520062
n ation</w> 1519685
wir tschaf 1518006
J etzt</w> 1516591
C amer 1514820
2 7 1514753
W asser 1514588
Febru ar</w> 1513788
supp or 1513757
R ob 1513686
cover ed</w> 1513505
I S 1513337
buil ding</w> 1513238
F ör 1513133
ell en 1512382
ler in</w> 1512036
wi esen</w> 1511961
zeich net</w> 1511735
di gung</w> 1511220
us h</w> 1510902
lätz e</w> 1510233
av y</w> 1509410
spro chen</w> 1508600
da m</w> 1508486
co ach</w> 1508476
c au 1508474
Fren ch</w> 1508389
b om 1507530
S au 1506561
k ir 1506529
Isra el</w> 1506421
in k 1503858
con fi 1503410
cer tain 1503399
sich tlich</w> 1502968
rei che</w> 1502885
je den</w> 1502763
de ten</w> 1502403
M as 1502364
D ort</w> 1502232
z ir 1502129
Ko sten</w> 1501473
te m</w> 1500200
&# 124 1499211
&#124 ;</w> 1499211
fer ence</w> 1498574
hu ge</w> 1498508
to wn</w> 1498455
es p 1497996
sp ent</w> 1497702
be sten</w> 1497588
tech n 1497501
m el</w> 1497442
he art</w> 1496929
Musi k 1496323
on al 1495959
kl eine</w> 1495857
li gen</w> 1495513
questi on</w> 1494762
O c 1494449
W ährend</w> 1493738
re f 1493594
ne u</w> 1493369
dest ens</w> 1493198
w inning</w> 1492902
R olle</w> 1491672
rele ased</w> 1491477
Sel bst 1491254
der al</w> 1490998
ff er</w> 1490357
Zu dem</w> 1489678
g ran 1489011
tu res</w> 1488617
them selves</w> 1488341
200 6</w> 1486837
E x</w> 1486818
dar an</w> 1486794
An ge 1486608
ma in</w> 1486455
Af gh 1486227
minist eri 1485700
Schü ler</w> 1485638
er neut</w> 1485488
D el 1485093
G ast 1485049
berich tet</w> 1484521
K e 1483770
k tor</w> 1483694
D P</w> 1483326
u es</w> 1483261
w es 1482832
hand elt</w> 1482535
ot t</w> 1481754
Stre et</w> 1481751
Sp itz 1481689
Ro bert</w> 1481357
el te</w> 1481327
sta y</w> 1480919
k amen</w> 1480825
N utz 1480129
Bür ger</w> 1479823
wi de</w> 1479202
S G</w> 1479054
vi er 1478805
W et 1478422
Beh ör 1478264
run ning</w> 1477769
pro gra 1476546
S ou 1476111
en sive</w> 1475843
w th</w> 1475735
L ig 1475393
lat est</w> 1475375
Entwick lung</w> 1475293
j ury</w> 1474846
Ho w</w> 1474380
ta kt</w> 1473707
ori ties</w> 1473428
0 . 1473398
ab o 1473115
se ems</w> 1471830
ti gte</w> 1471448
ro ad</w> 1471129
Sp ort</w> 1469620
k reis</w> 1468449
ation s 1468159
l ands</w> 1468148
I h 1468118
Ju ly</w> 1468107
haup t</w> 1467662
5 5</w> 1467604
erwar tet</w> 1467513
ad a</w> 1465565
be tei 1465178
P ort 1464192
f ern</w> 1463829
situ ation</w> 1463726
ap poin 1463288
wich tig</w> 1462384
Hö he</w> 1462058
Som mer</w> 1462002
me ter</w> 1461496
O f</w> 1461369
Grü nen</w> 1461329
W ahl</w> 1460454
at tra 1460407
Scot land</w> 1460390
Frankfur t</w> 1460355
W asser</w> 1459839
den ken</w> 1458020
gen u 1457599
se cre 1457507
N amen</w> 1457090
kom ple 1456627
h äl 1455840
B ahn 1454945
sch war 1454331
Ab end</w> 1452870
Ar sen 1452488
Viel e</w> 1452009
M ie 1451984
as k</w> 1451850
äh n 1451774
wh ole</w> 1451389
ich ten</w> 1451291
ni e 1451111
N un</w> 1450671
every one</w> 1450011
c ir 1449970
b rou 1449934
gemein sam</w> 1449670
3 00</w> 1449607
e qu 1449230
diffic ult</w> 1448890
pro mis 1448886
K or 1448606
fre i</w> 1447524
ver tei 1447395
t ur</w> 1446667
person al</w> 1446447
I hre</w> 1446277
sig nific 1446053
fi c</w> 1445769
aga z 1445285
in king</w> 1444795
ma in 1444013
li es</w> 1443876
Berei ch</w> 1443492
r or 1443119
su per 1443066
ar ti 1442680
z er 1442362
Ch anc 1442178
ho ch 1442059
B lo 1441861
Proble m</w> 1441712
N ic 1441511
Bundes liga</w> 1440430
do m</w> 1439768
Proble me</w> 1439570
inn t</w> 1439368
hum an</w> 1439192
b att 1439044
f y</w> 1438874
S at 1438869
re search</w> 1438305
char ac 1438057
b ut 1437308
rich tig</w> 1437294
rä um 1436717
bis lang</w> 1436180
bab ly</w> 1435428
tot al</w> 1435418
wal d</w> 1435275
jun ge</w> 1435252
d get</w> 1434914
Steu er 1434913
con su 1434580
Th er 1434272
S C</w> 1433862
so on</w> 1433617
sch ef</w> 1433262
in for 1433253
Li ver 1433250
ri se</w> 1432401
tig keit</w> 1432268
c op 1431909
Th ese</w> 1431795
wor ks</w> 1431431
dür fen</w> 1431138
vi cti 1430800
al ist</w> 1430286
Geb äu 1429321
f ör 1428994
In s 1428885
nee ded</w> 1428535
speci al</w> 1428387
z äh 1427872
m in</w> 1427586
m es</w> 1427047
R h 1426946
se s 1426222
ide a</w> 1426163
In du 1425886
ci es</w> 1425545
H off 1424766
sp ann 1424753
d res 1424511
s ou 1424319
rupp en</w> 1424308
ri g 1423762
e ch</w> 1422987
3 8</w> 1422547
f it</w> 1422408
tiv ely</w> 1421977
K reis 1421633
sh ing</w> 1421237
di ge</w> 1421224
Inv est 1421187
Besu cher</w> 1420000
quar ter</w> 1419847
R el 1419786
big gest</w> 1419767
Pri v 1418128
B üh 1417813
wan ts</w> 1417620
f o</w> 1417509
ung sp 1417369
U kra 1417214
g a</w> 1417163
Fahrzeu ge</w> 1416946
hist ori 1416809
stru gg 1416806
sy st 1416472
in ju 1416116
pres s</w> 1416019
Poli ce</w> 1415427
K ore 1415366
b as 1415014
schein t</w> 1414982
Hil fe</w> 1414824
claim s</w> 1414706
am t 1414503
relation ship</w> 1413030
T err 1412931
L os</w> 1412855
Dec ember</w> 1412294
v an</w> 1412259
pre t 1411997
pro pos 1411921
Au ßerdem</w> 1411664
u li 1411027
Sprech er</w> 1410572
rie f</w> 1409645
üs sel 1409368
Sp r 1408794
oh n</w> 1408459
Goo gle</w> 1408381
D r.</w> 1407564
os en</w> 1407347
lan gen</w> 1407063
g ner</w> 1406864
Tit el</w> 1406602
ei ther</w> 1406315
li ving</w> 1406100
9 .</w> 1404775
E is 1404713
en ge</w> 1404595
bei de</w> 1404280
gro wth</w> 1403322
incre as 1403156
invol ved</w> 1402758
le ading</w> 1402280
am eri 1401755
Mit te</w> 1401615
ph ysi 1401542
k rie 1401122
we g 1400499
prof essi 1399428
re qui 1399155
M utter</w> 1398913
hän gi 1398572
S mi 1398434
si mi 1398426
spra ch</w> 1396613
c ru 1395982
Ges und 1395953
her r 1395771
Ma ß 1395580
rit te</w> 1395194
M r 1395122
sch utz</w> 1394537
Min ute</w> 1393843
de mon 1393718
di ger</w> 1393616
C SU</w> 1393387
K ü 1392711
3 7</w> 1392209
A cc 1392092
Mar k</w> 1391873
K i 1391659
ri ghts</w> 1391042
Liver pool</w> 1390894
claim ed</w> 1390835
lon ger</w> 1390764
p ack 1390731
8 . 1390356
do cum 1390346
Ge schä 1390182
wr ong</w> 1390043
t ell</w> 1389821
lei st 1389251
recei ved</w> 1389016
K unden</w> 1388822
B on 1388245
s weise</w> 1387151
pres sure</w> 1386749
i zi 1386622
E d 1385820
li ves</w> 1385619
Bre x 1385552
schaff en</w> 1385192
L eute</w> 1385177
in o</w> 1384405
di gte</w> 1384350
unser er</w> 1384152
b rü 1384086
grap h 1384053
on ed</w> 1383797
schaf t 1383691
th o 1383519
evi dence</w> 1383415
Musi k</w> 1383135
we gs</w> 1383005
der ungen</w> 1382917
b rei 1382572
dru ck</w> 1382100
l auf</w> 1382034
0 5</w> 1381796
Beg inn</w> 1381668
t an 1380745
fahr t</w> 1380741
4 8</w> 1380722
stän dig</w> 1380431
h old</w> 1380403
Sp ar 1379173
m as</w> 1379136
musi c</w> 1378685
li ed</w> 1378682
am ten</w> 1378670
L age</w> 1378598
V f 1378452
g ni 1378237
tre at 1378123
erfol g 1377930
H ein 1377810
Aller dings</w> 1377428
lli g</w> 1376613
ra m</w> 1376350
M ex 1375906
p ie 1375718
win ner</w> 1375655
Ju sti 1374393
ver stän 1374020
D ro 1373460
all ein</w> 1372788
t able</w> 1372761
setz te</w> 1371951
in al</w> 1371917
week end</w> 1371420
pro bably</w> 1371002
p e</w> 1370842
ord in 1370074
sch ütz 1369689
A ra 1369549
per f 1369512
Fra gen</w> 1369007
peri od</w> 1368843
g um 1368457
n atur 1368242
Al le</w> 1368150
in zwischen</w> 1367844
execu tive</w> 1367754
zei tig</w> 1367539
f and</w> 1367206
gu e</w> 1364757
p ul 1364467
P ak 1364177
vict ory</w> 1364082
wor ked</w> 1363614
par ti 1363503
d lichen</w> 1363496
se m 1363102
inclu de</w> 1363096
inde st</w> 1362888
for ni 1362446
oper ation</w> 1362373
Ü ber</w> 1362214
ent sprech 1361775
ag ing</w> 1361209
Go vernment</w> 1361151
E mp 1361128
b us</w> 1361126
Proje kt</w> 1361002
E m 1360829
Ergeb nis</w> 1360815
Ham burg</w> 1360622
Ir an</w> 1360302
ho ch</w> 1360222
Clin ton</w> 1360119
se tz</w> 1359860
ge be</w> 1359778
Kilome ter</w> 1359671
H ä 1359647
ein igen</w> 1359587
so genann 1359200
energ y</w> 1358922
z ü 1358828
Jo urn 1358818
l auf 1358613
über ra 1358556
Führ ung</w> 1358520
ali forni 1357580
woh ner</w> 1356959
it ze</w> 1356677
t wi 1355831
Z wei</w> 1355749
br ing</w> 1355676
H and</w> 1354691
ex ist 1354471
ma ch 1354023
O s 1353502
Chri s</w> 1353304
rich ten 1352652
proble ms</w> 1352391
P reis</w> 1351888
he ard</w> 1351362
m ag 1351172
h öh 1351160
gri ff</w> 1351092
Staats an 1349932
ne arly</w> 1349860
beson dere</w> 1349303
T al 1349041
berich tete</w> 1349026
shar es</w> 1348601
E U 1348468
tr otz</w> 1347758
Fl ori 1346927
sp ä 1346425
ta x 1346158
resul ts</w> 1345921
bie ten</w> 1345884
Or ts 1345706
lu e</w> 1345401
is ing</w> 1345315
sen se</w> 1345093
ei l</w> 1344784
vie ws</w> 1344477
M s</w> 1343297
sch utz 1342842
tal k</w> 1342749
for ce</w> 1342436
visi t</w> 1341940
any one</w> 1341896
t au 1341482
m ur 1341319
Camer on</w> 1340321
ber u 1340119
Mad rid</w> 1340069
m ung</w> 1339809
g ruppe</w> 1339771
E hr 1338734
em pf 1338395
Inter national</w> 1338212
H en 1337893
Fran k</w> 1337720
amm lung</w> 1337471
o ben</w> 1336769
aus zu 1336618
ach ie 1336201
si a</w> 1335916
gu ten</w> 1335589
tre ffen</w> 1335428
de ter 1334789
nah m</w> 1334445
prä sen 1334207
M ach 1333073
bie tet</w> 1332216
f et 1331405
häl t 1331249
high er</w> 1330723
ats ächlich</w> 1330330
gen s</w> 1330229
zwei te</w> 1330133
s we 1329276
eben so</w> 1328765
gra tion</w> 1328638
Un ter</w> 1328341
geb aut</w> 1328113
hie ß</w> 1327839
re ly</w> 1327404
ho li 1327263
mat ter</w> 1326935
D ort 1326781
issu es</w> 1326639
glob al</w> 1326410
C ap 1325313
ob ach 1324994
incre ase</w> 1324728
H er</w> 1324554
7 5</w> 1324470
da cht</w> 1324458
P an 1324286
mi schen</w> 1324108
k m</w> 1323431
I hr</w> 1323298
st opp 1322897
Re gel 1322840
F ort 1321699
T ouri 1321507
4 2</w> 1321475
vi sion</w> 1320882
eigen e</w> 1319677
Ein zel 1319626
p ort 1318692
v ent 1318667
le bt</w> 1318271
G rie 1318063
loo ks</w> 1317773
4 , 1317582
ne ten</w> 1316508
ur ch</w> 1315612
wel che</w> 1315581
k ung</w> 1315187
0 ,000</w> 1314781
mo del</w> 1313971
co ver</w> 1313851
iel l</w> 1312505
ou l 1312498
ali siert</w> 1312306
ge führt</w> 1312241
inter view</w> 1311922
tik el</w> 1311226
th i 1310873
Ch ance</w> 1310586
bil dung</w> 1310551
ger icht</w> 1310356
an ten</w> 1310320
ig ung</w> 1309827
Sch u 1309806
Op en</w> 1309727
eri al</w> 1309300
4 4</w> 1308478
t ter 1308417
Mül ler</w> 1308062
Brex it</w> 1307580
hä u 1307573
Par ty</w> 1307423
Wochen ende</w> 1307329
pri ces</w> 1306986
d d 1306753
ti gung</w> 1306467
St ar</w> 1306252
fi gh 1306164
om s</w> 1305598
r ussi 1305028
min destens</w> 1304979
o ur 1304879
st ant</w> 1304755
wer t</w> 1303978
kün ftig</w> 1303805
m ate</w> 1303690
ut s</w> 1303428
wei sen</w> 1303251
Jah res 1302912
b s 1302888
Wol f 1302864
ot z 1302816
h aps</w> 1302677
Regi er 1302474
Z wi 1302433
Kri tik</w> 1302069
beton te</w> 1301745
com mit 1301592
can not</w> 1301462
ko sten</w> 1301349
happ ened</w> 1300313
B ahn</w> 1299915
ou ldn</w> 1299516
Sch i 1299345
ad minist 1299263
Russi an</w> 1299038
vi elleicht</w> 1299013
Su per 1298837
sol che</w> 1298703
fin ale</w> 1298282
Pres se 1297575
schie den</w> 1297553
P ati 1296913
ver än 1296816
bo ur 1296165
Oc tober</w> 1295975
pp ing</w> 1295894
S ig 1295743
v ari 1295101
P ut 1294469
au ft</w> 1294290
av o 1294120
vi ron 1294079
3 9</w> 1293981
ex ample</w> 1293705
v ölk 1293699
p unk 1292059
b a 1291798
e duc 1291678
stimm ung</w> 1291355
O R 1291105
fre u 1290829
x im 1290399
e z</w> 1290395
O N 1289782
en nen</w> 1289770
T ot 1289098
G ei 1288954
Ges ellschaft</w> 1288094
con tri 1286671
Da y</w> 1286656
bu y</w> 1286499
m und</w> 1286106
is n</w> 1286094
ein zu 1285420
R y 1285397
ment al</w> 1284765
sp ace</w> 1284733
Aut o 1284609
th ous 1284534
Sp ani 1284284
con di 1283987
är en</w> 1283809
gener al</w> 1283681
4 1</w> 1283660
re gu 1283371
b ly</w> 1283020
provi de</w> 1282792
ac y</w> 1282629
g one</w> 1281891
Ä r 1281206
u lation</w> 1280821
an ge</w> 1280652
an o</w> 1280530
ti tle</w> 1280112
brou ght</w> 1279889
h otel</w> 1279689
ge sagt</w> 1278948
an er</w> 1277226
K er 1276918
Co urt</w> 1276650
ra di 1276370
enn t</w> 1276147
mitt ei 1275965
pp e</w> 1275840
Publi k 1275703
B as 1275596
Ver hand 1275553
wal tung</w> 1275161
V ic 1275152
ver ur 1274707
Dan iel</w> 1274527
gen e</w> 1274062
M ein 1274017
K ör 1273301
f em 1273163
kri ti 1273023
g in</w> 1272964
p ol 1272961
T ro 1272828
mi e 1271456
v ö 1271307
m ind</w> 1270912
O st 1270527
k al 1270404
n om 1270380
H ans</w> 1270338
Person en</w> 1270211
ver ein</w> 1270085
si tion</w> 1269965
P u 1269490
E li 1269421
b are</w> 1269371
st in</w> 1268980
Medi en</w> 1268853
20 00</w> 1268815
zei gte</w> 1268720
St art</w> 1268384
w u 1268296
lie b</w> 1267943
aver age</w> 1267835
f lä 1267426
H um 1266814
mei ster 1266767
rep orts</w> 1266677
pf lich 1266414
W inter 1265446
P ot 1265333
4 3</w> 1265161
can did 1264991
gh t 1264946
St ell 1264675
ch ef</w> 1264033
cro w 1263887
Spiel e</w> 1263835
ill a</w> 1263564
zus ätz 1263340
Ver fü 1263323
D om 1263034
H ot 1262983
un ded</w> 1262316
de cl 1261091
comm unity</w> 1260979
r ö 1260467
p m</w> 1260464
Sit uation</w> 1260238
Unterstütz ung</w> 1259259
Ju li 1259150
S ec 1258758
M äd 1258481
un e</w> 1258287
erst mals</w> 1258224
n y</w> 1258112
0 s</w> 1257785
Jap an</w> 1257767
O b</w> 1257593
B ir 1257189
z es</w> 1256878
Frank reich</w> 1256725
ger ech 1256078
schl ag 1255023
c le</w> 1254663
politi schen</w> 1254110
d aten</w> 1253919
rei sen</w> 1253539
tri ed</w> 1253515
Er fahr 1253445
an gen</w> 1253313
c ement</w> 1253255
dür fte</w> 1253232
potenti al</w> 1252724
cap ital</w> 1252618
b ald</w> 1252565
wor ds</w> 1252545
off en</w> 1252091
S ha 1251810
qu ick 1251099
bo t</w> 1251058
re ach 1250869
per sön 1250652
C al 1250541
v ely</w> 1250493
gro ß</w> 1249614
u g 1248903
m eine</w> 1248793
m ar</w> 1248431
er weise</w> 1248323
par k</w> 1248246
lei cht</w> 1247498
ab hängi 1247130
C ent 1246683
zi eren</w> 1246554
Sp ra 1246417
co sts</w> 1244470
ati ven</w> 1243885
eci ally</w> 1243244
5 .</w> 1242887
chang es</w> 1242504
No ch</w> 1242296
n ö 1242057
in side</w> 1241945
gen cy</w> 1241790
ver antwor 1241430
sel l</w> 1241171
re du 1240623
lei ter</w> 1240598
Gener al</w> 1240532
Eng lish</w> 1240503
Da zu</w> 1240481
accoun t</w> 1240311
seri ous</w> 1239951
ta kes</w> 1239929
Arsen al</w> 1239744
esp ecially</w> 1239090
läu ft</w> 1238865
im medi 1238706
Sch on</w> 1237589
o il</w> 1237583
sp ending</w> 1237571
Bar cel 1237404
st ur 1237152
simi lar</w> 1237091
L ou 1236979
gan ze</w> 1236745
pa y 1235550
Rech ts 1234714
custom ers</w> 1234283
fra gen</w> 1233821
Re al</w> 1233666
Ma y 1232858
m os 1232526
S an</w> 1232316
sal es</w> 1232250
H om 1231878
Pat ri 1231546
str on 1231531
Kün st 1231509
M ehr</w> 1231167
weiter hin</w> 1230706
do or</w> 1230456
l oss</w> 1230316
ter ror 1229967
g liche</w> 1229330
le gt</w> 1229190
Tech ni 1228854
cl ass</w> 1228799
se em 1228418
n ern</w> 1228401
lo wer</w> 1227841
la y</w> 1227707
200 5</w> 1227599
ar r 1227369
G et 1227318
cent re</w> 1227001
fa v 1226963
Op fer</w> 1226920
T or</w> 1226792
su it</w> 1226550
qu ality</w> 1226442
hö ch 1226427
K ind</w> 1226002
simp ly</w> 1225892
W aff 1225876
P as 1225642
St ur 1225537
den e</w> 1225107
0 8</w> 1225052
st yle</w> 1224603
al though</w> 1224499
Kl ein 1223661
t we 1223174
um mer</w> 1222558
hosp ital</w> 1222020
sy ch 1221625
groß er</w> 1221178
succ ess 1220599
wei ght</w> 1220566
b loo 1220208
st ation</w> 1219777
c lo 1219580
esti val</w> 1219462
no w 1219221
p it 1219162
g as</w> 1218495
ab li 1217443
E ig 1216990
re ti 1216857
ck y</w> 1216434
ck er 1216285
Tel ef 1216015
Sch ä 1215993
an im 1215974
n on</w> 1215798
Alex ander</w> 1215564
Clu b</w> 1215519
ck en 1215516
j ungen</w> 1215195
an while</w> 1215111
f ru 1214954
B ü 1214513
au lt</w> 1214435
D R</w> 1214338
n ten</w> 1214033
Har ry</w> 1213897
af ter 1213666
n ungen</w> 1213611
Smi th</w> 1213500
di schen</w> 1213496
dire kt</w> 1211998
Er st</w> 1211987
über haupt</w> 1211948
V ir 1211229
ür z 1211145
in t 1210934
Mar kt</w> 1210729
F äl 1210503
gi ving</w> 1210491
ke i</w> 1210380
sig ned</w> 1210114
P et 1210016
V ater</w> 1209725
fail ed</w> 1209724
Sta aten</w> 1209549
Barcel ona</w> 1208802
A P</w> 1208635
M ess 1208283
k ampf</w> 1208253
Wir tschaft</w> 1207742
c tions</w> 1207380
posi tive</w> 1207037
exp lo 1206892
4 9</w> 1206380
n ine</w> 1206105
sei ts</w> 1205945
Ver antwor 1204815
S itz 1204337
P il 1204146
M om 1203871
über zeu 1203621
curr ently</w> 1203526
an ni 1203295
gir l</w> 1203128
tu red</w> 1202490
we st</w> 1202354
Verkehr s 1202257
G eri 1202184
sh ire</w> 1201826
wei le</w> 1201796
öff net</w> 1201352
em e</w> 1201331
Öster reich</w> 1201291
au tom 1201179
9 9</w> 1200692
stit u 1199951
h an 1199500
ant ly</w> 1199023
h tt 1198743
el ing</w> 1198452
Angel es</w> 1198345
C re 1198297
6 5</w> 1197963
g yp 1197778
ung er</w> 1197597
lin ks</w> 1197288
Ger man</w> 1197013
oo ds</w> 1196811
go als</w> 1196318
be at</w> 1196283
b ing</w> 1196232
L et 1195791
com pla 1195747
e b</w> 1195709
z ep 1195685
re ason</w> 1195422
k ran 1194411
ne g 1193844
proper ty</w> 1193497
me an</w> 1193093
G al 1192760
deci ded</w> 1192524
gesch ri 1192378
tra de</w> 1192365
ste p</w> 1192062
K ampf</w> 1191970
In stag 1191109
de fe 1190925
mis s 1190156
G est 1189994
te ams</w> 1189799
C ri 1189605
jün g 1189500
ver li 1189168
T om</w> 1188933
K reis</w> 1188312
K al 1187935
d rei 1187796
ir gend 1187740
spokes man</w> 1187667
Andre as</w> 1187427
Tim es</w> 1187187
in ation</w> 1187098
le vel 1187076
go es</w> 1186989
ester day</w> 1186867
John son</w> 1186737
ir t</w> 1186638
lea ders</w> 1186612
amer a</w> 1185903
g old</w> 1185646
R est 1185022
stat t 1184530
bo y</w> 1184108
ti erte</w> 1184084
Län dern</w> 1183225
form ed</w> 1182893
zah l</w> 1181942
Bil der</w> 1181903
investig ation</w> 1181430
Ö ff 1180865
ch ers</w> 1180772
ter ms</w> 1180624
mit tel</w> 1180407
ik a</w> 1180295
z a</w> 1180008
an zu 1179667
p lus</w> 1179600
bab y</w> 1179456
gesch ä 1179433
Kom mun 1179376
Kan did 1179242
a ther</w> 1178788
wor t</w> 1177674
K anz 1177283
Wis sen 1177121
Wi en</w> 1177105
bet ro 1177047
Dru ck</w> 1176911
da her</w> 1176877
re ad</w> 1176285
part ner</w> 1175936
Instag ram</w> 1175549
allo wed</w> 1175403
le h 1175159
Ges amt 1175144
rema ins</w> 1175018
zw öl 1173938
Mo d 1173777
bar en</w> 1173688
sch e 1173589
Län der</w> 1173539
b lick</w> 1173496
abo ve</w> 1173344
wat ch</w> 1173342
4 7</w> 1173030
App le</w> 1172959
an k 1172931
Geri cht</w> 1172486
re u 1172443
al ing</w> 1172358
5 , 1171661
Köl n</w> 1171303
S and 1171151
p an 1171104
li g</w> 1170931
C H 1170732
sen ior</w> 1170721
ati ves</w> 1170184
iel le</w> 1170116
Febru ary</w> 1170082
ma y 1169957
bes ser 1169924
ver hin 1169611
L aut</w> 1169573
f ell</w> 1169524
d ney</w> 1169235
Lig a</w> 1169157
st ars</w> 1168613
b lieb</w> 1168590
Mon ate</w> 1168217
Kon tro 1168127
eh en</w> 1167734
lat ed</w> 1166635
Kin dern</w> 1166164
offen bar</w> 1165703
Kre u 1165476
sp ruch</w> 1164917
Kul tur 1164203
s inger</w> 1164154
us sion</w> 1163982
ger e 1163884
cri sis</w> 1163788
so li 1163494
Ver tei 1163334
k or 1163105
in sur 1162989
Mus li 1162804
k new</w> 1162643
are as</w> 1162103
ge setz 1161971
be dro 1161936
N eben</w> 1161829
Flücht linge</w> 1161681
fran zö 1161676
Tra in 1161375
D ok 1161186
ein zi 1160412
sti g</w> 1160041
Sicher heit</w> 1159508
indu stri 1159391
ge k 1159272
S T 1159090
char ge</w> 1158691
6 , 1158240
l aufen</w> 1157664
j ah 1157441
at ur</w> 1157392
N atur 1157128
verl oren</w> 1156191
wor kers</w> 1155750
I l 1155725
h o</w> 1155628
ex tra</w> 1154894
politi sche</w> 1154487
Kop f</w> 1153796
Dies er</w> 1153648
mus sten</w> 1153532
me et</w> 1153521
in i</w> 1153414
O ur</w> 1153399
ameri k 1153323
unter schie 1153321
Afgh an 1153194
F DP</w> 1152901
m ern</w> 1152618
re as 1152191
succ ess</w> 1152179
4 6</w> 1151834
h our</w> 1151508
E ven</w> 1150988
S wi 1150977
b la 1150533
ant i</w> 1150496
V al 1150253
Sp a 1150243
st es</w> 1150139
for eign</w> 1149317
el e</w> 1149178
str eng 1149122
tag s 1148923
ci vi 1148834
otz dem</w> 1148763
größ ten</w> 1148704
gr und 1148699
L es 1148649
it al 1148521
den k 1148236
min ute</w> 1148211
c ast 1147930
frü h 1147841
Sec re 1147840
ch it 1147690
x ed</w> 1147667
Bu ch</w> 1147149
m ut</w> 1146449
for ced</w> 1145974
S eine</w> 1145576
ar re 1145483
E ar 1145298
t ori 1145084
Kir che</w> 1145031
d ritten</w> 1144228
regi on</w> 1143986
us es</w> 1143646
hand s</w> 1143585
ad vi 1143294
brau cht</w> 1143292
se par 1143247
Ukra ine</w> 1143087
ler weile</w> 1143084
ct ors</w> 1142812
Pr ince</w> 1142717
be sch 1142607
4 00</w> 1142429
produc ts</w> 1142295
Be zir 1142152
zun eh 1141656
Verfü gung</w> 1140839
previ ous</w> 1139927
W eb 1139922
ge ord 1139581
S ein</w> 1139431
zum indest</w> 1138657
all s</w> 1138348
t our</w> 1138309
develop ment</w> 1138217
ent fer 1138059
Pri me</w> 1137679
b ahn</w> 1137087
m ine</w> 1136990
Rah men</w> 1136890
a i</w> 1136434
f ach 1136382
Fin an 1136118
acc ess</w> 1136114
Er n 1135911
ver sion</w> 1135756
Ch ef 1135475
d nis</w> 1135423
cer tain</w> 1135328
tei le</w> 1135216
in tel 1134847
fir m</w> 1134670
infor mi 1134615
ali sten</w> 1133378
l ling</w> 1133184
St ro 1132370
descri bed</w> 1132185
jo urn 1132122
B ran 1131768
mo d 1131553
fig ure</w> 1131335
continu ed</w> 1131235
geb iet</w> 1130920
ter s 1130769
k tionen</w> 1129350
O li 1128450
s a</w> 1128256
partic ularly</w> 1128151
Wett bewer 1128108
et t</w> 1127784
jewei ls</w> 1127346
Al t 1127301
Gemein der 1126980
at te</w> 1126295
e asy</w> 1126247
im mer 1126211
gli ed</w> 1126123
J ones</w> 1126041
appe ar 1125924
1 1. 1125584
lea ving</w> 1125489
i an</w> 1124517
N a 1124495
ur th</w> 1124322
4 .</w> 1123857
serv ative</w> 1123692
W ach 1123231
ger t</w> 1123110
Feuer wehr</w> 1122614
U R 1122252
denti al</w> 1122242
tru e</w> 1122213
mi e</w> 1122205
t sch 1121740
Vorsitz ende</w> 1121505
pre si 1121069
Pe ople</w> 1121040
wur f</w> 1120794
Mäd chen</w> 1120452
el se</w> 1120397
Poli tiker</w> 1120371
br ingt</w> 1120125
Ver tre 1120100
As soci 1119859
gew innen</w> 1119388
b auen</w> 1119300
in tro 1118972
duc ed</w> 1118649
spiel sweise</w> 1118188
c ause</w> 1117957
Fre u 1117518
cas h</w> 1117391
sho p</w> 1117373
j obs</w> 1117364
5 2</w> 1117046
in stead</w> 1117033
pop ular</w> 1116691
in come</w> 1116218
Christ mas</w> 1116121
A tt 1116068
ru les</w> 1115894
b ruch</w> 1115183
D aten</w> 1115094
ann t</w> 1114555
sto ck</w> 1114455
help ed</w> 1114272
sich ts</w> 1113635
ver öffent 1113270
schi ed</w> 1113261
z one</w> 1113257
0 4</w> 1113198
po wer 1112569
bre ak 1112461
certain ly</w> 1112214
rema in</w> 1111554
so fort</w> 1111535
val ue</w> 1111363
Ta ges 1111332
u el</w> 1111228
ar di 1110966
ver z 1110785
Rich ard</w> 1110375
cas es</w> 1110279
Am ts 1109457
li mi 1109145
ad di 1109011
mi d</w> 1108538
W ieder 1107921
app ed</w> 1107849
Unter such 1107488
Gel d 1107420
Wolf gang</w> 1107162
gesch aff 1106880
Nach richten</w> 1106827
t ac 1106812
c ast</w> 1106801
erz ählt</w> 1106756
e qui 1106698
f am 1106365
si bility</w> 1105692
est im 1105494
in te 1105131
gehör en</w> 1104968
in z</w> 1104557
pr os 1104490
ha ft</w> 1103892
en e 1103878
p ass</w> 1103798
krä fte</w> 1103175
Energ ie 1103153
sa ch 1103149
Kom mission</w> 1102906
c ts</w> 1102855
s l 1102850
zu frie 1102668
ig es</w> 1102132
Kun st 1102121
al er</w> 1102088
bo x</w> 1102040
fi g</w> 1101298
er reicht</w> 1101126
Z eu 1100971
si sche</w> 1100622
ra y</w> 1100245
C ro 1100224
. 30</w> 1100135
invest ment</w> 1099921
Z i 1099752
at eg 1099680
ell ed</w> 1099637
öh n 1099483
im pres 1099451
to wards</w> 1099181
T our</w> 1098929
Sei ten</w> 1098875
Kon kur 1098713
St äd 1098177
ig keit</w> 1098072
t n 1097662
rat s</w> 1097639
Ber icht</w> 1097529
spiel e</w> 1096784
ding ungen</w> 1096398
htt p</w> 1096246
sa che</w> 1095698
Ro yal</w> 1094983
sh ared</w> 1094417
man agement</w> 1094352
b a</w> 1093880
W oh 1093677
h ous 1092714
do w</w> 1092535
c r 1092143
scor ed</w> 1092139
C aliforni 1091991
schrei bt</w> 1091958
Bet ri 1091731
schlie ßen</w> 1091649
wich tig 1091511
ec tive</w> 1091244
go ti 1091140
R ot 1090344
W en 1090132
i erte</w> 1089798
hel fen</w> 1088742
D am 1088552
ab zu 1088510
In de 1088322
S ho 1087833
ten s</w> 1087418
Willi ams</w> 1087368
Th en</w> 1086986
p ick 1086914
stu dents</w> 1086409
n amed</w> 1086379
gro ups</w> 1086096
uni on</w> 1085994
rei ben</w> 1085929
be schäf 1085734
C amp 1085574
gu i 1085419
U N 1085415
stä d 1085009
de ad</w> 1084977
e x</w> 1084592
o de</w> 1084342
ge sehen</w> 1084334
Ver b 1084303
200 4</w> 1083603
führ te</w> 1083498
Z iel 1083419
o v 1083257
wach sen 1083029
trä gt</w> 1082249
Mar kt 1082122
To p</w> 1082119
chang ed</w> 1081814
opport unity</w> 1081791
man n 1081754
ver su 1081508
ger ne</w> 1081395
Que en</w> 1081301
in jury</w> 1080313
k unden</w> 1080277
w ün 1080209
in en</w> 1079984
Holl y 1079643
Vi deo</w> 1079189
ver sich 1079149
R E 1079042
w äh 1078890
treat ment</w> 1078293
Sch we 1078276
os sen 1078243
se y</w> 1078178
medi cal</w> 1078018
5 1</w> 1077714
E ast</w> 1077513
ha ir</w> 1077042
acc used</w> 1076963
et ed</w> 1076874
For m</w> 1076853
F er 1076765
li gen 1076316
progra m</w> 1076183
De partment</w> 1075882
techn ology</w> 1075319
fol gt</w> 1075292
Pf le 1075087
verb and</w> 1074945
buil d</w> 1073914
u ters</w> 1073658
K as 1073584
h ang</w> 1073385
thous ands</w> 1073350
Minist er 1072763
Republi can</w> 1072397
en ze</w> 1072395
under stand</w> 1071825
ähri ger</w> 1071722
we der</w> 1071661
Par tie</w> 1070982
Dis k 1070516
f la 1069894
h inter 1069838
questi ons</w> 1069678
ad es</w> 1069564
auth orities</w> 1069409
wis sen 1069371
pra cti 1069081
funk tion 1068855
l ab 1068609
lie f</w> 1068533
Angeb ot</w> 1068527
größ te</w> 1068515
do wn 1068404
Gro up</w> 1068135
stra i 1067589
o ber 1067557
k ept</w> 1067105
ent schieden</w> 1066870
shi ps</w> 1065914
am te</w> 1065403
Par k 1065331
P ost</w> 1065258
sig n 1065146
k ap 1065097
cou ldn</w> 1064129
quick ly</w> 1063987
neu n</w> 1063765
au rant</w> 1063700
Afghan istan</w> 1063301
fa ir</w> 1062840
imp act</w> 1062754
M ac 1062418
um p</w> 1061790
en viron 1061783
dru g</w> 1061570
web site</w> 1061400
be ha 1060586
ih res</w> 1060419
we gung</w> 1060349
cla im</w> 1060147
con duc 1059966
Bes on 1059245
Möglich keit</w> 1058923
si c</w> 1058796
sp or 1058663
r aten</w> 1058273
Chin ese</w> 1058091
ä ische</w> 1057936
C el 1057903
ur t 1057600
0 7</w> 1057441
inclu ded</w> 1057399
c iety</w> 1057341
ar m</w> 1056828
publi shed</w> 1056797
D em</w> 1056567
r an</w> 1055520
M ore</w> 1054474
w äl 1054182
di ent</w> 1053981
Tur ni 1053373
Sch ritt</w> 1053326
f tung</w> 1052986
0 6</w> 1052899
itä ten</w> 1052408
char ges</w> 1052202
berei ch</w> 1052195
pret ty</w> 1051860
inde pen 1051718
M P 1051218
th ro 1051109
Kar l</w> 1050909
ev ents</w> 1050839
N ä 1050768
it self</w> 1050703
d ler</w> 1050483
5 4</w> 1050320
famili es</w> 1050304
Dur ch</w> 1050112
ber eit</w> 1049969
y a</w> 1049726
5 3</w> 1049519
erh öh 1049206
y n</w> 1049197
st a</w> 1049060
mess age</w> 1048290
f ro 1048215
rele ase</w> 1048152
D opp 1047964
on ds</w> 1047880
acc ep 1047471
st ro 1047166
t ür 1046678
Weihnach ts 1046062
Fol ge</w> 1045653
S how</w> 1045537
ti ves</w> 1044788
L a</w> 1044776
R unde</w> 1044554
ven ue</w> 1044297
amo unt</w> 1044217
il ed</w> 1044090
I ni 1044026
R aum</w> 1043547
si li 1043501
sor gen</w> 1043384
Dort mund</w> 1042811
ähr t</w> 1042730
Des halb</w> 1042554
h ost</w> 1042505
at er 1042319
R ett 1042305
bil d</w> 1042300
tra ck</w> 1041992
l ern</w> 1041848
reco gni 1041664
Lan des</w> 1041612
Re k 1041057
fe deral</w> 1041044
A L 1040909
h aus 1040884
dan ach</w> 1040498
op ening</w> 1040349
ell a</w> 1040308
war t</w> 1040231
L auf 1039767
pro ject</w> 1039480
E ri 1039261
Ur lau 1038863
Nach bar 1038511
condi tions</w> 1038204
Californi a</w> 1037930
ander er</w> 1037792
de fin 1037202
ac tivi 1037034
ph oto 1037032
fo urth</w> 1036854
bei spielsweise</w> 1036757
el s 1036738
sel bst 1036677
an te</w> 1036615
K im</w> 1036412
li ament</w> 1036304
Terr or 1036030
nach dem</w> 1035989
ac t 1035268
w olle</w> 1034925
Be völk 1034672
zo g</w> 1034382
ger in</w> 1034168
produc tion</w> 1033766
EU R</w> 1033631
J ür 1033514
le s 1033403
Ber g 1033379
G ö 1032893
spe k 1032606
0 1</w> 1032154
for ces</w> 1032039
t end</w> 1031565
ic o</w> 1031554
canc er</w> 1031392
ein s</w> 1030866
c ard</w> 1030797
dou ble</w> 1030721
ex ten 1030673
D F 1030641
hi on</w> 1030412
Fir st</w> 1030219
f tw 1029709
Bro wn</w> 1028940
K lin 1028386
ein zel 1028268
stei gen</w> 1028041
europ äischen</w> 1027894
Kra ft</w> 1027890
ent de 1027633
H ause</w> 1027618
fäl lt</w> 1027594
Ar tikel</w> 1027437
K ing</w> 1027106
d liche</w> 1026586
an gel 1026513
A S 1025805
zwöl f</w> 1025671
vor sitz 1025528
gerech net</w> 1025465
Fahr er</w> 1025011
dar unter</w> 1024159
5 6</w> 1024121
A sy 1024120
Be wer 1024094
je de</w> 1023520
J en 1023503
F unk 1023463
gro wing</w> 1022807
ey e</w> 1022787
att acks</w> 1022664
tra vel</w> 1022502
K ab 1022430
mo bili 1022350
lie ß 1022344
bra chte</w> 1022260
confir med</w> 1022213
T wo</w> 1021986
ne e</w> 1021752
amp f 1021580
respon se</w> 1021410
ch er 1021055
zie ht</w> 1020956
s age</w> 1020764
pl om 1020083
t atsächlich</w> 1019984
stat es</w> 1019762
T est</w> 1019545
Büh ne</w> 1019543
Gesprä ch</w> 1019384
8 .</w> 1019306
s n 1019016
7 , 1018999
wei s</w> 1018740
k ü 1018329
Stra f 1018139
Wei l</w> 1018031
ail s</w> 1018022
m uni 1017994
To d</w> 1017919
k el</w> 1017259
Ver brau 1016803
re ag 1016585
s ü 1016334
9 , 1016236
pas sen 1016195
B ab 1015913
glei chen</w> 1015803
en det</w> 1015419
sur vi 1014700
be wus 1014199
Y e 1014165
äl fte</w> 1013562
ministeri um</w> 1013517
ei m 1013478
t ner</w> 1012947
re ality</w> 1012695
Sta at</w> 1012485
hol en</w> 1012300
tig ten</w> 1012144
wal tschaft</w> 1012124
son st</w> 1011801
Da ily</w> 1011572
happ en</w> 1011306
inter est 1011130
m and 1010887
wor d</w> 1010809
po sted</w> 1010432
r ap 1010366
e asi 1010308
ven tion</w> 1010129
schließ end</w> 1010099
ü bri 1009873
re pe 1009674
sich ts 1009468
Re cht</w> 1009302
wi es</w> 1009213
ann te</w> 1009081
si eren</w> 1008936
ju sti 1008547
di n</w> 1008503
pic ture</w> 1007874
1 50</w> 1007787
previ ously</w> 1007765
cre ate</w> 1007204
c oll 1007169
hin aus</w> 1007156
sor gt</w> 1006943
Son der 1006869
competi tion</w> 1006834
Stra ßen 1006676
d äch 1006208
nei gh 1006027
nec ess 1005835
Holly wood</w> 1005828
R ein 1005757
Ste fan</w> 1005664
Wi der 1005199
ftw are</w> 1004951
St at 1004920
al ty</w> 1004400
7 .</w> 1003590
To chter</w> 1003230
ad mitted</w> 1002748
M au 1002666
p et 1002115
Tür kei</w> 1002115
di sk 1001736
d ding</w> 1001606
Zei ten</w> 1001378
al low</w> 1001034
rich tung</w> 1000778
nie der 1000552
D r</w> 1000420
J ährigen</w> 1000099
I re 999985
go vern 999793
T rau 999343
U N</w> 998999
P en 998898
evi sion</w> 998514
s lo 997885
signific ant</w> 997837
y esterday</w> 997833
Lu ft 997833
Sch al 997517
R ath 997384
pr in 997162
mis sed</w> 996732
lie ßen</w> 996395
eri gen</w> 996030
vö llig</w> 995772
B ul 995693
Minister prä 995675
gl ück 995506
br and</w> 994909
S icht</w> 994829
Al ter</w> 994765
A l</w> 994678
län gst</w> 994428
ver fü 994426
mi les</w> 994129
5 8</w> 993993
ne goti 993843
Her r 993834
ther ap 993759
Sy dney</w> 993745
5 9</w> 993682
neh men 993648
pp en</w> 993294
n it 993247
Bunde stag 992993
no v 992978
9 5</w> 992931
sour ce</w> 992845
st off 992782
plan t</w> 992512
Flug ha 992285
Exper ten</w> 992246
ic ally</w> 991974
Fir ma</w> 991766
sta at 991412
Ire land</w> 991339
stell ten</w> 991283
genu g</w> 990649
5 7</w> 990399
ch air 990247
st am 990109
K en 990039
Christ op 989883
ev ent 989645
ph oto</w> 988944
inner halb</w> 988761
it a</w> 988366
Jahr hunder 988259
n d</w> 988207
mo ving</w> 987986
deu tet</w> 987673
S ir</w> 987666
comm on</w> 987541
län der</w> 987521
atten tion</w> 987414
Angel a</w> 987255
reli gi 987004
Ver gleich</w> 986955
ci a</w> 986813
or ds</w> 986793
ot ing</w> 986728
eb s 986629
St ück</w> 986625
ch ner</w> 985988
U S 985984
K oh 985764
cra tic</w> 985534
ser ved</w> 985492
t an</w> 985295
üs se</w> 984544
sch te</w> 984088
O N</w> 984079
con ference</w> 983995
ath le 982974
spi ri 982797
contra ct</w> 982757
cre dit</w> 982743
Gebäu de</w> 982700
en cour 982413
I C 982377
Coun cil</w> 982001
er reichen</w> 981515
jo ined</w> 981506
Acc ording</w> 981211
le ague</w> 981120
t ation</w> 980890
mäß ig</w> 980485
us ers</w> 980437
ge m</w> 980023
exp ect</w> 979960
Publik um</w> 979672
Dem ok 979239
Bundes regierung</w> 978942
4 6 978833
pla ced</w> 978662
le sen</w> 978588
C ra 978502
T y 978431
beg innt</w> 978070
tri p</w> 977450
sp rä 977377
Ri si 977109
Net z 977101
V oll 977064
di stri 976685
com ment</w> 976576
Sch ie 976267
be stimm 976172
end or 975960
Wal es</w> 975917
ei m</w> 975884
geplan t</w> 975664
fer enz</w> 975584
di glich</w> 975305
mö glichen</w> 975143
Ini ti 974945
olog ie</w> 974921
buil t</w> 974867
F al 974678
foc us</w> 974618
A mt</w> 974569
ß er</w> 974504
reg ul 974246
b ran 974093
ban ks</w> 973861
hoh en</w> 973823
Ser ie</w> 973394
Co ach</w> 973116
im mi 973048
Lei p 972914
ki ds</w> 972867
h und 972600
ich t 972320
Ge gner</w> 972136
unter wegs</w> 971617
b um</w> 971519
f el</w> 971504
K ol 970993
sa d</w> 970984
tu al</w> 970711
gel d</w> 970413
R ed</w> 969664
re fle 969317
om en</w> 969037
Bu ch 968458
Aut os</w> 968172
al es</w> 967910
fig ures</w> 967747
Dem oc 967526
au ßer 967293
stim men</w> 967292
fi k 967030
kon tro 966537
wir tschaft</w> 966520
w ollten</w> 966450
he al 966317
inci dent</w> 965982
Put in</w> 965907
gesch lagen</w> 965869
mark ets</w> 965666
follo wed</w> 965591
F rom</w> 965426
Z ahlen</w> 965419
hau sen</w> 965308
Behör den</w> 964923
el ten</w> 964716
zi l</w> 964655
W ahr 964438
st ood</w> 964434
c ation</w> 963663
K n 963302
lat t</w> 963298
ac king</w> 962869
chall enge</w> 962712
b at 962628
el li 962098
bi a</w> 962027
geh end</w> 961907
not wen 961764
tri al</w> 961295
o d 961265
kt ur</w> 961013
ab en</w> 960954
poli tik</w> 960928
ri age</w> 960825
R am 960777
sa fet 960686
sk y</w> 960684
s mo 960459
b ill</w> 960286
beh ör 960138
re ach</w> 959678
Gener al 959657
ag s</w> 959201
Ein en</w> 958919
inf lu 958858
safet y</w> 958798
st ür 958528
belie ved</w> 958444
S ohn</w> 958113
hör en</w> 958011
nut zen</w> 957572
er er</w> 957524
Jür gen</w> 957437
A tom 957337
E ben 957326
Regi erungs 956891
m .</w> 956515
j ects</w> 956291
ord nung</w> 956271
z ens</w> 956213
so zial 955963
A c 955914
I mp 955884
con ne 955876
am ing</w> 955573
wal k</w> 955397
O per 955178
Sim on</w> 955042
s w 954637
caus ed</w> 954500
S z 954315
A F 954197
Sais on 954047
dra mati 953884
spe ech</w> 953822
pati ents</w> 953494
Lö sung</w> 953201
Kri se</w> 953114
kün digt</w> 952666
ser ve</w> 952363
Mar ia</w> 952300
L IN 952281
ge wi 952102
Ide e</w> 951705
Kolle gen</w> 951647
schnit t</w> 951645
al one</w> 951557
sa h</w> 951324
Som mer 951176
k i</w> 950861
Me dien 950834
le t 950663
Sy stem</w> 950049
pre di 949456
e th 949429
10 . 949056
k ö 948542
Er d 948184
Sch le 947978
S eb 947661
ort ing</w> 946790
müs sten</w> 946552
sm us</w> 946528
Mr s</w> 946264
fin ally</w> 946253
M ig 946111
dig keit</w> 946083
geh ö 945540
an ne</w> 945015
se em</w> 944974
au di 944490
end lich</w> 944467
B all</w> 944453
An aly 943337
fol gen</w> 943245
on s 943218
Ser vice</w> 943067
Sch wi 942954
je dem</w> 942865
S ter 942783
lin ed</w> 942779
call s</w> 942678
ein gel 942602
schrei ben</w> 942257
H y 942242
ju d 941958
zi erung</w> 941766
natur al</w> 941319
fass ungs 940954
off ered</w> 940916
v ey</w> 940808
organ i 940699
Men schen 940548
tal king</w> 940026
H än 939317
sc ene</w> 938672
sex ual</w> 938641
offic ers</w> 938618
j ahr 938615
mid dle</w> 938560
C a 938505
mor gen</w> 938334
ti s</w> 938170
f und</w> 938167
to urn 937905
agre ed</w> 937797
G a 937707
in st 937694
Gr and</w> 937475
en se</w> 937372
ver se</w> 937370
cul ture</w> 937220
comm un 937058
Konkur ren 936471
k tions 936405
E N</w> 936230
H älfte</w> 936169
Spitz en 936092
be ein 935786
St elle</w> 935748
W ein 935556
ol z</w> 935514
U p 935158
K h 934546
Com mission</w> 934374
Itali en</w> 934345
seem ed</w> 934182
n ungs 934045
Mu seum</w> 934041
s old</w> 933909
verschie denen</w> 933825
bu dget</w> 933587
es sion</w> 933454
ger u 933133
Li ber 932507
ch tet</w> 932436
R ec 932284
nis sen</w> 932239
anc y</w> 931983
J ack 931922
C enter</w> 931731
nä mlich</w> 931577
Zusch auer</w> 931570
zah lt</w> 930769
Dem on 930722
Win ter</w> 930182
Be schäf 929821
Grie chen 929177
off ers</w> 929036
tern ative</w> 929004
spo t</w> 928682
el a</w> 928599
deta ils</w> 928400
T äter</w> 927668
G leich 927488
wen ige</w> 927335
Afri ca</w> 927080
F I 926962
ap par 926882
Ma sch 926867
t är 926663
W ert</w> 926614
Ju st</w> 926587
H S</w> 926018
ati c</w> 925995
w en</w> 925829
ist e</w> 925770
brau chen</w> 925755
op ti 925707
d ated</w> 925648
dra w</w> 925592
2 6 925423
sprech er</w> 925252
par ts</w> 925108
tal ks</w> 925017
ge gangen</w> 924884
ra d</w> 924793
Wei se</w> 924757
te dly</w> 924634
min al</w> 924574
strai ght</w> 924547
gh tly</w> 923703
Zusammen arbeit</w> 923584
I tal 923452
m ale</w> 923110
A ir</w> 922955
m ort 922839
h eu 922793
F ei 922265
der er</w> 922202
po or</w> 922056
Fin ale</w> 921929
success ful</w> 921922
consi der 921705
v is</w> 921595
ach ten</w> 921145
H eute</w> 921060
G ut 920877
H on 920759
en ced</w> 920746
Ge setz 920640
re ta 920268
t i</w> 920156
ent ur</w> 919673
sp end</w> 919502
level s</w> 919502
op h 919485
pp er</w> 919285
L ad 919215
j ähr 919038
verk ehr</w> 918903
exp ec 918813
be vor</w> 918787
fäl le</w> 918646
dar um</w> 918630
comple te</w> 918522
neu er</w> 918323
nor mal</w> 918279
administ ration</w> 918150
tiv ity</w> 917679
l led</w> 917642
ä s 916728
G or 916229
A ma 916014
Stu die</w> 916002
Me anwhile</w> 915767
v ent</w> 915621
si ze</w> 915499
de st</w> 915456
Pf arr 915433
bus in 915420
de p 915095
Flücht l 915070
gir ls</w> 914945
K ev 914629
and a</w> 914600
0 9</w> 914476
Ver letz 914420
gew onnen</w> 914210
ad ding</w> 913931
Ak ti 913734
C N 913689
pro ce 913592
S har 913577
com pared</w> 913465
y ond</w> 913453
zei ten</w> 913436
Wohn ung</w> 913417
on to</w> 913062
Sch ließ 912730
Mot or 912536
di se 912529
näch ste</w> 912119
Bil d 911783
Al so</w> 911589
Sp ain</w> 911587
B and</w> 911537
j en 911387
je des</w> 910899
re lated</w> 910727
Y et</w> 910466
Famili en 910442
el f</w> 910136
R ö 910046
be glei 909876
S in 909539
H anno 909464
Dok um 909451
Proz ess</w> 909417
d ance</w> 909305
spiel te</w> 909262
Air port</w> 909104
b es</w> 909103
B A</w> 908803
cri tic 908548
E N 908513
beha vi 908161
klär ung</w> 908159
appe ar</w> 907877
Teil nehmer</w> 907831
en burg</w> 907813
de bt</w> 907716
ga gement</w> 907702
A G</w> 907581
her self</w> 907181
chall eng 907083
be steht</w> 907070
tro ub 906862
O h 906786
m agaz 906665
per haps</w> 906201
C ha 905904
mar ried</w> 905735
Da für</w> 905593
lar gest</w> 904856
ani a</w> 904770
Indu stri 904528
l lt</w> 904422
gew ählt</w> 904276
Geh eim 904109
Ä n 904001
pie ce</w> 903871
Com p 903855
eff ect</w> 903816
opp ing</w> 903514
d rü 903148
dri ve</w> 903144
frü her</w> 903139
u red</w> 903114
cho ice</w> 902927
w ouldn</w> 902686
tr at</w> 902543
w ann</w> 902535
st ück</w> 901714
f ang 901701
Bel gi 901604
mov ie</w> 901465
as soci 901269
D ist 901142
gen ie 900895
St unde</w> 900743
K r 900535
Sach e</w> 900486
mer k 900108
A D 899996
Z ur</w> 899898
si tz</w> 899737
bloo d</w> 899432
em er 899366
pri son</w> 899257
Punk ten</w> 899210
mein te</w> 898904
gu n</w> 898653
st ands</w> 898609
A no 898496
te xt</w> 898432
ak er</w> 898107
maj ority</w> 897814
ent al</w> 897783
gest ern</w> 897452
Kl aus</w> 897215
G old</w> 897128
sh er</w> 897055
Ch e 896866
Ins gesamt</w> 896848
it ali 896675
Gra d</w> 896649
Secre tary</w> 896501
c tive</w> 896493
ck te</w> 896386
F ün 896371
me an 896053
0 er</w> 896042
clu bs</w> 895993
12 . 895874
W ar</w> 895688
8 , 895627
a der</w> 895502
do g</w> 895490
ter en</w> 895237
bür ger 895063
W erk 895049
ac tor</w> 894979
Ele k 894777
ver sucht</w> 894776
gew al 894768
zeu g</w> 894695
be tre 894613
f ä 894530
Kore a</w> 894499
Klas se</w> 894269
Joh ann 894039
di sche</w> 893984
Kon fli 893821
cre ated</w> 893774
Re uters</w> 893714
An gst</w> 893637
f ine</w> 893629
ev ening</w> 893575
st one</w> 893571
Nä he</w> 893110
ch mal</w> 893010
ol der</w> 892940
ol t</w> 892859
sa fe</w> 892849
Spiel en</w> 892772
for ms</w> 892704
Ital y</w> 892666
dr än 892644
str ateg 892613
ann ual</w> 892568
Scot tish</w> 892465
Seb a 892412
sp orts</w> 892354
betei li 892029
ver lassen</w> 891974
ra ised</w> 891927
viol ence</w> 891747
ut zt</w> 891543
ü r</w> 891494
gef allen</w> 891313
mar t 891219
Sta at 890989
D ri 890970
Inter esse</w> 890943
arri ved</w> 890663
B ör 890604
on ship</w> 890015
ar a</w> 889986
Kev in</w> 889686
A p 889565
Z e 889550
et ten</w> 889325
Nieder lage</w> 889246
Sch wer 889200
l ten</w> 889148
deb ate</w> 889136
M any</w> 888864
ct ure</w> 888722
auf zu 888683
ti ful</w> 888630
füh l</w> 888488
da d</w> 888374
Indi a</w> 888132
D üssel 887641
Gef ahr</w> 887595
Fuß ball 887550
cent ral</w> 887518
200 3</w> 887117
Syri a</w> 887017
un ser</w> 886191
schlä ge</w> 886168
eri schen</w> 886123
and al</w> 886078
los en</w> 886057
T ore</w> 885677
schwer en</w> 885615
we aring</w> 885375
mitt lerweile</w> 885374
z y</w> 885125
star ting</w> 885080
K lo 884848
zufrie den</w> 884496
Bevölk erung</w> 884352
lau b 884029
th an 883978
ec ut 883909
Mehr heit</w> 883696
op ened</w> 883474
re sear 882825
t aus 882751
L is 882688
Ver trag</w> 882606
Staatsan waltschaft</w> 882593
K ath 882416
Gu ardi 882302
T ay 882260
sto ß</w> 882238
Ano ther</w> 882157
fli ght</w> 882147
ger ung</w> 881862
appro ach</w> 881817
po st 881780
t on 881723
T ier 881709
tag abend</w> 881709
li ber 881537
em erg 881452
St r 881272
l ying</w> 881145
T ie 881100
Sch la 880988
tel evision</w> 880788
Wal d 880765
Willi am</w> 880566
ju dge</w> 880561
act ress</w> 880454
s in 880085
com b 880040
Mon at</w> 879835
o p</w> 879515
geschri eben</w> 879339
w under 879067
er y</w> 878635
pen sion</w> 878364
B en</w> 878292
Au gen</w> 878143
I s</w> 878087
sp ot 877918
Syri en</w> 877891
w elt</w> 877729
ig t</w> 877567
B ig</w> 877542
P rü 877467
Prot est 877466
vot ers</w> 877458
ad ed</w> 877427
fe eling</w> 877286
in ts</w> 877067
num bers</w> 876830
B asi 876716
Ge w 876526
J ung 876444
tion ed</w> 876293
sch rieb</w> 876198
Wh y</w> 875861
v ement</w> 875788
A ch 875562
emplo ye 875537
Mei ster 875465
scho ols</w> 875324
Bo den</w> 875266
Americ ans</w> 875162
Dies es</w> 874592
F as 874560
l o</w> 873883
gew öhn 873867
st ück 873674
C lar 873651
Sch ri 873638
M y 873451
ko sten 873146
Krie g</w> 873057
mul ti 872794
gh out</w> 872784
Mark us</w> 872476
pre mi 872211
mo dern</w> 872207
s ort</w> 872126
comm ents</w> 872109
durch aus</w> 872056
uni ties</w> 871882
iel ten</w> 871832
S än 871517
se tt 871380
ey es</w> 871146
k ore 871076
gel ö 871005
alisi erung</w> 870953
pres ent</w> 870870
Fran c 870780
Besu ch</w> 870750
ho he</w> 870746
d ul 870658
h ü 870548
i ed</w> 870215
s .</w> 869824
im age</w> 869799
ing ham</w> 869742
G las 869733
forder te</w> 869726
R ie 869532
si erte</w> 869472
retur ned</w> 869405
G abri 869364
ä m 869089
holi day</w> 869055
le ben 868942
my self</w> 868472
P op 868412
ens ure</w> 868046
stru ction</w> 867940
im ag 867930
A h 867764
dr in 867753
Ren nen</w> 867678
tem per 867671
wi sh</w> 867612
st ran 867023
öffent lichen</w> 866874
u ri 866830
appe ars</w> 866526
Schl ag 866143
ni ed 865942
inten si 865902
En d 865891
A C 865839
fu hr</w> 865826
t ely</w> 865652
V ie 865235
sei te</w> 865225
program me</w> 865179
b lue</w> 865080
welt weit</w> 865067
dan ken</w> 864982
E L 864973
lo h 864891
sy mp 864626
hom es</w> 864599
bro ad 864418
ein ander 863787
pas st</w> 863765
Ver bin 863680
K rä 863662
Berei ts</w> 863371
Inter view</w> 863225
war um</w> 862948
Tu be</w> 862466
ush ed</w> 862182
För der 862073
aktu ellen</w> 862013
anc ing</w> 861623
L am 860880
is er</w> 860759
exp res 860545
me d 859887
S ing 859674
ver fahren</w> 859506
th inking</w> 859398
be kommt</w> 859179
Ab geord 859095
batt le</w> 858917
champi on</w> 858843
8 00</w> 858560
ci ans</w> 858369
gest al 858277
k oh 858144
V W</w> 858099
K el 858006
we ather</w> 857821
fam ous</w> 857706
an ces</w> 857248
educ ation</w> 856985
Ur teil</w> 856936
offic er</w> 856864
ob vi 856801
ar gum 856616
C l 856541
Dre i</w> 856526
W ort</w> 856484
organ iz 856329
u ter</w> 855940
R ent 855763
wei st</w> 855513
z on</w> 855492
war ten</w> 855482
Ge gen</w> 855365
si t</w> 855116
perf ect</w> 855081
Mos k 854920
sh es</w> 854914
f ying</w> 854828
ge zogen</w> 854813
T em 854793
S he 854785
Ma x</w> 854680
R ol 854637
immedi ately</w> 854635
sci enti 854512
Sch mid 854475
Te ams</w> 853802
w ander 853571
bre chen</w> 852788
mas sive</w> 852565
w all</w> 852320
her aus 851734
char ged</w> 851363
ges ell 851336
gen der</w> 851253
g nis</w> 851121
arre sted</w> 851112
an i</w> 851072
mar riage</w> 850687
Um welt 850407
ong side</w> 850385
Gl ück</w> 850048
D res 849925
Hau shal 849918
200 2</w> 849848
I T 849525
Auf gabe</w> 849296
z ing</w> 849274
gre en</w> 849264
demo kra 849128
eff ort</w> 848898
vor bei</w> 848831
Her aus 848678
t ouri 848648
C as 848465
er a</w> 848314
Ko alition</w> 848202
ten de</w> 848071
P unkt</w> 847500
län e</w> 847318
ent y</w> 847201
re member</w> 847112
Ge werk 847090
J on 847082
Maß nahmen</w> 846863
h l</w> 846831
Olymp ic</w> 846623
la d 846584
Mi d 846546
rech t 846520
na he</w> 846253
gemein s 846175
Chanc en</w> 846159
kenn t 846117
H ü 846077
We ch 845482
t ough</w> 845354
C am 845199
T ory</w> 845186
ul ly</w> 845180
b ru 845035
. at</w> 844923
3 3 844887
B lack</w> 844841
res er 844805
t al</w> 844601
Stu di 844574
Pati enten</w> 844394
S t</w> 843922
stän de</w> 843905
or in</w> 843670
cent ury</w> 843659
fini shed</w> 843648
m ein</w> 843553
dem and</w> 843528
cle arly</w> 843243
re ds</w> 843193
Ver gan 842938
Geschäfts führer</w> 842934
den noch</w> 842929
im e</w> 842788
am mer</w> 842764
mo b 842699
p il 842251
geb ung</w> 842100
spo ke</w> 842036
Aut ob 841837
to m</w> 841793
tar get</w> 841573
agre ement</w> 841320
Tab ellen 841047
si g</w> 840947
squ ad</w> 840826
Vi de 840797
sig keit</w> 840582
li t</w> 840436
f tigen</w> 840423
fra stru 840221
th a</w> 840191
is on</w> 840067
p age</w> 839807
Ak tu 839326
sti ge</w> 839184
ini ert</w> 838734
Kar ri 838673
Seba stian</w> 838504
&apos; It</w> 838441
syst ems</w> 838386
ö ster 837574
st un 837428
ac i 837328
Ver fahren</w> 837259
Vic tori 837034
ge he</w> 836981
Re de</w> 836819
D DR</w> 836726
C ru 836648
ä r</w> 836614
f it 836516
6 00</w> 836222
Hol z 836103
s om 836090
kl ein 835948
tr on 835940
at ory</w> 835934
Tre ffen</w> 835821
Lu x 835688
be ste</w> 835513
consi dered</w> 835352
bro ther</w> 834616
200 1</w> 834419
Des p 833943
con clu 833891
kno ws</w> 833822
Un fall</w> 833807
ag ers</w> 833614
Öff ent 833142
mis sing</w> 833054
auf grund</w> 833026
wi lli 832753
M and 832608
figh ting</w> 832498
t tem 832378
Rich ter</w> 832322
v als</w> 832209
ä te</w> 831927
kl assi 831703
Präsi denten</w> 831604
Sal z 831482
Priv at 831477
en g</w> 831264
internation alen</w> 831086
ma il</w> 831079
concern s</w> 831021
R et 830786
steh enden</w> 830563
mis sion 830547
eff orts</w> 830524
ist s</w> 830425
dom in 830349
k y</w> 830152
er fü 830003
An der 829851
simp le</w> 829818
t ch</w> 829749
Gesund heits 829646
ehemali gen</w> 829610
sa ve</w> 829568
f ert</w> 829511
p on 829375
E S 829225
Jahr zeh 829190
be yond</w> 828892
b ay 828727
B aden</w> 828579
fem ale</w> 828427
der te</w> 827925
M P</w> 827870
sch lu 827588
repres ent 827515
Ar gent 827426
entschei den</w> 827333
Regier ung 827292
l s 827289
Ma il 827035
Universi tät</w> 826715
vi r 826676
ar i</w> 826637
fu n</w> 826618
d ingt</w> 826569
B S</w> 826485
war ned</w> 826292
Off ice</w> 826290
sor gung</w> 826139
p sych 826132
Man ager</w> 826075
le diglich</w> 825627
Schul en</w> 825609
o vic</w> 825607
mon d</w> 825252
ak es</w> 824986
orig inal</w> 824798
mehr eren</w> 824671
stim mt</w> 824560
z ul 824556
ses sion</w> 824346
Scot t</w> 824105
ar gu 823678
Frie d 823462
gan zen</w> 823291
nu clear</w> 822815
mei st</w> 822720
fe et</w> 822703
victi ms</w> 822694
Ale x</w> 822629
K enn 822407
Kranken haus</w> 822124
c us</w> 821593
fre e 821593
Flori da</w> 821551
gen au 821485
le tter</w> 821437
el ess</w> 821184
A li 820935
pla ces</w> 820701
zei chen</w> 820639
stag abend</w> 819679
r unde</w> 819524
I T</w> 819520
Ih nen</w> 819478
ac tions</w> 819387
b oss</w> 818903
ri s</w> 818797
Mo der 818679
rech ts 818295
ver letz 818273
Nach richten 818245
as p 817781
w ritten</w> 817643
b id</w> 817293
c ars</w> 817281
ff enen</w> 817256
bour ne</w> 816818
Haupt stadt</w> 816797
en or 816794
Com pu 816432
g ül 816366
re view</w> 816231
f än 816039
A ff 816008
dou bt</w> 815860
invest ors</w> 815762
kur z 815742
si des</w> 815669
em y</w> 815502
Ste ve</w> 815210
ro man 815180
we ap 815013
di st 814987
T SV</w> 814830
erh eb 814691
War um</w> 814673
expla ined</w> 814351
Tex as</w> 814128
Spa ß</w> 813968
Sk y</w> 813842
mos ph 813771
T om 813673
O sc 813559
i k</w> 813343
ation al</w> 813238
N ie 812902
ten den</w> 812798
reach ed</w> 812791
star ken</w> 812760
Di rec 812692
entfer nt</w> 812658
l ers</w> 812586
entschei den 812575
Bet ei 812310
incre ased</w> 812267
p t</w> 812262
S ur 812261
Strei t</w> 812194
c ated</w> 812116
we ar</w> 811860
D rei 811839
tri fft</w> 811695
Sp ie 811549
E ing 811407
h ung</w> 810860
G ün 810807
ef s</w> 810719
Bla ck 810079
beton t</w> 809972
Desp ite</w> 809631
F ron 809610
f tige</w> 809605
hin gegen</w> 809578
dru gs</w> 809393
ra d 809341
re form</w> 809311
8 5</w> 809287
see ing</w> 809125
end um</w> 808833
r on</w> 808805
nat ure</w> 808761
B ill</w> 808698
ver ti 808455
Sch ö 808226
star tet</w> 807953
pa in 807922
S ub 807873
Tech n 807837
all ed</w> 807362
0 2</w> 807325
Ge walt</w> 806857
zahl reiche</w> 806856
Parl ament</w> 806818
L ü 806808
To day</w> 806772
agen cy</w> 806588
dri ving</w> 806510
gew ann</w> 806498
ach ing</w> 806447
Ph il 806327
al ter</w> 806256
stell ungen</w> 806062
tradi tion 805988
W un 805551
g ei 805437
P S</w> 805412
tourn ament</w> 805226
F le 805164
Famili en</w> 805154
al ongside</w> 805135
sie g</w> 804816
ha ven</w> 804570
u d</w> 804353
s m</w> 804134
lie fer 803975
bo ys</w> 803655
DF B</w> 803581
ex tra 803307
partic ular</w> 803263
C le 803078
W äh 803001
Ira q</w> 802960
Inv esti 802797
ob wohl</w> 802395
rech te</w> 802387
re spec 802382
A C</w> 802381
ge spielt</w> 802106
sho wing</w> 801894
K ate</w> 801670
so wohl</w> 801666
Ham ster</w> 801278
pro gramm</w> 801276
comple tely</w> 801229
ill ed</w> 801133
s end</w> 801061
ter te</w> 800761
ab or 800689
ö ße</w> 800655
zi sten</w> 800479
Re gen 800458
Griechen land</w> 800452
t elling</w> 800366
appear ance</w> 800159
ma xim 800038
v ille</w> 799802
fin anz 799802
de ep</w> 799684
Coun ty</w> 799469
bis schen</w> 799177
m ü 798919
ex ac 798186
L at 798108
gehö ri 798104
thi as</w> 798086
Lie be</w> 797974
r i</w> 797544
sitz t</w> 797524
Off en 797503
Hanno ver</w> 797389
Ei gen 797376
Andre w</w> 797368
schein lich</w> 796893
new sp 796749
H ere</w> 796739
ni emand</w> 796331
wa it</w> 796169
Brü s 795287
y ment</w> 795236
entwick elt</w> 795031
cau ght</w> 794990
p al 794978
Rett ungs 794902
G ames</w> 794836
cont act</w> 794668
sitz en</w> 794361
throu ghout</w> 793557
est abli 793234
Im age</w> 793207
g ingen</w> 793199
Ak tion</w> 792513
ti al</w> 792234
suff ered</w> 792081
T en 792008
er ster</w> 791984
Dem o 791826
te sten</w> 791781
ga in</w> 791556
H as 791487
C O 791384
Leist ung</w> 791269
Sol daten</w> 790950
se ctor</w> 790878
st ab 790824
kl asse</w> 790801
pass ed</w> 790762
produc t</w> 790653
spe ak</w> 790514
ing ing</w> 790468
suggest ed</w> 790466
ag entur</w> 790427
ut ter 790391
li eb 790171
ges ellschaft</w> 790016
Be zieh 789991
N ik 789968
op position</w> 789949
gr and 789873
äum e</w> 789821
H alle</w> 789713
ym n 789696
be obach 789681
Pro gram 789485
Veranstal tung</w> 789465
Feh ler</w> 789337
vol le</w> 789271
incre di 789049
no on</w> 789033
M ost</w> 788948
beau ty</w> 788827
e ds</w> 788725
Ry an</w> 788658
re gar 788636
pre ci 788454
L ord</w> 788437
he ar</w> 788265
thre at 787894
charac ter</w> 787678
b ahn 787535
schö n</w> 787179
con dition</w> 787118
parti cip 786989
pre gn 786940
ag o 786738
wh om</w> 786649
M ul 786583
deter min 786530
avo id</w> 786509
stre et</w> 786268
c m</w> 786212
f iel</w> 786133
f res 786048
1 000</w> 785836
Rei he</w> 785532
W ag 785526
zentr um</w> 785331
te en 785330
tr auen</w> 785209
x Hamster</w> 784744
H ome</w> 784738
ä st 784564
vol ution</w> 784541
T ony</w> 784395
thre at</w> 784305
st isch</w> 784192
tä r</w> 784157
H im 784155
A si 784067
tro ffen</w> 783924
anc ed</w> 783878
vers ammlung</w> 783875
S ince</w> 783773
inclu des</w> 783731
provi ded</w> 783720
Lu ft</w> 783253
ge zeigt</w> 783125
A th 783123
k ali 782673
in spi 782503
gel ten</w> 782428
sh ort 782075
us ually</w> 781983
verb in 781797
me ant</w> 781425
Pr in 781373
wi d 781304
bel ow</w> 781025
mob ile</w> 780955
commun ic 780898
f rau 780290
O der</w> 780241
at ri 780078
fel low</w> 779919
di a</w> 779724
fol low</w> 779699
Spani en</w> 779574
beau tiful</w> 779376
Z un 779263
erfolg reich</w> 779226
Tr otz</w> 779148
B und</w> 778995
kon kre 777724
a p</w> 777699
some times</w> 777583
län ger</w> 777578
Stim men</w> 777252
tür k 777246
Tran s 777205
ver anstal 776956
fe ar</w> 776930
D un 776421
ehemali ge</w> 776181
S lo 775993
C ur 775393
wen igen</w> 775325
p reis</w> 775177
wer ke</w> 775146
Kir chen 775071
ach es</w> 774887
sol chen</w> 774772
Kun st</w> 774772
Su per</w> 774771
4 5 774716
0 3</w> 774511
einzi ge</w> 774379
ack ed</w> 774208
r uns</w> 774117
chair man</w> 773903
ussi a</w> 773737
Nach dem</w> 773635
ber ech 773569
wich tige</w> 773461
consi der</w> 773422
Ermitt lungen</w> 773136
L ang 772554
fac ili 772439
sti gen</w> 772360
be deutet</w> 772209
sch auen</w> 771857
ste he</w> 771846
op tion</w> 771639
Demok ra 771575
T emp 771491
z immer</w> 771491
geru fen</w> 771465
Ha mil 771454
f ts 771409
laun ched</w> 771174
en cy</w> 770791
man aged</w> 770385
Er st 770352
M ü 770154
h as 770054
T op 769944
schl ands</w> 769872
leg is 769765
ler nen</w> 769479
professi onal</w> 769400
Her bst</w> 769390
mitt elt</w> 769114
E M</w> 769056
Europ äischen</w> 768963
stra tion</w> 768960
Al though</w> 768929
r ose</w> 768913
ter ri 768748
grap h</w> 768381
confi dence</w> 768340
mitt eln</w> 768261
mein t</w> 768235
fun ds</w> 768030
crow d</w> 768026
ab use</w> 767864
D on</w> 767815
desig ned</w> 767784
bor der</w> 767658
ak s</w> 767544
unser en</w> 767326
k al</w> 767324
di on</w> 767281
C i 767223
St rat 767051
pur ch 766960
benef its</w> 766746
sho wn</w> 766701
flo or</w> 766656
Kli ma 766602
D inge</w> 766599
fas st</w> 766597
man u 766497
Sen ate</w> 766419
or ie</w> 766343
Mi ke</w> 766147
kün digte</w> 766087
re ck 766050
D rit 765750
F eri 765630
jo in</w> 765484
gen eh 765429
Au stri 765283
Se kunden</w> 765252
B ö 765169
Sch ei 764790
au ßerdem</w> 764703
er ie</w> 764586
Sch ön 764545
Bar ack</w> 764525
st ly</w> 764442
am i</w> 764301
z ung</w> 764256
ge g 764141
Wach st 763924
t ö 763763
Nach wu 763719
Fol gen</w> 763717
tur al</w> 763678
Heraus forder 763600
w and</w> 763598
con ta 763519
b ase</w> 763166
get ö 762869
dec ades</w> 762810
Partei en</w> 762721
S we 762468
Ri o</w> 762137
ein er 761961
. m.</w> 761841
Ein satz 761806
Ver hält 761656
los ing</w> 761568
St and</w> 761337
mat erial</w> 761267
bri dge</w> 761176
J ac 760589
Mer ce 760542
le gte</w> 760520
ff s</w> 760510
ans wer</w> 760493
belie ves</w> 760423
her aus</w> 760191
E ver 760123
oo d 760086
ci ti 760064
stu di 759961
Ergeb nisse</w> 759891
Z war</w> 759880
ig ar 759630
Af D</w> 759512
ro s</w> 759429
elec tri 759357
d ol 759290
wor st</w> 759276
ges sen</w> 759245
k w</w> 758955
g as 758784
P ause</w> 758629
r ying</w> 758393
organ isation</w> 758280
tra f</w> 758226
s au 757852
gel y</w> 757844
P lan</w> 757787
com men 757723
erst ör 757535
Dat en 757255
dam age</w> 757229
resp ect</w> 757191
K y 757150
pri mar 756994
i scher</w> 756879
wa iting</w> 756766
par ties</w> 756754
R und 756715
prot ect</w> 756689
k ick 756688
W ander 756679
dro p</w> 756622
L A 756457
bel e 756390
ö tz 756094
fri end 755979
Unter nehmen 755858
gesch ichte</w> 755816
B au</w> 755612
tra in</w> 755497
Ban ken</w> 755365
high est</w> 755226
Auf tritt</w> 755102
s ale</w> 755093
B it 755064
G as 755000
ver dien 754990
ef ully</w> 754591
le ts</w> 754509
cri me</w> 754491
wor fen</w> 754322
desig n</w> 754237
c ans</w> 754234
J es 754208
Ab schluss</w> 754159
j ected</w> 753987
Schmid t</w> 753930
9 6</w> 753892
R an 753720
E t 753708
Hamil ton</w> 753504
bekann te</w> 753213
net work</w> 753032
wor k 752892
sch au 752691
m es 752647
Br un 752385
p un 752360
schri ft</w> 752198
suppor ters</w> 752147
kei ts 752108
gel assen</w> 751949
Su che</w> 751930
Fran z 751840
m än 751811
ber n</w> 751528
sol le</w> 751434
Sch ütz 751257
Flugha fen</w> 751199
dis appoin 751177
wat ching</w> 751075
fas hion</w> 750915
dar in</w> 750570
ad dress</w> 750503
hal tung</w> 750448
f a</w> 750404
poli tics</w> 750366
er läu 750138
call ing</w> 750136
Bor ussia</w> 750114
ru s</w> 750064
T un 749903
aw are</w> 749884
I V</w> 749371
ot h</w> 749122
hi g</w> 749064
I st</w> 749054
milli ons</w> 748933
sch em</w> 748864
J a</w> 748640
si tes</w> 748372
m outh</w> 748327
Men sch</w> 748323
ha f 748288
m einer</w> 748030
presi dential</w> 747930
ste ckt</w> 747887
n ar 747733
si erung</w> 747516
Merce des</w> 747474
wi se</w> 747422
frei en</w> 747142
car ried</w> 747031
p ap 747001
h ou 746976
Konz ern</w> 746928
lu st</w> 746854
iel d</w> 746822
4 0 746766
mittei lte</w> 746732
stei ger</w> 746730
Vergan genheit</w> 746648
f oot</w> 746571
necess ary</w> 746403
un ding</w> 746344
deli ver 746341
t um 746039
mo un 745919
hol ding</w> 745826
Organ is 745747
inter essi 745577
S ecu 745410
i x</w> 745386
sur ro 745362
versi ty</w> 744907
off iz 744859
p re</w> 744854
li eben</w> 744784
gest ie 744624
B os 744331
ange sichts</w> 744167
Mur ray</w> 744073
Schwar z 744013
put ting</w> 744009
Y ou 743974
E L</w> 743955
ver wen 743949
Char les</w> 743856
Fil m 743809
S ci 743649
Dopp el 743643
Deut schlands</w> 743527
Sp an 743222
R oll 743164
am bi 743032
k aufen</w> 742550
t ab 742450
p aper</w> 742448
mi sche</w> 742440
Mün chner</w> 742275
Bra sili 742228
fa ir 742163
si ster</w> 742014
sch li 741930
cl osed</w> 741819
spre ad</w> 741797
x ing</w> 741689
A gent 741668
individu al</w> 741615
S ab 741612
disk u 741596
Her r</w> 741591
schl ossen 741353
wi der 741262
Betri ebs 741111
z e 741101
Wei ter 741059
Dur ing</w> 740477
Sp itze</w> 740441
beg eist 740148
si onen</w> 739989
B M 739650
hal te</w> 739462
bo y 739424
ig keiten</w> 739370
Bus h</w> 738777
St ru 738396
sozi alen</w> 738374
spr ung</w> 738294
Lei ter</w> 738277
app lic 738149
Wei tere</w> 738085
h ielt</w> 738061
20 .</w> 738061
in stru 737938
He alth</w> 737908
defe at</w> 737876
lea der 737747
7 2</w> 737633
Land kreis</w> 737427
verk auft</w> 737314
s ons</w> 737303
pf el</w> 737232
k il 737099
N ich 736962
K lu 736743
w ind</w> 736500
b on 736473
N ah 736414
T ä 736357
T im</w> 736307
lo an</w> 736133
gr enz 736080
Sch ool</w> 735822
attemp t</w> 735780
Asy l 735759
ren e 735734
R at 735662
zi er 735616
Car ol 735499
p ick</w> 735411
Mom ent</w> 735366
ten ham</w> 735225
err t</w> 735036
res ol 734979
Z eh 734887
s elling</w> 734834
wi s</w> 734644
wech sel</w> 734437
le ss 734359
ag gres 734085
G ott 734081
enti re</w> 733880
Vertre ter</w> 733577
f ly</w> 733084
6 4</w> 732958
twi ce</w> 732918
St ati 732911
sch ick 732890
Hinter grund</w> 732731
lan gu 732683
Bei de</w> 732669
sub ject</w> 732552
dru ck 732533
ep s</w> 732419
ligen ce</w> 732333
sc en 732239
mur der</w> 732236
dise ase</w> 732205
b ü 732173
Rh ein 732088
s un 731971
K ie 731927
mi se</w> 731600
dri ver</w> 731596
rech nen</w> 731558
Wi es 731248
l or</w> 731111
p rec 730909
Jo e</w> 730878
ver ab 730489
gi schen</w> 730325
re ment</w> 730252
grün det</w> 730240
sti k</w> 730232
F lä 730177
Ge setz</w> 730118
Them en</w> 730001
ar d 729950
T H 729931
us ual</w> 729853
Ver s 729538
unterstütz t</w> 729504
sp ür 729284
es a</w> 729252
J an</w> 729218
Ant wort</w> 729204
se c 728942
ho ben</w> 728777
M oh 728762
Con gress</w> 728596
scre en</w> 727976
C lau 727968
Ti ere</w> 727754
insur ance</w> 727739
ch a 727566
Dien st 727335
berei tet</w> 727177
com fort 727131
Schwei z</w> 727028
Patri ck</w> 727004
di sa 726886
g by</w> 726759
ent ri 726584
F en 726422
m bo 726375
ub il 726309
N ummer</w> 726112
benef it</w> 725639
impro ve</w> 725572
um s 725339
Mel bourne</w> 725331
L ok 725104
z ählt</w> 724880
Poli zisten</w> 724691
b ad 724686
Jo ach 724673
G ir 724572
An ti 724522
ti ven</w> 724275
Te am 724171
com mer 724166
fl ü 723836
c enter</w> 723820
wri ting</w> 723720
gre at 723603
Bet ro 723469
Mit glied</w> 723335
gar ten</w> 723326
N az 723238
Mc C 723166
H igh</w> 723062
Di re 722952
Deb atte</w> 722852
S um 722778
T ö 722736
sc ore</w> 722720
Part ner</w> 722461
di ag 722283
Prof essor</w> 722275
Associ ation</w> 722264
c uts</w> 722251
j et 722211
N R 722168
Gol d 721929
Be deut 721907
au ff 721878
lei sten</w> 721767
tei len</w> 721710
R ü 721389
las h 721359
differ ence</w> 721247
Ge win 721225
pa ying</w> 721223
tra g 721172
ge halten</w> 721119
exac tly</w> 721105
Au gen 720919
so ciety</w> 720675
d opp 720672
r ent</w> 720553
Aus stellung</w> 720496
spoli tik</w> 720454
k tion 720411
er o 720278
Wal ter</w> 720087
berich ten</w> 719906
dro ht</w> 719885
n al</w> 719702
V il 719659
enn ung</w> 719654
te u 719407
W ur 719375
gel t</w> 719189
sti schen</w> 719128
6 6</w> 719104
F otos</w> 718733
Be st</w> 718317
g rie 718190
th ri 718183
Dru ck 718117
B rau 717893
g t 717809
h n 717658
Joach im</w> 717308
Vor stand 717230
ar tic 717033
f red</w> 716758
Be wegung</w> 716757
la den</w> 716524
Stra ßen</w> 716446
Verhand lungen</w> 716281
Möglich keiten</w> 716204
pri me</w> 716097
fre und 715754
g ün 715633
sch wei 715529
Pres se</w> 715493
be tra 715456
Beru fs 715338
D e</w> 715237
st ore</w> 714984
erinn ert</w> 714964
tr otzdem</w> 714698
fac es</w> 714491
coun t</w> 714434
be grü 714401
fun ding</w> 714356
ti erten</w> 714318
T at</w> 714218
M ic 714120
fic ation</w> 714025
A ri 713952
Go d</w> 713934
Sen i 713767
A b</w> 713648
p oll 713513
a id</w> 713315
typ e</w> 713185
früh eren</w> 713000
Leip zig</w> 712995
F estival</w> 712891
Sau di</w> 712510
mb H</w> 712400
gi c</w> 712012
sh irt</w> 711612
vor zu 711567
plan e</w> 711375
R und</w> 711372
A M 711350
wär en</w> 711334
20 20</w> 711300
e ful</w> 711174
pe ace</w> 711159
basi s</w> 711128
ro oms</w> 711099
dan ger 710967
alist s</w> 710919
sol di 710908
gu ar 710881
et tel</w> 710476
hol t</w> 710451
den falls</w> 710105
str ate 710091
We gen</w> 710084
high ly</w> 710057
S ani 710029
hei mer</w> 709874
Re d 709644
Rei se</w> 709639
W ill</w> 709241
fac ed</w> 709238
and ed</w> 709203
inju red</w> 708929
dro pped</w> 708713
ac tive</w> 708420
sitz er</w> 708312
after noon</w> 708073
di vi 708067
verhin dern</w> 707675
ra ise</w> 707449
ein z 707335
ut ely</w> 707147
T est 707068
D au 706959
ep tion</w> 706868
Gemeinder at</w> 706707
F ig 706595
pla ys</w> 706445
con vi 706364
Schl uss</w> 706363
ho t</w> 706335
Vorsitz ender</w> 706270
Organ isation</w> 706268
as king</w> 706210
lo ved</w> 705978
k ungen</w> 705904
Th eir</w> 705876
ver trag</w> 705223
alle g 705092
rep ubli 705062
spr ün 704988
Wer ner</w> 704978
nor th</w> 704875
de ep 704661
. .</w> 704647
ot te</w> 704631
pro fi 704531
H ir 704510
ac ken</w> 704407
stu dent</w> 704291
S am</w> 704031
freu en</w> 703992
ver pflich 703921
komple tt</w> 703905
F ak 703896
gener ation</w> 703594
hund reds</w> 703580
sch u 703551
Im mobili 703405
m i</w> 703403
sta ke</w> 703177
C olle 702929
sk in</w> 702925
b ought</w> 702924
n ings</w> 702803
CN N</w> 702799
ma g</w> 702693
ra in</w> 702659
K rei 702615
C li 702504
zi erte</w> 702462
ac ted</w> 702431
ad d</w> 702310
hab t</w> 702263
c ting</w> 702198
In te 701925
Fern seh 701839
for men</w> 701644
ch eck</w> 701632
15 .</w> 701610
R ang</w> 701512
au sen</w> 701305
bestä tigt</w> 701241
än dern</w> 701043
Bil dungs 700856
st ets</w> 700736
is es</w> 700726
ma kers</w> 700700
sogenann ten</w> 700697
gi ves</w> 700666
Wür ttem 700628
rei chte</w> 700623
s ungen</w> 700526
ot a</w> 700423
geb ro 700416
s se</w> 700405
d den</w> 700396
he aring</w> 700280
di plom 700242
sho oting</w> 700241
mort g 699995
At lan 699964
Eig ent 699910
fort un 699880
stra h 699776
voll er</w> 699765
Re ak 699707
Z ü 699669
th in</w> 699462
l or 699440
spe ed</w> 699427
se kre 699265
dar k</w> 699235
gu il 699179
i gi 699103
be coming</w> 698953
ow ner</w> 698860
b aller</w> 698703
respon sible</w> 698588
H ist 698456
L eu 698368
Vor berei 698298
n i</w> 698235
li ter 698059
ic a</w> 697939
Hei mat 697876
Lin ie</w> 697755
Per son</w> 697714
D ou 697525
ad mi 697168
ac ci 697143
enjo y</w> 696716
ath oli 696610
am az 696505
tra v 696386
wor se</w> 696255
fra u</w> 696214
de ck 696171
stär ker</w> 696070
Rek ord 695926
Fran z</w> 695846
S ant 695766
Hi gh 695750
fi f 695613
recei ve</w> 695567
N ür 695540
2 50</w> 695536
Sitz ung</w> 695475
in ho</w> 695342
Ehr en 695337
sor gte</w> 695280
tra gs 695265
c ros 695264
je kt</w> 695262
K ro 695048
Ch il 695027
c ester</w> 694946
rech ts</w> 694902
ologi cal</w> 694802
sch ü 694789
Mei ster</w> 694759
Rom an</w> 694716
concern ed</w> 694165
per fe 694131
la tions</w> 694063
G mbH</w> 693943
D F</w> 693922
pre par 693727
b rit 693503
do ws</w> 693470
Z us 693348
Nach fol 693321
ben ö 693207
N ick</w> 692907
sti sche</w> 692650
Arbei ten</w> 692600
j emand</w> 692544
m einen</w> 692454
Mili tär 692390
Geb urt 692285
alle ged</w> 692176
inv esti 692088
ni ce</w> 691689
erg än 691444
Sonn en 691259
ck ets</w> 691034
ho fft</w> 690830
ad vice</w> 690796
ein st</w> 690627
le i</w> 690545
be th</w> 690394
jüng sten</w> 690380
star ke</w> 690352
v ill 690308
MP s</w> 690252
h ood</w> 690225
wei t 690121
Schwei zer</w> 690090
dec ade</w> 690002
d wi 689837
def ence</w> 689689
Kur z</w> 689603
st rä 689510
meas ures</w> 689443
ma chten</w> 689335
E he 689333
wir kt</w> 689212
sc ri 689196
N u 688840
N ar 688592
J ord 688549
nation alen</w> 688472
enn is</w> 688470
Le wis</w> 688346
Democ rats</w> 688037
L E 687999
Brüs sel</w> 687979
erk ennen</w> 687902
G ruppen</w> 687820
Ham burger</w> 687820
as es</w> 687759
amp ag 687713
P reise</w> 687680
k el 687482
Li ve</w> 687392
beg ann</w> 687388
l ass</w> 687357
6 3</w> 687333
gri ffen</w> 687280
e e 687061
C .</w> 687030
k et 686993
Hoff nung</w> 686936
sta at</w> 686899
contri bu 686882
keep ing</w> 686333
y es</w> 686150
econo mi 686044
l eng 685750
Den noch</w> 685598
7 1</w> 685548
i ere</w> 685500
Mein ung</w> 685456
trans fer</w> 685179
pl ötz 685162
mar t</w> 684839
sp rü 684813
passi ert</w> 684689
dri ch</w> 684540
con f 684490
ran ts</w> 684470
Aus land</w> 684313
ri schen</w> 684277
am in</w> 684045
c in 684001
Ste ph 683905
Kran k 683902
L e</w> 683876
ep is 683827
ex er 683778
6 2</w> 683693
Le e</w> 683538
Karri ere</w> 683314
ran g</w> 683234
h it 683201
Welt meister</w> 682478
Op position</w> 682421
Sp or 682214
re ali 682205
B rei 682173
Li cht</w> 682103
Geschä ft</w> 682059
Nat ürlich</w> 681933
a c</w> 681918
medi z 681805
g ä 681751
Dan ach</w> 681743
Öffent lichkeit</w> 681619
Ama zon</w> 681595
ast ern</w> 681097
plan ning</w> 680950
unter nehmen</w> 680697
Mosk au</w> 680693
Demo cratic</w> 680561
An hän 680554
mat es</w> 680433
verantwor tlich</w> 680397
ver suchen</w> 680325
Kul tur</w> 680304
beg inning</w> 680269
ve au</w> 680188
A .</w> 680030
Ju gend</w> 680017
C E 679999
requi red</w> 679948
a im 679895
hr er</w> 679879
her vor 679861
B om 679636
v il 679598
s an 679530
adv ant 679300
resear chers</w> 679192
6 7</w> 679133
gen utzt</w> 679109
Or d 679082
6 1</w> 679049
ver waltung</w> 678939
ast rop 678917
leader ship</w> 678431
l t 678400
gerich tet</w> 678055
M ob 677546
brit anni 677527
grei fen</w> 677506
ak ed</w> 676979
Bet reu 676964
m mer</w> 676811
ins besondere</w> 676687
Verantwor tung</w> 676674
K no 676661
candid ate</w> 676286
k auf 676196
X X 676152
gef ra 676042
bra in</w> 675953
er enden</w> 675915
esti c</w> 675704
Wol fs 675530
i erten</w> 675478
Künst ler</w> 675422
kämp fen</w> 675369
19 .</w> 675355
Gemein de 675325
gel ei 675322
lear n</w> 675290
lo ad</w> 675222
Es sen</w> 675060
Neu e</w> 674955
P ress</w> 674942
st ung</w> 674927
setz ten</w> 674896
um en</w> 674476
m üh 674329
Bedeut ung</w> 674317
gel n</w> 674164
Gr enzen</w> 674017
Ar ena</w> 673863
10 0 673730
sch ar 673678
fre ut</w> 673607
minist erin</w> 673530
temp or 673526
Gre en</w> 673366
ru le</w> 673344
Mat thias</w> 673275
j ähriger</w> 673104
C y 673099
F la 673093
tag s</w> 673062
Fo ot 672936
6 9</w> 672830
m ali 672809
Schließ lich</w> 672796
erwar ten</w> 672743
Oli ver</w> 672730
Regi onal 672557
R em 672407
indepen dent</w> 672290
O ther</w> 672285
f ährt</w> 672257
mit glie 672223
an den</w> 672117
mei er</w> 672079
Kre di 672022
exper ts</w> 672012
so und</w> 671960
2 9 671879
Qu ad 671837
stat us</w> 671587
dem nach</w> 671433
eri sche</w> 671217
power ful</w> 671183
mar ks</w> 671144
mat ches</w> 670293
ou d</w> 670218
bur y</w> 669907
O l 669877
C u 669867
li ge</w> 669695
Aut om 669676
Freu de</w> 669591
D ah 669384
groß es</w> 669210
sel s</w> 669155
busin esses</w> 669061
I L 668854
manu fac 668698
cap tain</w> 668610
Re fer 668590
c up</w> 668409
Hau sh 668350
sätz e</w> 668344
B I</w> 668229
c ross</w> 668215
Fre unde</w> 668191
Ma cht</w> 668066
pop ulation</w> 667913
bro ke</w> 667630
man i 667553
Mex ico</w> 667347
fin ish</w> 667328
P ic 667324
Jugend liche</w> 666984
rei ber</w> 666951
ver bess 666747
K lei 666730
m äch 666607
min im 666583
R eb 666523
rup tion</w> 666461
lo ck</w> 665964
Heim at</w> 665937
gem el 665907
g un 665899
O rig 665893
fan den</w> 665891
wor e</w> 665825
r h 665663
G lob 665504
Ver wal 665497
T ick 665491
Pak istan</w> 665394
Det ails</w> 665285
Sch utz</w> 665031
n on 664918
Se e</w> 664839
Bot h</w> 664734
Düssel dorf</w> 664728
Wil d 664642
le dge</w> 664555
x is</w> 664398
An na</w> 664389
le g</w> 664193
erz äh 664179
commit tee</w> 664108
we dding</w> 664067
ander es</w> 664042
Pal ace</w> 663506
sta aten</w> 663457
ter ed</w> 663383
er s 663286
it z</w> 663163
T on 663109
Qu ali 663077
laun ch</w> 663062
Bet rieb</w> 662964
201 9</w> 662885
Produ kte</w> 662553
fri ed</w> 662411
A dam</w> 662311
up on</w> 662306
Vor stand</w> 662290
t op 662066
R al 661970
Bundestag s 661874
J ack</w> 661640
cra ft</w> 661591
K auf 661386
b acher</w> 661269
da durch</w> 661249
sa v 661239
mov ement</w> 661131
Tit el 661108
wahr scheinlich</w> 661058
6 8</w> 661009
bi o 660871
Jugend lichen</w> 660648
getö tet</w> 660615
sch au</w> 660606
Aus bildung</w> 660542
ver kehr 660501
G au 660500
le ment</w> 660473
ari an</w> 660381
frü here</w> 660361
s outh</w> 660216
gelö st</w> 660026
er neu 659961
rich tungen</w> 659823
P A</w> 659583
Port ug 659575
op ini 659499
r ut 659064
alo g</w> 659050
pa in</w> 658985
ma sch 658860
he av 658855
gre ater</w> 658851
Stim mung</w> 658832
co unter</w> 658814
Pro v 658775
Be k 658355
limi ted</w> 658318
c amera</w> 658285
erz iel 658278
N ein</w> 658223
Groß britanni 658172
Isra el 658098
an lage</w> 657922
Tay lor</w> 657911
S E 657886
ne tz 657785
ung spro 657636
b b 657616
H ill 657405
13 .</w> 657298
Po sition</w> 657171
tra ff 656745
Mit tel</w> 656634
ad o</w> 656545
Me tern</w> 656494
reas ons</w> 656307
P reis 656227
ph ones</w> 656075
Mo ur 656005
Gast geber</w> 655900
be ck</w> 655539
pra kti 655419
A sh 655306
L y 655291
it able</w> 655269
se at</w> 655204
s mi 655178
ar ms</w> 654908
nied ri 654898
hop es</w> 654816
überra sch 654762
Kon takt</w> 654696
Victori a</w> 654639
practi ce</w> 654516
ange kündigt</w> 654294
itali en 654047
d rück 653844
Lehr er</w> 653722
Par liament</w> 653431
vo ice</w> 653425
Ch an 653408
atur en</w> 653316
au ßen</w> 653308
con sum 653235
ex clu 653176
Ministerprä sident</w> 653092
est ate</w> 653037
Her z 653020
R onal 653009
J a 652985
B is 652952
S us 652915
N ad 652845
l i</w> 652824
V e 652771
F ur 652681
Ra dio</w> 652677
ger y</w> 652654
pre pared</w> 652486
h ur 652397
r ot 652388
r y 652349
Sou th 652329
stand ards</w> 652162
appro pri 652112
F ast</w> 652021
vi erten</w> 651875
Sch nei 651834
regu lar</w> 651818
pic tures</w> 651424
continu es</w> 651418
ph otos</w> 651370
d as 651351
organ is 651326
B all 651312
as ing</w> 651276
W ie 651137
Republi cans</w> 651102
Zentr um</w> 650961
Sti ftung</w> 650927
häu fig</w> 650909
st y 650701
Jo b</w> 650596
ti tu 650551
stär k 650450
v ollen</w> 650431
V B</w> 650419
West ern</w> 650404
pro mp 650195
k ürz 650192
w l</w> 649999
ko stet</w> 649716
k tur 649667
eng ag 649610
Gesprä che</w> 649610
re den</w> 649489
er ei</w> 649451
fri stig</w> 649438
K ein</w> 649425
son g</w> 649386
O sten</w> 649368
Osc ar</w> 649305
won der 649290
im ages</w> 649249
k ör 649092
N HS</w> 649026
Sy st 648921
k at 648914
autom ati 648605
Sk i 648566
Ber at 648564
den ied</w> 648534
Vor aus 648203
he avy</w> 648154
nö tig</w> 647761
b n</w> 647609
un ver 647593
fa vor 647411
ymn asi 647290
bun des 647181
An dy</w> 647063
f äh 647051
kri se</w> 646888
mö gliche</w> 646860
mut lich</w> 646857
stri ke</w> 646833
car ry</w> 646791
H under 646656
e genheit</w> 646340
vot ed</w> 646276
dig ungs 646244
feh lt</w> 646153
bir th</w> 645951
H ann 645772
h ot 645683
st ati 645558
b o</w> 645439
sch lagen</w> 645409
stopp ed</w> 645373
lo y 645238
n utz 645149
tr aum</w> 645145
c amp</w> 645134
7 7</w> 644807
gh ted</w> 644718
surpri se</w> 644111
fres h</w> 644104
lin ked</w> 644093
verschie dene</w> 643839
ow ners</w> 643831
audi ence</w> 643612
Th ose</w> 643530
beg onnen</w> 643454
Verein s 643410
ad dition</w> 643223
danger ous</w> 643102
tradi tional</w> 642609
Zentr al 642579
Zeit punkt</w> 642548
sh oul 642437
E very 642313
tu re 642248
Ange klag 641866
unterstütz en</w> 641864
mis s</w> 641534
ow ned</w> 641443
C o</w> 641356
st eu 641280
Cor by 641261
7 00</w> 641183
Gr enz 641124
E ff 641119
k ehr</w> 641085
ch ern</w> 641057
Net z</w> 641029
Kop f 640802
Kur z 640562
ak tiv</w> 640559
Gr enze</w> 640428
ken nen</w> 640352
T ari 640251
kra ft</w> 639850
an ese</w> 639720
Tot tenham</w> 639625
Al les</w> 639610
Qu alität</w> 639512
Instit ute</w> 639438
ac ker</w> 639229
refer endum</w> 639204
gemeins amen</w> 639046
Jos ef</w> 638904
Frie den 638740
del s</w> 638739
Por n</w> 638724
Konz ept</w> 638718
stan ces</w> 638704
read ing</w> 638587
it t</w> 638584
Zusammen hang</w> 638230
B .</w> 638024
li ghts</w> 638022
m l</w> 637890
Wet ter</w> 637778
te en</w> 637646
R um 637618
f ie</w> 637542
war m</w> 637509
m är 637504
for ec 637324
l ag 637298
k anz 637183
ges amten</w> 637171
Tem per 637098
cor por 636944
An griff</w> 636805
Erfahr ung</w> 636650
direc t</w> 636624
eri ge</w> 636213
m ers</w> 635973
f ein 635921
su per</w> 635800
muni k 635777
cli mate</w> 635725
stei gt</w> 635719
co unter 635605
oper ations</w> 635559
er lau 635417
Person al 635394
for dern</w> 635319
Beson ders</w> 635307
bal ance</w> 635115
Bre men</w> 634984
Men ge</w> 634904
dis covered</w> 634871
geb ie 634830
plan ned</w> 634819
qu ir 634782
ordin ary</w> 634671
stand ard</w> 634633
AR D</w> 634523
rest aurant</w> 634507
neh in</w> 634455
si tting</w> 634336
Li by 634255
n ote</w> 634167
sen s 634129
zeich nete</w> 633743
F ab 633715
er innen</w> 633648
R us 633572
ti t 633381
yo ur 633332
Lou is</w> 633261
ab in 633212
la di 633105
möglich st</w> 632730
und ation</w> 632719
An trag</w> 632594
Sch aden</w> 632502
teil weise</w> 632436
Gre at</w> 632403
in en 632368
li sten</w> 632283
Z w 632260
gemein schaft</w> 632231
n ommen</w> 632171
re al 632078
auf s</w> 632070
ur ing</w> 631989
spe zi 631815
1 1.</w> 631801
is se 631790
sich t 631784
em an</w> 631752
fl uss</w> 631676
pe t</w> 631632
Re gel</w> 631630
Ro ber 631611
e te</w> 631520
Tre ffer</w> 631447
um stri 631427
Bezir ks 631225
m assi 631223
Com mit 631065
Agent ur</w> 630846
feat ures</w> 630690
L en 630597
guil ty</w> 630396
B li 630301
fac ing</w> 630287
Präsi dent 630232
em en</w> 630151
newsp aper</w> 630149
An th 630062
sel ten</w> 629969
ge troffen</w> 629967
ell or</w> 629960
ei en</w> 629771
p ose</w> 629518
tre ated</w> 629428
P ass 629409
Sar ah</w> 629407
te x 629236
S eri 629232
Hein z</w> 629189
wer te</w> 629183
L iste</w> 629123
Rom ney</w> 629041
gran ts</w> 629024
Ye ar</w> 628925
En gagement</w> 628865
C at 628753
vari ous</w> 628562
ber icht</w> 628518
ge schlossen</w> 628511
redu ce</w> 628510
Frie drich</w> 628353
g ate</w> 628292
ges amte</w> 628067
k olle 628006
pen alty</w> 627995
sp lit</w> 627862
öff entlich</w> 627813
h eb 627724
gel ang</w> 627635
br un 627621
14 .</w> 627537
bish erigen</w> 627337
Vf B</w> 627301
ma ker</w> 627216
An zei 627099
ati v</w> 626995
off ering</w> 626986
Se eh 626831
Amer ik 626694
Itali an</w> 626532
pp en 626531
G lei 626475
Kontro lle</w> 626425
geschaff t</w> 626289
ba g</w> 626287
For sch 626280
un a</w> 626076
Bunde stag</w> 625983
D o</w> 625959
ou red</w> 625788
h am 625780
V illa</w> 625780
Je der</w> 625695
b ein 625555
bro ken</w> 625489
Win d 625440
Gabri el</w> 625363
imp os 625348
event ually</w> 625320
B at 625215
disp lay</w> 625035
wir ken</w> 624947
ge setz</w> 624785
tou ch</w> 624442
ge be 624383
v ar 624367
Wh o</w> 624140
ro t</w> 623964
Can ada</w> 623952
Lan de 623879
D ub 623766
Z äh 623743
Ch i 623336
Isla mi 623326
il fe</w> 623313
fre qu 623308
Mari o</w> 623155
wi ll 623130
Afri can</w> 623044
duc tion</w> 622756
&apos; We</w> 622505
Sch il 622491
Ch ic 622460
St ellen</w> 622289
gem ä 621900
bewus st</w> 621882
on ey</w> 621842
no ti 621752
sig ns</w> 621716
Arbeit sp 621270
auf genommen</w> 621241
2 3 621054
inju ries</w> 621054
H all</w> 620870
T aus 620753
M ir 620665
K urs</w> 620622
ush ing</w> 620589
es cap 620547
gestie gen</w> 620496
ah nen</w> 620466
sp ie 620290
k it 620241
li ved</w> 620156
Oh ne</w> 619970
1 20</w> 619958
fan ta 619900
k einer</w> 619671
C op 619639
bu ch</w> 619547
dou b 619432
West en</w> 619419
Tra ining</w> 619295
f r 619224
gi g</w> 619158
si gen</w> 619003
tig es</w> 619000
un k</w> 618995
R O 618754
ehic le</w> 618737
employe es</w> 618521
comfort able</w> 618461
air port</w> 618406
r ats 618363
or ney</w> 618238
Al ters 617895
bl on 617832
prof it</w> 617795
addi tional</w> 617786
Techni k</w> 617763
sch were</w> 617536
10 .</w> 617469
opp on 617461
Zwi schen 617460
schul en</w> 617429
stri ker</w> 617351
L ar 617303
Im mer</w> 617298
W ich 617140
cast le</w> 616976
Rei se 616603
e fore</w> 616569
pr osp 616535
br ut 616434
Er do 616420
B ec 616372
18 .</w> 615935
betro ffen</w> 615760
I .</w> 615753
Un der</w> 615749
Un fall 615654
Res er 615581
Hot els</w> 615405
-- -- 615128
oto gra 614943
pro gress</w> 614925
help ing</w> 614733
Corby n</w> 614585
it h</w> 614584
gefra gt</w> 614456
beg in</w> 614390
ch ine 614227
tru st</w> 614223
h art</w> 614168
w asser</w> 614144
v ul 614112
I P</w> 613990
v ei 613701
St ri 613694
bot tom</w> 613577
sch il 613219
Ronal do</w> 613131
ge sprochen</w> 613100
pit ch</w> 612981
Portug al</w> 612872
rich tet</w> 612850
ti e 612787
Ar chit 612779
aus schuss</w> 612749
quali fi 612724
Hin weise</w> 612547
Zei chen</w> 612536
be für 612357
Medi z 612244
Vf L</w> 612240
Com mun 612190
Al li 612188
do ctors</w> 612065
f ted</w> 612015
russi schen</w> 611782
Disk ussion</w> 611720
cre di 611658
Mour inho</w> 611601
au ern</w> 611534
heal thy</w> 611447
ouri te</w> 611327
dres sed</w> 611187
n ames</w> 611141
ma cher</w> 611141
boo ks</w> 611131
O t 611083
con vers 611042
je denfalls</w> 611023
verein s</w> 611006
B ach 610988
Lu dwi 610824
k ick</w> 610706
Sel bst</w> 610651
flä che</w> 610638
Rath aus</w> 610519
P lus</w> 610451
al a</w> 610368
Ein ige</w> 610138
emplo yment</w> 610103
aktu alisiert</w> 610074
appe al</w> 609795
resi dents</w> 609720
Commit tee</w> 609455
ref used</w> 609276
Ze al 609223
rei b 609085
bir th 608652
er fahren</w> 608615
Vor jahr</w> 608515
dor fer</w> 608327
kon ferenz</w> 608306
sen si 608301
v an 608287
accoun ts</w> 608206
H ill</w> 608122
Kanz lerin</w> 607924
H osp 607845
alleg ations</w> 607777
d ged</w> 607582
Stre cke</w> 607553
un ten</w> 607112
ci an</w> 607100
An teil</w> 607095
30 .</w> 606963
Nat ur</w> 606808
Nor thern</w> 606781
Ste p 606749
pro ud</w> 606617
i Ph 606482
Wer k</w> 606480
ari es</w> 606454
vo c 606446
civi l</w> 606438
W all</w> 606144
ab gel 606136
gra du 606050
Vi elleicht</w> 606031
R ou 605997
in nov 605426
ist ischen</w> 605222
St an 605172
br on 605130
plötz lich</w> 605120
Z ahl 605081
Sch o 604986
u se 604621
eri g</w> 604576
langu age</w> 604445
I E 604315
exp ensive</w> 604262
dom estic</w> 604203
lei tung</w> 604175
d ates</w> 604125
17 .</w> 604005
S mart 603963
Ge sicht</w> 603952
ver stär 603919
de ad 603910
genann t</w> 603778
k ni 603634
um e</w> 603607
M un 603561
Nür n 603538
hand eln</w> 603500
itä n</w> 603430
er ende</w> 603335
develop ed</w> 603167
Lei cester</w> 603152
bur gh</w> 603071
I ri 603004
absol utely</w> 602977
issu ed</w> 602970
Isla mic</w> 602926
franzö sischen</w> 602923
schle cht</w> 602898
Aut or</w> 602878
n ur 602842
mann schaft</w> 602838
tä glich</w> 602549
com par 602467
F euer</w> 602392
cer em 602178
Be amten</w> 602161
Ge fühl</w> 602070
we alth</w> 601922
f und 601907
ci ties</w> 601861
sch ön 601798
ed ly</w> 601785
la m</w> 601765
wür fe</w> 601576
s i</w> 601476
Fo x</w> 601380
re in 601297
Vier tel 601291
Poli tik 601248
te sts</w> 601205
Mar co</w> 601194
Bl ut 601094
kenn t</w> 601075
FI FA</w> 601029
Konz er 601015
er ungen</w> 600983
temper at 600961
G rupp 600866
kill ing</w> 600751
wei te</w> 600725
Is land</w> 600641
ad op 600586
respon sibility</w> 600565
16 .</w> 600553
s inn 600502
J ubil 600473
cor rec 600353
po p</w> 600177
sem ble</w> 600066
G az 599957
dra ma</w> 599820
d d</w> 599632
may be</w> 599611
hä user</w> 599552
Fre und</w> 599434
coun cil</w> 599290
la ws</w> 599263
Char l 599233
strateg y</w> 599191
gleich zeitig</w> 599106
il legal</w> 599081
em bar 598662
s th 598563
ig n 598524
amerik anischen</w> 598454
g lo 598367
ten nis</w> 598294
regel mäßig</w> 598243
schl oss</w> 598223
t ory</w> 598065
Lu k 597727
Y es</w> 597649
Ma in</w> 597538
maß nahmen</w> 597326
j ap 597195
H it 597169
6 0 597140
ü hr 597070
Y our</w> 597044
Justi ce</w> 597025
ed y</w> 596775
Fir men</w> 596618
ap art 596562
tru th</w> 596449
Schri ft 596353
direc tly</w> 596337
it ely</w> 596236
M ik 596221
t y 596169
sex u 596153
see king</w> 596148
Ko ali 596127
schütz en</w> 596088
fei ern</w> 596036
re stri 596006
T urn 595699
be an 595676
St är 595642
Ver waltung</w> 595534
ern t</w> 595456
am keit</w> 595381
gef ei 595381
Beh and 595282
st eps</w> 595253
E gyp 595183
Fäl len</w> 595126
be auf 595092
f j 595049
con fli 595036
k lu 594985
Die ter</w> 594841
poli cies</w> 594714
sätz lich</w> 594629
inter net</w> 594596
O r</w> 594527
regi onal</w> 594359
Champi onship</w> 594303
a sion</w> 594268
R oh 594113
M es 594012
Chic ago</w> 593862
n am 593849
über nehmen</w> 593814
be findet</w> 593620
su sta 593486
produc ed</w> 593379
Bil dung</w> 593055
Turni er</w> 593001
müs ste</w> 592975
D y 592945
tim ate</w> 592940
H ou 592890
deut scher</w> 592864
your self</w> 592836
war nt</w> 592799
me e</w> 592627
Al p 592571
k u 592408
The ater</w> 592375
2 1.</w> 592350
7 8</w> 592251
p ush</w> 592044
Quad rat 592040
Z er 591919
angeb oten</w> 591689
Span ish</w> 591598
Fi scher</w> 591547
ne ar 591455
environ ment</w> 591394
J ag 591290
bri lli 591189
mu seum</w> 591173
lie ber</w> 591108
bor ne</w> 590867
dest ro 590849
überzeu gt</w> 590830
Ma j 590620
Ro ck</w> 590534
tal ent</w> 590454
physi cal</w> 590444
fav ourite</w> 590418
eff ective</w> 590296
oh nehin</w> 590014
B oo 589864
beg innen</w> 589317
Feuer wehr 589077
Kandid aten</w> 588869
punk te</w> 588800
Ar n 588714
hol e</w> 588590
guar an 588556
To des 588469
en zi 588341
rich ter</w> 587965
pre vent</w> 587610
opti mi 587550
spe aking</w> 587538
Württem berg</w> 587476
ver lan 587437
In sel</w> 587350
victi m</w> 587345
pul led</w> 587237
emer gency</w> 587129
hal le</w> 586822
has n</w> 586809
over all</w> 586780
ac ting</w> 586742
ra dio</w> 586683
E b 586573
sh e 586528
fra gt</w> 586499
con v 586376
v ehicle</w> 586360
re commen 586312
ni k</w> 586309
W im 586296
la h</w> 586236
Über ra 586225
than ks</w> 586212
de als</w> 586193
Wa gen</w> 586170
ac tivity</w> 586119
a ward</w> 586114
ber üh 586027
lig ten</w> 586012
E l</w> 585903
199 9</w> 585887
ri sing</w> 585685
da ily</w> 585681
ri er</w> 585655
ro l</w> 585588
prot est 585561
sur gery</w> 585380
hi er 585365
R as 585308
F ür 585293
at ten</w> 585273
w ns</w> 585253
o o</w> 585041
mö gen</w> 585009
Sp ek 584859
ge habt</w> 584784
Mat t</w> 584781
t äu 584716
prü ft</w> 584505
Konz ert</w> 584453
Ro t</w> 584398
m ely</w> 584305
ra c 584284
blo ck</w> 584001
L or 583952
Sta dium</w> 583871
K eine</w> 583710
ro ck</w> 583695
hous ing</w> 583690
pl enty</w> 583483
üh l 583467
B ag 583346
gir l 583315
In stru 583268
3 8 583044
V om</w> 582971
öster reich 582946
fif th</w> 582874
bin ation</w> 582855
app e</w> 582814
L et</w> 582771
happ ens</w> 582611
Nutz er</w> 582454
fl at</w> 582176
gebro chen</w> 582081
Schl uss 582071
erh ielt</w> 581973
increas ingly</w> 581959
ph y</w> 581913
Spra che</w> 581721
d ank</w> 581623
conc ern</w> 581596
cri minal</w> 581468
su spec 581420
char ity</w> 581340
B lu 581331
aff ected</w> 581225
Bra zil</w> 581168
Zeal and</w> 581149
magaz ine</w> 581072
Ge gent 581054
einge setzt</w> 581045
H op 581017
dies mal</w> 580913
spar tei</w> 580886
Mor gen</w> 580876
res our 580764
di sh</w> 580762
cra sh</w> 580744
a g</w> 580571
app en</w> 580500
sprä sident</w> 580486
l ück 580343
D ank</w> 580292
Großbritanni en</w> 580279
Schwar z</w> 580236
is land</w> 580225
repor tedly</w> 580219
Musi ker</w> 580182
se tting</w> 580178
Mis s</w> 580176
Mot to</w> 580136
Wech sel</w> 579818
ck ey</w> 579811
d ritte</w> 579790
S ul 579624
s amm 579590
kom me</w> 579551
bek am</w> 579410
zu gleich</w> 579360
G ymnasi 579322
frei e</w> 579294
Ver än 579127
p fi 578966
z erstör 578680
St ür 578667
ge tr 578638
be ach</w> 578609
as h</w> 578488
K aff 578158
25 .</w> 578103
B ou 578023
in su 578007
dam ali 577920
mer z 577911
Er öff 577898
he ar 577854
bekann ten</w> 577753
ag ues</w> 577704
W ell</w> 577619
Kreu z 577532
d n</w> 577517
secre tary</w> 577492
secre t</w> 577488
All gem 577353
t ut</w> 577347
ep ing</w> 577334
un abhängi 577332
w ins</w> 577163
unser em</w> 577113
G B</w> 577029
fin als</w> 577024
J ungen</w> 576961
f are</w> 576728
pro v 576579
1 ,000</w> 576415
gemel det</w> 576404
W ill 576211
che mi 576143
Wettbewer b</w> 576125
mon it 575965
auf hin</w> 575927
Br and</w> 575877
wei ten</w> 575771
c lin 575748
beschäf tigt</w> 575748
Th ree</w> 575693
b auer</w> 575663
7 4</w> 575656
W ähr 575499
ho l</w> 575295
p ak 575228
Ba y</w> 575130
T au 575099
sozi ale</w> 574962
Li ke</w> 574828
St or 574766
amaz ing</w> 574640
r ated</w> 574602
bel ast 574564
le ger</w> 574415
ä ger</w> 574254
e ding</w> 573913
weap ons</w> 573843
enjo yed</w> 573730
inter ess 573701
f i</w> 573673
lö sen</w> 573660
Pf lan 573490
op tions</w> 573435
E di 573361
Krie gs 573293
M ah 573101
hei t 573093
ic es</w> 572967
geb oren</w> 572889
de te 572885
j ok 572813
ell o</w> 572760
p li 572654
B ron 572619
sch eme</w> 572512
Er kennt 572391
ro ll</w> 572113
com mitted</w> 572108
prü fen</w> 572105
politi cians</w> 572102
einzel nen</w> 572040
Sat z</w> 572038
er schi 571920
W es 571780
at z 571774
de pres 571773
bestä tigte</w> 571760
Al koh 571581
le u 571570
Por n 571511
ent gegen</w> 571382
N ame</w> 571375
f ts</w> 571341
L ag 571300
ot ten</w> 571029
cle an</w> 571017
Secu rity</w> 570961
sen de</w> 570906
acc ept</w> 570788
ati v 570737
form ing</w> 570563
7 3</w> 570524
qu ick</w> 570505
comp uter</w> 570489
g ruppen</w> 570454
advant age</w> 570444
l ler</w> 570391
For d</w> 570272
H ay 570235
st ör 570160
setz ungen</w> 569918
sug gest</w> 569707
ci se</w> 569630
gri ffe</w> 569588
Ju stin</w> 569282
tro ops</w> 569234
de si 569125
D enk 568990
amer as</w> 568982
D ig 568894
Drit tel</w> 568790
schaft ler</w> 568785
ex am 568715
heu tigen</w> 568618
jo ur 568573
K am 568546
Z immer</w> 568474
Har t 568408
ern s</w> 568318
Geor gi 568153
frü hen</w> 568102
yo unger</w> 567922
jähr lich</w> 567913
al co 567847
In stead</w> 567823
F ro 567818
kün st 567732
Sie ger</w> 567681
D u</w> 567583
Olymp i 567507
Frau en 567495
and ing</w> 567457
Feri en 567282
l un 567240
ver län 567134
ho ffen</w> 567131
m end</w> 566999
Spe aking</w> 566686
Verk ehr</w> 566543
el ek 566473
7 6</w> 566247
ac ts</w> 566204
op ing</w> 566031
g ie</w> 566003
zie mlich</w> 565967
Initi ative</w> 565967
ami d</w> 565915
Ver fassungs 565837
wh at 565825
K ämp 565804
ch urch</w> 565679
unbe dingt</w> 565563
m ote</w> 565289
cont ent</w> 565265
F an 565224
st ern</w> 565080
ed ul 564930
Kap itän</w> 564915
Klas sen 564816
Stro m 564736
verb rei 564686
stru ck</w> 564481
frü h</w> 564332
C ast 564305
fe els</w> 564235
st ories</w> 564207
N E 564198
P M</w> 563991
photo graph 563851
ar m 563780
Leist ungen</w> 563639
desp er 563577
ell es</w> 563384
verän dert</w> 563290
gu y</w> 563201
ar ran 563025
geplan ten</w> 562939
Nach frage</w> 562904
pros ecut 562886
emo tional</w> 562867
pos si 562834
12 .</w> 562684
li kes</w> 562626
Nach mittag</w> 562609
sec ure</w> 562499
rech ten</w> 562497
Pol en</w> 562497
O ld</w> 562341
schn ei 562324
Auf sichts 562226
bi en</w> 562205
k us</w> 561946
au rants</w> 561919
ump ed</w> 561915
kontro lli 561908
P ir 561831
Demokra tie</w> 561828
separ ate</w> 561739
Son ne</w> 561556
de g 561555
Bern d</w> 561528
is la 561460
Bec ause</w> 561421
rele v 561397
tic ally</w> 561195
pro ved</w> 561188
k ä 560923
hin zu</w> 560720
li an</w> 560664
deci sions</w> 560637
Energ ie</w> 560589
f ish</w> 560550
pas sen</w> 560423
behör de</w> 560337
O ut 560223
re fu 560156
Lo ve</w> 560136
d n 560126
zahl reichen</w> 560070
insi sted</w> 559936
Frankfur ter</w> 559887
Jer emy</w> 559808
h a</w> 559682
D I 559633
Wi ener</w> 559628
ru f</w> 559591
us en</w> 559577
B ün 559567
St ars</w> 559384
Journ alisten</w> 559363
N eben 559358
intel ligence</w> 559306
de but</w> 559233
Ver sich 558938
beteili gt</w> 558924
y l 558875
p ar</w> 558871
ge fordert</w> 558846
be we 558810
de v 558801
pick ed</w> 558801
führ ten</w> 558754
sp er 558636
stell vertre 558302
sa d 558301
f ter</w> 558238
Her steller</w> 558136
professi on 558091
per man 558063
O S</w> 558053
stän dige</w> 558013
ner ship</w> 557979
au l 557957
aktu ell</w> 557887
de pen 557810
men sch 557605
G ü 557504
spra che</w> 557455
Sto ck 557453
s na 557357
Kar te</w> 557323
For scher</w> 557031
P läne</w> 556997
Er de</w> 556971
p fen</w> 556957
zei gten</w> 556826
b ann 556705
on ing</w> 556494
Wun sch</w> 556461
Sach sen</w> 556434
Re cht 556425
krie g</w> 556408
schätz ung</w> 556299
lu x 556221
W o</w> 556071
bre aking</w> 555979
ich ts 555843
tra iner</w> 555794
C D</w> 555670
al bum</w> 555570
behavi our</w> 555474
C an</w> 555403
De fen 555205
Schau spiel 555160
fäl len</w> 555150
Seeh o 555122
T ha 555055
great est</w> 554893
Kom ment 554881
get an</w> 554745
emerg ed</w> 554673
hum an 554528
Z um 554357
hän gt</w> 554352
din ner</w> 554302
R at</w> 554233
secon ds</w> 554221
b ie</w> 554217
wer fen</w> 554134
g utes</w> 554115
Let z 554112
law yer</w> 554049
Auf gaben</w> 553970
s anc 553887
de partment</w> 553696
z ar 553684
c ore</w> 553621
ou ts</w> 553583
e at</w> 553519
beh aup 553479
b ol 553453
sch edul 553435
Comp any</w> 553358
coll ap 553349
was ser 553319
Anth ony</w> 553204
R enn 553077
er öffnet</w> 552984
gesp errt</w> 552963
j ec 552857
V ari 552820
sc ale</w> 552701
do ctor</w> 552663
Ge wer 552636
In formation</w> 552575
G ran 552508
G anz</w> 552507
Au ff 552431
hol ds</w> 552384
T sch 552330
a war 552295
hei m 552168
entde ckt</w> 552126
ent stehen</w> 552030
Fahrzeu g</w> 551711
gi sche</w> 551649
wri ter</w> 551513
star ts</w> 551336
Ein tra 551264
b on</w> 551179
Sp ann 551160
stre ets</w> 551159
c old</w> 551129
wri te</w> 551069
p lätze</w> 551061
pro ve</w> 551004
sogenann te</w> 550921
G ru 550813
ol en</w> 550782
co w</w> 550772
extre mely</w> 550740
wichtig sten</w> 550638
Z in 550526
ti li 550521
C ou 550495
Köl ner</w> 550389
Qu elle</w> 550381
R ose</w> 550321
fe e</w> 550205
auth or</w> 550116
st y</w> 550094
T isch</w> 550082
ru he</w> 550035
Telef on</w> 549994
immi gration</w> 549974
estim ated</w> 549737
Johann es</w> 549708
Be dingungen</w> 549699
betri eb</w> 549124
cri tical</w> 548979
keep er</w> 548809
Schal ke</w> 548497
fin ding</w> 548485
fi re 548247
scor ing</w> 548167
Mis s 548029
wal king</w> 547883
war ning</w> 547819
Po si 547807
mo tion</w> 547733
ut y</w> 547623
neg ative</w> 547518
mi ert</w> 547284
ung sh 547250
Step hen</w> 547158
e ing</w> 547004
Kör per 546823
blon de</w> 546769
Sprech erin</w> 546556
oper ating</w> 546421
P fer 546241
nor m 546173
be dingungen</w> 546170
repor ters</w> 546057
el e 546049
Er wachsen 546010
Olymp ics</w> 546000
Au gs 545996
w ine</w> 545892
Sp ei 545887
kehr t</w> 545877
lo sigkeit</w> 545865
199 8</w> 545844
Phili pp</w> 545670
lei der</w> 545648
Waff en 545605
stor m</w> 545551
zi erten</w> 545480
Al b 545371
Sz ene</w> 545289
big ger</w> 545243
w ä 545168
ri sche</w> 545133
än dert</w> 545115
Lin ke</w> 545072
den s</w> 545047
stu ff</w> 544965
Konkurren z</w> 544723
Är zte</w> 544669
Ever ton</w> 544555
Com m 544503
mom ent 544331
mat eri 544015
Europ as</w> 543986
Ger ade</w> 543958
con struction</w> 543876
Jack son</w> 543863
an schließend</w> 543861
Leist ungs 543829
Al i</w> 543756
R ak 543743
A del 543670
ge dacht</w> 543666
On ly</w> 543648
Quali fik 543588
Tei le</w> 543465
ol er 543342
Le on 543332
em ail</w> 543315
p ment</w> 543150
F lei 543148
chang ing</w> 543141
men s</w> 543105
prof ile</w> 543094
ti ef</w> 543044
gi ant</w> 542918
unk lar</w> 542823
Grün e</w> 542816
re min 542787
R ang 542671
orig in 542640
Hand els 542588
fle xi 542523
Li fe</w> 542476
An spruch</w> 542440
l am 542429
birth day</w> 542294
sho w 542245
bot en</w> 541931
back ed</w> 541873
N er 541772
st ress</w> 541767
A S</w> 541717
F uture</w> 541674
but ed</w> 541626
Sta dion</w> 541591
schwar z</w> 541549
ak zep 541527
Vi er</w> 541494
Musli m</w> 541484
ag ree</w> 541471
sol ven 541375
Sch utz 541366
z ut 541339
ampag ne</w> 541275
Lei tung</w> 541209
weiter er</w> 540852
ve ter 540794
5 ,000</w> 540773
prot ection</w> 540726
Um gebung</w> 540712
ch tung</w> 540615
Tel e 540562
ann a</w> 540511
J ör 540481
verstän dlich</w> 540373
sem i</w> 540135
ri e</w> 540077
se es</w> 539952
Ther esa</w> 539952
zeu ge</w> 539798
F ein 539789
V P</w> 539626
aus ch</w> 539620
fail ure</w> 539340
rema ined</w> 539315
con ven 539275
Auf trag</w> 539263
minist ers</w> 539166
K os 538905
Wol f</w> 538884
S hi 538863
stra fe</w> 538843
zeich nung</w> 538628
gemein de</w> 538601
west ern</w> 538559
län dern</w> 538447
be schlossen</w> 538373
z a 538309
s ati 538225
entwick eln</w> 538223
ter y</w> 538179
Veranstal tungen</w> 538052
se as 537980
ess ed</w> 537931
suggest s</w> 537871
b ö 537861
Reg isse 537794
K ei 537791
Auto fahrer</w> 537717
Th ür 537522
fi red</w> 537371
8 8</w> 537310
Im ages</w> 537288
propos ed</w> 537283
A pp</w> 537282
wich tigen</w> 537252
vi de 537238
si ge</w> 537006
Je an</w> 536958
ge fü 536919
Europ äische</w> 536762
intro duced</w> 536640
b i</w> 536609
internation ale</w> 536596
disc us 536477
streng th</w> 536434
beg inn</w> 536428
Christop h</w> 536403
steh ende</w> 536368
P C</w> 536256
gel ie 536234
vi ert</w> 536112
w ähr 536107
ger en</w> 536059
sp on 536035
Wh it 535855
sh ots</w> 535836
le gi 535775
ad verti 535768
ini an</w> 535661
Medi a</w> 535580
b rie 535577
air s</w> 535567
Co sta</w> 535313
j a 535181
st el 535118
d oll 535113
ein gesch 535065
gemein same</w> 534956
Le verk 534849
Wal d</w> 534811
notwen dig</w> 534765
ver dient</w> 534754
ten der</w> 534708
S af 534703
geb il 534356
St amm 534300
er e 534251
mortg age</w> 534251
dro h 534248
st off</w> 534170
F err 534114
Stim me</w> 534104
y right</w> 534101
9 8</w> 533805
w are</w> 533748
H un 533674
wich tiger</w> 533641
k a 533631
ad en 533446
pro jects</w> 533255
manufac tur 533133
T ar 533114
2 2.</w> 533100
e ten</w> 533017
A wards</w> 532861
commer cial</w> 532653
Tur key</w> 532576
suff ering</w> 532416
un able</w> 532385
eff ects</w> 532359
Parl ament 532279
c ut 532203
epis ode</w> 532024
nach mittag</w> 531922
Kel ly</w> 531614
Lau ra</w> 531610
Lad y</w> 531599
in stitu 531460
j i 531352
. - 531308
Lit er 531298
li ert</w> 531272
tra ding</w> 531134
Ru he</w> 531095
Yo ung</w> 531020
Fre un 530987
Wim ble 530985
app er</w> 530965
da ß</w> 530904
st ün 530856
gän ger</w> 530812
g y 530743
justi ce</w> 530735
si denten</w> 530675
ti er</w> 530625
gro w</w> 530587
in ner</w> 530525
8 1</w> 530487
G O 530381
S ex 530330
kno w 530300
pro mise</w> 530232
verur teilt</w> 530189
f eu 530032
Verk auf</w> 529995
stit ution</w> 529904
Ver eine</w> 529802
win ter</w> 529797
Hor st</w> 529759
Grün den</w> 529678
cu p 529676
l ager</w> 529616
ast s</w> 529579
Mic ros 529534
Verwal tungs 529458
fur t</w> 529430
sel n</w> 529426
k op 529409
As sad</w> 529408
Köni g</w> 529408
demon str 529400
eb o 529376
Kör per</w> 529356
Wil hel 529297
Geor g</w> 529284
d ner</w> 529157
sh eim</w> 529142
Hill ary</w> 529099
lin ie</w> 528955
kra ft 528894
St ei 528818
g ged</w> 528816
rei fen</w> 528766
ver stehen</w> 528691
hel ps</w> 528614
Ho f 528571
c el</w> 528526
le ute</w> 528517
N ei 528434
R A 528300
wel come</w> 528286
t ells</w> 528284
w an</w> 528208
k in</w> 528152
lich keiten</w> 528118
ver mutlich</w> 528056
S un</w> 528008
gan gs 527879
Gef än 527753
Sp i 527596
Kri min 527309
ir ing</w> 527276
asse ts</w> 527267
ver treten</w> 527241
n annte</w> 527148
spot ted</w> 527131
kri min 527001
d an</w> 526920
mis sions</w> 526896
W omen</w> 526864
BM W</w> 526809
sen den</w> 526748
ir s</w> 526745
Hö he 526617
Sa chen</w> 526563
Bundes kanz 526488
ar med</w> 526415
b zw 526413
dr ink</w> 526400
Z we 526278
Außen minister</w> 526207
Eintra cht</w> 526145
Urlau b</w> 526107
G ott</w> 526095
f loo 525969
Mess i</w> 525900
politi sch</w> 525844
sich ert</w> 525561
Erfahr ungen</w> 525511
Bro o 525460
br auch</w> 525390
hol te</w> 525341
g keit</w> 525171
Be obach 525171
girl friend</w> 525166
tur ning</w> 524998
Dien st</w> 524963
z y 524956
man chmal</w> 524937
H aup 524904
ni g</w> 524899
leist ung</w> 524868
wen dung</w> 524801
il er</w> 524779
Sp orts</w> 524728
qu es</w> 524705
ann y</w> 524693
ge sti 524615
il ing</w> 524567
r are</w> 524449
glau bt</w> 524400
Eis en 524394
or ing</w> 524218
en des</w> 524199
bzw .</w> 524137
Her z</w> 524124
ver hält 524051
kriti siert</w> 524046
ladi mir</w> 523983
head s</w> 523914
u si 523771
ori enti 523748
9 0 523743
E d</w> 523730
au to 523676
Nachfol ger</w> 523582
ger aten</w> 523577
St art 523537
so mit</w> 523455
ar ch 523145
O x 523113
Wohn ungen</w> 523009
An frage</w> 522963
un ge 522949
So li 522865
i erung</w> 522715
aktu elle</w> 522665
elec tions</w> 522352
sh ment</w> 522346
ari o</w> 522224
sli ghtly</w> 522207
geschä ft</w> 522107
I A</w> 522053
s y</w> 522038
st ick</w> 521931
bi as</w> 521872
alle y</w> 521861
feh len</w> 521753
f ers</w> 521712
ack now 521621
influ ence</w> 521554
mi s</w> 521487
su che</w> 521239
wer t 521175
v o</w> 521114
ri ties</w> 521012
ed ge</w> 520863
Verbin dung</w> 520849
konz entri 520831
ick t</w> 520768
at oren</w> 520689
speci fic</w> 520582
leben s 520494
ep h 520465
requ est</w> 520402
cho ose</w> 520374
er hält</w> 520315
un likely</w> 520200
bu ying</w> 520113
j ene</w> 520024
easi ly</w> 519993
in dem</w> 519922
primar y</w> 519869
gu ter</w> 519851
appropri ate</w> 519820
amm ed</w> 519806
si ed 519687
n ennt</w> 519680
Ph oto</w> 519648
Mitglie d 519385
S ome 519343
supp ly</w> 519277
so ftware</w> 518954
Aus wahl</w> 518946
Auf takt</w> 518930
vie wed</w> 518890
stä tte</w> 518870
Zu g</w> 518844
troub le</w> 518800
cap tion</w> 518788
activi ties</w> 518774
mut maß 518726
K le 518605
co ol</w> 518591
Zwei fel</w> 518567
Du ell</w> 518527
deli ver</w> 518504
ni fer</w> 518357
lan de</w> 518271
iPh one</w> 518228
pro min 518189
g ungs 518154
O ver</w> 518074
rich tige</w> 518024
te ure</w> 517930
ra ising</w> 517850
or ed</w> 517773
Gre e 517634
Kap ital 517611
b ungen</w> 517462
z iel 517448
fir ms</w> 517448
Jord an</w> 517447
is sen</w> 517404
k li 517232
twe eted</w> 517066
A ct</w> 517042
glau ben</w> 516989
O ster 516972
C ub 516968
vor her</w> 516909
T ali 516872
rei cher</w> 516833
ti ous</w> 516804
er seits</w> 516775
M agaz 516710
fiel der</w> 516651
stat tung</w> 516589
mean ing</w> 516077
ser ving</w> 516068
D N 516034
ac qui 516032
funktion iert</w> 516014
Frei heit</w> 516012
app ing</w> 516007
ac ity</w> 515946
de fini 515886
ste te</w> 515868
tar ge 515832
e kt</w> 515815
itä ts 515691
Mor gan</w> 515649
Gre g 515588
1 1 515441
win dow</w> 515406
put y</w> 515324
sch aden</w> 515315
24 .</w> 515248
Iri sh</w> 514964
Man agement</w> 514943
Andre a</w> 514795
st al</w> 514783
vor aus 514768
end gül 514700
ge arbeitet</w> 514633
as su 514426
vor ne</w> 514304
Da vis</w> 514244
comple ted</w> 514226
wieder um</w> 514126
7 9</w> 514044
j ack 513988
Bo den 513964
publi c 513635
glau be</w> 513581
nach richten 513443
ge tragen</w> 513213
Han del</w> 513054
B ol 513022
ex change</w> 512781
fre m 512639
chan ces</w> 512590
su n</w> 512546
eb ack</w> 512517
art al</w> 512433
St aff 512430
gi sten</w> 512409
Schau spieler</w> 512362
amp ton</w> 512357
mer kt</w> 512308
rit es</w> 512291
inn ers</w> 512249
ass ault</w> 512072
M ol 511900
sh aring</w> 511889
decl ared</w> 511859
flu g</w> 511834
pro mot 511806
dien st 511802
Ant i</w> 511764
j unk 511680
I M 511627
T an 511570
Seeho fer</w> 511422
ca p</w> 511384
Ro ad</w> 511344
gu ys</w> 511232
schle ch 511199
tei ls</w> 511197
comple x</w> 510889
äu fer</w> 510850
Wimble don</w> 510833
V ene 510797
Kar ten</w> 510538
Brasili en</w> 510537
vor stellen</w> 510428
Ein druck</w> 510356
cir cum 510294
T ür</w> 510263
fall ing</w> 510242
Bor is</w> 510204
ph ase</w> 510104
H oh 510022
tain ment</w> 509904
pic tured</w> 509821
docum ents</w> 509818
f at 509754
m ün 509691
sh all</w> 509655
be zieh 509569
har dt</w> 509524
gefei ert</w> 509517
k er 509493
hand ed</w> 509486
k an</w> 509427
Ak tiv 509392
füh len</w> 509380
wirk ungen</w> 509253
Pal est 509204
cerem ony</w> 509191
Schie ds 509109
exc ell 509057
br inging</w> 508976
schri ften</w> 508963
Jen nifer</w> 508957
mes sag 508850
Fa vor 508849
Zu letzt</w> 508756
Cent ral</w> 508672
fu el</w> 508602
B VB</w> 508224
europ äische</w> 508102
sp ru 508067
informi ert</w> 508055
lätz en</w> 508012
Nachrichten agentur</w> 507827
won der</w> 507799
mem ber 507628
New castle</w> 507576
determin ed</w> 507550
fas sen</w> 507502
ähn lich</w> 507462
präsen tiert</w> 507387
Lie fer 507347
Sen der</w> 507285
vi g 507277
in stal 507251
Wor ten</w> 507200
ri val</w> 507196
ur sprün 507183
colle ction</w> 507126
vertre ter</w> 506953
ath s</w> 506941
Wor te</w> 506891
Ge danken</w> 506855
rec ords</w> 506844
S em 506789
gu ard</w> 506756
al em</w> 506617
ti mat 506589
wat ched</w> 506584
ici ent</w> 506552
Bay er</w> 506544
grie ch 506505
vol u 506487
& gt 506412
&gt ;</w> 506412
Tim e</w> 506258
r ating</w> 506255
g y</w> 506251
bess ere</w> 506217
gel te</w> 506175
B us</w> 505851
verl or</w> 505710
D ir 505659
be schä 505631
defin itely</w> 505603
D ach 505559
seri ously</w> 505473
ari a</w> 505470
interest ed</w> 505447
Gener ation</w> 505385
Fu ß</w> 505379
sig ning</w> 505245
mili t 505209
eng li 505142
H ör 505124
b te</w> 505092
lear ned</w> 505087
G ot 505085
feat ure</w> 505084
Instit ut</w> 505049
ther efore</w> 504984
Re search</w> 504888
Erdo gan</w> 504837
J .</w> 504832
colle ge</w> 504794
wer tung</w> 504586
Ab out</w> 504443
Ö l 504371
vol un 504337
devel op</w> 504252
ent ation</w> 504233
Guardi ola</w> 504118
S inn</w> 504106
An gehöri 504072
tre at</w> 504064
hil ft</w> 504064
t age</w> 504050
Min dest 504002
Nor den</w> 503991
P lätze</w> 503988
D E 503892
sle ep</w> 503811
custom er</w> 503803
p ause</w> 503751
Phili p</w> 503732
abin et</w> 503612
199 0</w> 503606
Ri es 503589
F est</w> 503565
fe es</w> 503509
wa ff 503419
S E</w> 503279
L A</w> 503078
promis ed</w> 503068
se ts</w> 502978
Regel n</w> 502884
Con servative</w> 502772
erklär en</w> 502714
8 6</w> 502649
Foot ball</w> 502648
7 0 502512
ga y</w> 502360
Zu vor</w> 502252
Ar chi 502141
A N</w> 502081
versich erung</w> 502025
sch la 501998
al li 501986
do gs</w> 501984
co ff 501969
zi p 501888
E rei 501729
cul tural</w> 501720
K ern 501500
For mer</w> 501446
füh lt</w> 501437
it ems</w> 501392
F BI</w> 501260
in ks</w> 501218
mit ten</w> 501111
er öff 500849
d ating</w> 500728
ris ks</w> 500691
lar gely</w> 500502
lat ter</w> 500500
geh olt</w> 500497
schaf tlichen</w> 500395
ga ther 500334
Ath le 500331
entwick lung</w> 500286
Man uel</w> 500237
confi dent</w> 500214
bo un 500166
un ken</w> 500163
Pr o</w> 500161
sch ten</w> 500044
be endet</w> 499977
ini a</w> 499920
wal ked</w> 499904
sekre tär</w> 499872
s low</w> 499860
8 3</w> 499688
Mar y</w> 499674
An schluss</w> 499665
wi ld</w> 499662
dür ften</w> 499385
A i 499375
bri tischen</w> 499313
arti st</w> 499227
bie ter</w> 499224
N ations</w> 499211
f estival</w> 499178
Früh jahr</w> 499166
ro ut 499097
st ent</w> 499037
Bei trag</w> 499020
geb or 498976
di ert</w> 498961
H ur 498931
We ge</w> 498820
wi lling</w> 498732
foc used</w> 498708
K la 498618
Char lie</w> 498567
schl uss 498556
z ün 498536
Lu f 498364
an sicht</w> 498363
head ed</w> 498316
Dom ini 498239
u k</w> 498150
R on 498132
8 4</w> 498024
Gel ände</w> 498003
Anhän ger</w> 497961
Au th 497931
d ar</w> 497466
ung s</w> 497435
as i</w> 497281
veröffent licht</w> 497270
bil den</w> 497220
reco very</w> 496994
ab les</w> 496687
Z ur 496683
verb unden</w> 496670
Re da 496589
op er</w> 496465
sh opping</w> 496421
endor f</w> 496342
y e</w> 496302
meas ure</w> 496106
deci de</w> 496072
T ak 496045
mis ch</w> 495896
Fäl le</w> 495878
spr ing</w> 495826
it als</w> 495821
A sia</w> 495749
inn en 495719
ge dly</w> 495682
hop ing</w> 495605
strugg ling</w> 495541
stän digen</w> 495503
su ici 495405
interest ing</w> 495236
d uty</w> 495216
oni ght</w> 494944
Be fore</w> 494857
hö her</w> 494839
veröffent lich 494815
bo ost</w> 494810
dire ktor</w> 494675
Proje kte</w> 494532
sch ir 494530
möglich erweise</w> 494503
p lo 494412
ch ron 494195
all gem 494121
dau ert</w> 494051
ver kün 493992
opini on</w> 493947
eig net</w> 493932
V an</w> 493919
N AT 493902
vot es</w> 493900
Re por 493888
ep age</w> 493684
D r 493598
sci ence</w> 493583
g ger</w> 493576
quot e</w> 493392
Basi s</w> 493286
k asse</w> 493266
Al an</w> 493257
Dre h 493245
Cent re</w> 493154
Micros oft</w> 493102
verab schie 492986
An n 492900
wa ke</w> 492900
ver gessen</w> 492883
Ide en</w> 492743
is co</w> 492607
k ill</w> 492560
candid ates</w> 492542
produ ce</w> 492523
identi fied</w> 492479
s um</w> 492435
Lis a</w> 492403
2 3.</w> 492381
cra cy</w> 492379
Olymp ia</w> 492258
e si 492222
ta ined</w> 491971
übri gens</w> 491961
Tali ban</w> 491827
all ing</w> 491809
h i</w> 491737
M .</w> 491690
Ban k 491681
8 2</w> 491441
claim ing</w> 491324
Kri sen 491320
ach ers</w> 491239
sour ces</w> 491158
28 .</w> 491118
and elt</w> 491079
increas ing</w> 491018
experi enced</w> 491002
multi ple</w> 490997
Vor schlag</w> 490996
to ward</w> 490844
B rie 490810
ag ent</w> 490734
stän den</w> 490640
8 7</w> 490619
citi zens</w> 490597
Zu gang</w> 490554
Stu denten</w> 490471
soldi ers</w> 490300
w ski</w> 490283
ver sorgung</w> 490276
su r</w> 490159
On ce</w> 490083
ger ei 490042
8 0 489996
friend ly</w> 489983
be darf</w> 489925
re venue</w> 489822
Fi sch 489783
in ated</w> 489768
dre am</w> 489631
Haf t</w> 489553
Hel mut</w> 489498
Lö w</w> 489474
sch al 489378
weiter es</w> 489334
c ue</w> 489324
äl der</w> 489273
M em 489173
Stand ort</w> 489082
rei bt</w> 488928
J uni 488871
o es</w> 488839
klär t</w> 488807
Ob wohl</w> 488801
Un sere</w> 488735
Syri an</w> 488655
ho p</w> 488579
reg ime</w> 488539
Be ck 488503
G il 488280
A T</w> 488224
ent lichen</w> 488209
kü mm 488093
s at</w> 488059
gl ass</w> 488044
ur er</w> 488018
un mittel 487945
pro p 487912
geb lieben</w> 487884
vorsitz ende</w> 487875
Er klärung</w> 487849
sil ver</w> 487838
ig ten</w> 487812
fäh igkeit</w> 487752
at ers</w> 487518
199 7</w> 487513
arbei ts 487319
t un 487286
provi des</w> 487266
Eri c</w> 487254
äd ago 487145
For mel</w> 487117
sol ution</w> 486970
Kir ch 486929
gew ach 486843
doll ars</w> 486834
kom mun 486830
Kommun en</w> 486807
J ami 486730
fer tig</w> 486613
disp la 486561
gesp rä 486510
ket ball</w> 486509
pres ence</w> 486437
at re</w> 486427
tz u 486373
Um gang</w> 486335
ac ade 486110
al ternative</w> 486065
uni versity</w> 485900
con sequ 485851
titu de</w> 485743
free dom</w> 485706
lin k</w> 485672
U p</w> 485610
Be sch 485596
Train ings 485571
N as 485526
ohn t</w> 485526
Sp en 485518
G ut</w> 485460
v y</w> 485153
er mittelt</w> 485152
N ig 485151
Er inn 484951
St ation</w> 484942
V ettel</w> 484909
inte gri 484906
stan z</w> 484865
E ck 484777
ar ily</w> 484758
m o</w> 484723
hu a</w> 484699
kore a</w> 484662
ar ten</w> 484186
eg al</w> 484109
b ling</w> 484068
contro versi 483990
occ asi 483986
verli eren</w> 483927
dig ten</w> 483920
alle gedly</w> 483914
genau so</w> 483914
Stand ard</w> 483887
ein halb</w> 483732
C af 483697
P I</w> 483658
zuneh men</w> 483634
enn y</w> 483434
not ed</w> 483425
her vor</w> 483402
Os borne</w> 483377
Risi ko</w> 483355
Da x</w> 483216
L eh 483205
be t</w> 483163
vi erte</w> 483126
8 9</w> 483124
mom ents</w> 483086
x es</w> 483019
legis lation</w> 482996
m ass</w> 482960
ni schen</w> 482715
N A 482671
über all</w> 482650
bli eben</w> 482606
sh ops</w> 482591
Mar c</w> 482574
lie genden</w> 482565
th es</w> 482458
Verletz ungen</w> 482458
beru f 482327
incredi ble</w> 482313
immer hin</w> 482298
Gewin n</w> 482262
or ded</w> 482199
off izi 482136
lau gh 481931
Fahr t</w> 481815
Produ ktion</w> 481787
am ate 481773
Bot schaft</w> 481676
re moved</w> 481610
what ever</w> 481605
Br us 481596
wechsel t</w> 481529
So ftware</w> 481441
abge schlossen</w> 481429
li gisten</w> 481334
offiz iell</w> 481315
critic ism</w> 481192
Schnei der</w> 481149
ke en</w> 481130
Geburt stag</w> 481119
un er 481072
dec lined</w> 480940
Rück kehr</w> 480895
ger ing</w> 480744
M ein</w> 480677
a ster</w> 480649
Chanc ellor</w> 480641
D amen</w> 480298
posi tiv</w> 480298
g ment</w> 480297
deliver ed</w> 480209
Halb zeit</w> 480146
2 1. 480053
Be wohner</w> 480041
ani c</w> 479917
Wir k 479854
hi bi 479796
klag t</w> 479770
ou l</w> 479765
G ast</w> 479751
bo dies</w> 479595
pay ments</w> 479444
traff ic</w> 479430
Ge wi 479407
fest genommen</w> 479404
zei tung</w> 479261
ar rest</w> 479070
or dered</w> 479006
zusätz lich</w> 478932
ss ed</w> 478827
H ob 478786
au ßer</w> 478736
Jör g</w> 478560
colle agues</w> 478553
Kon sequ 478541
dra wn</w> 478429
conduc t</w> 478386
musi kali 478320
Fel d 478294
Pfle ge 478283
Land tags 478214
head ing</w> 478207
m te</w> 478074
un it</w> 477987
wäh len</w> 477961
k ts</w> 477945
Ra di 477945
Fern sehen</w> 477923
mehr fach</w> 477872
Po st 477828
pop ul 477642
Hel fer</w> 477606
Par ti 477587
las h</w> 477576
appar ently</w> 477572
po t</w> 477437
Ziel e</w> 477395
sh ape</w> 477383
ste cken</w> 477266
gän ge</w> 477097
Juli a</w> 477085
mitglie der</w> 477067
rech net</w> 477006
Mittwo ch 476832
B ie 476694
dri vers</w> 476582
R ä 476454
def ense</w> 476331
cor ner</w> 476329
sy mbo 476325
im mt</w> 476258
b lu 476216
9 2</w> 476212
O h</w> 476022
Gel egenheit</w> 475986
&apos; The</w> 475847
bar keit</w> 475796
nation ale</w> 475766
Vor würfe</w> 475685
si erten</w> 475641
b lau 475639
Ko ch</w> 475532
artic le</w> 475515
Aus wär 475491
gest or 475464
nah me 475455
Ar mee</w> 475402
D al 475387
A BC</w> 475380
cl ing</w> 475360
lauf enden</w> 475168
le gung</w> 475123
sh ut</w> 475074
Gl ück 475007
R it 474992
ul ts</w> 474992
Kom munik 474924
ge fahren</w> 474898
loc ation</w> 474847
atten ded</w> 474839
Chan nel</w> 474783
z el</w> 474749
ent täu 474749
wach sen</w> 474683
ar do</w> 474593
se ek</w> 474498
T C</w> 474482
ot os 474461
Ger hard</w> 474447
loc ated</w> 474252
inspi red</w> 474204
ma d</w> 474177
Rau m 474146
se ats</w> 474122
9 1</w> 474096
T el</w> 474043
wo bei</w> 473902
p tion</w> 473888
Gar ten</w> 473829
CE O</w> 473823
schn eller</w> 473785
dig ital</w> 473771
bur n</w> 473740
tax es</w> 473712
West f 473628
er forder 473588
G ame</w> 473480
us ses</w> 473315
sk i 473302
di vor 473259
rou te</w> 473209
n de</w> 473156
Me er</w> 473071
gre w</w> 473055
Spe zial 472993
disc uss</w> 472961
f illed</w> 472762
Ros en 472706
beauf tra 472705
g alt</w> 472700
leist ungen</w> 472653
schlu g</w> 472602
Mit teilung</w> 472558
über nommen</w> 472543
oph ie</w> 472521
star ten</w> 472435
exist ing</w> 472351
G lau 472306
s ingen</w> 472237
Kar ls 472200
Er war 472023
gefähr lich</w> 471947
Wet ter 471941
provi ding</w> 471710
know ledge</w> 471692
V eg 471671
uni que</w> 471666
gi gen</w> 471651
sy n 471409
gel ungen</w> 471326
Wolfs burg</w> 471189
M s.</w> 471094
ni em 470945
verur sa 470825
he at</w> 470739
Minist eri 470688
For eign</w> 470576
reti rement</w> 470522
k es 470409
allo wing</w> 470300
ar my</w> 470264
er lebt</w> 470243
Gott es 470213
star b</w> 470198
car ds</w> 470192
er leben</w> 470187
Kra ft 470169
Israel i</w> 470168
kl ar 470081
Z ie 470068
fil ed</w> 470068
Sch rö 469987
lin ken</w> 469971
k g</w> 469761
el ected</w> 469684
sel ben</w> 469654
Woh l 469637
se he</w> 469635
Sy mp 469585
jo int</w> 469575
st olz</w> 469574
e ating</w> 469561
kl einer</w> 469530
we tt 469527
öffent liche</w> 469524
ss er</w> 469489
schlä gt</w> 469478
n or</w> 469444
val u 469369
tä tig</w> 469353
k um 469218
schö ne</w> 469175
Mar ke</w> 469139
mel den</w> 468939
pre me</w> 468691
oh len</w> 468638
hi c</w> 468577
K it 468532
republi k</w> 468403
ay ne</w> 468401
d den 468315
en dete</w> 468310
lea ves</w> 468273
bri tische</w> 468229
zeu gen</w> 468171
Schw ein 468125
lu cky</w> 468118
fil ms</w> 468101
Mod ell</w> 468059
car rying</w> 467949
Fra ktion</w> 467927
passen gers</w> 467856
sm aller</w> 467765
schaf tliche</w> 467703
impres sive</w> 467603
Grupp en 467538
Bo ston</w> 467525
ur red</w> 467443
v s</w> 467413
fass ung</w> 467293
v in</w> 467230
mi g</w> 467230
k rei 467109
f ing</w> 466994
Frei burg</w> 466989
F it 466899
fin de</w> 466715
b bed</w> 466713
comp li 466658
ent ing</w> 466627
m einem</w> 466598
Bar bar 466575
Elek tro 466510
M ön 466460
Ch ief</w> 466397
b aden</w> 466379
spo ken</w> 466365
u l</w> 466306
an al</w> 466298
opport unities</w> 466252
announ cement</w> 466248
Hom epage</w> 466209
ra el 466126
an on 466098
k ampf 466019
den de</w> 465989
Wahl kampf</w> 465791
Gree ce</w> 465782
end ung</w> 465672
Vol k 465576
Rel igi 465533
inter ests</w> 465480
In n 465477
Wäh ler</w> 465457
hän gen</w> 465435
bil dungs 465370
fol gte</w> 465310
lich t 465309
V ar 465227
Ar my</w> 465221
alco hol</w> 465134
vide os</w> 465134
inde x</w> 465021
verz ichten</w> 464959
st euer</w> 464925
Um frage</w> 464896
stru c 464877
be zeichnet</w> 464874
G it 464817
z it</w> 464791
v ehicles</w> 464789
H essen</w> 464763
gu ests</w> 464609
S qu 464583
rema ining</w> 464208
Dist ri 464190
Brus sels</w> 464079
Der zeit</w> 464024
mach ine</w> 463985
ta gen</w> 463942
sa al</w> 463875
in y</w> 463842
ther wise</w> 463765
Ermitt ler</w> 463748
B ack 463675
Jahrhunder t</w> 463555
rep ut 463477
Verein s</w> 463459
g g</w> 463393
sch we 463288
p .m.</w> 463263
vertei diger</w> 463174
v ac 463154
be de 463086
pati ent</w> 463008
Colle ge</w> 462802
erlau bt</w> 462793
a x 462634
Schul z</w> 462601
20 . 462516
s la 462498
Strat eg 462465
Dres den</w> 462460
go al 462425
üs sen</w> 462416
neh mer 462206
Gre mi 462170
p el 462124
gr at 462115
air craft</w> 462095
sch rau 462080
Grün de</w> 461958
geplan te</w> 461941
Mas sen 461936
i le 461888
m ten</w> 461838
überrasch end</w> 461788
a than</w> 461743
ang s 461739
propos al</w> 461688
ri tz 461658
tru ly</w> 461625
consum ers</w> 461543
wei ler</w> 461533
allo ws</w> 461459
d l</w> 461389
J am 461359
27 .</w> 461303
schedul ed</w> 461298
sav ings</w> 461241
en h 461118
umstri tt 461046
Deut sch</w> 460944
Au di</w> 460894
expla in</w> 460876
Tre as 460851
schlie ßt</w> 460791
musi k</w> 460768
W all 460754
equi pment</w> 460748
h urt</w> 460744
t dem</w> 460733
dr h 460722
M e</w> 460715
g ru 460638
ak ers</w> 460622
e . 460601
An ne</w> 460588
cat eg 460560
man che</w> 460548
2 6.</w> 460524
mo stly</w> 460480
Angeb ote</w> 460468
E Z 460432
sur vey</w> 460414
indi c 460364
9 3</w> 460348
Zu stand</w> 460303
d re</w> 460267
ini schen</w> 460139
ig an</w> 460136
st ics</w> 460133
kur s</w> 460082
Ant oni 460020
gen ü 459972
Sani erung</w> 459961
er li 459570
ear ned</w> 459558
K ampf 459498
le gs</w> 459483
ma h 459444
Zeu gen</w> 459376
sent ence</w> 459287
sho ck</w> 459271
susp ect</w> 459246
Ver such</w> 459024
Aus einander 458972
R om</w> 458931
ill ing</w> 458692
Her ren</w> 458431
an des</w> 458422
P R</w> 458385
Pas sag 458375
Bus iness</w> 458374
Jes us</w> 458363
tri eben</w> 458254
te ste</w> 458221
Ken ne 458133
Compu ter</w> 458059
p hi 458056
eff ec 458032
Can adi 457987
d al</w> 457967
obvi ously</w> 457937
Er ste</w> 457932
Ver trauen</w> 457918
suppor ted</w> 457910
stat tet</w> 457864
Köni gs 457801
E very</w> 457644
F ire</w> 457592
be halten</w> 457562
h em 457542
l inger</w> 457533
bu te</w> 457479
schrei bung</w> 457478
NR W</w> 457372
clos er</w> 457362
lö sung</w> 457352
mili tä 457245
j o</w> 457151
da hin</w> 457102
Geb iet</w> 457079
rich tigen</w> 457068
ap art</w> 457061
eingel aden</w> 456971
ver däch 456954
durch schnit 456893
Bundes wehr</w> 456879
schwi erig</w> 456834
Her mann</w> 456818
h t 456741
pur su 456722
resour ces</w> 456719
Re al 456698
Indi an</w> 456687
Pfarr er</w> 456515
Ein er</w> 456431
is rael 456228
near by</w> 456113
st ad 456063
sta un 455998
stu dio</w> 455916
Haf t 455910
schri eben</w> 455840
H SV</w> 455751
f at</w> 455708
surpri sed</w> 455692
prot est</w> 455616
C la 455590
ail ed</w> 455571
Sie g 455537
Se x</w> 455437
vul ner 455340
ing er 455338
T ok 455188
Zusch auern</w> 455074
schaff t</w> 455036
Investi tionen</w> 454956
p oll</w> 454945
ru ling</w> 454850
Gemein den</w> 454815
be su 454775
in des</w> 454733
ar chit 454659
re duced</w> 454659
U we</w> 454370
Bahn hof</w> 454299
Flori an</w> 454188
Tex t</w> 454129
D an</w> 454097
att le</w> 454007
zurück ge 453990
w esen</w> 453948
exper im 453928
wi ch</w> 453920
drh ein</w> 453897
gro wn</w> 453627
wen den</w> 453586
th alle</w> 453536
F L</w> 453312
ver wand 453306
ori al</w> 453249
letz tlich</w> 453200
ter ror</w> 452934
Haushal ts 452815
S imp 452777
W ind</w> 452674
F ree</w> 452634
tempor ary</w> 452608
ti ght</w> 452599
sk ills</w> 452592
possi bly</w> 452527
ha fte</w> 452522
refu ge 452402
si vely</w> 452346
se ch 452343
po unds</w> 452339
ent standen</w> 452328
Ear th</w> 452291
50 ,000</w> 452239
Nic ole</w> 452238
größ ere</w> 452236
G ood</w> 452228
sch wan 452165
mid fielder</w> 452136
individu als</w> 452085
initi ative</w> 452038
Kh an</w> 451983
Ern st</w> 451914
Fün f</w> 451750
ra s 451741
bus y</w> 451694
dre ht</w> 451692
ück e</w> 451651
pro be</w> 451616
V en 451600
Ver lag</w> 451593
rä t</w> 451446
LIN K 451310
russi sche</w> 451287
feat ured</w> 451091
än den</w> 451085
Fl or 450993
establi shed</w> 450965
stran ten</w> 450918
ex t 450911
Nürn berg</w> 450893
geb äu 450768
re vi 450765
be finden</w> 450722
F r 450611
H am</w> 450581
M S</w> 450516
Schul den 450471
F ili 450411
Teil nahme</w> 450335
gef äl 450330
Li ons</w> 450281
ang ri 450195
Ba de 450095
ma che</w> 449929
stat ements</w> 449828
Gu i 449750
wor ried</w> 449629
Cru z</w> 449566
gi o</w> 449503
St rom</w> 449451
j ail</w> 449267
All ein</w> 449253
on t</w> 449235
Be ach</w> 449198
verk auf 449099
Inter net 449075
on z 449049
G un 448943
Ar zt</w> 448943
NAT O</w> 448933
J ose</w> 448876
mm ing</w> 448806
por tra 448671
Dah er</w> 448623
er land</w> 448566
För derung</w> 448504
si v 448427
Fe deral</w> 448408
p ace</w> 448344
histori schen</w> 448223
ac kt</w> 448198
ver mu 448190
deg ree</w> 448089
S N 447815
Austri a</w> 447784
ter rit 447748
hous es</w> 447738
Dar über</w> 447716
der ten</w> 447682
on able</w> 447656
negoti ations</w> 447652
direc tion</w> 447608
er gi 447603
f ak 447531
Jami e</w> 447423
o .</w> 447418
am er</w> 447324
k atholi 447297
extre m</w> 447209
V ö 447170
vie wers</w> 447149
H all 447129
A I 447104
er ter</w> 447062
außer halb</w> 447043
achie ve</w> 446985
P ier 446983
Gi pfel</w> 446926
Wag ner</w> 446910
Hen ry</w> 446823
rela tiv</w> 446727
Entschei dungen</w> 446642
ü hren</w> 446628
priv aten</w> 446582
Hosp ital</w> 446495
er o</w> 446430
ma ßen</w> 446364
Re st</w> 446321
He avy</w> 446318
con stitu 446304
Flüchtl ing 446110
Rent en 446037
ans a</w> 445978
Bu dget</w> 445977
Finan cial</w> 445958
pregn ant</w> 445893
stra iner</w> 445849
Al ten 445718
y ards</w> 445677
Arbeit geber</w> 445604
Flüchtl ings 445584
scienti sts</w> 445513
er weiter 445391
Part ner 445388
or gt</w> 445376
bre m 445361
gr and</w> 445332
den den</w> 445290
st unden</w> 445253
us ern</w> 445244
boy friend</w> 445134
z ation</w> 445129
B am 445129
R af 445127
be u 445101
hei ßen</w> 445073
b rief</w> 444890
n den</w> 444889
Lin ken</w> 444841
B lue</w> 444637
nen nen</w> 444556
Pot s 444545
Wachst um</w> 444531
Jos ep 444141
ta ins</w> 443977
ri vals</w> 443838
blo ck 443770
poin ted</w> 443761
sp ei 443709
i o</w> 443590
n one</w> 443509
T anz 443472
Nieder sach 443451
Bru der</w> 443447
ru led</w> 443445
h its</w> 443399
exer cise</w> 443338
ru gby</w> 443329
gemä ß</w> 443230
b ath 443168
gra de</w> 443146
ehr en 442996
Ein fluss</w> 442995
Dor f</w> 442988
p ath</w> 442947
G ary</w> 442945
hist or 442885
Mann schaften</w> 442630
cre ating</w> 442585
be sucht</w> 442527
cover ing</w> 442516
dien ste</w> 442456
E din 442448
wonder ful</w> 442429
gol f</w> 442266
Th or 442142
ra id</w> 441948
off enen</w> 441936
re y</w> 441888
na cht</w> 441841
Mit t 441824
Al ternative</w> 441558
ini sche</w> 441482
O K</w> 441470
kl are</w> 441436
t at</w> 441346
dau er 441327
sitz ung</w> 441298
p ink</w> 441280
Kon ta 440982
re alist 440954
wi l 440945
T yp 440944
Dor f 440908
timat ely</w> 440904
Mi ami</w> 440782
ück sich 440749
easi er</w> 440746
ver mei 440737
enti rely</w> 440650
or en 440553
Hä user</w> 440240
k unde</w> 440219
s al</w> 440207
mo di 440134
ü t 439998
trä gen</w> 439959
men te</w> 439922
co de</w> 439915
T ages</w> 439605
s ä 439517
Milli on</w> 439507
b ten</w> 439455
ts ch</w> 439353
D ut 439331
Wer t 439290
consu mer</w> 439252
H öh 439202
Josep h</w> 439149
Spie gel</w> 439065
ges orgt</w> 438941
m um</w> 438911
ent gegen 438853
möglich keiten</w> 438820
Po wer</w> 438762
hor ri 438762
Do wn 438708
tran sport</w> 438652
jour ney</w> 438649
An sicht</w> 438534
b latt</w> 438507
ge stri 438502
confli ct</w> 438393
Waff en</w> 438308
j ing</w> 438302
ear nings</w> 438249
fal sch</w> 438189
figh ters</w> 438126
them ati 438117
G ab 438106
mis si 438054
Verhält nis</w> 438000
Stad tt 437982
New s 437875
fach e</w> 437860
erk annt</w> 437841
As si 437753
IS IS</w> 437744
ro yal</w> 437717
Qu ar 437669
J im 437555
b ac 437507
demo k 437393
Isla m</w> 437383
wi t 437380
199 5</w> 437280
en k</w> 437245
Prof i</w> 437236
Mos cow</w> 437220
T ories</w> 437199
bo at</w> 437143
Gar ten 437109
lang sam</w> 436979
pres ented</w> 436942
e ast</w> 436888
Fel d</w> 436886
cre w</w> 436879
Be glei 436827
conv inc 436778
dur fte</w> 436771
Ko sten 436741
ni er</w> 436711
te ur</w> 436698
Ni veau</w> 436691
ru fen</w> 436689
ll a</w> 436667
dev ast 436655
wir ft</w> 436517
posi te</w> 436412
Ar gum 436409
E con 436354
o the 436168
hil fe</w> 435879
Franc isco</w> 435879
Sor gen</w> 435856
rei chs</w> 435832
ab gesch 435819
t ations</w> 435729
cur ren 435700
Bran che</w> 435682
P R 435488
J az 435464
apart ment</w> 435462
Gol f</w> 435413
2 2 435410
war tet</w> 435339
3 1.</w> 435320
I ts</w> 435267
Fre m 435184
inf lation</w> 435116
herr scht</w> 435029
erziel te</w> 435020
199 4</w> 434801
dau ern</w> 434754
foot age</w> 434752
kit chen</w> 434733
Tre ff 434711
aus reich 434708
zi p</w> 434678
begeist ert</w> 434668
po und</w> 434665
Vir g 434544
Stu dien 434480
Carol ina</w> 434433
Städ ten</w> 434418
P D</w> 434417
ni ght 434367
National spieler</w> 434362
zeich nen</w> 434287
Vor stellung</w> 434274
J ens</w> 434250
p ack</w> 434138
par tei 434124
Man fred</w> 434048
Ral f</w> 434013
Tr otzdem</w> 433987
Ear lier</w> 433972
Pr inc 433962
j f</w> 433905
re pla 433892
Z DF</w> 433836
dar aus</w> 433816
lich em</w> 433804
C ann 433764
r in</w> 433749
or row</w> 433587
Der by</w> 433560
quar ters</w> 433498
hy th 433446
2 9.</w> 433436
develop ing</w> 433432
vill age</w> 433414
In frastru 433376
controversi al</w> 433295
u tions</w> 433218
be handelt</w> 433163
basi c</w> 433032
Wil son</w> 432962
zusätz liche</w> 432861
potenti ally</w> 432800
excell ent</w> 432776
aus län 432682
respon ded</w> 432449
di stance</w> 432431
Un ser</w> 432428
gesch ei 432252
Gr öße</w> 432202
Weihnach ten</w> 432087
kti v</w> 432079
Bau m 432066
grün dete</w> 432020
z iger</w> 432017
li mit</w> 432004
comp lic 431983
stre am</w> 431895
ster ed</w> 431889
Ther ap 431861
Vertei digungs 431845
erhöh t</w> 431827
R ab 431767
per t</w> 431730
fä hig</w> 431681
ben en</w> 431676
k is 431502
de part 431428
Dam als</w> 431369
ph il 431211
sc andal</w> 431112
Ver stän 431013
ha ften</w> 431008
ri de</w> 430938
Ma inz</w> 430929
Justi z 430915
os ing</w> 430851
rec ru 430645
R ap 430623
ger ät</w> 430414
sicher heit</w> 430411
E S</w> 430409
st ein 430396
duc ing</w> 430391
E p 430246
Re public</w> 430132
Person al</w> 430065
o mi 430054
Bil anz</w> 430050
under stood</w> 430028
cap acity</w> 429920
For derung</w> 429891
fl ying</w> 429888
dig it 429738
cover age</w> 429727
plat form</w> 429662
tin y</w> 429661
j i</w> 429643
K eller</w> 429594
An zahl</w> 429557
lau tet</w> 429556
Qu al 429540
il leg 429539
L im 429527
Jap anese</w> 429526
t form</w> 429507
tur ns</w> 429469
commit ment</w> 429427
def ender</w> 429395
B illi 429389
gar den</w> 429331
E mi 429313
Sch ne 429242
S ollte</w> 429221
ut ed</w> 429213
to t</w> 429181
Feh l 429064
t ment</w> 428983
F C 428978
prin cip 428736
fei ert</w> 428630
mi st 428594
Verbrau cher</w> 428509
messag es</w> 428509
Stutt gar 428503
Bi sher</w> 428386
Lin k 428310
Fel ix</w> 428244
Industri e</w> 428200
Bi o 428116
un less</w> 428100
expres sed</w> 428090
Aus bau</w> 428077
mot or 428060
Untersuch ung</w> 428046
Sch wen 427949
ple ase</w> 427852
anim als</w> 427790
B em 427639
Mex ik 427557
For m 427548
den er</w> 427542
ter ien</w> 427475
Juli an</w> 427455
Vorstand s 427404
p ft</w> 427329
man agers</w> 427230
AF P</w> 427218
Him mel</w> 427183
g ut 427162
be stimmt</w> 427128
ens ation</w> 426941
go w</w> 426938
entsprech end</w> 426937
challeng es</w> 426869
d .</w> 426800
S n 426541
competi tive</w> 426529
ac o</w> 426510
pan el</w> 426506
eri a</w> 426445
9 4</w> 426299
el low</w> 426229
bedro om</w> 426177
Tari f 426137
persön lich</w> 426066
sh of</w> 426014
Wis sen</w> 426001
D utz 425910
Sch ick 425781
Zun ächst</w> 425643
mo dels</w> 425597
rec orded</w> 425546
zeh n 425403
visi tors</w> 425345
it es</w> 425324
größ er</w> 425165
analy sis</w> 425111
b rech 425109
Mich elle</w> 424951
Bo b</w> 424942
brilli ant</w> 424941
Ein richtung</w> 424851
Leb ens</w> 424844
bl ame</w> 424831
B ord</w> 424825
räum e</w> 424709
r ing 424650
pos sibility</w> 424632
y l</w> 424584
S ong</w> 424498
ide as</w> 424484
exper t</w> 424470
nah e 424431
[...]
