, 75024412
. 41640478
the 28405336
in 19529297
: 17380774
of 16398217
@-@ 15886740
and 14847498
und 14347909
der 13339734
) 12425727
( 12210713
to 11597086
die 11415505
- 10569081
a 10534113
/ 7819749
von 6092685
is 6016716
for 5486598
&quot; 5475989
den 4745434
on 4636021
zu 4545002
mit 4532897
für 4369601
with 4283463
The 4030222
an 4001344
1 3974194
ist 3827465
des 3519210
2 3356713
auf 3328537
that 3269932
das 3197997
es 3179215
as 3108103
are 2975840
Sie 2908784
be 2867230
im 2860657
eine 2615767
by 2613381
from 2607522
3 2598877
S@@ 2579847
Die 2547330
C@@ 2439711
at 2425003
ein 2409578
P@@ 2407057
dem 2385240
or 2364683
M@@ 2321833
T@@ 2228955
A@@ 2210349
it 2179567
I 2158522
you 2108966
ago 2090507
4 2065013
B@@ 2010713
sich 2005084
D@@ 1995591
x 1991160
werden 1991133
Vor 1987057
E@@ 1916550
er 1896742
nicht 1890388
L@@ 1887748
F@@ 1877035
will 1865880
this 1860569
um 1842126
G@@ 1834559
; 1817010
was 1808274
als 1767594
Vehicles 1730737
K@@ 1720377
o 1693421
sind 1665444
V@@ 1639301
R@@ 1639229
not 1632871
oder 1629591
5 1627144
H@@ 1617749
s 1605237
k@@ 1594029
er@@ 1592722
In 1571174
have 1562664
in@@ 1543166
00 1540009
auch 1524931
m 1518242
i 1512393
? 1506830
wird 1501137
aus 1492636
10 1487858
an@@ 1476106
can 1468920
d@@ 1468299
! 1465548
which 1456218
3@@ 1447103
&#124; 1422946
I@@ 1417004
p@@ 1416829
am 1415588
4@@ 1412426
all 1398617
en 1389885
en@@ 1389285
de 1389077
dass 1370036
N@@ 1343901
s@@ 1342575
be@@ 1340105
6 1324930
sie 1322054
über 1317744
has 1315550
einer 1308937
c@@ 1283017
e@@ 1281132
e 1277380
5@@ 1274297
we 1255587
ver@@ 1248191
O@@ 1241236
so 1232788
A 1225840
... 1221188
U@@ 1203648
o@@ 1200151
t@@ 1199615
nach 1191000
m@@ 1185092
einen 1177648
bei 1165809
2@@ 1164178
wir 1161499
.@@ 1160696
your 1159220
one 1154394
W@@ 1141708
6@@ 1136964
E 1127328
also 1119336
un@@ 1110780
our 1110653
Das 1109231
einem 1103059
a@@ 1099055
wie 1098602
years 1095438
re@@ 1094102
hat 1093474
y@@ 1089107
An@@ 1081389
+ 1080868
8 1079020
Z@@ 1078928
te 1074592
18 1071420
&apos;s 1070668
ation 1066518
v@@ 1058124
Der 1043570
zur 1042389
f@@ 1039945
g@@ 1037476
7 1030879
al@@ 1023935
t 1022086
zum 997061
ten 996492
us 989615
its 987172
b@@ 978505
g 973578
EUR 965747
haben 964014
Ver@@ 961554
ge@@ 957931
7@@ 953768
x@@ 948815
n@@ 947257
ich 946354
l 943720
ch@@ 934849
z@@ 930660
more 927462
20 924888
% 916407
mm 915582
ung 911556
Jahren 905572
u@@ 903253
8@@ 902364
ar@@ 902014
12 900801
i@@ 900514
durch 895416
können 885806
their 884257
Fahrzeuge 883627
st@@ 877968
&#93; 874197
X@@ 866108
9@@ 862658
k 857191
Y@@ 855034
di@@ 853544
bis 853104
S 852270
li@@ 849509
1@@ 848820
or@@ 842771
&#91; 842550
L 838270
ab@@ 836646
T 835166
ing 830431
ti@@ 826001
al 819614
time 819259
up 819022
h@@ 815100
y 802557
11 797558
man 795887
30 794985
15 794521
ter 790705
el@@ 788445
D 787507
c 782955
u 778416
€ 774887
nur 771011
xHamster 757820
O 752594
0@@ 752406
This 751131
Hotel 748939
05 746241
vor 745164
J@@ 740299
9 738755
.com 738357
l@@ 736382
kann 735411
but 731737
new 731247
year 730998
he 730570
wurde 726549
10@@ 725834
ri@@ 725791
Be@@ 720765
they 709777
50 708678
d 707439
on@@ 702454
EU 700235
M 699402
0 696336
his 685499
sch@@ 682604
p 681741
European 681397
Re@@ 671404
war 670465
do 670155
It 664902
big 664164
08 661237
ein@@ 658722
other 658482
about 657786
aus@@ 650608
06 650413
b 649878
been 649462
* 649180
only 647798
ent@@ 646036
able 643674
Es 643314
25 642814
In@@ 640467
km 635617
months 633310
le@@ 631868
46@@ 626038
Jahr 625889
de@@ 621716
at@@ 621649
Ab@@ 617438
Al@@ 615775
uns 614106
le 613447
ed 612810
j@@ 612469
ro@@ 609110
n 606027
07 605865
B 604456
out 604038
aber 600512
diese 599335
alle 599190
r@@ 596715
16 596478
Ã 596184
mi@@ 595829
14 593462
F 592283
th@@ 589915
R 588987
vom 587872
C 587456
am@@ 587054
We 586674
no 585220
18@@ 582630
Er@@ 581989
mehr 580867
19@@ 579830
dieser 578913
cm 578325
ra@@ 578243
01 576773
12@@ 576224
Monaten 574711
si@@ 572729
w@@ 572560
Airport 571357
sein 570094
ale 568818
online 567612
em@@ 567240
13 567156
el 562761
se@@ 561639
se 555836
ate 555767
es@@ 555564
ers 554751
r 553222
were 551101
h 549492
who 549237
24 548454
per 541889
me 541884
end 541716
there 541561
V 541125
noch 541029
33@@ 539906
15@@ 539668
ine 537622
da 536852
Sch@@ 536762
Con@@ 535363
very 535192
X 535012
chen 534946
z 534618
ts 533979
# 532972
te@@ 532744
into 532152
ungen 528866
Aus@@ 525864
wenn 524357
well 522096
ch 520247
Ein@@ 520207
sche 519219
um@@ 517930
40 517809
sp@@ 517225
Ich 516411
as@@ 515241
Wir 513890
ab 513608
P 513175
first 510844
ot@@ 504595
N 500953
2015 493657
ar 493204
ge 487273
con@@ 484654
-@@ 484515
17 484314
st 484283
St@@ 482578
K 480632
eines 479773
system 479545
ter@@ 479309
19 479002
lo@@ 478962
vi@@ 478659
would 478134
op@@ 476229
21 476187
ad@@ 475724
gen 475340
16@@ 474197
unter 471501
13@@ 470716
sehr 470695
20@@ 468975
use 465786
Ch@@ 465763
ap@@ 463926
04 462514
la@@ 461866
vor@@ 460299
ni@@ 459027
45@@ 456333
people 454818
Ex@@ 454621
ated 454304
them 453739
auf@@ 452533
30@@ 452202
co@@ 452084
these 451334
any 450673
22 449620
100 449555
age 449520
like 449111
sh@@ 447579
00@@ 445559
than 445146
f 444282
sen 442662
sowie 442650
ur@@ 442003
17@@ 440564
ungs@@ 439813
had 438092
two 437379
14@@ 435463
ent 435269
ag@@ 435199
ck@@ 432777
G 431884
CH@@ 430688
if 430025
Vi@@ 429448
AN@@ 426187
it@@ 426124
ass 424740
th 423862
ings 423601
ihre 422504
02 422425
when 421033
most 418149
inter@@ 417864
anal 417467
way 415898
H 415167
such 414868
ert 414818
Lo@@ 414651
bi@@ 413999
ac@@ 413825
&apos; 412101
Union 411882
area 411429
men 410433
03 410205
Mo@@ 409502
my 408209
ER@@ 407221
et@@ 406938
ations 406818
ne@@ 406772
IN@@ 406544
Tube 405648
Mar@@ 404102
schen 403385
work 401952
Ar@@ 401820
Li@@ 401221
sten 401000
v 400856
should 400318
• 400209
over 398406
bar 398102
mo@@ 397477
free 395658
et 395618
You 395008
23 394647
daß 394613
os@@ 392713
Commission 391859
between 391611
do@@ 391276
gibt 391087
De@@ 390565
09 390511
ler 390318
ST@@ 389472
der@@ 389358
AR@@ 387920
information 387182
now 385980
EN@@ 385870
diesem 384985
U 383811
days 380254
zwischen 380224
ina 378241
IS@@ 377577
Sh@@ 377438
ze 376724
Future 376619
2013 375283
_ 374703
Kommission 373042
1.@@ 372412
lich 372122
Im 371768
Heavy 371626
many 371058
os 370783
Seite 369255
made 369190
ne 369017
zu@@ 368906
26 368621
us@@ 367949
50@@ 367665
old 367442
2016 366849
ve 366559
ec@@ 366319
Machines 365905
im@@ 365664
ul@@ 365120
2012 364583
les 364370
hier 364129
60 363449
go 362167
her 360692
28 360523
some 359817
room 359636
2014 359212
große 358995
2010 358766
world 358531
day 357676
For 357173
fi@@ 356930
Di@@ 356618
Se@@ 356193
Ihre 355988
qu@@ 355517
Vor@@ 353713
ant 353425
Bo@@ 352904
= 352229
2011 351844
ie 351806
PornHub 351699
ner 350812
den@@ 350086
is@@ 349131
immer 347960
ern 347947
And 346701
service 346575
32 345766
2009 345491
Mon@@ 345125
pro 345074
90 344032
ing@@ 343827
Spiele 342152
27 342134
° 342026
must 341647
ex@@ 341376
ck 341064
W 340740
liche 339864
anderen 339679
über@@ 339284
high 337877
ds 337532
Pro@@ 337499
milf 337371
place 336826
seine 336718
after 336606
ke 336573
car 336386
tra@@ 335430
Und 334643
Su@@ 333256
ster 332859
see 332801
Hotels 332186
tes 331851
29 331792
EN 331378
35 330787
Layer 330066
eren 329798
OR@@ 329263
erung 328828
Le@@ 328670
2.@@ 328474
tion 328217
land 328213
ten@@ 328190
ca 328166
au@@ 327996
Photoshop 327906
Po@@ 326937
gen@@ 326449
45 326163
Sp@@ 325711
for@@ 325591
pro@@ 325333
ste 324641
set 324591
Porn 324497
AT@@ 324226
available 323220
ER 323218
Zeit 322816
unter@@ 322530
through 321635
31 321451
ens 321009
If 320469
hotel 320410
to@@ 320070
ber 320057
what 319788
Europe 319047
Ge@@ 318982
ating 318906
wurden 318823
bo@@ 318746
order 318568
make 318397
großer 316572
tits 316122
may 315782
› 315135
used 314742
om@@ 314437
zwei 314401
ol@@ 314088
where 313558
ber@@ 313044
ding 312955
Wenn 312954
w 312616
Mit 312171
just 311335
ting 310914
Co@@ 310624
here 310567
Ein 309791
24@@ 309074
® 308796
80 308654
view 308623
ma 308514
Par@@ 308482
ken 308332
cken 306250
Y 305901
neue 305572
müssen 305498
ins 304935
ä@@ 303658
take 303391
RO@@ 303015
even 302464
AL@@ 302084
ru@@ 301118
dann 301012
part 300932
Tattoo 300332
he@@ 299919
ohne 299586
sc@@ 299503
vo@@ 299500
Ihnen 299490
Zu@@ 298789
IT@@ 298493
Germany 298011
seit 297419
RE@@ 296632
ihr 296181
lichen 296051
Diese 295887
keine 295768
@ 293609
since 293497
TV 293410
ha@@ 293264
dieses 293129
her@@ 292459
ei@@ 291983
bietet 291872
Ro@@ 291723
Car@@ 291665
small 291529
ci@@ 291440
games 290874
Bi@@ 290854
ger@@ 290510
Jahre 290437
gi@@ 290337
US 289564
ic@@ 289073
ous 289070
sa@@ 289048
ic 289015
same 288285
ator 287692
Com@@ 287632
kon@@ 287212
Bilder 286885
Q@@ 286419
so@@ 286204
king 285323
then 284831
Auf@@ 284599
under 284313
fe@@ 283700
sk@@ 283603
par@@ 283268
fer@@ 283145
com@@ 282921
Kon@@ 282588
ted 282558
New 282293
ors 282057
2007 281693
len 281146
Über@@ 281073
ger 280580
art 280398
products 279398
é@@ 279384
ce 279085
Menschen 278715
ati@@ 278165
house 278076
ir@@ 277602
arsch 277466
man@@ 277430
Ma@@ 276954
ft 276653
No@@ 275395
because 272210
All 271865
eh@@ 271583
unsere 271031
ments 270788
ur 270493
good 269946
right 269738
per@@ 269318
need 269053
43 268682
.net 268279
$ 268080
Wien 267411
data 267163
ser@@ 267092
ak@@ 266917
Berlin 266741
di 266702
id 266347
25@@ 266060
En@@ 265453
important 265113
hand@@ 264957
ly 264531
Für 264312
without 264255
ons 263717
tions 263095
TXXX 262697
2008 262273
3.@@ 262179
andere 261643
lat@@ 261491
Inter@@ 261330
ad 261241
ms 261233
gegen 260541
du 260249
General 260249
Her@@ 260219
ari@@ 259340
ON@@ 259165
Gu@@ 259089
ut@@ 258839
number 258725
neuen 258572
German 258554
ben 258334
finden 258251
ma@@ 257941
elle 257337
offers 257039
ps 256635
pe@@ 255819
ere 255749
Art 255541
different 254795
water 254359
po@@ 254091
States 253701
and@@ 253414
ung@@ 253257
Informationen 252568
asi@@ 252483
che 252229
how 251591
countries 251383
il@@ 250860
la 250746
eb@@ 250393
sion 250136
Welt 250051
November 249992
ia 249789
33 249720
re 249212
0.@@ 249100
On 248781
being 248548
life 248515
teen 248449
Council 248408
ig@@ 248343
Or@@ 248274
tu@@ 248211
before 248052
2006 247568
Bar@@ 247552
site 247024
own 246311
get 246308
those 246152
70 246110
ihrer 246104
mp@@ 246062
su@@ 246043
ty 245808
ed@@ 245005
Per@@ 244807
Unternehmen 244751
long 244406
EL@@ 244333
line 244242
seiner 244194
tt@@ 243726
ment 243716
Deutschland 243575
ta@@ 243489
him 243407
back 243346
There 243315
me@@ 243270
support 243184
Tag 243173
allen 243129
ure 242898
36 242515
UN@@ 242465
damit 242427
Z 242393
Zimmer 242280
Online 242037
quality 241732
enden 241721
34 241465
ties 241370
week 241313
Un@@ 241272
Europäischen 240984
Qu@@ 240528
Tu@@ 240215
So@@ 240067
ary 239686
Bra@@ 239366
Unter@@ 239192
4.@@ 238734
Preis 238650
rooms 238261
month 238238
els 238149
gu@@ 237863
wi@@ 237713
26@@ 237669
ther@@ 237163
55 237060
find 236926
da@@ 236815
Woche 236540
II 236239
ans 235958
April 235699
Eine 235410
best 235067
September 234958
dr@@ 234824
times 234698
during 234413
27@@ 234373
development 233572
form 233545
So 233145
As 233061
AS@@ 232666
stellen 232511
Tra@@ 232374
&gt; 232231
isch 232230
possible 232154
La 232124
city 231985
AG 231507
last 230644
Me@@ 230641
market 230288
ino 230264
em 230186
Au@@ 229980
est@@ 229821
Amarillas@@ 229620
ß 228297
Si@@ 228209
mat@@ 228138
around 228125
sch 227996
muss 227814
dies 227718
all@@ 227638
ker 227606
gel@@ 227066
28@@ 226980
ana 226829
Mr 226811
av@@ 226531
public 226225
ou@@ 226180
zen 226002
gra@@ 225944
within 225769
ff@@ 225564
could 225344
0,@@ 225214
ph@@ 224771
ka 224338
Lu@@ 224169
IC@@ 224090
Stadt 223908
company 223745
Gra@@ 223555
wieder 223458
no@@ 223406
light 223048
tive 222612
ko@@ 222367
ven@@ 221522
ellen 221288
á@@ 221262
services 221221
waren 220869
2,@@ 220612
40@@ 220593
diesen 220592
bu@@ 220430
With 220335
ende 220309
Internet 220228
scher 220160
nen 220090
each 219922
Member 219835
geben 219822
wo 219810
Euro 219503
play 219392
1,@@ 219236
tri@@ 218899
less 218033
zeit 217626
2005 217394
zi@@ 216666
sondern 216661
great 216458
both 216281
37 216240
tung 216125
against 216067
To@@ 215618
ran@@ 215224
.0@@ 215177
ance 215120
GmbH 214752
ja 214675
Er 214517
three 214468
international 214256
Ferien@@ 214135
ts@@ 214097
unserer 213975
machen 213140
comp@@ 213112
August 213093
dis@@ 212718
But 212709
sen@@ 212680
Du@@ 212437
titten 212322
ist@@ 211612
pa@@ 211558
Ad@@ 211535
ll 211445
Haus 211285
San 211236
War@@ 211212
fen 211167
ates 211084
Europa 211056
² 210913
viele 210895
© 210313
38@@ 210285
sehen 210157
38 210127
42 210004
während 209885
ES@@ 209808
HD 209775
ersten 209342
President 209122
ob@@ 209072
bel 208965
ile 208740
ep@@ 208658
ves 208621
cht 208459
co 208322
ents 208178
stellung 208148
liegt 207916
PC 207808
Nr. 207450
ori@@ 207388
Wei@@ 207373
ally 207346
ce@@ 207298
Entwicklung 207209
ore 207197
amp@@ 206737
un 206548
mich 206545
tion@@ 206390
Bu@@ 205976
1010 205779
2004 205767
200 205496
habe 205360
Tagen 205164
Ne@@ 205127
del 204964
Daten 204761
mon@@ 204674
kommen 204633
Ihr 204494
He 204343
Home 204299
mu@@ 204219
res 204027
heute 204015
AC@@ 203790
48 203101
CO@@ 202862
ö@@ 202622
top 202594
Images 202591
Herr 202510
bereits 202475
Hand@@ 201896
want 201811
Wie 201705
Artikel 201666
cu@@ 201644
To 201462
Alle 201460
real 201419
via 200980
ence 200947
ON 200885
ters 200827
2000 200621
Spiel 200524
41 200436
ub@@ 200434
mer@@ 200424
und@@ 200107
sti@@ 200082
System 199837
still 199642
min@@ 199533
every 199455
war@@ 199405
Ri@@ 199295
ihren 199174
39 199156
Sa@@ 199016
59 198801
ie@@ 198696
gut 198666
Produkte 198425
bri@@ 198396
gr@@ 198188
ell@@ 198139
offer 197824
amateur 197744
game 197735
erte 197643
res@@ 197570
kom@@ 197408
Cars 197270
God 197059
shall 196838
USA 196282
production 196176
Gar@@ 196156
case 196125
ra 195841
Ac@@ 195787
SP@@ 195516
Service 195364
hatte 195345
said 195316
blowjob 195086
tigen 194987
group 194753
500 194744
car@@ 194711
does 194674
5.@@ 194578
Fire 193955
large 193595
Page 193410
fu@@ 193395
ß@@ 193363
China 193356
price 193278
level 193140
Details 192883
power 192855
process 192854
Bal@@ 192770
52 192754
Bau@@ 192720
Porn@@ 192711
pre@@ 192694
ationen 192586
Trucks 191893
come 191103
ase 191065
already 190929
cal 190907
trans@@ 190214
del@@ 190137
based 190113
Free 190097
alen 190079
know 190017
tic 189726
selbst 189577
much 189526
br@@ 189191
tige 188973
zimmer 188973
ant@@ 188846
44 188646
51 188581
95 188562
mir 188456
denen 188434
Liefer@@ 188226
je 188224
Tri@@ 188168
drei 188017
At 187764
million 187691
IT 187493
zusammen@@ 187321
jetzt 187102
ser 186789
Gr@@ 186472
Gen@@ 186134
product 185620
Our 185558
mar@@ 185480
children 185294
page 184811
49 184685
ene 184616
Auf 184345
du@@ 184255
ach@@ 183855
Set 183511
ens@@ 183449
Th@@ 182900
ano 182482
Allgemein 182467
sive 182366
Pal@@ 182176
example 182166
lation 182102
tr@@ 182086
ard 181566
AM@@ 181566
systems 181540
mann 181230
75 181182
RA@@ 181100
May 181052
air 180817
design 180733
Pre@@ 180578
ness 180477
beim 179959
following 179832
3,@@ 179638
Monat 179611
interest 179337
gh@@ 179130
bar@@ 178984
ganz 178930
lu@@ 178856
58 178804
Cal@@ 178684
ry 178610
Ter@@ 178540
seinen 178312
alt 178149
black 178081
geb@@ 177989
let 177904
up@@ 177881
job 177707
La@@ 177690
ell 177496
est 177439
special 177364
point 177240
ausge@@ 177105
located 176994
including 176964
men@@ 176875
Land 176784
schon 176729
business 176700
low 176670
Ru@@ 176413
He@@ 176330
stri@@ 176236
name 176156
CD 175987
führen 175978
56 175966
ality 175919
fe 175847
Teil 175832
enk@@ 175817
57 175503
LE@@ 175355
Um@@ 175320
va 175307
mal 175229
the@@ 175189
sel@@ 175066
Do@@ 174981
46 174934
Nach 174899
cre@@ 174632
ang@@ 174605
Ju@@ 174432
Pu@@ 174263
They 174241
position 174200
related 174187
country 174024
Mitgliedstaaten 173945
SE@@ 173913
France 173599
Star@@ 173500
ability 173428
Kinder 173378
found 173112
using 173035
tran@@ 173031
Bereich 172973
end@@ 172867
cher 172763
Pi@@ 172755
Ko@@ 172711
viel 172682
erhalten 172442
ys 172303
energy 172122
side 172070
haus 172014
ity 171937
eln 171708
economic 171641
fo@@ 171462
que 171336
course 171294
double 170934
jedoch 170844
54 170834
ta 170793
ade 170756
lassen 170736
access 170489
MP@@ 170261
masturbation 170113
son 170106
col@@ 170000
Kar@@ 169995
go@@ 169927
alog 169630
lin@@ 169310
enz@@ 168910
gs 168700
Dr. 168673
ks 168095
she 168043
Man@@ 167911
47 167889
Airbrush 167682
help 167169
Umgebung 167138
ali@@ 166828
Spiel@@ 166119
Sk@@ 166114
8.@@ 166058
6.@@ 166056
denn 165797
Rei@@ 165533
down 165504
report 165438
lan@@ 165209
ische 165087
platz 165060
red 164990
version 164935
put 164928
size 164538
mail 164501
today 164329
project 164236
full 164233
Pa@@ 164231
stand 163899
oo@@ 163898
babe 163831
natural 163779
erten 163302
home 163189
solo 163152
Gi@@ 162976
65 162958
53 162937
Fi@@ 162897
einige 162699
Fe@@ 162536
June 162514
ihm 162464
9,@@ 162281
next 162128
pu@@ 162021
schwanz 161725
tet 161640
Kom@@ 161571
night 161469
gehen 161463
further 161459
ro 161362
Flughafen 161340
nun 161312
again 161244
Ber@@ 161157
young 160940
ative 160902
Europäische 160722
open 160665
geht 160510
social 160476
Ho@@ 160361
min 160273
fin@@ 160242
we@@ 160176
Lin@@ 160097
sollte 160077
GotPorn 159944
Juni 159876
enz 159822
hand 159769
IL@@ 159688
tisch 159655
ches 159579
Cli@@ 159234
unseren 159218
Rahmen 159185
Nu@@ 159155
ses 158897
Cat@@ 158885
za 158586
enti@@ 158565
berg 158494
cht@@ 158432
ling 158394
while 158357
pp@@ 158298
kg 158293
Leben 158176
off 157712
bra@@ 157555
Mi@@ 157495
ces 156781
Te@@ 156692
¼ 156659
soll 156478
Ent@@ 156279
No 156083
DI@@ 155997
5,@@ 155925
heit 155770
ini@@ 155471
23@@ 155376
cock 155271
therefore 155251
station 155201
ong 155078
too 155057
management 154951
International 154936
mature 154926
met@@ 154858
wei@@ 154836
ster@@ 154773
tern 154677
Cor@@ 154628
Bei 154542
pi@@ 154527
wa@@ 154459
Website 154448
weeks 154420
Ta@@ 154379
future 154316
weil 154256
ihn 154196
Wochen 154119
eri@@ 153912
Personen 153891
bed 153796
together 153704
range 153668
sub@@ 153623
over@@ 153544
always 153467
au 153400
licher 153387
An 153355
2018 153320
eu@@ 153204
stra@@ 153201
29@@ 153028
entfernt 152908
Sal@@ 152723
ets 152656
Dies 152516
großen 152449
är@@ 152435
hei@@ 152341
cs 152321
Mai 152203
bel@@ 152169
9.@@ 152086
Grund@@ 152081
pri@@ 151805
ges 151804
US@@ 151720
möglich 151706
pool 151684
Google 151529
What 151521
Neu@@ 151369
family 151319
99 151296
Group 151239
Arbeit 151165
March 151109
1x 151084
Windows 151032
total 150911
hr@@ 150764
Software 150685
ihnen 150559
ischen 150544
United 150537
einfach 150454
fied 150153
ier@@ 149981
möchte 149958
LAR 149647
ben@@ 149640
etwas 149546
net 149505
conditions 149479
working 149472
control 149129
second 149013
inc@@ 148947
Can@@ 148942
Bild 148880
stehen 148864
near 148864
board 148859
Frau 148822
ye@@ 148732
2002 148619
Anzahl 148545
Tr@@ 148471
policy 148125
Sc@@ 148042
World 148011
alo@@ 147967
ble 147933
For@@ 147851
schaft 147831
Kunden 147785
December 147768
2003 147711
ok@@ 147678
· 147590
Parliament 147458
bieten 147384
away 147248
je@@ 147246
Ende 147217
des@@ 147211
300 147195
Person 147169
Pat@@ 147163
ange@@ 147029
DE 146951
Kat@@ 146868
amateure 146849
material 146739
Rat 146664
human 146568
did 146496
Als 146480
ics 146353
blasen 146342
hi@@ 146302
af@@ 146272
Porno 146160
ang 146106
dazu 146052
person 146037
ast@@ 145960
technology 145786
AL 145619
alles 145575
From 145498
rei@@ 145300
IP 145220
tro@@ 145159
Games 145082
ü@@ 145064
ev@@ 145003
tur@@ 144857
Mal@@ 144511
Uhr 144502
por@@ 144232
areas 144101
weiter 144089
ton 144064
few 144027
ware 144017
az@@ 144013
na@@ 143948
ord@@ 143773
Hin@@ 143746
bin 143712
Nähe 143637
Cre@@ 143322
ga@@ 143199
Hei@@ 143155
experience 143133
tz@@ 143112
means 143032
ver 142958
companies 142856
ose 142745
City 142693
Ö@@ 142577
ente 142566
When 142547
TR@@ 142300
ern@@ 142276
field 142267
St. 142217
ob 142208
ml 142199
&apos;t 142177
main 142157
7.@@ 142024
weitere 141966
sches 141867
hin@@ 141742
October 141541
building 141521
wer@@ 141483
Beispiel 141467
fl@@ 141386
national 141362
Ti@@ 141286
Frage 141185
lei@@ 141113
Oktober 141026
Was 141006
Auch 140999
give 140967
4,@@ 140929
ory 140826
welche 140494
web@@ 140480
These 140387
OL@@ 140306
OS 140279
El@@ 140229
Bei@@ 140123
kleine 140083
ette 139956
software 139950
After 139908
arbeiten 139833
Shi@@ 139803
rights 139738
Sport 139676
durch@@ 139630
Lage 139627
allem 139539
EC@@ 139514
Pr@@ 139465
Restaurant 139364
í@@ 139277
Ort 139152
private 139116
ho@@ 138953
lar 138850
ue 138778
Ba@@ 138758
sta@@ 138751
erste 138723
sions 138604
ical 138498
tional 138477
März 138359
Tage 138285
Von 138228
ction 138129
deren 138072
sts 138065
befindet 138054
Dezember 137996
played 137857
Kunst@@ 137851
Play 137770
verschiedenen 137725
aller 137717
Pla@@ 137672
Bericht 137657
ded 137554
ya 137374
Shop 137238
Museum 137153
state 137037
tem 137019
provide 136995
lung 136990
style 136918
ah@@ 136913
.de 136904
steht 136836
political 136828
halten 136786
region 136471
ca. 136461
Am 136430
EL 136415
PS 136383
One 136255
200@@ 136203
64 136122
ies 135972
Bel@@ 135783
close 135738
Design 135634
Aber 135610
fication 135452
change 135436
Jesus 135410
Tre@@ 135406
UR@@ 135343
000 135109
Dat@@ 135101
cam 134995
Region 134959
ES 134950
IN 134884
ess 134831
85 134831
Israel 134779
AD@@ 134748
ort 134688
Wi@@ 134674
Ste@@ 134535
cks 134299
bs 134258
SA 134240
las@@ 134222
é 134131
gt 133981
works 133855
Ak@@ 133794
Rec@@ 133721
gel 133618
current 133577
fast 133364
Spain 133333
until 133232
lot 133224
left 133103
Wasser@@ 133005
result 132789
ero@@ 132692
ail@@ 132615
say 132510
Fli@@ 132424
Karte 132396
ste@@ 132251
na 132216
ss@@ 132162
ität 132061
Download 132008
ages 131911
present 131864
e.@@ 131842
Cas@@ 131532
research 131519
July 131498
enten 131444
can@@ 131418
Ihren 131383
non 131311
industry 131235
file 131213
Italy 130909
results 130902
Techni@@ 130898
Fl@@ 130756
EU@@ 130697
tw@@ 130393
zzle 130379
freie 130361
anisch 130286
look 130274
il 130204
ss 130083
brü@@ 130031
Zeiten 129969
fol@@ 129867
würde 129827
head 129767
ler@@ 129610
ID 129538
ve@@ 129507
show 129425
rund 129353
90@@ 129305
Har@@ 129265
spritzen 129087
cker 129034
Weg 128988
become 128932
Präsident 128910
another 128742
tungen 128712
Des@@ 128702
eng@@ 128692
Dis@@ 128628
prices 128620
Mat@@ 128604
cat@@ 128543
law 128508
lichkeit 128475
nach@@ 128470
Juli 128334
europäischen 128268
face 128266
Seiten 128254
vers@@ 128245
ass@@ 128150
dern 128127
führt 128066
Dr@@ 128039
reife 127848
rental 127813
fri@@ 127681
Web@@ 127673
tre@@ 127496
letzten 127332
2017 127294
Regi@@ 127184
sal@@ 127128
Lei@@ 127106
taken 127092
Classic 127060
How 127045
list 127021
2001 127016
doch 126970
particular 126932
hen 126800
meine 126796
zer 126694
January 126689
mit@@ 126687
Nacht 126571
app@@ 126530
chten 126421
iz@@ 126388
Col@@ 126317
AN 126041
sollten 126014
6,@@ 125983
nehmen 125970
called 125950
bin@@ 125949
sea 125933
Uni@@ 125902
Hel@@ 125833
XL 125647
ME@@ 125631
ek@@ 125573
Paris 125439
IM@@ 125357
11@@ 125304
local 125250
far 125201
necessary 125186
kommt 125064
various 124901
contact 124874
enen 124790
My 124705
Min@@ 124622
Audi 124602
Hy@@ 124593
seinem 124571
kaufen 124496
Gott 124429
fa@@ 124420
direkt 124405
liegen 124380
sex 124303
Red@@ 124185
Sti@@ 124165
Verfügung 124122
Arbeits@@ 124081
dabei 124080
japanese 124068
TS 124064
Video 124034
kt 124017
My@@ 124010
ren@@ 123839
Go@@ 123824
Char@@ 123812
ide@@ 123796
bereich 123750
ual 123744
living 123731
Ziel 123714
ving 123646
start 123623
VPorn 123454
cl@@ 123428
ess@@ 123402
wollen 123288
führung 123168
ak 123148
ath@@ 123130
question 123103
8,@@ 123096
ga 123019
DURA 122999
gesch@@ 122994
DL@@ 122940
mm@@ 122880
several 122790
innen 122786
iert 122783
stellt 122687
fer 122668
schwarz 122667
financial 122655
fact 122549
Ober@@ 122470
sis 122446
centre 122209
food 122152
pen@@ 122150
having 122149
Imp@@ 122069
din 121977
bei@@ 121923
oll@@ 121813
Zusammenarbeit 121730
Mor@@ 121659
beach 121652
DVD 121601
j 121584
clear 121569
ven 121534
Ihrer 121369
anti@@ 121310
Pri@@ 121250
News 121224
Villa 121213
Benutz@@ 120991
Unterstützung 120978
ender 120857
pan@@ 120833
liches 120713
ws 120701
frau 120658
les@@ 120543
tiert 120512
eigenen 120469
English 120442
Stunden 120441
sagen 120351
Januar 120296
beautiful 120210
wor@@ 120197
Win@@ 120146
town 120130
protection 120103
Ph@@ 120035
self 119979
150 119952
ktion 119949
cor@@ 119934
ik@@ 119913
80@@ 119913
Mag@@ 119906
gang 119890
sor@@ 119873
videos 119842
given 119828
ani@@ 119826
ink@@ 119800
Fal@@ 119788
date 119760
Daten@@ 119733
Autom@@ 119624
Your 119568
Park 119451
Spielen 119364
ähnliche 119344
Camping 119342
LO@@ 119340
ery 119297
Maßnahmen 119178
ars 119026
Wasser 118999
dar@@ 118991
IS 118965
vielen 118935
shop 118853
Fin@@ 118834
action 118763
pov 118728
words 118666
Nor@@ 118480
ah 118471
bare 118382
front 118326
better 118249
euch 118246
whole 118230
nette 117971
än@@ 117933
stic 117927
among 117922
stat@@ 117918
pl@@ 117829
modern 117816
60@@ 117800
single 117752
JizzBunker 117749
estate 117703
Qualität 117653
user 117645
Vol@@ 117645
len@@ 117591
four 117582
72 117565
innerhalb 117548
Pan@@ 117548
ny 117489
period 117462
zz@@ 117436
bringen 117419
Dieses 117374
Videos 117315
m2 117310
book 117191
ick 117114
Da 117010
IG@@ 117010
tieren 116992
Programm 116851
Ther@@ 116828
DE@@ 116675
kl@@ 116645
q@@ 116586
worden 116560
white 116555
Por@@ 116518
little 116516
type 116480
Platz 116471
Dra@@ 116442
anz@@ 116413
body 116371
ini 116340
test 116337
AG@@ 116309
eller 116298
Ra@@ 116262
NE@@ 116241
los 116238
As@@ 116184
rec@@ 116171
cking 116129
jungendliche 116019
ex 116013
However 115982
á 115961
Am@@ 115909
ite 115908
mer 115890
tun 115877
ads 115854
Hier 115780
Land@@ 115731
chte 115645
Wor@@ 115633
beh@@ 115514
ering 115457
cul@@ 115395
beiden 115369
etwa 115353
Um 115316
PDF 115259
Italien 115171
Concept 115171
ums 115170
music 115160
above 114999
text 114963
hal@@ 114872
files 114829
ders 114793
speci@@ 114792
LA@@ 114790
blonde 114750
vers 114710
ut 114450
1. 114440
Rel@@ 114417
Fac@@ 114282
kW 114270
darauf 114255
video 114225
Added 114210
under@@ 114125
fully 113982
short 113955
69 113912
fest@@ 113895
updates 113880
website 113874
painting 113858
live 113850
cumshot 113809
cultural 113740
Ger@@ 113702
Lat@@ 113686
sper@@ 113661
act 113572
ju@@ 113572
key 113536
besteht 113496
Fragen 113462
Fu@@ 113418
Frankreich 113382
box 113362
ght 113345
Fall 113344
application 113270
Buch@@ 113204
voll@@ 113185
ill@@ 113140
House 113090
bre@@ 113003
Beschreibung 112929
Pe@@ 112915
bit 112851
views 112848
Pra@@ 112807
minutes 112801
measures 112800
Namen 112793
according 112770
tische 112688
ging 112684
rü@@ 112674
tical 112671
Points 112628
park 112570
enn@@ 112544
baren 112508
cke 112449
wife 112434
100@@ 112423
gl@@ 112410
Dri@@ 112351
known 112293
vier 112277
space 112210
security 112125
Plat@@ 112108
Bet@@ 112082
76 112078
Kirche 112055
Sol@@ 112055
Gruppe 112049
Form 112022
amp 112011
Version 112010
char@@ 111950
bb@@ 111810
yl@@ 111708
Unterkunft 111643
Durch@@ 111552
zusammen 111497
Tro@@ 111450
wer 111422
dle 111402
mal@@ 111315
400 111311
ct 111287
Geschichte 111278
parts 111264
insbesondere 111215
stell@@ 111192
sy@@ 111151
map 111081
third 111075
tor 111041
common 111033
stay 110976
ture 110968
activities 110953
points 110935
requests 110927
Bri@@ 110847
besten 110735
South 110704
una 110699
ll@@ 110671
kein 110662
Schablonen 110657
har@@ 110589
party 110523
Zugriffe 110494
Preise 110393
96 110352
situation 110322
kosten@@ 110240
brunette 110177
ologie 110161
ella 110118
stu@@ 110090
Le 110090
hours 110058
98 110015
love 110014
provided 109910
ish 109690
Fest@@ 109626
tischen 109493
Werk@@ 109479
Haupt@@ 109470
visit 109414
led 109413
Kor@@ 109410
Sub@@ 109384
Tags 109344
AC 109328
aten 109296
Det@@ 109295
pages@@ 109146
Mu@@ 109031
OS@@ 108999
ski 108976
ants 108863
C. 108790
That 108787
70@@ 108702
chen@@ 108626
Stencils 108588
gro@@ 108579
Ländern 108469
alten 108391
AS 108368
Val@@ 108328
ba 108299
int 108221
¤ 108143
jeder 108127
ale@@ 108084
fra@@ 108018
Ergebnisse 107937
basis 107925
heart 107810
Op@@ 107801
tionen 107687
spielte 107685
Parlament 107640
etc 107613
mittel 107423
Updates 107394
especially 107263
film 107159
machine 107152
Nach@@ 107114
wagen 107084
dafür 107025
AT 107022
ese 106985
unserem 106971
ds@@ 106965
bus 106953
ET@@ 106918
vol@@ 106876
David 106851
Sho@@ 106818
indi@@ 106795
Ø 106773
leben 106746
.. 106693
sol@@ 106659
Fil@@ 106655
pping 106640
erg@@ 106591
Air 106580
value 106578
dildo 106567
besonders 106509
weniger 106469
Mer@@ 106430
Weise 106409
cannot 106376
laden 106358
Doppel@@ 106234
Information 106215
vari@@ 106213
bank 106182
anlage 106176
LED 106150
macht 106141
setzen 106090
Tit@@ 106046
February 106020
spiel@@ 106011
mic 106006
tis 105988
son@@ 105984
needs 105926
Pol@@ 105921
Number 105870
State 105865
yer 105753
standard 105735
Größe 105698
Produkt 105691
equipment 105637
10.@@ 105571
ment@@ 105497
things 105459
customers 105384
Ha@@ 105359
University 105220
ire 105186
gar@@ 105179
sing 105148
projects 105145
Marina 104997
ich@@ 104978
einge@@ 104933
Zentrum 104912
form@@ 104899
www.@@ 104869
arbeit 104800
Spanien 104789
2x 104646
Standard 104515
Yacht 104478
By 104474
wide 104428
sm@@ 104420
dy 104379
center 104367
Fotos 104321
zes 104312
Minister 104218
Zei@@ 104200
shed 104198
bau@@ 104197
ats 104160
team 104107
ology 104096
val@@ 104064
ption 104023
Top 104013
dung 103975
Februar 103972
Ser@@ 103913
MB 103892
Foto 103890
word 103885
.... 103870
win@@ 103865
Bade@@ 103865
kt@@ 103852
blond 103739
ories 103733
ved 103729
trade 103706
far@@ 103633
addition 103588
dort 103558
AU@@ 103549
dessen 103545
personal 103537
Ku@@ 103534
wen@@ 103513
developed 103479
Europe@@ 103457
ship 103388
built 103348
tungs@@ 103309
star 103289
zurück 103237
unser 103225
ack 103076
str@@ 103067
cli@@ 102901
wel@@ 102887
ations@@ 102808
zeug 102799
ice 102781
individual 102690
tigung 102647
ism 102632
fac@@ 102597
ami@@ 102592
medi@@ 102577
davon 102523
Küche 102495
om 102446
Hand 102317
stige 102278
making 102252
Minuten 102176
imp@@ 102153
EP@@ 102128
due 102097
ham@@ 102038
Av@@ 102009
mel@@ 102005
however 101990
mis@@ 101909
hin 101873
Apart@@ 101867
Hoch@@ 101839
performance 101795
Interessantes 101759
Bre@@ 101753
Möglichkeit 101701
Boo@@ 101633
complete 101617
pe 101613
7,@@ 101519
rate 101505
che@@ 101387
XXX@@ 101365
massage 101329
Ca@@ 101306
zugefügt 101267
often 101190
ili@@ 101179
Energie@@ 101171
Millionen 101153
IB@@ 101102
ideal 101049
AB@@ 101004
compilation 100953
Farbe 100920
Sicherheit 100830
sed 100816
Br@@ 100808
IE@@ 100768
van 100765
itself 100724
apartment 100717
Bad 100696
cooperation 100694
mod@@ 100662
think 100554
insgesamt 100544
ensure 100539
Acc@@ 100517
250 100504
stelle 100472
Chi@@ 100470
ation@@ 100465
Dan 100403
training 100352
took 100310
really 100235
61 100207
Hilfe 100193
comes 100069
cur@@ 100020
ring 99905
mom 99789
Apartment 99778
mag@@ 99776
Bor@@ 99679
bzw. 99661
Glitter 99617
once 99579
sur@@ 99574
Grad 99441
Ben@@ 99420
Sel@@ 99402
verwendet 99366
hren 99329
ßen 99300
MAR@@ 99202
Ele@@ 99186
series 99183
original 99085
members 99064
Car 99025
Plan@@ 99015
sei 99000
history 98987
Wohn@@ 98928
orgas@@ 98887
Musik 98878
OT@@ 98876
oni@@ 98819
general 98805
core 98790
schaften 98774
tigkeit 98767
media 98701
ße 98675
einmal 98614
Jo@@ 98613
Lan@@ 98575
ological 98572
Kan@@ 98554
Staaten 98519
Blick 98366
gas 98340
zeigt 98295
Ü@@ 98280
Familie 98211
tel 98181
ai 98180
erreichen 98143
kitchen 98125
ihrem 98116
hotels 98111
specific 98101
Euro@@ 98048
tter 98047
onal 97986
Einzel@@ 97969
fall 97947
More 97943
nature 97879
sto@@ 97826
Ur@@ 97748
certain 97743
Glitzer 97714
stock 97647
weit 97629
wissen 97624
places 97618
88 97616
least 97603
sowohl 97588
Mit@@ 97561
active 97460
women 97444
came 97381
increase 97354
Thursday 97306
stein 97167
Cer@@ 97161
120 97149
Austria 97121
Dateien 97117
upon 97081
racial 97077
aler 97058
strong 97058
ff 97038
Dieser 97018
jap@@ 96937
71 96921
table 96802
IP@@ 96732
Wohnung 96680
Fri@@ 96654
program 96622
IA 96617
Price 96614
lange 96569
gegeben 96524
Direc@@ 96405
problem 96373
construction 96362
Gesellschaft 96337
68 96335
oil 96320
ration 96306
hom@@ 96305
J 96281
Del@@ 96202
content 96160
camp@@ 96156
internationalen 96141
Black 96134
Höhe 96112
easy 96091
ying 96037
pres@@ 95972
Vo@@ 95964
parking 95873
HER@@ 95831
Hamburg 95764
Projekt 95751
66 95724
ground 95724
decision 95719
hol@@ 95546
enjoy 95533
Fer@@ 95518
Immobilien@@ 95473
о@@ 95430
direc@@ 95348
provides 95317
health 95302
tik 95189
Ihrem 95184
zer@@ 95167
gemacht 95155
63 95150
programme 95130
-- 95090
operation 95026
transport 94972
money 94957
Geb@@ 94887
flo@@ 94810
Res@@ 94774
Je@@ 94764
accommodation 94750
77 94733
Sei@@ 94720
oren 94665
kten 94630
National 94627
92 94505
Men@@ 94476
ron@@ 94468
62 94434
Fra@@ 94417
Motor@@ 94401
Mail 94385
speed 94312
ona 94191
hof 94140
Name 94129
Q 94082
zei@@ 94070
Tor@@ 94049
fil@@ 93980
DI 93975
office 93919
Rück@@ 93911
technical 93885
cri@@ 93766
Please 93693
Meer 93689
tish 93687
environment 93642
Frei@@ 93631
ever 93571
French 93560
ena 93552
post@@ 93547
Bar 93528
include 93517
Peter 93438
MA 93422
sport 93372
Donnerstag 93322
Medi@@ 93182
meisten 93127
barkeit 93114
Japan 93080
fort 93001
along 92953
Frauen 92945
PC@@ 92936
whether 92877
lose 92875
Mil@@ 92846
ls 92841
Camping@@ 92818
edi@@ 92811
Thema 92782
sofort 92754
yet 92717
Tex@@ 92641
alität 92602
Ob@@ 92578
tte 92550
beg@@ 92539
ola 92532
ges@@ 92521
ines 92493
create 92417
problems 92400
AP 92258
Text 92250
See 92198
ft@@ 92194
Today 92133
Fo@@ 92130
raum 92113
BE@@ 92018
event 91992
directly 91988
voll 91987
tor@@ 91935
ful 91876
max 91791
tik@@ 91773
ress 91681
burg 91617
könnte 91602
det 91596
floor 91593
plan 91583
road 91576
ony 91530
Rechts@@ 91463
atic 91452
Community 91425
agreement 91414
XX@@ 91401
ó@@ 91326
werk 91300
1000 91294
Team 91291
ken@@ 91274
growth 91272
View 91251
Groß@@ 91155
anzu@@ 91128
reser@@ 91087
Sex 91085
bet@@ 91063
Herrn 91013
tig 90999
Schweiz 90973
illa 90959
Ap@@ 90917
Länder 90863
wäre 90857
Ros@@ 90845
makes 90842
ann@@ 90831
Lebens@@ 90830
fahren 90827
esen 90763
Dom@@ 90727
out@@ 90691
El 90631
78 90619
gew@@ 90609
gegenüber 90602
erk@@ 90558
fur@@ 90555
request 90555
tions@@ 90540
UL@@ 90535
hd 90521
guests 90374
drei@@ 90297
ir 90251
dy@@ 90239
Dec@@ 90176
91 90087
ek 90083
location 90075
others 90033
67 90024
Unsere 89999
thus 89999
tube 89981
ol 89954
Stra@@ 89939
97 89931
Problem 89889
Rot@@ 89852
Auto 89840
door 89819
ences 89811
IC 89803
Wel@@ 89744
1999 89713
code 89698
urs 89671
acc@@ 89613
links 89588
London 89553
cts 89503
lungen 89500
born 89473
ain 89426
towards 89418
term 89351
FI@@ 89349
CH 89188
bathroom 89176
Mos@@ 89169
Europ@@ 89149
Hor@@ 89100
600 89067
sel 89065
erreicht 89062
gef@@ 88975
Ski@@ 88975
sites 88915
major 88893
Bank 88843
why 88841
zug 88800
cia 88794
jeden 88656
costs 88597
.000 88495
Pen@@ 88483
wirklich 88461
Max 88455
sure 88440
Zukunft 88433
ort@@ 88421
Fre@@ 88395
ester 88355
tete 88192
hard 88186
aci@@ 88037
jahr 88022
issues 87979
itäten 87960
tic@@ 87876
model 87840
ols 87798
tan@@ 87760
done 87721
11.@@ 87712
93 87696
additional 87692
century 87676
land@@ 87675
ov@@ 87672
ateg@@ 87640
anc@@ 87620
erst 87607
erungs@@ 87604
San@@ 87524
800 87482
onen 87463
features 87433
Here 87423
network 87419
Radio 87415
Agriculture 87360
role 87302
off@@ 87282
something 87222
yp@@ 87202
Ker@@ 87202
Rolle 87180
rau@@ 87147
g. 87132
entwickelt 87114
Zusammen@@ 87104
Geschäfts@@ 87054
account 87053
users 87048
bitte 86985
konnte 86965
vel@@ 86911
Center 86881
Bedeutung 86878
legal 86846
ming 86837
,@@ 86828
suchen 86826
plan@@ 86825
image 86798
geh@@ 86762
taking 86738
gruppe 86719
language 86685
35@@ 86596
sollen 86553
rich@@ 86514
reiber 86508
pf@@ 86492
Gesch@@ 86489
kleinen 86461
lic@@ 86446
sogar 86441
Game 86342
uni@@ 86285
Church 86239
government 86229
spielen 86217
conc@@ 86149
Finanz@@ 86089
shower 86089
materials 86060
customer 86043
sionen 86018
Best@@ 86014
3D 85985
Vil@@ 85970
86 85960
looking 85907
Â 85901
going 85874
inv@@ 85847
weise 85832
maximum 85826
zeich@@ 85825
ara 85809
thing 85802
steel 85774
aria 85758
Santa 85738
events 85622
Friday 85618
holiday 85582
reach 85577
issue 85564
subject 85553
LE 85535
EC 85479
ool 85470
gute 85461
Durch 85461
Anwendung 85405
bl@@ 85391
culture 85385
ones 85362
fort@@ 85351
81 85329
Hal@@ 85292
kind 85287
Klima@@ 85267
CO 85204
solution 85199
global 85193
inger 85185
Suche 85171
dom@@ 85166
Any@@ 85151
Management 85125
AR 85095
arbeitung 85089
zed 85070
Bl@@ 85026
Markt 85009
address 84995
Saint 84940
American 84927
ian 84923
pla@@ 84920
73 84845
ently 84829
fre@@ 84805
Off@@ 84797
required 84737
Mobile 84726
mobile 84723
vier@@ 84682
App@@ 84673
Recht 84665
tliche 84649
Dienstleistungen 84622
fle@@ 84573
z.B. 84511
might 84463
cer@@ 84454
continue 84406
gende 84397
believe 84383
particularly 84342
Sex@@ 84333
verschiedene 84297
bekannt 84290
22@@ 84289
John 84268
gestellt 84253
anzeigen 84169
74 84149
Code 84128
gn@@ 84077
saw 84066
White 84060
Luft@@ 84059
ux 83961
stand@@ 83907
hoch@@ 83840
ht 83800
bil@@ 83779
atisch 83689
essen 83679
Web 83661
connection 83659
Ä@@ 83625
schnell 83622
Book 83617
sector 83610
Du 83535
ef@@ 83500
iger 83414
dom 83408
ada 83404
SO@@ 83318
olo@@ 83289
dra@@ 83251
Maria 83243
Fol@@ 83229
round 83228
nisse 83208
Original 83194
Lord 83188
amm@@ 83182
multi@@ 83159
Charter 83121
ke@@ 83112
Liste 83088
mission 83047
weg 83017
weiß 83000
hard@@ 82988
gung 82975
Strand 82973
Produ@@ 82962
Station 82962
elt 82940
Man 82939
sicher 82936
requirements 82910
möchten 82897
equipped 82847
hatten 82816
Camp@@ 82759
wählen 82702
fla@@ 82686
ban@@ 82648
dur@@ 82620
nice 82555
enter 82549
New@@ 82541
half 82530
tiv@@ 82508
breakfast 82481
Fi 82476
Probleme 82418
Bas@@ 82386
eg@@ 82336
High 82325
Fel@@ 82318
terms 82316
late 82315
USB 82263
meeting 82212
94 82197
Unser 82167
79 82156
daher 82155
held 82107
ros@@ 82092
created 82091
sierung 82065
cher@@ 82052
Switzerland 82028
zeigen 82025
tä@@ 82020
items 82014
bur@@ 81953
ests 81947
lesbian 81930
Tran@@ 81927
statt 81913
Wal@@ 81905
work@@ 81881
Met@@ 81881
hinaus 81876
class 81840
Descri@@ 81831
download 81813
assi@@ 81773
sted 81753
Weiter@@ 81750
verb@@ 81744
port 81744
unterstützt 81730
Da@@ 81696
äre 81690
Costa 81682
2. 81671
almost 81577
band 81529
Kunst 81521
Fa@@ 81508
rich 81493
Out@@ 81484
gerade 81476
solutions 81460
TM 81439
please 81431
Hu@@ 81410
oms 81386
Fach@@ 81358
setzung 81322
designed 81312
AP@@ 81296
82 81214
wood 81203
kli@@ 81200
ots 81158
tseite 81005
Regierung 80965
folgenden 80953
fy 80906
frei 80886
cover 80862
befinden 80780
Universität 80770
dri@@ 80766
Up 80753
green 80721
Mess@@ 80659
ental 80595
Geh@@ 80591
seen 80570
safety 80547
During 80526
Verfahren 80506
tives 80498
wohnung 80497
supply 80465
Fahr@@ 80460
partner 80422
Im@@ 80400
84 80376
travel 80372
Partner 80368
tel@@ 80350
mische 80347
Product 80309
Dan@@ 80295
Ni@@ 80259
pages 80257
care 80251
89 80200
tim@@ 80199
rules 80184
ora 80182
Trans@@ 80168
gab 80153
jo@@ 80153
rop@@ 80070
Freitag 80030
basi@@ 80002
Pap@@ 79998
aps 79969
Natur@@ 79951
bro@@ 79947
Cap@@ 79927
Cu@@ 79927
details 79892
takes 79873
nor@@ 79855
Republic 79835
mo 79830
erst@@ 79815
heiten 79806
fest 79744
83 79739
Lösung 79680
Ka@@ 79677
five 79653
plat@@ 79611
ett@@ 79608
III 79597
Michael 79578
applications 79574
flu@@ 79573
Multi@@ 79564
Barcelona 79551
bau 79550
tory 79533
eben 79479
TO@@ 79440
boat 79438
Gäste 79430
ay@@ 79417
Kal@@ 79385
Lust 79268
sa 79266
Einsatz 79188
GB 79134
check 79113
verfügbar 79093
hon@@ 79086
wichtig 79071
cc@@ 79056
girl 79043
Tur@@ 79034
color 79030
mechan@@ 78998
ways 78984
card 78921
mischen 78883
ko 78849
Schabl@@ 78789
read 78776
ech@@ 78714
Bitte 78713
A4 78712
ely 78682
Wa@@ 78655
sat@@ 78616
Last 78586
fik@@ 78561
thre@@ 78543
themselves 78542
You@@ 78525
cases 78511
added 78506
stor@@ 78461
pol@@ 78397
36@@ 78393
PR@@ 78388
later 78375
AI@@ 78352
Natur 78295
Hi@@ 78293
â 78289
Gri@@ 78258
porn 78258
Photo 78243
ane 78237
never 78133
Paul 78129
facilities 78120
Film 78076
Comp@@ 78065
mol@@ 78059
oft 78042
Wieder@@ 78040
Pro 78016
Anfrage 78006
Breakfast 77993
De 77973
ai@@ 77969
ete 77955
turn 77947
öffentlichen 77943
ganze 77935
VW 77871
Richtung 77783
currently 77777
Spei@@ 77729
SE 77712
similar 77710
fa 77709
unique 77705
wür@@ 77693
S. 77631
sei@@ 77596
neu 77589
persons 77566
arian 77564
Hol@@ 77552
plätze 77538
oc@@ 77524
lang 77519
Dar@@ 77504
ns 77472
restaurant 77464
ica 77397
Club 77368
Christian 77230
Zu 77126
gefunden 77122
rä@@ 77116
beauty 77026
KB 77014
Sy@@ 76989
ote 76980
xi@@ 76930
Kur@@ 76911
ki 76903
perfect 76879
DC 76865
nung 76861
pra@@ 76830
Gel@@ 76794
Flo@@ 76741
Zur 76717
Sard@@ 76668
MS 76644
Welt@@ 76600
Liebe 76573
ari 76565
verfügt 76549
sse 76485
past 76471
questions 76395
mus 76378
spiele 76310
Since 76191
Ren@@ 76183
ieren 76175
Kunden@@ 76175
tex@@ 76140
ot 76109
Insel 76104
ania 76092
HP 76066
included 76030
groups 76014
12.@@ 75977
Verbindung 75976
tags 75968
lle 75963
TH@@ 75940
direct 75912
gleichen 75892
helfen 75891
gran@@ 75859
natürliche 75819
Now 75816
screen 75802
gilt 75799
inf@@ 75768
Frankfurt 75745
Schutz 75718
Aut@@ 75686
step 75530
school 75501
Mehr 75489
dopp@@ 75482
87 75477
changes 75477
blue 75473
Emp@@ 75428
Spe@@ 75414
ka@@ 75391
Far@@ 75340
stru@@ 75276
computer 75237
lines 75215
shows 75208
era 75169
1998 75145
Sur@@ 75144
Raum 75137
ici@@ 75131
Mittel@@ 75127
Umwelt@@ 75087
Terrasse 75056
Poly@@ 75046
Sonnen@@ 75016
garden 74999
plant 74993
ismus 74984
Tour 74982
Anti@@ 74981
cally 74979
Schlafzimmer 74942
tage 74935
kor@@ 74919
DA@@ 74910
weisen 74879
nächsten 74865
Committee 74783
nichts 74774
maschine 74765
ine@@ 74746
ctions 74744
hinzu@@ 74742
politischen 74731
stage 74723
call 74723
indem 74720
Mio. 74679
sound 74674
longer 74661
mb@@ 74635
standards 74628
utt@@ 74623
cost 74617
shing 74591
coming 74587
ebenfalls 74583
wine 74569
kan@@ 74564
wegen 74550
Golf 74544
mes 74544
sum@@ 74533
ganzen 74527
oth 74525
knowledge 74489
Sunday 74456
SC@@ 74429
paper 74420
att@@ 74416
zen@@ 74405
Reihe 74400
HD@@ 74378
matter 74331
weltweit 74320
run 74300
darüber 74259
former 74257
SCH@@ 74241
Außen@@ 74222
dor@@ 74219
bleiben 74218
jede 74216
Innen@@ 74211
lower 74209
bon@@ 74163
ca@@ 74153
³ 74137
effect 74132
museum 74086
stre@@ 74063
outdoor 74059
à 74053
uses 74043
natürlich 74040
bring 74014
Zugang 73996
tation 73987
tz 73942
early 73929
PAR@@ 73927
sichts@@ 73922
Tag@@ 73868
Porno@@ 73851
selbst@@ 73844
tragen 73838
sagte 73792
Sun@@ 73784
member 73758
Verein@@ 73757
charter 73740
Typ 73737
aufge@@ 73731
mati@@ 73699
positive 73693
Eu@@ 73639
gehört 73625
tro 73621
cel@@ 73619
Services 73612
Commissioner 73604
Gal@@ 73595
drive 73582
verein@@ 73566
ites 73521
anten 73513
riding 73476
cil 73451
latest 73424
posi@@ 73408
photos 73403
try 73373
search 73367
liefer@@ 73363
arbeitet 73359
Day 73338
Centre 73304
aid 73255
consi@@ 73254
zurück@@ 73253
pictures 73231
Street 73190
penet@@ 73146
press 73134
Do 73122
lage 73112
don 73109
201@@ 73098
ti 73089
Thomas 73078
ord 73046
Stu@@ 72997
ei 72985
ki@@ 72956
mil@@ 72954
moment 72951
47@@ 72937
cing 72894
ige 72889
shops 72884
AND 72864
IV@@ 72789
oben 72785
ermöglicht 72772
digital 72759
ier 72679
unterstützen 72640
gest@@ 72610
Berg@@ 72578
village 72572
sent 72550
ye 72549
Cam@@ 72530
cal@@ 72523
Datei 72481
tin@@ 72476
recht 72447
hu@@ 72431
wind 72431
findet 72414
cap@@ 72378
West@@ 72348
society 72348
Nord@@ 72301
York 72295
straße 72280
ast 72270
setzt 72257
asse 72256
gg@@ 72231
gleich 72222
EM@@ 72216
cop@@ 72119
gan@@ 72109
wunder@@ 72108
Bro@@ 72099
central 72062
Top@@ 72062
lead 72051
Saturday 72035
Hau@@ 72032
Garten 72000
picture 71981
uren 71975
äu@@ 71956
Urlaub 71955
SU@@ 71925
Ban@@ 71916
regi@@ 71883
Wein@@ 71876
Produkt@@ 71831
nis 71792
dress 71790
pat@@ 71720
Tru@@ 71707
Martin 71696
Spi@@ 71684
leicht 71682
genden 71681
Power 71661
frei@@ 71654
Live 71652
ör@@ 71645
Rad@@ 71632
ameter 71608
mor@@ 71580
supp@@ 71552
proposal 71542
ales 71535
Of 71506
TO 71497
Brow@@ 71480
Wetter 71473
sieren 71472
teile 71458
rent 71405
leitung 71401
MO@@ 71372
feld 71368
reality 71367
ky 71354
alter 71306
lt 71306
effective 71273
Deutsch 71196
Sport@@ 71192
ty@@ 71189
Saf@@ 71185
Mann 71163
leading 71138
everything 71111
flat 71096
North 71078
Aus 71061
ckt 71040
AD 71026
herunter@@ 71020
stoff@@ 71014
communication 71007
schl@@ 70994
nie 70979
zy@@ 70959
includes 70953
mittel@@ 70942
wal@@ 70893
ansicht 70878
alte 70866
Business 70837
Voll@@ 70832
ker@@ 70828
Bon@@ 70811
keep 70806
America 70795
responsible 70715
treatment 70705
ör 70696
gasse 70695
weight 70688
&apos;@@ 70686
beginning 70660
TI@@ 70654
nutzen 70628
His 70627
ach 70624
ig 70603
Material 70601
Russia 70582
capacity 70562
Africa 70521
met 70507
klassi@@ 70498
effizi@@ 70490
qui@@ 70479
sports 70475
Che@@ 70465
zation 70299
Data 70298
mt 70289
lar@@ 70278
Kl@@ 70245
limited 70239
First 70236
TE 70233
BO@@ 70226
excellent 70211
besser 70201
outside 70176
werde 70171
Gemeinschaft 70158
stoff 70152
kam 70125
Big 70117
Wednesday 70106
print 70103
forward 70011
IR@@ 70000
genau 69966
Other 69957
kes 69956
cy@@ 69937
Bur@@ 69931
TA 69908
Room 69904
share 69877
Programme 69871
Sau@@ 69819
WC 69815
ils 69763
wo@@ 69708
Weitere 69624
Sie@@ 69604
BR@@ 69579
meet 69539
и@@ 69527
Nicht 69501
teil@@ 69428
ement 69407
lies 69394
igung 69384
ost 69374
ha 69367
poli@@ 69355
legen 69349
Heute 69332
meiner 69313
Österreich 69265
down@@ 69254
HE@@ 69246
ously 69244
West 69237
ect 69194
Auswahl 69189
tal 69137
Basi@@ 69114
Pas@@ 69104
Bab@@ 69095
oom 69092
Stück 69076
ack@@ 69073
Rein@@ 69029
went 69023
PO@@ 68998
airport 68986
citizens 68971
force 68968
Seit 68955
function 68902
Mittwoch 68842
Technologie 68822
Gottes 68807
format 68802
summer 68736
buch 68731
Serie 68703
Wirtschaft 68630
ey 68618
Mal 68617
opportunity 68611
rest 68604
zwar 68571
Ci@@ 68565
Office 68561
entire 68559
Inhalt 68542
aging 68542
Gesamt@@ 68533
sale 68531
Institute 68524
ly@@ 68497
situ@@ 68484
hope 68476
peri@@ 68475
uri@@ 68471
ball 68465
š@@ 68458
race 68309
respect 68308
ner@@ 68289
Island 68282
atur 68275
uss@@ 68262
education 68223
Article 68214
Kosten 68212
Produc@@ 68188
jedem 68164
Bio@@ 68125
teil 68119
higher 68078
prin@@ 68054
amount 68043
Ebene 68027
Caf@@ 68007
einigen 67955
alle@@ 67943
Search 67938
walk 67936
seite 67925
™ 67912
ziehen 67887
Vienna 67877
Board 67831
gar 67829
sle@@ 67828
simple 67815
syn@@ 67814
exp@@ 67809
tlichen 67799
Früh@@ 67785
med 67777
hy@@ 67767
suitable 67738
ask 67696
true 67680
emp@@ 67677
study 67649
WE@@ 67638
tics 67597
charge 67595
Computer 67556
versch@@ 67554
couple 67548
receive 67522
property 67513
cra@@ 67512
models 67503
Body@@ 67496
tax 67489
SC 67487
condition 67476
ba@@ 67430
neben 67423
trau@@ 67412
ables 67401
rise 67389
Systems 67369
boot 67352
Then 67347
East 67328
mehrere 67320
Restaurants 67309
druck 67307
Sten@@ 67284
Produktion 67275
alisierung 67269
Energie 67250
gleich@@ 67247
Sonntag 67245
temperatures 67238
Brussels 67237
modi@@ 67202
Also 67196
berei@@ 67179
ble@@ 67169
Transfer 67126
gre@@ 67122
ole 67069
Sen@@ 67068
Resi@@ 67068
capital 67065
CE 67029
Samstag 67024
modation 67023
innovative 67020
Richtlinie 67019
photo 67002
hour 66991
web 66982
rome 66949
Politik 66946
mein 66909
wing 66888
Sicherheits@@ 66851
Entscheidung 66828
Deb@@ 66814
rather 66807
jedes 66802
Zum 66784
ning 66774
ley 66762
adap@@ 66757
behind 66750
allows 66748
sten@@ 66739
Grund 66723
Down@@ 66711
sting 66654
struc@@ 66644
pr@@ 66613
Zusammenhang 66597
künfte 66586
SI@@ 66575
Rom@@ 66557
components 66535
hohe 66528
We@@ 66515
quite 66506
rechts 66505
gold 66430
mouth 66419
gy 66370
ick@@ 66335
hair@@ 66303
ET 66289
nation@@ 66197
allow 66194
Republik 66185
pass 66184
Red 66178
pack@@ 66169
rot@@ 66159
PM 66158
rat@@ 66157
lab@@ 66148
tures 66141
Italian 66135
Program@@ 66133
gri@@ 66129
tural 66122
bad 66106
Reser@@ 66083
completely 66075
schaffen 66070
fü@@ 66041
below 66036
Bild@@ 66026
Super@@ 66020
pressure 66017
Stri@@ 66008
Angebot 66007
è@@ 65999
cation 65995
famous 65981
art@@ 65967
Privat@@ 65950
glass 65949
Nutzung 65938
autom@@ 65915
Syn@@ 65913
hair 65877
Forschung 65850
kte 65800
Server 65796
sprechen 65780
Hersteller 65745
unbe@@ 65743
400@@ 65726
DA 65704
sisch 65685
Erfahrung 65680
ze@@ 65678
gehören 65670
investment 65653
send 65644
1997 65635
Prä@@ 65616
37@@ 65610
sales 65587
fahrt 65581
Gold 65537
vo 65531
gabe 65498
markt 65492
Während 65457
teilen 65352
received 65334
option 65331
solche 65329
Grand 65321
Bedingungen 65302
message 65278
Sports 65269
zeu@@ 65267
established 65248
itz@@ 65234
fünf 65203
WLAN 65183
esome 65152
sky 65144
nu@@ 65125
GO@@ 65071
tal@@ 65061
previous 65038
length 65033
meas@@ 65018
zier@@ 65000
dge 64972
lash 64963
Mittel 64945
buy 64932
tho@@ 64931
ñ@@ 64901
neu@@ 64901
choose 64840
operating 64809
ata 64798
visi@@ 64797
B. 64790
Sprache 64731
erlaubt 64713
gend 64710
lau@@ 64708
existing 64703
island 64702
ßt 64698
ktionen 64696
industrial 64694
ks@@ 64661
recent 64645
bedeutet 64640
inst@@ 64621
Adresse 64615
gging 64608
dio 64564
anti 64561
Kultur 64546
preis 64521
GE@@ 64449
Show 64448
deal 64436
analy@@ 64421
don@@ 64412
toys 64408
einzu@@ 64388
Mädchen 64378
auszu@@ 64353
reason 64332
Leu@@ 64313
parties 64214
CL@@ 64177
bility 64161
¶ 64120
ay 64102
Temp@@ 64091
wert 64042
dir 64021
Fisch@@ 64017
Kli@@ 63991
weiteren 63941
dule 63930
soon 63923
Not 63915
pa 63913
Kontakt 63906
verwenden 63888
figur@@ 63869
presented 63859
aufgrund 63855
buchen 63844
Portugal 63839
satz 63810
Verwendung 63809
regional 63793
forms 63787
dat@@ 63786
tiger 63771
Prozent 63714
Tab@@ 63709
bild 63705
crisis 63648
markets 63599
Gebiet 63572
snow 63565
miet@@ 63554
siert 63514
Studio 63502
Shar@@ 63499
spiel 63498
optimi@@ 63449
weiter@@ 63419
plus 63394
stock@@ 63358
professional 63330
xe 63324
feel 63324
Main 63307
pper 63285
träge 63273
karte 63250
ame 63243
risk 63239
ST 63231
lie 63230
unternehmen 63219
treffen 63207
Son@@ 63200
DR@@ 63183
gern 63171
Ergebnis 63168
wenig 63116
Wert 63114
wall 63105
erz@@ 63088
gemeinsam 63083
Mitarbeiter 63062
Lab@@ 63050
rohr 63039
Yo@@ 63036
base 63007
sha@@ 62993
shi@@ 62976
reviews 62946
ate@@ 62944
On@@ 62930
throughout 62912
Star 62892
traditional 62873
rates 62842
Jetzt 62824
approach 62823
Chinese 62797
ausgestattet 62778
Sor@@ 62748
Kategorie 62744
peace 62743
SS@@ 62717
loads 62707
either 62706
&amp; 62676
ination 62663
Open 62643
apartments 62626
inen 62608
Länge 62600
The@@ 62598
vision 62565
licht 62564
ama 62559
info 62548
EG 62540
hor@@ 62514
pati@@ 62511
mieten 62509
ón 62505
Central 62494
Bewertung 62470
mark@@ 62469
Swiss 62461
daran 62416
Kalender 62410
lagen 62409
ller 62374
Mac@@ 62361
dam 62330
Schritt 62323
college 62321
ght@@ 62317
Mas@@ 62300
safe 62206
Verfü@@ 62186
Tan@@ 62183
ING 62179
authorities 62167
ths 62152
implementation 62122
agri@@ 62121
jung 62119
deutlich 62117
elles 62115
Kinder@@ 62095
1995 62087
pal@@ 62085
lässt 62079
Lösungen 62044
los@@ 61999
economy 61997
rus 61983
Back@@ 61980
kar@@ 61978
Süd@@ 61963
Nieder@@ 61949
Forum 61938
bereit 61875
chs 61861
institutions 61822
dimen@@ 61818
Möglichkeiten 61809
Sea 61787
PL@@ 61771
gas@@ 61760
acy 61752
resources 61752
HO@@ 61738
across 61738
с@@ 61712
chi@@ 61705
assen 61705
Straße 61698
т@@ 61697
Series 61692
Industrie 61674
uli@@ 61663
deutschen 61660
Herzen 61654
a.com 61623
Mini@@ 61622
politik 61621
Texas 61621
Nich@@ 61618
senden 61600
nia 61593
competition 61591
pt 61584
buff@@ 61547
Sil@@ 61544
ggy 61503
Prof. 61482
Suite 61460
Ukraine 61456
enthält 61454
Meter 61433
keinen 61432
Festival 61413
illi@@ 61404
bor@@ 61364
igkeit 61348
exhibition 61346
verfahren 61338
installation 61321
produ@@ 61318
terrace 61264
wh@@ 61259
partners 61255
UM@@ 61247
Ul@@ 61228
Pass@@ 61200
später 61191
haltung 61167
Mitglieder 61166
source 61141
Mö@@ 61121
bo 61121
ute 61119
Christ 61118
Prot@@ 61092
ologi@@ 61052
Type 61049
staff 61036
ün@@ 61019
Net@@ 61018
Key@@ 61011
Schul@@ 61011
ures 60984
Sha@@ 60937
ession 60921
Anfang 60897
AM 60885
sau 60857
hot 60850
ctor 60847
bett 60835
Bus 60825
Mol@@ 60814
tour 60804
34@@ 60794
exchange 60792
distance 60772
progress 60740
phone 60735
tar@@ 60729
difficult 60696
genommen 60684
Sohn 60677
dence 60677
gene 60637
Sommer 60636
3. 60620
return 60616
wish 60572
mountain 60568
Mel@@ 60566
Ei@@ 60557
fen@@ 60510
lig@@ 60495
BL@@ 60478
Cri@@ 60474
abge@@ 60471
Pf@@ 60466
success 60411
sh 60389
Dank 60338
stop 60253
Sterne 60250
Bürger 60236
potential 60216
sil@@ 60199
Bereichen 60191
adopted 60180
Sam@@ 60150
gie 60140
Manu@@ 60133
Vorschlag 60129
russi@@ 60101
Bir@@ 60085
enthalten 60061
dich 60042
surface 60038
allowed 60030
sw@@ 60029
Reise@@ 60013
trag@@ 59950
spro@@ 59942
choice 59940
werte 59933
Brüssel 59931
ators 59930
Alter 59924
Lie@@ 59922
Zurück 59907
environmental 59888
popular 59842
DS 59830
Situation 59801
successful 59777
empfehlen 59760
Blue 59757
Test@@ 59756
BA 59733
Über 59728
paar 59720
LA 59711
Hans 59693
Ach@@ 59686
Hell@@ 59668
Holiday 59667
nimmt 59663
zing 59663
ji@@ 59654
Tau@@ 59644
Mikro@@ 59643
bedingungen 59641
weiterhin 59634
dan@@ 59629
Ven@@ 59616
ären 59607
internet 59603
hoch 59581
Cy@@ 59580
structure 59575
Umsetzung 59525
75@@ 59513
SS 59481
Fle@@ 59468
wand@@ 59461
attention 59435
EM 59434
bal@@ 59424
Tar@@ 59418
.-@@ 59411
extra 59401
Ara@@ 59397
super@@ 59360
teten 59347
THE 59347
Grundlage 59343
gesamten 59330
inn@@ 59330
Rates 59329
started 59294
Research 59294
Link 59292
Court 59292
MA@@ 59292
vation 59274
Licht 59257
my@@ 59229
follow 59227
Schn@@ 59215
Zi@@ 59212
einzelnen 59193
uminium 59156
practice 59152
cken@@ 59151
cross 59139
community 59109
Blo@@ 59098
piece 59082
stoffe 59077
integrated 59076
enough 59056
hö@@ 59040
Gemein@@ 59039
bli@@ 59036
bekommen 59026
rela@@ 59019
Sozial@@ 59004
phase 59003
tens 58928
simply 58912
Pool 58908
Kraft 58904
Rechte 58901
needed 58866
livi@@ 58861
lesen 58857
unit 58845
highly 58836
Denn 58826
goods 58825
levels 58824
easily 58814
UN 58813
ful@@ 58776
48@@ 58752
ey@@ 58749
published 58740
boo@@ 58722
Markt@@ 58698
casting 58680
fügen 58673
gue 58657
became 58624
Angel@@ 58613
Stad@@ 58591
Ret@@ 58584
final 58576
internationale 58571
wir@@ 58570
train 58568
Gebäude 58565
Hü@@ 58564
comple@@ 58549
wid@@ 58507
cars 58462
Gewicht 58448
ani 58441
führ@@ 58409
daily 58406
Aktivitäten 58402
ably 58400
ello 58386
eigene 58373
Modell 58373
Up@@ 58354
nationalen 58341
star@@ 58334
pay 58328
München 58311
Back 58303
wichtige 58290
gem@@ 58285
hohen 58264
onia 58235
kn@@ 58230
Regu@@ 58227
Gro@@ 58224
attra@@ 58185
Edition 58184
red@@ 58178
sun@@ 58175
Winter 58173
uss 58169
lä@@ 58149
Fehler 58118
Press 58116
Port@@ 58116
improve 58088
church 58082
framework 58068
holz 58053
lig 58020
link 58016
says 58006
Vorteile 57997
Mad@@ 57995
collection 57977
Farben 57973
ppe 57967
Mari@@ 57960
kre@@ 57955
Wirtschafts@@ 57953
sion@@ 57951
Sun 57949
Geld 57926
bleibt 57919
wieder@@ 57915
fahr@@ 57905
Cle@@ 57900
grund@@ 57890
Kin@@ 57885
focus 57882
ktor 57877
1996 57868
ud 57867
Vir@@ 57841
Life 57837
tab@@ 57828
stadt 57802
Institut 57802
temperature 57795
amen 57776
strip 57775
Microsoft 57766
lö@@ 57758
tors 57750
dungen 57704
¡ 57704
Erde 57702
Nur 57694
jahre 57687
Edel@@ 57683
bike 57677
rit@@ 57671
zweiten 57664
Dor@@ 57661
post 57635
stark 57633
Kompon@@ 57617
back@@ 57602
ash@@ 57598
komple@@ 57596
Hab@@ 57579
endar 57555
AF@@ 57544
ational 57538
brought 57533
oll 57522
osp@@ 57514
ready 57507
produced 57486
siehe 57485
eck 57442
entation 57434
Fur@@ 57418
male 57408
types 57402
colour 57394
folgende 57388
Reg@@ 57375
Some 57365
images 57348
sit 57346
Wort 57332
FR@@ 57330
continu@@ 57319
ged 57305
geln 57297
ingen 57277
Me 57268
Vit@@ 57261
increased 57238
death 57233
mental 57215
fel@@ 57202
gesehen 57163
700 57161
Kosten@@ 57144
debate 57143
ac 57132
fähigkeit 57107
She 57090
Box 57074
{ 57056
sicher@@ 57030
sta 57022
huge 57022
Jahres 57018
Sar@@ 57015
child 57004
ri 57002
Vater 56982
Prin@@ 56959
Technik 56938
Weather 56928
sagt 56910
kosten 56908
erei 56908
wichtigsten 56899
schlu@@ 56888
ome@@ 56888
125 56878
.e@@ 56878
Mein 56874
span@@ 56866
oblig@@ 56848
einzigar@@ 56842
bon 56814
processes 56812
M. 56811
lich@@ 56770
brow@@ 56733
UK 56719
Control 56698
Croatia 56665
tag 56664
complex 56625
func@@ 56617
transfer 56603
season 56570
Gl@@ 56559
Hard@@ 56558
storage 56557
Best 56553
Kr@@ 56547
Well@@ 56531
regard 56521
fragen 56513
stone 56513
Deutsche 56505
TE@@ 56502
dre@@ 56493
Sim@@ 56489
Teile 56449
appro@@ 56444
herr@@ 56442
player 56440
minute 56375
linien 56353
VI 56352
Hinter@@ 56349
Bezug 56337
stics 56319
BMW 56317
MI@@ 56309
gener@@ 56291
falls 56282
volle 56280
ump@@ 56278
lic 56224
tigt 56221
fläche 56213
Netherlands 56208
ION 56198
yn@@ 56196
delivery 56184
Asi@@ 56162
europäische 56157
top@@ 56126
rech@@ 56097
asse@@ 56075
schönen 56073
sign@@ 56060
pul@@ 56044
schutz 56042
sides 56034
Samsung 56032
spe@@ 56028
Mic@@ 56024
adi@@ 56012
physi@@ 56011
sieht 56003
gemäß 55992
welcome 55986
relevant 55962
180 55961
sprach 55959
Artik@@ 55950
eng 55937
schließen 55935
bach 55932
Betriebs@@ 55915
oring 55900
zwei@@ 55892
igen 55878
St 55858
Holz@@ 55858
Doch 55853
elements 55849
gebiet 55835
Sta@@ 55813
würden 55799
wasser@@ 55783
Credit 55774
größe 55763
GA 55757
ater 55745
Ki@@ 55740
leb@@ 55737
win 55728
cable 55704
} 55693
110 55689
internal 55689
vice 55646
idea 55640
schw@@ 55629
friendly 55628
clu@@ 55610
review 55597
Zeit@@ 55587
portal 55577
vintage 55565
climate 55563
smoking 55562
six 55558
temp@@ 55551
agen@@ 55514
FL@@ 55465
budget 55441
ams 55440
Anforderungen 55430
Rau@@ 55397
lik@@ 55365
Mur@@ 55349
National@@ 55347
Verkauf 55347
langen 55336
setz@@ 55324
DO@@ 55324
quickly 55318
wan@@ 55309
Total 55255
Mehr@@ 55248
cut 55239
importance 55227
bit@@ 55222
Dru@@ 55200
schriften 55200
politische 55185
acht@@ 55177
Basis 55141
ungs 55139
Mitglied 55136
Den 55135
At@@ 55126
vel 55105
Besucher 55089
sens@@ 55085
Next 55082
sters 55057
tiges 55055
39@@ 55054
Read 55041
Swi@@ 55030
develop 55028
Bat@@ 55021
mach@@ 55020
values 54999
testen 54997
rep@@ 54989
hinter 54983
eries 54976
TER@@ 54971
effects 54970
medium 54947
got 54938
Nov@@ 54914
Projekte 54904
Stadt@@ 54902
gelegt 54897
guest 54895
cket 54875
dar 54839
Schlüssel@@ 54839
County 54823
dicke 54812
messer 54806
ala 54790
anische 54776
Bewer@@ 54776
CE@@ 54760
nah@@ 54745
PE 54738
plants 54720
dorf 54706
Telefon 54701
Pin@@ 54688
She@@ 54667
whose 54659
earth 54612
bek@@ 54584
е@@ 54578
Mark@@ 54556
tools 54548
tenden 54533
Zahl 54528
efore 54515
tig@@ 54514
sichten 54510
schle@@ 54492
thousands 54487
billion 54485
wa 54484
ee 54467
einschließlich 54456
Näch@@ 54450
Sand@@ 54439
boy 54436
gives 54421
zeit@@ 54415
dia 54411
strategy 54409
olog@@ 54389
fair 54385
harmon@@ 54335
entr@@ 54331
Forschungs@@ 54290
Private 54285
heim 54278
schöne 54258
comfortable 54231
Miet@@ 54185
Spanish 54169
largest 54159
Ant@@ 54154
DER 54154
section 54153
skin 54138
kat@@ 54121
Em@@ 54113
schutz@@ 54090
soli@@ 54081
ct@@ 54072
written 54069
Tuesday 54068
port@@ 54057
Nachrichten 54056
losen 54031
Special 54029
foreign 54019
Pres@@ 54012
ral 54010
Druck@@ 53998
Port 53994
Time 53984
darin 53977
emen 53975
Lam@@ 53968
systeme 53963
signed 53960
friends 53907
mind 53904
meters 53891
moder@@ 53857
Frühstück 53812
kal@@ 53807
Monday 53792
ussy 53790
letzte 53775
anda 53769
beste 53768
Madrid 53760
Christ@@ 53757
dungs@@ 53756
Pul@@ 53752
cas@@ 53738
slo@@ 53727
Russian 53724
Energy 53692
Sonder@@ 53681
hose 53679
hire 53675
hr 53673
sprache 53672
essential 53653
Selbst@@ 53647
eg 53647
Funktion 53622
enter@@ 53618
sho@@ 53578
note 53565
Front 53564
OP@@ 53537
prot@@ 53532
contains 53521
Green 53504
Position 53499
Beitrag 53498
VER@@ 53481
Mini 53471
ativen 53470
Development 53456
Les@@ 53454
Wahl 53441
Organ@@ 53419
ren 53408
conver@@ 53376
Bestim@@ 53374
Cou@@ 53370
ace 53369
ville 53358
genießen 53356
oh@@ 53355
Spieler 53345
fs 53313
Ah 53307
Mitte 53300
handelt 53293
basic 53282
wohl 53264
Organisation 53260
eth@@ 53247
club 53225
iling 53224
himself 53219
1992 53213
program@@ 53212
responsibility 53212
tten 53210
Aqu@@ 53197
tain@@ 53187
Bus@@ 53177
micro@@ 53159
Not@@ 53152
digen 53151
Kap@@ 53137
bio@@ 53121
key@@ 53119
Lö@@ 53111
resi@@ 53096
Wir@@ 53065
enth@@ 53063
zo@@ 53059
demand 53057
display 53051
Format 53032
č@@ 53031
magne@@ 53028
bath 53022
analysis 53022
Stand 53016
Buy 53006
tru@@ 52988
Kroatien 52988
cho@@ 52974
mas@@ 52965
techn@@ 52961
uniform 52958
ise 52950
gleichzeitig 52949
Monate 52939
beds 52930
wirk@@ 52930
val 52919
viol@@ 52911
ji 52880
Instru@@ 52860
wirtschaftlichen 52858
Rock 52858
employees 52842
Kit@@ 52837
graph@@ 52827
involved 52823
.09.@@ 52801
Körper 52784
Roll@@ 52780
Family 52776
TM@@ 52769
Archi@@ 52769
ero 52745
Interesse 52744
ampe 52732
net@@ 52731
Old 52720
uring 52715
Versand@@ 52694
stration 52662
bringt 52657
distri@@ 52655
though 52640
Christmas 52615
hab@@ 52557
spei@@ 52535
anim@@ 52527
gerne 52476
Start 52441
din@@ 52441
xing 52432
pieces 52414
xx 52408
states 52392
workers 52380
Is@@ 52372
Neue 52349
zentrum 52312
direction 52306
fire 52294
Förderung 52258
gebracht 52257
inge 52249
geeignet 52225
König 52216
Dienstag 52211
com 52203
NO@@ 52196
lige 52195
carried 52175
squ@@ 52158
person@@ 52147
cou@@ 52147
ae 52144
ouse 52134
KG 52103
rat 52092
unver@@ 52081
OM@@ 52073
significant 52058
beispielsweise 52055
Themen 52045
V. 52044
Check 52007
ron 52006
Kühl@@ 51993
netz@@ 51980
gal@@ 51964
Zustand 51960
cip@@ 51958
schlag 51956
leu@@ 51938
Ziele 51937
Cast@@ 51918
ink 51906
stellungen 51902
nothing 51898
Android 51876
regions 51875
Winter@@ 51865
od@@ 51833
booking 51832
Media 51829
dig@@ 51825
Analy@@ 51821
reichen 51805
Ly@@ 51798
click 51788
Kultur@@ 51771
ebenso 51743
selection 51738
cent 51729
Stand@@ 51701
oto 51693
Plus 51690
enzen 51686
dürfen 51683
west 51682
Greece 51669
ries 51644
bet 51634
Turkey 51626
Englisch 51613
kommenden 51606
gte 51604
bt 51603
Netz@@ 51601
Erd@@ 51580
generation 51580
add 51573
inform@@ 51571
stellte 51550
Music 51522
Year 51521
mus@@ 51518
houses 51508
erforderlich 51487
greater 51479
Indi@@ 51464
groß@@ 51458
watch 51451
activity 51444
ous@@ 51438
Ziel@@ 51433
int@@ 51392
ill 51392
inside 51388
external 51357
Player 51343
offered 51340
Außerdem 51337
Mutter 51335
Menge 51320
bildung 51263
44@@ 51258
ni 51246
Poli@@ 51246
LI@@ 51238
release 51237
Peru 51236
appropriate 51236
motor 51230
uten 51223
Gemeinde 51214
Tel@@ 51202
server 51199
Edi@@ 51192
ature 51191
movement 51189
Ani@@ 51180
Ty@@ 51161
Kingdom 51157
49@@ 51149
Is 51141
Gesundheit 51137
conditioning 51131
Schal@@ 51125
ska 51124
Bos@@ 51119
wenden 51115
osen 51115
pers 51107
Bestell@@ 51106
hält 51086
tool 51077
vs 51077
Entwicklungs@@ 51066
SK@@ 51049
Pil@@ 51043
Puerto 51039
Silver 51039
seines 51034
Beach 51013
Gest@@ 51011
vielleicht 51005
stars 51004
move 50978
Zeichen 50971
Anwendungen 50965
reich@@ 50965
Rezep@@ 50956
р@@ 50955
ungsp@@ 50949
winter 50940
ato 50937
Stock 50936
Lis@@ 50925
Geist 50920
processing 50918
55@@ 50913
TC 50909
schön@@ 50885
Jahrhundert 50866
AK@@ 50850
achieve 50849
Pie@@ 50843
schreiben 50823
actions 50820
oma 50814
context 50806
160 50801
steps 50784
aries 50783
klar 50776
Montag 50770
lations 50748
äl@@ 50706
Firma 50696
mund 50689
CD@@ 50687
spezifi@@ 50672
zieren 50612
students 50602
Sig@@ 50566
Bauern@@ 50536
.org 50536
accord@@ 50525
Wil@@ 50496
numerous 50492
FC 50486
fish 50478
Alp@@ 50478
~ 50466
Wasch@@ 50431
Roh@@ 50428
san@@ 50416
Wind 50411
bung 50411
wohnungen 50403
kleiner 50389
eben@@ 50386
concept 50380
2020 50367
reise 50364
apply 50343
gesagt 50342
fight 50330
größten 50325
schwer@@ 50323
verbunden 50313
Wer@@ 50298
wers 50290
drivers 50289
н@@ 50279
shown 50271
Cover 50259
purpose 50253
sun 50251
lives 50240
Erfolg 50225
tag@@ 50218
guten 50208
decided 50203
mark 50200
Zwei@@ 50195
schi@@ 50182
concerning 50175
considered 50145
üssen 50141
temper@@ 50137
Robert 50121
Party 50117
restaurants 50105
Haup@@ 50064
tät 50055
feet 50048
Master 50047
cities 50039
Druck 50032
remain 50023
mini@@ 50015
rou@@ 50012
integri@@ 50002
highest 49999
documents 49990
extremely 49980
s.com 49965
Verbesserung 49963
Place 49952
Punkte 49944
DS@@ 49944
stable 49938
Gleich@@ 49931
vin@@ 49909
verbin@@ 49906
sozialen 49873
deshalb 49871
ziert 49870
Blog 49869
tains 49858
1994 49854
Go 49854
selected 49854
32@@ 49854
conference 49851
thanks 49842
gin 49831
Foundation 49820
Wander@@ 49801
anischen 49766
4. 49750
ita 49732
bourg 49695
а@@ 49669
veröffentlicht 49666
Munich 49664
Jean 49659
zehn 49632
fic@@ 49615
Stre@@ 49610
ED@@ 49601
resolution 49601
cr@@ 49600
Company 49594
impact 49578
IV 49569
device 49562
aff@@ 49516
verk@@ 49510
meinen 49502
extra@@ 49497
dec@@ 49492
ers@@ 49460
organ@@ 49460
ku@@ 49458
140 49457
Kol@@ 49456
Künstler 49439
Supp@@ 49432
oul@@ 49418
con 49414
tlich 49410
Strategie 49404
einger@@ 49403
1.0@@ 49399
Czech 49392
MP 49384
vit@@ 49368
actually 49358
Punkt 49340
package 49336
Klein@@ 49334
Umwelt 49326
350 49317
variety 49315
lights 49301
zone 49301
Real 49283
unten 49281
Mak@@ 49262
brauchen 49261
Na@@ 49239
clearly 49237
cted 49224
GR@@ 49223
stische 49220
Schw@@ 49213
Russland 49207
Ost@@ 49205
build 49198
punkt 49192
vollen 49182
understand 49178
dal@@ 49169
High@@ 49169
serv@@ 49124
scale 49092
Transport 49089
deten 49074
ago@@ 49060
Info 49057
konnten 49051
Beh@@ 49051
bat@@ 49045
erter 49033
by@@ 49010
vorge@@ 49003
dliche 49003
Titel 48975
2.0 48972
ug@@ 48936
oto@@ 48927
Los 48909
sense 48876
wesen 48872
Volk 48861
Band 48859
instead 48856
Ausstellung 48855
LIN@@ 48853
bas@@ 48850
fach@@ 48846
stik 48837
NA@@ 48805
flexible 48793
efficient 48783
läs@@ 48776
schluss 48758
population 48744
lernen 48743
Augen 48739
Ann@@ 48731
kop@@ 48720
alli@@ 48717
cause 48710
flow 48707
doing 48704
Galerie 48700
Rome 48691
allo@@ 48682
bedeut@@ 48676
sul@@ 48675
Han@@ 48671
Don@@ 48663
Update 48657
schrank 48656
Vie@@ 48649
facial 48633
var@@ 48619
neuer 48612
rol 48593
entwickeln 48560
load 48559
Dann 48545
Lake 48536
Damit 48517
Steuer@@ 48516
atz 48506
Hause 48496
kostenlos 48495
Bou@@ 48487
Sens@@ 48479
secure 48476
fallen 48462
border 48460
SM@@ 48447
bes@@ 48429
ear@@ 48421
Rou@@ 48419
Familien 48409
Verk@@ 48384
weather 48376
ored 48367
Hafen 48357
Vereinigten 48343
hier@@ 48331
Europas 48329
payment 48319
ais 48317
schem 48297
integration 48276
Motor 48276
Veranstaltungen 48271
atory 48269
VI@@ 48263
rot 48262
geboren 48254
Express 48251
Behandlung 48250
commercial 48231
frame 48225
Wer 48212
Mul@@ 48208
denken 48185
efforts 48171
Zo@@ 48170
Leute 48169
iel@@ 48162
ining 48159
stie@@ 48149
Landschaft 48146
esse 48140
gets 48138
orts 48097
ases 48087
Stil 48085
sag@@ 48085
Rech@@ 48060
Arten 48054
Betrieb 48050
cos@@ 48047
Parlaments 48039
unge 48038
visitors 48038
classic 48036
erie 48021
Stelle 48019
Vari@@ 48017
Parkplatz 47999
mindestens 47989
gesamte 47983
but@@ 47982
separate 47980
Mem@@ 47960
einander 47959
remains 47954
street 47938
rein@@ 47899
Regionen 47869
möglichkeiten 47867
fli@@ 47853
Gas@@ 47833
Fü@@ 47825
contra@@ 47811
Cur@@ 47810
ür@@ 47802
könnten 47797
Arbeiten 47769
Sony 47758
lets 47757
alized 47734
ändern 47733
Lar@@ 47729
somit 47712
Gran@@ 47699
ency 47694
ade@@ 47692
gli@@ 47674
Western 47673
ME 47656
separ@@ 47655
ame@@ 47648
reg@@ 47641
vote 47634
bul@@ 47633
Feld@@ 47633
Jav@@ 47629
notwendig 47619
durchgeführt 47613
Leistung 47611
20. 47609
efficiency 47608
Las@@ 47607
policies 47599
Mod@@ 47594
shot 47593
Bahnhof 47591
produce 47585
Informations@@ 47582
Dinge 47554
essi@@ 47552
neues 47549
lin 47539
inclu@@ 47527
cam@@ 47516
swimming 47514
fine 47504
hätte 47493
Kre@@ 47483
Social 47482
Line 47470
mi 47453
metres 47451
Medien 47444
wider@@ 47408
leistung 47406
procedure 47402
darf 47401
regarding 47395
aty 47392
Federal 47377
Flu@@ 47375
RI@@ 47369
fields 47350
Auswirkungen 47345
deutsch 47341
optim@@ 47329
Rat@@ 47325
reached 47310
bahn 47293
Schutz@@ 47283
Kindern 47280
opinion 47265
setting 47264
wobei 47251
schu@@ 47230
woman 47228
d.@@ 47221
sustainable 47213
10,@@ 47202
opened 47199
Vers@@ 47195
Dabei 47178
Fran@@ 47171
ül@@ 47157
Eff@@ 47156
Systeme 47154
Poland 47128
bedroom 47123
130 47123
Amsterdam 47121
Balkon 47116
sia 47103
Contact 47096
ée 47095
verti@@ 47084
eingesetzt 47082
Lauf@@ 47071
erkennen 47070
ances 47055
dedicated 47051
Mei@@ 47049
stro@@ 47041
Ster@@ 47030
chtung 47022
changed 47007
Än@@ 46992
si 46991
interesting 46991
principle 46988
ov 46987
closed 46973
leave 46967
zeiten 46946
Lau@@ 46928
ologische 46924
Low 46924
öl@@ 46875
Semin@@ 46870
Lü@@ 46860
Kra@@ 46854
Logi@@ 46840
devices 46825
05@@ 46817
Att@@ 46808
geführt 46799
Jan 46793
concerned 46785
developing 46782
connected 46773
freedom 46772
mg 46772
Eing@@ 46770
aim 46766
Super 46760
seh@@ 46757
Only 46747
Est@@ 46744
clo@@ 46743
ton@@ 46740
mess@@ 46735
bian 46733
derungs@@ 46731
Bildung 46722
opp@@ 46710
S.@@ 46691
Wachstum 46671
zweite 46655
mäß@@ 46637
Beziehungen 46633
Water 46632
Ram@@ 46618
auen 46616
ulation 46614
serve 46590
Wat@@ 46585
mut@@ 46549
ume 46544
Find 46530
Installation 46517
spirit 46513
Musik@@ 46510
thought 46503
flexi@@ 46485
Kop@@ 46481
Navig@@ 46479
motor@@ 46455
Linie 46439
joy 46437
Geräte 46434
reiten 46422
leader 46420
ften 46395
Tages@@ 46395
gave 46385
65@@ 46371
ghts 46356
independent 46347
Manager 46343
Over@@ 46341
ep 46331
Conc@@ 46327
arbei@@ 46323
Gui@@ 46322
hidden 46306
Pet@@ 46297
euro 46293
ented 46278
immediately 46275
Aufgabe 46268
lie@@ 46259
row 46252
gemeinsamen 46247
Wind@@ 46221
frequ@@ 46211
tly 46207
mä@@ 46206
Erfahrungen 46192
covered 46191
stück@@ 46183
starting 46179
spezi@@ 46178
Flug@@ 46163
Farb@@ 46160
gesellschaft 46152
Pau@@ 46152
Order 46144
joint 46140
Lim@@ 46137
Türkei 46134
options 46112
detail 46112
Cop@@ 46111
anne 46109
brau@@ 46103
Leistungs@@ 46086
electric 46086
bestimmten 46078
sli@@ 46069
99@@ 46066
Buch 46047
cy 46041
Messe 46040
normal 46030
benefit 46016
union 46011
0.0@@ 46003
deine 45986
amin 45957
machines 45947
allerdings 45940
Schwarz 45937
Hotel@@ 45896
pend@@ 45887
yo@@ 45887
Funktionen 45879
Colle@@ 45878
possibility 45877
arten 45869
nämlich 45849
Neben 45848
Association 45835
average 45833
werk@@ 45832
throat 45822
rufe 45816
engine 45788
medical 45785
news 45778
mobili@@ 45773
Flor@@ 45771
cle@@ 45768
bewer@@ 45759
treten 45759
í 45757
path 45744
fung 45732
Sonne 45714
Klei@@ 45693
asked 45692
Männer 45684
blo@@ 45669
Py@@ 45655
Jerusalem 45643
dete 45610
hören 45597
ore@@ 45593
unden 45578
Wall@@ 45572
spi@@ 45567
Unter 45559
Garden 45550
chter 45537
spar@@ 45527
offering 45516
EX@@ 45513
ologischen 45508
rö@@ 45501
elec@@ 45499
cute 45498
meinem 45496
sechs 45494
historical 45490
Links 45483
coffee 45481
Bil@@ 45474
Gre@@ 45470
Co 45465
bevor 45454
Sat@@ 45429
5. 45406
iner 45397
dly 45385
abzu@@ 45381
Stuttgart 45363
dige 45358
stischen 45345
pass@@ 45343
verbessern 45336
Prof@@ 45318
learn 45307
initiative 45292
zeichnet 45287
q 45285
gebaut 45279
save 45255
height 45252
mid 45252
ling@@ 45216
War 45213
Johannes 45212
ry@@ 45207
unseres 45205
76@@ 45171
rit 45168
poly@@ 45166
freien 45164
ermöglichen 45126
tual 45111
Qualitäts@@ 45109
Photos 45102
Ges@@ 45089
A. 45088
Meinung 45077
Ski 45067
tery 45050
nahe 45047
hochwer@@ 45046
Spezial@@ 45033
Touri@@ 45028
supported 45003
Mach@@ 45003
Rab@@ 44993
schal@@ 44986
wave 44982
ow 44976
rap@@ 44975
Many 44968
1990 44960
tees 44954
größte 44950
dem@@ 44941
Rol@@ 44927
Es@@ 44926
Ten@@ 44917
stigen 44917
inia 44916
KW 44909
legislation 44904
Satelli@@ 44898
fat 44878
opening 44873
Eng@@ 44855
gement 44849
Griechenland 44846
Stein@@ 44838
tra 44836
folgen 44813
mungen 44812
Integration 44810
hole 44806
guide 44787
Tief@@ 44782
häuser 44779
Non 44778
amend@@ 44740
Besuch 44725
в@@ 44718
End@@ 44714
aufnahme 44710
eins 44706
warm 44704
ules 44697
electronic 44677
creation 44652
PA 44635
combination 44628
aut 44611
typ@@ 44604
besuchen 44599
pes 44594
employment 44590
stan@@ 44578
ap 44568
boots 44555
coordin@@ 44549
square 44542
Monats@@ 44540
wald 44533
vehicle 44523
Landes 44512
constru@@ 44508
A.@@ 44506
Mis@@ 44498
Pop@@ 44485
BER@@ 44477
ihres 44470
jeweiligen 44456
J. 44452
Alpha@@ 44448
ungspro@@ 44433
erungen 44425
dig 44414
Gruppen 44408
ading 44399
nis@@ 44385
functions 44381
fru@@ 44376
sons 44373
és 44367
Sli@@ 44365
aufgenommen 44357
Homepage 44347
wasser 44345
derzeit 44343
Typ@@ 44327
lingerie 44326
get@@ 44318
verfügen 44308
Picture 44295
leistungs@@ 44279
Köln 44266
instal@@ 44263
tivity 44258
stands 44257
audio 44253
Herz 44250
isation 44246
Einige 44231
Silber 44225
paid 44211
selben 44197
Two 44195
sm 44195
technischen 44180
dlichen 44167
Klasse 44154
relations 44144
nam@@ 44142
brand 44133
schule 44130
pm 44129
trock@@ 44125
Wi 44083
Kolle@@ 44081
emo@@ 44065
gol@@ 44063
FO@@ 44059
Deshalb 44054
sign 44026
proposed 44018
worldwide 44016
Card 44015
08@@ 44003
Asia 43998
lichkeiten 43991
VAT 43978
metal 43971
south 43968
Sweden 43967
maximal 43952
mern 43945
Öl 43938
eting 43937
schuhe 43910
evening 43906
plu@@ 43905
ähr@@ 43904
clean 43892
Change 43848
1993 43836
heißt 43830
Vertrag 43828
Handel 43823
Ol@@ 43813
cti@@ 43812
jobs 43810
England 43794
guarantee 43781
Security 43780
Test 43754
sty@@ 43750
hel@@ 43738
cum@@ 43738
Post@@ 43728
iges 43728
reasons 43712
Ton@@ 43710
blood 43683
percent 43675
Cha@@ 43668
Amat@@ 43655
Gol@@ 43648
dete@@ 43645
Slo@@ 43633
aged 43621
institu@@ 43619
radio 43614
Objekt 43597
Regel 43585
Investitionen 43579
distribution 43574
reports 43572
foot@@ 43569
Ali@@ 43559
× 43558
User 43554
sk 43538
Director 43534
deep@@ 43533
Stor@@ 43532
Eigenschaften 43521
trip 43512
dance 43511
rie@@ 43509
wär@@ 43492
ced 43492
Scre@@ 43477
Zer@@ 43476
schä@@ 43469
Heizung 43468
atur@@ 43466
Andere 43457
Ringe 43456
Reise 43440
method 43434
06@@ 43420
mö@@ 43400
reli@@ 43399
lauf@@ 43398
Nik@@ 43395
mitteln 43388
fordert 43368
strand 43367
Tom@@ 43366
Preis@@ 43363
dest@@ 43362
maintenance 43360
output 43345
methods 43342
military 43333
ski@@ 43322
technik 43305
morning 43294
Dy@@ 43287
err@@ 43280
ante 43275
clients 43246
silver 43241
groß 43230
aktuellen 43229
Chin@@ 43228
alone 43221
nissen 43221
Kampf 43216
tt 43214
Kontrolle 43214
Kollegen 43212
nor 43212
daten 43195
bi 43192
TT@@ 43189
ard@@ 43187
ym@@ 43186
ises 43184
landscape 43181
Seine 43179
entwicklung 43172
Bevölkerung 43167
traffic 43166
Glas@@ 43159
Blan@@ 43159
duction 43152
Macht 43149
utz@@ 43128
Canada 43126
geo@@ 43117
entry 43108
allein 43101
elektri@@ 43101
cont@@ 43099
authenti@@ 43090
Alexander 43090
CR@@ 43084
900 43077
Inseln 43071
serious 43070
hands 43066
Male 43049
ela 43042
Rom 43038
sich@@ 43021
ø@@ 42990
welches 42987
kin@@ 42984
11. 42984
ingly 42976
CN@@ 42974
ordnung 42971
interested 42960
tsch@@ 42941
Oper@@ 42927
Ih@@ 42918
gender 42912
Rem@@ 42895
providing 42892
pak@@ 42891
Polen 42891
beide 42887
Gei@@ 42884
oli@@ 42875
ther 42872
legung 42866
Spa 42860
Stati@@ 42860
Brun@@ 42860
ebo@@ 42836
öl 42813
track 42812
Get@@ 42811
telephone 42810
fun 42810
stry 42806
1st 42805
reading 42798
mot@@ 42788
Sou@@ 42786
Prozess 42776
comprehensive 42771
Seh@@ 42765
System@@ 42758
School 42752
Speci@@ 42749
quiet 42741
Radi@@ 42730
angeboten 42726
pil@@ 42726
wes@@ 42714
Technology 42701
Dienst@@ 42695
innov@@ 42672
rechte 42670
dex 42665
Gew@@ 42658
anderem 42647
anderer 42639
aturen 42637
ech 42632
Transport@@ 42629
ú@@ 42626
Wo@@ 42617
Darüber 42580
ised 42570
Änderungen 42569
\ 42562
nahm 42555
began 42552
cle 42551
student 42549
Even 42545
Hum@@ 42540
feature 42536
lon@@ 42535
Webseite 42522
inner 42521
talk 42518
Daher 42514
ills 42513
Holi@@ 42512
VA 42482
police 42474
gang@@ 42470
wirtschaftliche 42462
worked 42447
ening 42413
onn@@ 42402
British 42402
archi@@ 42402
Mah@@ 42399
UT 42380
Sum@@ 42377
gliche 42361
gem 42359
zahlen 42355
Str@@ 42339
FS@@ 42311
def@@ 42293
Prakti@@ 42279
vention 42258
interests 42253
bia 42252
Sitz@@ 42251
meter 42251
Staats@@ 42249
a.@@ 42245
whom 42245
Great 42217
gallery 42216
sische 42190
ielle 42181
official 42177
objec@@ 42172
ching 42159
ott@@ 42157
jugend@@ 42157
Verantwortung 42146
Plan 42144
vis@@ 42141
zahlreiche 42126
Herstellung 42124
reduce 42121
host@@ 42109
fel 42109
Dorf 42108
bedrooms 42101
bisher 42087
► 42086
ova 42075
Jes@@ 42073
tzentrum 42067
jeweils 42063
oten 42055
status 42054
prä@@ 42044
UC@@ 42042
achieved 42041
ners 42039
Gestern 42032
Each 42008
erfolgt 42002
colle@@ 41996
li 41994
h. 41977
grenz@@ 41977
graphy 41971
verstehen 41968
Elek@@ 41968
players 41960
industrie 41959
Beginn 41954
ien 41938
numbers 41925
All@@ 41920
olo 41920
lla 41905
gewesen 41905
Mie@@ 41903
filter 41902
deutsche 41896
ec 41895
expected 41889
hat@@ 41888
deep 41887
opportunities 41884
River 41872
units 41869
ann 41854
ett 41843
04@@ 41842
belie@@ 41840
Antwort 41829
wichtigen 41823
dit 41821
usually 41813
agreed 41810
gesetzt 41808
rement 41796
15.@@ 41793
atmosphere 41787
Appar@@ 41783
Luft 41782
Lit@@ 41776
Damen 41776
privaten 41774
frie@@ 41727
gs@@ 41723
toe 41719
kung 41716
heat 41713
Geschle@@ 41708
Zimmer@@ 41703
geworden 41702
refle@@ 41699
verlei@@ 41697
faces 41693
eds 41668
modernen 41648
Conference 41647
Mau@@ 41645
usses 41638
vorzu@@ 41629
iniert 41604
alist 41603
Holy 41600
Tim@@ 41588
irt 41584
Gegen@@ 41583
mentioned 41583
führer 41581
thi@@ 41577
Cho@@ 41566
buildings 41556
Quelle 41543
certi@@ 41542
anlagen 41541
placed 41526
aren 41522
88@@ 41517
wirtschaft 41515
nungen 41514
Tal@@ 41511
dro@@ 41490
Verkehrs@@ 41476
erwartet 41476
industri@@ 41473
dency 41462
instruments 41460
Gener@@ 41453
etten 41431
Publi@@ 41429
Public 41424
Schö@@ 41422
28. 41416
stes 41414
zo 41413
growing 41406
Mac 41406
document 41402
Premium 41397
lack 41397
comm@@ 41385
aufen 41373
Initiative 41364
ED 41356
fäl@@ 41355
bers 41345
digkeiten 41341
Steel 41341
nummer 41339
Projekt@@ 41334
Wohnzimmer 41320
formen 41319
spolitik 41317
Fem@@ 41311
cated 41307
nit@@ 41294
fet@@ 41291
Anna 41280
einzige 41279
stei@@ 41278
ref@@ 41258
6. 41257
balance 41235
richten 41209
ank 41204
bestimmte 41194
select 41188
planning 41184
Point 41167
ado 41156
profession@@ 41153
Dreh@@ 41153
Lav@@ 41146
let@@ 41145
Bü@@ 41132
comments 41105
wanted 41103
nied@@ 41102
Angebote 41099
Stiftung 41099
utter 41096
reich 41091
benefits 41089
eyes 41080
fresh 41079
Vill@@ 41062
Kno@@ 41051
Kraft@@ 41049
kur@@ 41029
ständig 41026
alisiert 41014
sig@@ 41012
stahl 41008
article 41007
everyone 41003
gemeinsame 40998
Air@@ 40996
Bau 40981
teur 40980
büro 40965
LC 40961
kostenlose 40955
Verordnung 40939
stän@@ 40918
chron@@ 40917
automati@@ 40915
richtig 40915
Viele 40903
spricht 40898
lebende 40886
Ja 40881
ined 40879
gerät 40875
rock 40874
stant 40862
wear 40862
öffent@@ 40856
Dol@@ 40853
Ireland 40851
ille 40843
individu@@ 40840
Kommissar 40838
tary 40833
blau 40828
Ga@@ 40823
Aufenthalt 40820
goes 40817
Bol@@ 40808
geschrieben 40803
spring 40802
middle 40799
prises 40792
Rö@@ 40777
Proz@@ 40775
mung 40774
visu@@ 40763
adju@@ 40761
Al 40757
Falls 40756
prepared 40750
sou@@ 40741
sam 40736
erfahren 40724
technologies 40715
Dim@@ 40712
India 40711
19. 40705
assistance 40705
mar 40699
passen 40681
CC@@ 40676
theit 40666
IE 40645
ô@@ 40643
Fahrzeug 40626
organisation 40625
zell@@ 40610
installed 40610
platform 40595
kenn@@ 40571
ollt 40568
increasing 40564
Die@@ 40540
While 40536
versi@@ 40531
Kle@@ 40528
esses 40526
families 40526
master 40524
non@@ 40503
Essen 40493
Film@@ 40489
nisch 40489
speak 40483
98@@ 40477
seems 40471
Park@@ 40449
versuchen 40445
ward 40428
Lot@@ 40427
Thus 40419
aner 40415
Add 40408
About 40400
Net 40396
elling 40395
Audi@@ 40386
Wol@@ 40384
Behörden 40381
Kategorien 40374
Kind 40373
formation 40359
recently 40358
calls 40351
ands 40347
mie 40324
Lebens 40312
founded 40303
VC 40294
Mallorca 40292
Affairs 40284
thodo@@ 40281
Schule 40275
behalten 40269
cies 40268
Bö@@ 40249
According 40249
Haus@@ 40226
Servi@@ 40218
fördern 40215
eil 40215
contract 40214
Presi@@ 40206
24. 40201
entsprechend 40195
running 40195
Segel@@ 40187
Honduras 40179
giving 40179
hl 40178
d. 40172
wed 40171
bes 40164
dining 40163
stab@@ 40146
story 40140
21. 40121
Werk 40110
fts 40104
erfolgreich 40104
haus@@ 40102
barer 40099
Roman 40098
are@@ 40095
7. 40094
Produktions@@ 40090
yourself 40086
Innov@@ 40084
maschinen 40080
Erklärung 40077
ately 40074
Komple@@ 40072
nat@@ 40070
bs@@ 40065
Professi@@ 40062
Vergleich 40057
cot@@ 40057
email 40046
Mes@@ 40026
Mond@@ 40017
mainly 40011
physical 40009
Mexico 40003
68@@ 39973
beyond 39971
shopping 39960
occ@@ 39957
route 39953
Bereiche 39933
oper@@ 39933
Image 39932
proposals 39931
kti@@ 39923
Kab@@ 39922
une 39913
bath@@ 39912
Policy 39906
writing 39904
Bes@@ 39896
automatisch 39891
xt 39889
advant@@ 39889
nungs@@ 39888
Cro@@ 39877
auer 39851
diff@@ 39850
produktion 39841
lied 39835
reisen 39828
wort 39816
oral 39801
2.5 39791
thank 39782
Can 39772
yacht 39760
Ist 39756
Eis@@ 39750
ament 39744
zierte 39731
Boden 39728
z. 39722
Dal@@ 39708
menten 39701
vill@@ 39701
Quar@@ 39697
Konferenz 39695
Analyse 39692
bang 39691
dad 39687
ops 39684
scheint 39666
EST 39646
Düsseldorf 39644
Tausende 39644
record 39639
sischen 39635
legt 39634
ierung 39633
artists 39631
freund@@ 39625
faith 39624
father 39621
59@@ 39620
и 39618
Digital 39611
Daniel 39601
objects 39572
bilden 39560
ura 39540
ideas 39531
CO2 39530
gän@@ 39523
Mensch 39516
lost 39503
gischen 39502
annual 39497
bikini 39494
unt 39490
desi@@ 39451
Gesundheits@@ 39450
Light 39449
chern 39447
applied 39441
Hen@@ 39438
ös@@ 39428
ku 39428
dus 39425
books 39422
darum 39415
gten 39407
CA 39403
king@@ 39389
Nat@@ 39364
approximately 39361
s.@@ 39360
Index 39358
Dem@@ 39356
ans@@ 39342
ç@@ 39342
itation 39335
Ausbildung 39325
Sit@@ 39314
Materialien 39312
ros 39312
Männ@@ 39282
Innen 39274
radi@@ 39254
Kri@@ 39244
dlich 39240
Father 39239
air@@ 39238
arch@@ 39237
quar@@ 39234
stati@@ 39231
völlig 39229
Lag@@ 39225
eher 39214
digung 39213
oss 39202
presence 39200
án 39192
Zerti@@ 39190
außerdem 39180
ships 39175
hold 39174
ards 39166
heating 39156
Merk@@ 39153
arity 39149
technische 39141
Volks@@ 39136
Events 39125
GH@@ 39125
fig@@ 39123
schlüsse 39122
wahr@@ 39119
part@@ 39114
ener 39107
gische 39101
Einführung 39095
insurance 39092
Wein 39090
verkehr 39086
tell 39086
fand 39085
happy 39077
pon@@ 39076
Patienten 39072
Just 39066
programmes 39066
ched 39055
sorgen 39046
Belgium 39040
glichen 39033
hast 39033
Fla@@ 38973
Power@@ 38967
Pl@@ 38967
Eli@@ 38954
12,@@ 38952
seiten 38949
kra@@ 38947
Ale@@ 38946
cards 38946
erklärt 38945
wn 38945
cheap 38941
classi@@ 38940
stal@@ 38937
Produkten 38926
lus 38924
Niederlande 38924
erhältlich 38918
glich 38917
sig 38913
inal 38913
Let 38911
dition 38903
Herren 38892
erster 38891
Zürich 38888
Gefahr 38883
alities 38883
lt@@ 38882
court 38874
Innovation 38872
Maschinen 38863
ico 38831
tem@@ 38826
elegan@@ 38824
loss 38823
ober@@ 38819
reifen 38800
....@@ 38799
CON@@ 38799
leather 38765
hän@@ 38761
erer 38752
north 38750
any@@ 38747
scientific 38747
dadurch 38738
gram@@ 38730
finally 38713
wenige 38706
Meine 38694
damage 38667
cleaning 38664
studio 38657
Kabel 38653
Photo@@ 38631
erh@@ 38624
Ky@@ 38603
artist 38603
automatically 38602
Mediterranean 38595
bla@@ 38595
atives 38591
graphic 38591
Moon 38590
Bin@@ 38584
window 38577
DV@@ 38572
studies 38572
105 38567
25. 38566
sets 38563
animals 38562
Wettbewerb 38557
� 38545
tritt 38538
Pend@@ 38534
Review 38530
guter 38521
fit 38520
Hom@@ 38519
Teilnehmer 38495
Porsche 38491
released 38480
strength 38480
objective 38470
lli@@ 38469
Malta 38457
Gast@@ 38441
56@@ 38429
Fire@@ 38426
å@@ 38423
Gelegenheit 38423
Post 38421
Industri@@ 38411
Jan@@ 38399
funds 38385
Himmel 38383
Alb@@ 38380
1989 38378
Haar@@ 38366
Mus@@ 38363
Iran 38357
ffe 38356
chan@@ 38351
fte 38336
werke 38333
district 38333
teilt 38330
characterist@@ 38315
Science 38311
räume 38305
conclu@@ 38301
yl 38299
10. 38291
nete 38290
Kopf 38290
wä@@ 38286
vorhanden 38284
Til@@ 38279
consider 38256
Herr@@ 38252
eit 38238
Album 38235
atures 38234
Gau@@ 38227
kennen 38209
län@@ 38200
disch 38198
1991 38197
fem@@ 38197
overall 38183
struction 38178
playing 38158
besondere 38148
ree 38144
Double 38142
dru@@ 38138
vehicles 38128
aware 38127
ou 38124
arium 38109
sitting 38107
ometer 38102
goal 38101
Ansicht 38097
reform 38093
majority 38093
Oli@@ 38087
Kos@@ 38086
reduced 38081
vergangenen 38080
nahme 38079
BS 38075
prakti@@ 38070
Vin@@ 38060
essen@@ 38044
Dres@@ 38035
Karl 38032
ativ 38030
cked 38028
Ex 38020
voller 38019
Open@@ 38015
weite 38012
offen 38005
ander@@ 38001
Adri@@ 37956
archit@@ 37954
Wettbewerbs@@ 37952
§ 37952
Erweiterung 37949
delivered 37946
ome 37941
omy 37927
Tie@@ 37924
Economic 37922
proof 37916
vollständig 37913
gon 37906
Pon@@ 37900
dul 37896
Wolf 37887
properties 37884
Generation 37879
etc. 37872
elegant 37872
GE 37868
gekommen 37859
mei@@ 37858
Fabri@@ 37857
fundamental 37842
mean 37842
Government 37842
scre@@ 37832
Bot@@ 37828
Award 37798
reference 37798
ffen 37796
seven 37791
Königreich 37790
sett@@ 37782
historischen 37775
inien 37774
â@@ 37767
02@@ 37757
cast 37753
Chr@@ 37751
pre 37745
Wand@@ 37743
bald 37742
derung 37742
15. 37726
Click 37700
kers 37698
partic@@ 37695
cker@@ 37692
welt 37690
logi@@ 37679
Vorschriften 37676
Pack@@ 37673
maßnahmen 37667
Zeitpunkt 37664
river 37658
Einrichtungen 37649
gei@@ 37624
grade 37620
alternative 37618
ater@@ 37605
prevent 37600
Fru@@ 37597
defin@@ 37593
zeichen 37587
aktivi@@ 37574
manufac@@ 37564
Zy@@ 37562
balcony 37554
plastic 37553
consumption 37546
Australia 37541
genutzt 37538
dialogue 37537
BA@@ 37531
King 37528
Auto@@ 37521
itali@@ 37521
fas@@ 37498
kü@@ 37496
Tari@@ 37493
utes 37492
umfasst 37481
schwe@@ 37475
cell 37474
Schweden 37470
Binnen@@ 37460
43@@ 37455
Glas 37449
genen 37445
lag@@ 37433
verwen@@ 37423
Hinblick 37405
signs 37399
DN@@ 37392
tom@@ 37360
ailed 37352
won 37337
categories 37335
tatsächlich 37329
Handels@@ 37320
ih@@ 37320
Tatsache 37318
practi@@ 37310
soft 37304
nik 37303
asy 37302
purchase 37302
unterschiedlichen 37294
answer 37294
hau@@ 37274
Cra@@ 37243
uner@@ 37237
protect 37236
cycle 37234
stä@@ 37231
lieren 37217
protected 37215
satellite 37206
07@@ 37202
ode 37197
Spezi@@ 37184
nahmen 37175
Andreas 37172
Art@@ 37170
igte 37170
hot@@ 37169
ktion@@ 37162
By@@ 37152
waste 37152
liber@@ 37147
breite 37141
linie 37139
becomes 37128
blick 37127
Mass@@ 37125
zunächst 37118
54@@ 37115
pli@@ 37114
Priv@@ 37107
leben@@ 37105
Japanese 37091
aspects 37077
volume 37076
Fron@@ 37075
GPS 37070
pump@@ 37050
Werte 37048
ön@@ 37048
Abend 37047
commitment 37047
Haushalts@@ 37044
decisions 37032
unk@@ 37027
12. 37020
ständige 37019
comfort 37007
arische 37000
ects 37000
omet@@ 36996
Licht@@ 36990
proc@@ 36990
update 36981
Mand@@ 36965
sl@@ 36965
mierung 36963
eye 36961
oni 36952
gruppen 36947
ior 36944
fal@@ 36941
Enter@@ 36941
Wahrheit 36936
Its 36914
Wetter@@ 36913
warum 36909
orig@@ 36900
detailed 36887
Pun@@ 36882
moderne 36865
220 36864
entsprechenden 36860
mode 36859
--@@ 36857
Itali@@ 36854
Kapaz@@ 36853
Wh@@ 36845
store 36842
erischen 36836
tten@@ 36833
voice 36832
fizierung 36829
Vertreter 36826
16. 36824
although 36821
negotiations 36814
nte 36801
Joseph 36792
Ep@@ 36788
Hot@@ 36785
techni@@ 36785
Safety 36785
Bike 36780
Tür@@ 36773
erin 36764
Members 36764
Preisen 36763
regulation 36758
pair 36756
accom@@ 36748
bestimmt 36746
gelten 36745
fern 36741
Familien@@ 36739
Aktu@@ 36739
tile 36730
ehr@@ 36725
sum 36723
ssen 36717
Praxis 36714
umin@@ 36714
Gor@@ 36711
schrift 36709
Most 36709
Brü@@ 36706
SP 36700
schau 36697
supports 36694
Werke 36690
ath 36687
SW@@ 36686
aller@@ 36685
Travel 36683
Bewegung 36676
fur 36670
languages 36664
Abkommen 36662
Ausdruck 36651
eur 36650
TS@@ 36640
eby 36636
genannt 36630
zustellen 36623
zung 36623
spr@@ 36616
tree 36604
defined 36590
gegen@@ 36569
machte 36564
Detail 36547
alogue 36545
kurz 36539
mos@@ 36535
Frank 36526
trägt 36524
Prov@@ 36523
mehreren 36520
eva 36517
Kids 36499
Besch@@ 36498
Fein@@ 36496
exter@@ 36489
Such@@ 36483
Hall 36481
folgt 36474
ppen 36469
Kombination 36467
pump 36464
correspon@@ 36461
issen 36454
komplett 36445
Köni@@ 36439
visits 36433
bestehen 36426
schön 36419
ins@@ 36419
Schnitt@@ 36409
dient 36407
dische 36403
not@@ 36401
ically 36394
dienst 36385
trieb 36373
nt 36371
relationship 36368
Sommer@@ 36366
soziale 36357
fertigt 36350
grad 36350
programm 36345
nation 36340
beginnt 36338
typical 36328
extension 36324
wirken 36320
Islands 36301
13.@@ 36293
enable 36293
schwer 36284
challenges 36284
zogen 36276
FT@@ 36276
gros@@ 36270
Porto 36265
log 36259
edge 36256
truth 36250
sand@@ 36247
Round 36246
compared 36226
Schi@@ 36224
filled 36217
Mc@@ 36210
experts 36207
dry 36205
worth 36183
powerful 36173
cf@@ 36166
schließlich 36165
este 36162
certainly 36149
appear 36144
Bundes@@ 36137
Model 36132
Schl@@ 36127
probably 36125
sicht 36119
foot 36109
gio 36108
compet@@ 36090
aufzu@@ 36085
fall@@ 36075
Area 36066
fordern 36061
Alt@@ 36061
Egypt 36059
Full 36058
laufen 36035
ardi@@ 36034
japanische 36033
ader 36028
camera 36025
Kommunikation 36022
greifen 36018
Eigen@@ 36012
initi@@ 36009
response 36007
57@@ 36002
leg@@ 35994
Yesterday 35993
participants 35979
ligen 35964
pot 35959
Moun@@ 35957
regular 35951
io 35947
accept 35938
Stat@@ 35935
button 35934
zusätzliche 35931
promote 35928
Support 35926
liste 35907
followed 35899
verantwortlich 35898
ía 35896
500@@ 35894
enh@@ 35893
mountains 35885
Ori@@ 35884
gor@@ 35880
Elektro@@ 35879
Mail@@ 35878
u. 35874
weder 35869
offen@@ 35859
Vel@@ 35856
Pot@@ 35848
abri@@ 35839
disp@@ 35839
fiziert 35838
Fern@@ 35825
tivi@@ 35820
ci 35819
sty 35810
Fort@@ 35810
cro@@ 35800
otel 35796
gek@@ 35796
sucht 35794
sexual 35794
ik 35788
died 35773
Provinz 35768
heard 35768
konstru@@ 35761
eme 35755
associated 35746
ult 35744
intensi@@ 35731
tionally 35715
Rie@@ 35713
civil 35713
Tier@@ 35712
revolution@@ 35708
cling 35703
ppel 35699
thy 35698
isa 35688
carry 35682
marketing 35681
Source 35675
ua 35673
Belgien 35672
Prüf@@ 35660
Prüfung 35655
Kenn@@ 35652
behalf 35649
Wege 35648
Folge 35641
Luxem@@ 35636
jo 35634
correc@@ 35630
Fällen 35624
Action 35623
Letz@@ 35609
mitted 35606
Dollar 35605
glob@@ 35601
ont 35597
plans 35597
Nun 35591
Boden@@ 35574
Institutionen 35570
gesp@@ 35567
dert 35564
tie 35563
Strat@@ 35559
Because 35559
darunter 35557
minimum 35557
Christus 35547
Project 35543
otive 35543
ris 35543
semin@@ 35541
satis@@ 35527
duc@@ 35511
sicht@@ 35510
betrifft 35505
omi@@ 35502
skirt 35502
äch@@ 35498
avoid 35491
cting 35478
Änderung 35468
Wirkung 35447
wirtschaf@@ 35424
★ 35420
ó 35419
Wahr@@ 35418
Lang@@ 35414
Veröffent@@ 35414
category 35403
Krise 35399
science 35362
Anlagen 35358
Dialog 35348
shipping 35346
Städte 35340
Sprachen 35338
Studie 35330
item 35325
farm 35323
innovation 35319
species 35316
entspricht 35304
agree 35303
Strom@@ 35296
zt 35292
Finale 35292
Royal 35290
Cup 35288
require 35280
14.@@ 35272
Lager 35269
Holz 35269
bein@@ 35258
description 35257
Facebook 35257
sur 35255
spielt 35247
→ 35245
Netzwerk 35243
xen 35242
66@@ 35223
Salvador 35221
wonderful 35221
Landwirtschaft 35217
Anlage 35216
obwohl 35210
ased 35202
cell@@ 35193
außerhalb 35181
quanti@@ 35180
Lich@@ 35176
gewählt 35171
ziel@@ 35169
ican 35168
ähn@@ 35155
Bürger@@ 35101
ländern 35100
Öl@@ 35092
CC 35090
Mr. 35090
Geschwindigkeit 35089
prise 35083
1,5 35076
Reit@@ 35069
gia 35067
target 35066
practical 35065
minal 35062
zudem 35053
Cab@@ 35042
risks 35037
swal@@ 35036
Cham@@ 35014
historic 35011
dal 35007
Tos@@ 35007
habit@@ 35003
Bis 34995
Note 34991
lock 34990
shape 34985
18. 34984
swi@@ 34967
Len@@ 34966
aph@@ 34947
ular 34945
Valencia 34943
requires 34930
mother 34928
infor@@ 34923
einrichtungen 34922
reless 34902
turned 34897
kel 34892
desk 34885
Will@@ 34884
Health 34883
platte 34879
Guide 34868
programs 34866
cement 34863
Datum 34859
liegenden 34848
Tap@@ 34842
Ab 34836
führte 34835
persönlichen 34832
registered 34832
sicherheit 34831
dark 34823
contribution 34823
Franzö@@ 34820
kap@@ 34819
Haut 34814
lauf 34813
äd@@ 34807
butes 34806
trag 34802
Fenster 34801
tiveness 34798
Fraktion 34794
tei@@ 34788
Verhandlungen 34784
Gefühl 34776
gegründet 34776
advantage 34775
nachdem 34773
xes 34773
junge 34771
hil@@ 34767
girls 34767
wissen@@ 34766
sätze 34762
Liber@@ 34759
geräte 34755
alley 34752
Soft@@ 34751
Foreign 34742
inklusive 34733
halt 34731
rule 34724
Kommentare 34716
Professor 34714
360 34714
Why 34713
getting 34710
Budapest 34688
effek@@ 34687
58@@ 34683
rain 34678
ao 34678
Moment 34677
genannten 34666
understanding 34665
tter@@ 34662
approved 34651
lick 34649
yellow 34643
strap@@ 34641
äuse 34639
particip@@ 34629
Reisen 34627
lag 34622
gewicht 34614
memory 34614
principles 34611
forces 34607
Verkehr 34590
Rica 34582
tight 34581
Modelle 34570
amo 34568
ele 34567
task 34565
Fotogra@@ 34546
Basel 34542
wie@@ 34521
hergestellt 34516
Las 34501
Stunde 34501
fi 34493
Ir@@ 34492
Karten 34490
solchen 34478
sometimes 34477
gate 34477
influence 34473
diag@@ 34471
Gem@@ 34465
fabri@@ 34463
tourist 34414
Fun@@ 34400
Personal 34398
older 34393
ausgemacht 34388
09@@ 34375
21@@ 34361
Fit@@ 34355
director 34345
Stoff@@ 34323
zeug@@ 34319
exclu@@ 34318
fruit 34317
sieben 34311
dauer 34302
hall 34299
Castle 34293
milk 34291
aux 34282
schen@@ 34280
H. 34271
sers 34264
caused 34258
eig@@ 34236
77@@ 34229
Mercedes 34229
infrastructure 34219
dt 34218
mitten 34203
öffentliche 34202
Tod 34200
GT 34195
completed 34191
Objekte 34183
lands 34178
101 34175
tende 34172
µ@@ 34169
saying 34166
served 34153
object 34150
acious 34149
Mrs 34148
monster 34133
structures 34131
background 34130
13. 34122
zahlreichen 34107
gy@@ 34099
450 34099
Summer 34088
kurze 34079
reduction 34072
instrument 34067
Jac@@ 34066
genug 34063
sla@@ 34057
ffer 34055
experiences 34055
continued 34054
alisation 34047
Sehr 34044
Kir@@ 34038
17. 34036
Plu@@ 34035
Neu 34034
Part 34034
benötigen 34031
gele@@ 34027
Pak@@ 34022
Tou@@ 34020
marks 34007
bran@@ 34006
14. 34004
motion 33995
gos 33988
SH@@ 33985
positions 33978
Presse@@ 33971
Cir@@ 33968
ange 33967
ancient 33961
patients 33958
auto 33950
sz@@ 33945
Zeitraum 33940
Nationen 33915
Sä@@ 33909
Industrie@@ 33907
driver 33906
elli 33905
amps 33901
Kamera 33899
vieren 33891
Gam@@ 33879
Med@@ 33874
Play@@ 33872
Baum@@ 33868
unde 33866
mas 33863
nights 33862
Formen 33853
Idee 33845
banks 33845
Schuhe 33839
lokalen 33833
standing 33832
Work@@ 33830
religious 33829
gelegen 33822
｜ 33819
kraft 33816
defini@@ 33816
8. 33813
dens 33805
igt 33801
schung 33800
Performance 33791
furniture 33789
anders 33782
Rub@@ 33780
play@@ 33779
Atmosphäre 33772
told 33759
GO 33754
gleiche 33747
Nachricht 33744
sation 33742
tur 33740
kamen 33733
EB@@ 33724
las 33714
yers 33714
sitz 33712
häufig 33708
ints 33707
Mont@@ 33700
UND 33698
credit 33688
schlagen 33687
Entfernung 33684
funding 33683
west@@ 33668
acks 33665
Gerät 33643
correct 33633
PG 33622
dv@@ 33621
Tiere 33608
15,@@ 33607
ament@@ 33594
Straßen 33589
Zwei 33588
stances 33580
getan 33578
Di 33555
explo@@ 33544
Min 33542
shes 33538
wollte 33537
operations 33534
wet 33533
Denmark 33533
Sinne 33527
Öffentlichkeit 33526
eli@@ 33525
Tun@@ 33516
neten 33510
Zwischen@@ 33490
PI 33485
Krieg 33480
Freiheit 33474
character 33473
zü@@ 33470
Fon@@ 33462
Gas 33462
Kn@@ 33460
Teil@@ 33456
parti@@ 33449
comb@@ 33447
People 33436
sage 33427
begann 33427
lea@@ 33408
LS 33402
Ve@@ 33399
ctive 33395
lo 33389
entfernen 33387
Nur@@ 33377
tured 33374
verse 33367
angenommen 33351
anything 33342
schrei@@ 33341
gkeit 33341
vie@@ 33331
14,@@ 33326
Ke@@ 33325
introduced 33325
trees 33324
rapp@@ 33321
tigkeiten 33317
flash@@ 33314
PH@@ 33309
nächste 33291
antie 33289
rechten 33286
chance 33286
eres 33283
FA@@ 33268
procedures 33249
Resort 33241
Immobilien 33236
advanced 33235
doors 33232
photo@@ 33231
R. 33223
erische 33212
fassen 33209
aktuelle 33202
franzö@@ 33195
erwarten 33185
Store 33179
20.@@ 33164
stitute 33162
rän@@ 33157
rück@@ 33146
kol@@ 33138
Technologien 33133
ple@@ 33128
movie 33126
munici@@ 33120
Nord 33116
ischer 33115
dium 33111
Vom 33100
stal 33097
nische 33095
Kommentar 33085
mix 33070
Wohnungen 33067
Hintergrund 33064
battery 33064
Asian 33059
taste 33057
Women 33051
lake 33040
Bru@@ 33030
Deutschen 33026
liter@@ 33026
zut@@ 33020
Bul@@ 33013
zierten 33005
Fir@@ 33002
bigen 32998
ending 32994
ax@@ 32989
Shirt 32985
Training 32979
monitoring 32978
atik 32978
Les 32977
230 32971
dres@@ 32967
Fuß 32961
mini 32961
spann@@ 32957
Statistik 32954
block 32950
creating 32950
system@@ 32948
Lap@@ 32944
ising 32942
Mün@@ 32934
Cos@@ 32934
Farm 32932
degree 32931
termin@@ 32930
exist@@ 32928
xis 32928
articles 32923
Kilometer 32917
Osten 32917
metho@@ 32915
Middle 32911
Ressourcen 32906
teri@@ 32902
blatt 32901
22. 32900
aktiv 32893
Organisationen 32885
Pic@@ 32883
Cross 32875
Standard@@ 32870
Where 32867
kri@@ 32865
Zeich@@ 32865
Fas@@ 32864
Dil@@ 32862
instru@@ 32861
zierung 32856
Flexi@@ 32855
girlfriend 32854
erenden 32847
derte 32846
78@@ 32842
Medical 32842
Nutzer 32836
List 32825
weg@@ 32824
kit 32814
combined 32813
Sec@@ 32807
Span@@ 32807
Monte 32806
richtige 32799
Grenzen 32798
Aufgaben 32795
gers 32793
Greek 32789
visible 32786
Theater 32780
pos@@ 32779
noti@@ 32773
lösen 32771
Warum 32768
qual@@ 32764
profile 32763
europ@@ 32762
Spa@@ 32756
erfüllen 32753
16.@@ 32751
Drei@@ 32748
yst@@ 32745
zeuge 32740
dienen 32719
labour 32715
präsentiert 32714
Salzburg 32714
Instrument 32713
qualität 32711
Sab@@ 32705
cells 32702
element 32699
plate 32694
sozi@@ 32690
ahl 32686
AA 32684
host 32667
Hon@@ 32667
Ausstattung 32666
llen 32661
vac@@ 32653
bus@@ 32649
Tä@@ 32649
Refer@@ 32644
Menschenrechte 32643
ered 32639
cold 32628
Schei@@ 32618
besch@@ 32616
oph@@ 32615
länder 32601
erweiter@@ 32590
Übersicht 32589
nel 32586
ily 32584
Diesel 32583
eo 32560
disease 32560
ital@@ 32556
fishing 32554
Konzept 32553
Herausforderungen 32550
för@@ 32548
visual 32547
discussion 32546
flüge 32539
kul@@ 32538
concerns 32533
decken 32525
Agre@@ 32511
lers 32509
Herz@@ 32502
Dritt@@ 32499
General@@ 32498
Repar@@ 32495
verkauft 32493
03@@ 32489
ook@@ 32484
leid 32477
soci@@ 32470
Physi@@ 32466
64@@ 32465
Nutz@@ 32464
Evangel@@ 32457
üsse 32457
App 32436
lit 32434
stability 32427
arischen 32425
Trade 32425
dank 32424
lebt 32421
ž@@ 32415
bericht 32412
Frieden 32410
112 32410
destination 32408
Dur@@ 32399
Vergangenheit 32397
improved 32391
alization 32389
hinsichtlich 32386
Freunde 32386
ists 32385
Fax 32383
Heiligen 32381
Ag@@ 32380
fying 32378
Vorschläge 32375
Kern@@ 32374
Internet@@ 32362
Rh@@ 32361
Lesen 32357
Sammlung 32354
aming 32348
Blumen 32340
sell 32340
representatives 32337
FF 32336
rad 32328
Et@@ 32321
glaube 32320
regul@@ 32319
freuen 32317
alp@@ 32310
architecture 32300
Cont@@ 32299
nes 32297
spo@@ 32296
concrete 32295
scri@@ 32294
beginnen 32292
indic@@ 32291
occup@@ 32289
entri@@ 32285
versorgung 32283
teacher 32283
vine 32278
larger 32274
Chap@@ 32272
äh@@ 32259
RT@@ 32259
Although 32254
Nap@@ 32251
menu 32217
Extre@@ 32205
Jahrhunderts 32201
dischen 32200
Materi@@ 32198
ez 32185
Wäh@@ 32182
roman@@ 32179
mitt@@ 32168
diverse 32167
welt@@ 32166
resort 32165
line@@ 32152
Ja@@ 32135
Glob@@ 32124
Sache 32116
Tei@@ 32115
extensive 32108
tradition 32108
geschlossen 32107
edition 32102
erende 32100
sah 32093
Hil@@ 32092
Yes 32090
advance 32085
täglich 32082
Leistungen 32071
Gros@@ 32070
emi@@ 32065
Convention 32064
vertreten 32061
Mark 32058
Very 32055
Partei 32041
negative 32041
Struktur 32040
Stahl@@ 32039
erfüllt 32038
Wur@@ 32029
entlang 32021
Fot@@ 32019
Wunsch 32016
eingerichtet 32015
Vision 32001
Breite 31994
gl 31993
är 31993
speziell 31992
multi 31991
Student 31988
priority 31988
sierten 31987
van@@ 31986
gewährleisten 31983
geöffnet 31980
arrival 31979
automatic 31979
69@@ 31977
dien@@ 31967
Phase 31967
BC 31953
bour 31952
FR 31950
rah@@ 31949
zig 31948
Wit@@ 31947
provisions 31947
prec@@ 31945
chain 31942
eien 31938
zur@@ 31932
animal 31922
berech@@ 31918
bauen 31910
Wolfgang 31910
utions 31905
Ech@@ 31892
ned 31889
alisieren 31888
Regeln 31882
tere 31877
Berg 31872
Grö@@ 31871
E. 31865
Market 31864
Boot 31858
Re 31857
ahl@@ 31856
acht 31836
locations 31835
applic@@ 31834
flächen 31833
glauben 31833
Gewalt 31826
tier 31819
egenheiten 31818
entrance 31817
sufficient 31815
bert 31813
sungen 31809
Thanks 31806
Schritte 31802
größ@@ 31800
fixed 31797
ends 31796
weist 31795
suite 31794
danken 31794
besonderen 31775
LAN 31771
ind 31763
9. 31761
Tel 31755
break 31745
fassung 31744
Ausgabe 31741
leisten 31735
Country 31734
dity 31732
wert@@ 31725
inde@@ 31725
water@@ 31722
Sü@@ 31719
ring@@ 31716
richtigen 31712
Use 31712
bodies 31710
folge 31695
Town 31695
kungen 31694
Tradition 31693
announced 31692
lay 31690
Blu@@ 31682
Peri@@ 31679
amer 31679
transparent 31670
ea 31669
Ersatz@@ 31657
doctor 31652
James 31649
remove 31649
Inhalte 31641
Nokia 31641
Aufmerksamkeit 31637
Alles 31636
erstellt 31627
Š@@ 31619
ausschließlich 31618
wants 31618
ure@@ 31617
aker 31617
iler 31616
our@@ 31614
Gru@@ 31609
materi@@ 31609
Wissen 31602
Oil 31590
aling 31590
ät 31586
Berichter@@ 31582
controlled 31567
jungen 31559
tests 31556
Viol@@ 31556
schaft@@ 31556
Gö@@ 31553
Mun@@ 31553
Marie 31533
Square 31532
mass 31527
inten@@ 31523
Single 31518
braucht 31518
Leit@@ 31513
Folgen 31510
schei@@ 31504
viel@@ 31495
Gesetz 31494
ctors 31494
Johann 31493
läuft 31491
Austrian 31489
ush 31476
sheet 31473
engineering 31470
aly@@ 31452
ierte 31446
Schwer@@ 31440
eding 31438
welcher 31437
ush@@ 31436
seln 31435
Den@@ 31432
79@@ 31432
Engine@@ 31430
Smo@@ 31429
ag 31429
u.a. 31421
hä@@ 31420
well@@ 31415
entweder 31412
nütz@@ 31411
verkaufen 31405
forschung 31405
recommended 31400
Schwei@@ 31395
ffs 31392
1.5 31390
190 31389
erneut 31388
Hä@@ 31386
Road 31381
Verwaltung 31361
schwar@@ 31353
wach@@ 31344
Nar@@ 31339
pap@@ 31339
Ring 31337
3000 31332
conveni@@ 31330
berger 31319
gewinnen 31312
cz@@ 31297
Pur@@ 31293
forest 31292
ease 31279
karten 31279
atische 31269
villa 31267
Brau@@ 31267
Thailand 31266
Demokratie 31260
Stimme 31251
Custom@@ 31251
tin 31248
Stru@@ 31244
Mode 31244
leads 31244
ric 31238
dos 31237
GT@@ 31236
Clas@@ 31229
cross@@ 31229
&apos;re 31228
Food 31227
exclusive 31223
vacation 31222
brei@@ 31214
spiritual 31211
asing 31208
Antonio 31207
Baby 31206
eted 31206
Stau@@ 31185
touch 31173
condi@@ 31166
kaum 31161
Friedrich 31148
Hier@@ 31147
irgend@@ 31145
bilities 31140
Elemente 31135
Vene@@ 31134
betreff@@ 31131
stern 31130
Global 31128
ellen@@ 31126
fs@@ 31116
expensive 31112
ris@@ 31109
channel 31101
stoffen 31089
beru@@ 31085
manage 31076
terien 31073
wichtiger 31068
onic 31065
Schaffung 31063
otter 31061
Agri@@ 31055
demo@@ 31054
ć 31050
Indien 31049
cin@@ 31047
angle 31047
agreements 31031
Hungary 31020
Leipzig 31010
elte 31008
participation 31006
sources 31001
komb@@ 30997
democracy 30997
Law 30995
Sprach@@ 30994
ätze 30992
Baden 30986
Ham@@ 30984
exactly 30977
erstes 30968
Charles 30966
Ess@@ 30954
exten@@ 30953
bre 30942
convert 30933
mission@@ 30930
Betten 30925
mag 30923
tenen 30922
fertig 30922
Fortschritte 30914
affected 30909
Dist@@ 30900
Are 30893
endes 30888
possi@@ 30886
Mar 30881
ände 30880
hang 30875
brown 30873
walls 30867
Franz 30867
PP 30866
Afrika 30859
gezeigt 30852
oriz@@ 30851
Fr@@ 30851
els@@ 30849
Marke 30844
presentation 30840
Dresden 30831
spaces 30828
MH@@ 30819
respective 30819
bequ@@ 30814
iel 30813
einfache 30810
learning 30806
exhi@@ 30800
prior 30793
allgemeinen 30789
Obje@@ 30788
stets 30785
benutzt 30783
jan 30778
tioned 30769
Milliarden 30753
Interessen 30752
zahlung 30751
acts 30751
Fahrer 30750
rolled 30748
versteckt 30738
verlassen 30736
20,@@ 30736
wu@@ 30731
fini@@ 30721
Portal 30718
hoher 30713
Anschluss 30709
relation 30709
Budd@@ 30704
Diag@@ 30702
angel@@ 30699
.08.@@ 30694
Parti@@ 30691
starke 30685
graphi@@ 30676
Galaxy 30668
Contin@@ 30666
Austin 30665
Table 30655
SG 30654
ran 30640
tate 30639
actual 30635
Dazu 30634
zel@@ 30628
Verwaltungs@@ 30627
Logo 30620
stabili@@ 30619
chs@@ 30614
D. 30608
agu@@ 30605
Jer@@ 30602
depth 30592
Hot 30589
Part@@ 30581
angezeigt 30578
Arbeit@@ 30575
title 30572
activ@@ 30570
ersch@@ 30565
Dre@@ 30558
tigungs@@ 30546
hinter@@ 30543
ktive 30538
67@@ 30532
client 30520
Auth@@ 30515
aqu@@ 30508
diejenigen 30507
Cl@@ 30500
Style 30500
Schlaf@@ 30498
figures 30498
Plattform 30493
Display 30485
Industrial 30485
organic 30481
Chemi@@ 30479
sicheren 30476
Bosch 30476
schn@@ 30467
ong@@ 30463
democratic 30460
Sn@@ 30457
sigkeit 30447
Obwohl 30437
Wissenschaft 30437
Kapitel 30436
Mig@@ 30432
coast 30431
multiple 30431
experienced 30427
üb@@ 30423
wörter 30421
George 30419
trägen 30416
Batter@@ 30411
dan 30410
Funk@@ 30402
angeb@@ 30400
Disp@@ 30391
günstig@@ 30365
schli@@ 30350
consumer 30345
schools 30345
copy 30343
eta 30340
Solar@@ 30340
Cul@@ 30340
gent@@ 30339
difference 30338
29. 30336
jer@@ 30329
ith 30325
bie 30324
Bett 30322
availability 30319
Space 30317
patent 30313
richtung 30311
Kas@@ 30307
äs@@ 30306
ü 30301
Sicht 30291
Ds 30291
poor 30287
Bahn 30285
ells 30283
Christi@@ 30282
Opti@@ 30277
maxim@@ 30269
Bay 30266
esi@@ 30265
Entwick@@ 30262
hervorra@@ 30261
deals 30259
virtu@@ 30256
deb@@ 30255
Filme 30248
castle 30244
po 30237
consumers 30233
18.@@ 30224
May@@ 30224
baby 30223
240 30206
xi 30206
Maxim@@ 30204
lern 30178
Strom 30173
Keine 30169
Koch@@ 30169
strength@@ 30169
alism 30163
amt 30162
Class 30162
lier 30156
fing 30153
festival 30153
Worte 30151
Small 30151
scape 30149
Cru@@ 30148
Assi@@ 30145
aden 30145
läu@@ 30143
Basketball 30142
trags 30141
Lor@@ 30124
origin@@ 30121
19.@@ 30114
owner 30109
smus 30106
challenge 30103
üh@@ 30100
Beau@@ 30091
Kam@@ 30091
geschichte 30089
ulate 30086
Freude 30078
Feld 30077
shoes 30077
Academy 30075
Einrichtung 30074
gla@@ 30061
kun@@ 30061
wenigen 30058
tea 30057
pic@@ 30057
bezüglich 30055
manner 30049
Architektur 30044
Network 30042
Sound 30040
ema 30031
statement 30025
t.@@ 30020
fee 30016
decor@@ 30009
Steu@@ 30007
uttle 29997
essed 29991
Route 29988
loaded 29980
ost@@ 29974
handel 29967
Verpack@@ 29965
Stahl 29962
hou 29956
170 29954
klasse 29951
Ari@@ 29943
schauen 29942
Brazil 29939
Veranstaltung 29937
DF@@ 29935
optimal 29931
reliable 29926
Verbraucher 29920
experim@@ 29920
Vielzahl 29915
toilet 29914
evol@@ 29912
ened 29912
zuver@@ 29908
Irland 29908
rufen 29890
HS 29890
Anspruch 29872
lor@@ 29872
Every 29869
tattoo 29867
removed 29858
stärker 29852
pleasant 29851
effort 29850
deck@@ 29846
audi@@ 29845
winds 29842
Wild@@ 29840
bottom 29838
ax 29835
Cour@@ 29834
Rund@@ 29827
operate 29819
Viel@@ 29817
accessories 29810
feu@@ 29794
quarter 29790
Bonn 29788
papers 29788
Mik@@ 29785
Palace 29781
courses 29777
Mich@@ 29772
swe@@ 29769
Grün@@ 29764
Maß@@ 29764
mittels 29760
Wissen@@ 29755
identi@@ 29754
luxury 29753
pot@@ 29752
zeichnung 29749
belon@@ 29749
ā@@ 29744
contribute 29743
Wohl@@ 29741
anced 29735
Esp@@ 29734
equal 29734
kommunik@@ 29731
tschech@@ 29730
interior 29730
Colombia 29729
fuel 29718
passed 29707
Nummer 29702
recommend 29695
ended 29692
Eltern 29691
billi@@ 29689
deposit 29685
Kanada 29677
17.@@ 29677
haften 29670
heavy 29668
◄ 29665
figure 29662
flight 29662
id@@ 29661
dic 29661
Metal 29661
kannst 29648
vent@@ 29647
indeed 29646
leidung 29644
itable 29642
wahrscheinlich 29637
Lux@@ 29628
Famili@@ 29626
schützen 29619
discover 29615
Renn@@ 29614
haft 29602
sche@@ 29601
benötigt 29601
Before 29596
es.com 29595
Gesetz@@ 29593
AND@@ 29592
Gemeinschafts@@ 29587
festen 29587
uation 29587
Angaben 29578
sn@@ 29566
forder@@ 29565
versions 29564
aro@@ 29563
write 29558
upper 29554
steh@@ 29543
ERN 29539
useful 29532
jeans 29529
ection 29517
wirkt 29510
Kaffee 29507
Girl 29499
claim 29495
resistance 29490
&apos;ll 29490
Halle 29482
sequ@@ 29480
sige 29478
purposes 29468
engen 29458
Aufnahme 29450
I. 29448
Kolumbien 29443
tiv 29438
schar@@ 29432
sierte 29423
Unternehmens 29422
Dänemark 29416
skills 29413
leaders 29410
disc@@ 29400
organization 29399
bliothek 29397
Gesell@@ 29387
Besu@@ 29384
Sin@@ 29384
.07.@@ 29377
manufacturing 29368
ternal 29367
owners 29357
Tschech@@ 29355
Rights 29352
Pel@@ 29345
kan 29343
elt@@ 29329
anderes 29328
exc@@ 29323
Van 29323
Latin 29316
L. 29312
Dienst 29304
überra@@ 29304
kurs 29297
geschaffen 29295
African 29295
Schla@@ 29292
amerikanischen 29292
Großbritannien 29285
Tätigkeit 29280
duced 29279
dere 29276
Age 29276
Moreover 29273
Inn 29266
Anpass@@ 29264
Anzeige 29260
therapy 29259
89@@ 29258
FT 29256
sized 29254
terung 29253
Schloss 29226
walking 29223
P. 29222
heutigen 29220
von@@ 29219
fren@@ 29214
bridge 29207
stim@@ 29199
cles 29193
16,@@ 29190
electricity 29187
tätig 29180
tend 29177
Distri@@ 29172
Nav@@ 29172
Once 29169
achten 29166
jene 29161
Nachdem 29160
Anti 29158
schul@@ 29158
unknown 29150
tischer 29147
regulations 29146
11,@@ 29129
Unternehmens@@ 29128
vely 29122
suche 29121
angebote 29119
Apple 29117
Meer@@ 29115
sofa 29111
BM@@ 29095
Notwendigkeit 29094
sold 29094
Der@@ 29089
begin 29083
bot@@ 29078
BP 29070
Sekunden 29057
bilität 29054
fran@@ 29050
PR 29050
wick@@ 29049
Stell@@ 29011
Bedien@@ 29010
taxi 29009
Ball@@ 29002
Autor 29002
husband 29002
association 28998
beträgt 28991
wheel 28990
zel 28986
loses 28982
misch 28976
Justice 28946
2,5 28945
Var@@ 28943
José 28940
pped 28937
17,@@ 28936
formed 28933
Straßen@@ 28930
names 28924
Leg@@ 28922
contro@@ 28919
Report 28915
fly 28914
versucht 28912
DR 28911
Flüge 28910
möglicherweise 28909
intended 28908
zuvor 28906
blich 28905
Tat@@ 28904
Gründen 28903
Band@@ 28898
colours 28888
elev@@ 28881
gan 28878
facili@@ 28874
takti@@ 28871
denke 28853
osla@@ 28850
implemented 28847
day@@ 28846
Society 28845
Gold@@ 28839
Cit@@ 28836
erhöhen 28834
oli 28833
farbe 28832
hafte 28831
sprach@@ 28827
factory 28812
criteria 28812
schi 28808
inische 28805
Schri@@ 28805
Chal@@ 28805
punkte 28803
favour 28800
heraus 28799
submitted 28791
ambi@@ 28787
erforder@@ 28777
Gab@@ 28776
elten 28772
Rose 28770
Hung@@ 28756
cool@@ 28756
Alte 28755
ket 28754
signal 28750
ertes 28747
31. 28746
tzu@@ 28742
gnisse 28738
eff@@ 28737
administration 28737
eigentlich 28736
lediglich 28732
Haf@@ 28730
ritten 28725
mul@@ 28723
ul 28723
gemein@@ 28714
schau@@ 28705
organisations 28699
Richard 28696
Comple@@ 28696
draw 28694
tari@@ 28690
Zentral@@ 28683
sectors 28678
dering 28673
Schlag@@ 28660
marked 28658
weak 28649
Wä@@ 28647
Get 28645
Free@@ 28645
alists 28645
holidays 28644
bessere 28642
utili@@ 28636
sitzen 28633
journey 28633
gentle@@ 28633
freun@@ 28627
ständigen 28624
onieren 28622
PRE@@ 28606
Hoh@@ 28602
Vide@@ 28601
sole 28597
camp 28596
iell 28586
Waren 28584
Aufbau 28583
solar 28578
stehenden 28568
Eastern 28568
Lehr@@ 28566
simul@@ 28555
beitragen 28552
heraus@@ 28545
Anbieter 28544
Electric 28539
listed 28532
vas 28530
parents 28529
lichem 28518
fonds 28517
Punkten 28509
Fund 28507
Treffen 28504
frag@@ 28499
Ideen 28497
Contro@@ 28489
verpflichtet 28489
Schweizer 28483
planned 28476
ail 28471
Good 28470
Option 28468
fications 28467
female 28466
welle 28464
hervor@@ 28449
spezielle 28447
Wes@@ 28442
kos@@ 28441
aya 28439
prof@@ 28436
expres@@ 28433
strategic 28431
dynamic 28431
grat@@ 28430
mäßig 28424
cla@@ 28422
developments 28419
offices 28415
produc@@ 28404
kel@@ 28402
Zie@@ 28398
evi@@ 28392
gerungen 28384
presents 28382
Leder 28376
Zahlen 28374
chemical 28369
führenden 28367
orange 28364
rom 28364
großes 28361
Staat 28360
Tak@@ 28353
ario 28352
eral 28351
wards 28351
internation@@ 28348
Steuern 28344
30. 28338
kit@@ 28336
Temper@@ 28325
ital 28324
hear 28323
tiven 28322
tically 28322
dation 28321
else 28320
Standards 28319
nischen 28318
Recht@@ 28309
index 28309
distinc@@ 28299
friend 28291
Weihnachten 28284
ordin@@ 28279
manager 28275
fach 28273
sau@@ 28267
leider 28263
iPhone 28262
heels 28262
east 28261
199@@ 28254
financing 28246
Papier 28232
linge 28229
fill 28227
seeing 28226
geladen 28223
violence 28223
Tickets 28221
fir@@ 28219
13,@@ 28191
IM 28191
accepted 28190
inte@@ 28186
ktes 28185
kran@@ 28182
benutzen 28180
Ungarn 28177
clock 28174
Einheit 28171
stellungs@@ 28169
abroad 28164
onto 28163
Opfer 28161
op 28156
Spring 28156
mac@@ 28154
legi@@ 28150
Maschine 28144
Morning 28143
lungs@@ 28141
contemporary 28137
desig@@ 28137
Mobil@@ 28132
digitalen 28119
Geld@@ 28114
pen 28109
riffen 28108
Gebrau@@ 28106
measure 28102
bestimm@@ 28100
seri@@ 28100
Mieten 28097
otherwise 28097
überhaupt 28094
establish 28094
Hall@@ 28093
Meinungen 28088
networks 28085
dene 28080
committed 28067
Rest@@ 28062
vi 28061
Tren@@ 28057
real@@ 28057
IO@@ 28050
attractive 28047
claims 28043
permanent 28035
hn@@ 28027
wait 28026
natürlichen 28021
Domin@@ 28021
Autos 28018
perhaps 28018
tief@@ 28017
manufacturer 28016
ited 28012
pure 28004
E.@@ 27994
Ner@@ 27991
Raum@@ 27990
testing 27989
Set@@ 27988
mü@@ 27988
pel@@ 27987
DM 27978
Parteien 27977
manufacturers 27976
tioning 27973
pet@@ 27956
Tourismus 27949
rin@@ 27944
Sün@@ 27930
kle@@ 27923
Ford 27920
ousness 27913
conduc@@ 27912
panel 27909
cast@@ 27908
big@@ 27902
ère 27901
biggest 27896
jection 27895
lia 27886
750 27882
ons@@ 27879
funktioniert 27878
vielfäl@@ 27878
letter 27877
Rico 27875
Advent@@ 27872
described 27871
follows 27865
Berei@@ 27861
Tele@@ 27860
alien 27856
finished 27854
Beratung 27852
atten@@ 27845
isches 27824
frage 27824
schlag@@ 27820
erstellen 27817
hydr@@ 27817
Tisch 27813
gift 27809
Lon@@ 27804
zahl@@ 27803
menschlichen 27802
secu@@ 27796
ester@@ 27793
Finally 27793
gain 27791
ourselves 27791
aktu@@ 27790
Natural 27790
für@@ 27784
Entscheidungen 27784
Son 27774
außer 27771
concern 27762
iser 27757
extrem 27755
lang@@ 27745
Funktion@@ 27744
looks 27741
Beschäftigung 27741
Take 27739
set@@ 27736
Simp@@ 27734
teilweise 27731
limit 27720
Jordan 27717
teren 27713
refer@@ 27709
extent 27709
Bit@@ 27708
dienst@@ 27704
kept 27704
± 27703
steigen 27701
soul 27701
Lear@@ 27700
fire@@ 27699
Stefan 27698
tain 27689
Past@@ 27675
23. 27670
Seele 27666
Abenteuer 27666
KA 27665
sü@@ 27663
Art. 27657
verän@@ 27650
Korea 27642
nish 27617
Aussch@@ 27616
Büro 27608
bist 27608
Tages 27605
kali@@ 27601
ami 27600
critical 27596
IL 27596
Eri@@ 27591
hydro@@ 27591
onien 27590
Experten 27588
vertheless 27587
covers 27579
extended 27576
onik 27576
oven 27572
instance 27554
ank@@ 27538
meaning 27533
verring@@ 27525
HL 27522
Pierre 27521
thousand 27514
spend 27512
wat@@ 27507
spread 27507
bereit@@ 27506
Mary 27496
bilder 27489
num@@ 27487
aku@@ 27487
ius 27487
Pictures 27480
trotz 27474
stations 27471
Stock@@ 27469
Schön@@ 27469
beachten 27465
Days 27463
leistungen 27462
Marketing 27459
railway 27459
BS@@ 27457
gebung 27456
greg@@ 27456
Feh@@ 27447
Elektr@@ 27446
sible 27440
satz@@ 27440
existence 27438
behandelt 27430
tau@@ 27429
Verhältnis 27428
spec@@ 27426
psych@@ 27420
tasks 27414
conflict 27414
ja@@ 27413
fair@@ 27411
ebs@@ 27409
1988 27407
free@@ 27402
tered 27401
trä@@ 27398
Workshop 27398
Inte@@ 27393
druck@@ 27390
Second 27389
W. 27385
Kontakt@@ 27383
shared 27380
Netz 27377
occasion 27377
mic@@ 27377
schten 27372
Hälfte 27370
zip 27366
vorher@@ 27363
dam@@ 27363
preparation 27363
smaller 27351
chosen 27345
prüfen 27339
Spaß 27339
Romania 27337
was@@ 27336
verz@@ 27331
represents 27330
iron 27326
Jahres@@ 27324
Richt@@ 27323
grey 27317
altern@@ 27315
ula 27304
heits@@ 27302
Kredit@@ 27295
managed 27289
yes 27283
Methode 27282
MC 27277
Sem@@ 27273
angeneh@@ 27273
Mitteilung 27273
Kauf@@ 27271
drawn 27271
rest@@ 27266
linked 27264
stände 27262
Partner@@ 27258
ossen 27256
gens 27256
domin@@ 27255
fan@@ 27244
seg@@ 27241
19,@@ 27237
Präsidenten 27232
Both 27225
elim@@ 27220
CS@@ 27210
tourism 27210
driving 27208
sions@@ 27207
Kenntnis 27204
zy 27201
entstehen 27196
linder 27196
Brand@@ 27190
seconds 27185
lah 27184
gic 27176
zahl 27170
sus 27164
ergän@@ 27163
Australien 27163
Hannover 27159
Große 27157
gene@@ 27156
express 27152
tionary 27149
Avi@@ 27143
bestätigt 27127
Dire@@ 27117
Pension 27113
individuell 27112
unterschiedliche 27106
800@@ 27101
demands 27100
istischen 27093
renew@@ 27082
stitu@@ 27080
Texte 27076
exklu@@ 27061
bun@@ 27058
Ausland 27057
whe@@ 27056
Übernach@@ 27054
erleben 27050
Proper@@ 27030
Morgen 27029
chi 27027
lots 27027
Long 27013
graphie 27013
tries 27010
Kreuz@@ 27007
danach 27002
umps 27001
fällt 26999
outstanding 26984
Standort 26983
produkte 26976
Abstimmung 26974
erhält 26966
mp 26965
wider 26960
preser@@ 26960
grundle@@ 26955
verbessert 26948
103 26945
iled 26932
changing 26929
102 26925
Oberfläche 26924
forum 26924
lan 26923
gerich@@ 26914
eten 26912
1945 26911
Abschluss 26911
entdecken 26905
Kurz@@ 26903
Cath@@ 26903
Reh@@ 26897
bag 26894
staat 26893
mine 26891
successfully 26891
Flach@@ 26887
Sty@@ 26873
Os@@ 26871
verhindern 26868
Rest 26862
Anteil 26860
musi@@ 26859
businesses 26852
Gallery 26849
Aspekte 26847
Zahn@@ 26846
Wo 26845
bars 26842
ference 26841
bol@@ 26840
gnis 26828
zusätzlich 26827
boden 26822
Ägypten 26822
Bekämpfung 26819
geld 26818
gigen 26808
Human 26803
continues 26795
alu@@ 26789
entered 26789
Miner@@ 26781
hre 26776
Fläche 26773
Sitz 26770
lebens@@ 26770
annten 26769
Metall@@ 26767
größere 26761
uten@@ 26757
Zusätzlich 26750
profit 26748
Dub@@ 26745
Zudem 26744
entscheiden 26742
s. 26742
differ@@ 26739
rose 26735
thor@@ 26730
schla@@ 26729
änder 26725
Proje@@ 26723
dach@@ 26719
Opel 26718
rubber 26702
absor@@ 26693
ander 26691
abe 26690
wild 26689
Status 26687
Hör@@ 26685
seat 26684
eria 26669
laws 26662
telef@@ 26660
Ed@@ 26657
Herbst 26650
äußerst 26645
Solar 26639
Kontin@@ 26636
caught 26636
itor 26633
surrounding 26632
Georg 26631
Kath@@ 26629
erhöht 26620
orienti@@ 26616
gemü@@ 26602
drawing 26597
Mechan@@ 26591
ject 26590
Stellen 26589
transportation 26587
eight 26586
Förder@@ 26583
quet 26582
Sul@@ 26580
eure 26575
alised 26573
beaches 26572
hibi@@ 26567
icial 26565
ZE@@ 26563
fälle 26558
Jeder 26557
Wald@@ 26551
Direct 26550
ple 26544
lam@@ 26534
Dienste 26519
Konstru@@ 26518
performed 26510
fitness 26506
bö@@ 26496
osa 26495
ohn@@ 26484
Under@@ 26483
straight 26479
Kru@@ 26476
Pay@@ 26471
Has@@ 26469
ă@@ 26468
trust 26467
emissions 26467
starken 26462
Zweck 26456
Eigent@@ 26455
Revolution 26453
Grenz@@ 26443
pas@@ 26439
Event 26435
app 26431
nami@@ 26428
210 26427
Eingang 26423
Einfluss 26421
Him@@ 26418
Beim 26410
Spin@@ 26401
kids 26400
dent 26392
Walter 26386
oning 26384
ladies 26379
Lebensmittel@@ 26372
Posi@@ 26364
likely 26363
Meeres@@ 26357
Symp@@ 26356
dritten 26351
BE 26347
puts 26344
tit@@ 26338
135 26335
lip@@ 26332
tierung 26329
nten 26329
buted 26323
appears 26322
Phili@@ 26320
tagen 26314
lift 26314
wil@@ 26306
fashion 26303
bor 26303
Tech 26300
loser 26297
icious 26297
stress 26296
tis@@ 26293
horn 26292
significantly 26261
handle 26260
deri@@ 26260
ness@@ 26254
Simon 26245
ktions@@ 26227
Video@@ 26221
History 26219
Ü 26218
flowers 26217
Cin@@ 26215
lay@@ 26213
Regierungen 26213
NA 26212
grün 26212
mech@@ 26207
wels 26205
Finanzierung 26200
Gü@@ 26199
sonst 26196
ram 26191
Berliner 26190
database 26185
Gall@@ 26176
determined 26173
maintain 26166
Amp@@ 26165
Panama 26165
wäl@@ 26162
bezieh@@ 26159
exce@@ 26159
decide 26157
ließ 26150
nearly 26145
sin@@ 26143
Vielfalt 26128
orders 26128
tern@@ 26126
zeugen 26125
l. 26124
Strecke 26119
establi@@ 26107
contain 26106
Adv@@ 26105
Tus@@ 26101
felt 26097
Fox 26097
Racing 26095
parks 26090
cour@@ 26089
generally 26077
Who 26076
Gla@@ 26072
geeig@@ 26070
mand@@ 26070
Kompet@@ 26059
illu@@ 26058
Head 26052
gni@@ 26050
festi@@ 26050
healthy 26050
zeichnen 26046
vergleichen 26044
Vul@@ 26043
Gün@@ 26042
Individu@@ 26040
ungefähr 26035
mon 26032
Chile 26026
к@@ 26025
wand 26021
nuclear 26021
kommens 26020
glo@@ 26020
vergessen 26015
ole@@ 26015
visited 26014
eignet 26008
Catholic 26006
Vertrauen 26001
wrong 26001
error 25996
Effizi@@ 25995
Differ@@ 25994
expect 25992
warten 25991
recht@@ 25984
nearby 25983
vid 25982
appeal 25981
Valley 25979
Ze@@ 25976
ewi@@ 25967
Wür@@ 25967
ys@@ 25955
spunkt 25951
boards 25951
moved 25946
Swe@@ 25945
geschützt 25942
Tochter 25942
matters 25941
Under 25933
ache 25929
hea@@ 25929
accessible 25926
Brasilien 25922
tique 25921
м@@ 25921
admi@@ 25919
ow@@ 25918
missing 25918
stom 25908
equ@@ 25904
income 25903
Maschinen@@ 25901
geräu@@ 25894
Comm@@ 25894
cutting 25892
OK 25891
updated 25891
fear 25890
ysi@@ 25885
abili@@ 25883
Mir@@ 25883
Deli@@ 25881
Ministry 25878
Boot@@ 25874
cha@@ 25866
itä@@ 25864
Ny@@ 25860
tours 25860
Chor@@ 25858
session 25857
temporary 25851
exist 25849
Seiten@@ 25848
Armb@@ 25845
Ji@@ 25844
minister 25841
Lig@@ 25839
leiden 25838
spa@@ 25838
Liz@@ 25837
überall 25837
wahl 25830
öffnen 25829
teilung 25826
installiert 25820
Pflanzen 25820
115 25818
öff@@ 25816
nern 25816
eigen@@ 25813
bedarf 25813
dä@@ 25812
spot 25810
Environment 25802
Falle 25796
urban 25793
stück 25791
Zug 25790
bestehenden 25789
topic 25784
erend 25783
wünschen 25780
Anzeigen 25773
tan 25773
21.@@ 25771
sigen 25770
eat 25768
connec@@ 25767
jederzeit 25765
stechnik 25764
communications 25764
flights 25763
assung 25753
tun@@ 25752
Sci@@ 25752
tane@@ 25749
euros 25749
Muse@@ 25747
mem@@ 25747
sson 25746
Vertrags@@ 25734
Coun@@ 25734
raised 25733
Smart 25732
Nutzen 25729
pleased 25729
quick 25728
Sz@@ 25725
dick 25724
eil@@ 25717
assessment 25716
schafts@@ 25715
waiting 25713
angebot 25700
Fast 25694
returned 25690
tom 25682
Müller 25680
authority 25675
zentrale 25670
luxuri@@ 25663
she@@ 25650
miles 25645
anischer 25642
mobil@@ 25638
meist 25636
oria 25636
ile@@ 25632
Schönheit 25632
listen 25631
produziert 25629
erfahr@@ 25628
v. 25628
neither 25627
netz 25624
sektor 25618
sprech@@ 25616
das@@ 25613
viert 25594
discip@@ 25591
carbon 25589
Bä@@ 25585
Leiter 25585
Children 25583
glasses 25582
dents 25580
gefügt 25573
skinny 25573
Sein 25572
Hir@@ 25570
Tonnen 25570
counter@@ 25569
Fuß@@ 25566
yed 25564
gro 25560
wich@@ 25556
Saison 25551
appearance 25550
nachhal@@ 25537
birth 25532
author 25527
publi@@ 25526
character@@ 25526
miteinander 25525
partnership 25524
bal 25518
stones 25518
depending 25517
Inv@@ 25512
sparen 25503
join 25502
kö@@ 25499
Jung@@ 25497
Department 25496
Bern@@ 25495
Arts 25495
Sili@@ 25495
intensive 25494
alls 25493
.A. 25492
interpre@@ 25490
schwi@@ 25484
guaran@@ 25481
nationale 25480
ök@@ 25480
liefern 25479
männ@@ 25478
baut 25476
ria 25476
album 25470
leaves 25470
Education 25463
grün@@ 25460
Zwe@@ 25456
increasingly 25449
stau@@ 25446
2nd 25442
fühlen 25439
Präsidentin 25436
anien 25429
länge 25427
advertising 25427
ș@@ 25425
pack 25423
vermeiden 25420
entliche 25414
Methoden 25409
tili@@ 25409
represented 25409
dream 25405
shor@@ 25404
1200 25403
grounds 25395
ash 25395
rely 25387
körper@@ 25382
Lady 25380
kne@@ 25377
intel@@ 25349
Visi@@ 25346
unabhängig 25334
mail@@ 25334
governments 25331
moving 25323
Schne@@ 25321
mögliche 25317
addi@@ 25304
flug@@ 25300
ensu@@ 25300
deckung 25300
assembly 25300
factors 25297
Freie 25287
notice 25272
übertragen 25267
Vis@@ 25265
gespeich@@ 25264
Mitglied@@ 25263
pop@@ 25255
bottle 25252
scen@@ 25252
Tat 25244
Bak@@ 25242
sey 25240
ured 25239
xel 25237
Wall 25237
Over 25236
Wider@@ 25229
arin 25227
parallel 25225
dent@@ 25224
subsidi@@ 25224
Francisco 25220
ham 25220
eption 25220
a. 25214
Norden 25214
üch@@ 25214
FF@@ 25209
scope 25208
speaking 25206
Vorbereitung 25205
consequences 25204
beinhal@@ 25201
Young 25200
elem@@ 25192
Körper@@ 25187
Dach@@ 25184
yn 25178
Village 25178
320 25177
earlier 25171
Bulgaria 25168
Garten@@ 25164
pment 25161
früher 25158
wur@@ 25154
elek@@ 25153
anna 25152
л@@ 25152
Moz@@ 25148
urt 25145
Stabili@@ 25143
hoffe 25137
matic 25137
setzte 25135
Amerika 25130
Electron@@ 25130
diversity 25128
han@@ 25125
anni 25124
endlich 25121
Ruhe 25116
manu@@ 25114
funktion@@ 25113
26. 25112
üs@@ 25108
immer@@ 25106
Ansatz 25103
Catal@@ 25102
new@@ 25102
Maße 25100
Paket 25098
surrounded 25086
bewahr@@ 25082
Optionen 25076
spie@@ 25075
administrative 25059
Lun@@ 25058
Wär@@ 25058
mia 25058
Gedanken 25056
klein@@ 25048
mes@@ 25046
Schie@@ 25046
fein@@ 25043
Harmon@@ 25042
super 25034
entsprechende 25033
feeling 25033
esa 25032
harm@@ 25028
Botschaft 25020
vent 25019
loc@@ 25019
Ves@@ 25010
sprü@@ 25009
egi@@ 25006
Oc@@ 25000
yoga 25000
Küste 24997
corporate 24996
strö@@ 24992
echn@@ 24989
ban 24989
absolute 24987
Instrumente 24985
circumstances 24983
voc@@ 24981
wise 24980
Fund@@ 24979
Direkt@@ 24978
Eur@@ 24976
Love 24975
Verlag 24974
Jugend@@ 24956
Another 24945
perfekt 24941
Internationale 24940
unds 24940
stel 24938
Wach@@ 24933
Veränderungen 24932
antrag 24931
ems 24927
Kurs 24926
exercise 24926
EA 24919
broad 24919
erscheint 24904
G. 24903
alia 24901
Universal 24900
enni@@ 24898
Tour@@ 24897
möglichen 24895
starts 24884
Wet@@ 24883
extreme 24880
ktoren 24878
scene 24878
Il@@ 24872
stattung 24869
Augen@@ 24868
hen@@ 24866
Kä@@ 24863
appen 24861
introduction 24861
Cuba 24861
wechsel 24855
compar@@ 24854
Debatte 24851
monum@@ 24849
weib@@ 24848
Luxemburg 24845
Auftrag 24844
jec@@ 24844
Flug 24840
reserved 24838
CEO 24833
easier 24831
Glauben 24830
geni@@ 24826
Blut@@ 24824
award 24819
Kie@@ 24817
ings@@ 24816
zählen 24816
unterschie@@ 24812
dead 24812
Dam@@ 24810
Teilen 24808
Black@@ 24807
forced 24801
od 24799
Aussicht 24795
Bedro@@ 24793
Medien@@ 24792
Lom@@ 24789
bern 24784
ager 24782
Taxi 24782
Marken 24779
monitor 24776
utter@@ 24770
laid 24767
Cav@@ 24763
Make 24763
texts 24760
akers 24758
firm 24753
Programms 24751
mieren 24749
sexu@@ 24736
Geschmack 24732
renov@@ 24730
cians 24728
participate 24727
PM@@ 24725
Schwan@@ 24723
schuss 24723
staaten 24721
lierung 24718
hub 24716
zunehmen 24715
sorgt 24713
despite 24707
stin 24704
ray 24697
Archiv 24696
named 24693
zurückzu@@ 24691
1980 24689
Temperatur 24687
windows 24684
Burg 24683
asp@@ 24680
samen 24679
tested 24676
tennis 24675
ktiven 24668
Alber@@ 24668
dates 24661
Roma 24657
Jewish 24647
diges 24641
thinking 24641
scht 24637
Sing@@ 24637
library 24636
sili@@ 24634
meetings 24632
alisi@@ 24628
Ide@@ 24628
übernehmen 24615
register 24609
aum 24604
implement 24602
Prophe@@ 24594
See@@ 24594
surro@@ 24592
jährlich 24584
Dutch 24582
aims 24579
aga 24578
nations 24574
funk@@ 24568
sport@@ 24566
onal@@ 24565
vis 24559
SN@@ 24558
flower 24557
roll 24557
mün@@ 24556
öh@@ 24551
films 24551
Bremen 24550
manchmal 24547
hood 24546
compare 24543
integr@@ 24534
‑ 24528
FA 24527
Konz@@ 24526
carto@@ 24524
fr@@ 24523
besitzt 24519
ms@@ 24519
ori 24518
dlicher 24516
ults 24509
arms 24505
650 24501
Hinweis 24500
Fig@@ 24500
justice 24500
äm@@ 24494
tron@@ 24494
globalen 24491
eröffnet 24477
rei 24476
inations 24476
Sach@@ 24474
ump 24469
Louis 24467
ques 24464
Lissabon 24459
hilft 24458
Feu@@ 24456
schir@@ 24453
Kosovo 24452
discussed 24449
Geist@@ 24447
hätten 24445
arab@@ 24444
bought 24443
ney 24432
tierten 24431
Natürlich 24424
aben 24419
granted 24409
thu@@ 24408
wedding 24407
paint 24402
dog 24392
Polish 24391
election 24389
them@@ 24388
factor 24382
22.@@ 24378
farben 24375
Dokumente 24374
Verkauf@@ 24373
ential 24370
gehöri@@ 24368
advice 24367
Neues 24364
zw@@ 24363
Equi@@ 24359
eigenes 24353
organis@@ 24352
Profil 24343
Hat 24329
represent 24316
treated 24305
lived 24305
.02.@@ 24296
Vereinbarung 24293
Schle@@ 24292
hi 24291
reception 24289
cru@@ 24288
feed 24288
missionen 24285
verwal@@ 24283
kts 24276
lieben 24276
erklärte 24272
mostly 24269
Pad@@ 24263
bte 24262
Bemühungen 24261
rear 24260
homes 24256
evalu@@ 24255
layer 24254
virus 24254
supporting 24252
Earth 24251
Turkish 24251
handling 24248
trying 24247
liebe 24234
Pom@@ 24234
lion 24234
leidet 24229
wooden 24224
Mexiko 24221
Forsch@@ 24220
106 24219
deliver 24219
rein 24216
fun@@ 24208
Neben@@ 24205
Untersuchung 24205
mehr@@ 24201
aboli@@ 24199
brings 24193
Hoffnung 24183
competitive 24175
Nations 24169
establishment 24167
organized 24166
1985 24165
zieht 24162
regar@@ 24162
Rich@@ 24159
abilities 24153
Culture 24152
atori@@ 24148
Gir@@ 24147
lem 24144
beziehen 24143
mente 24143
draft 24141
Identi@@ 24140
bewusst 24134
Wahl@@ 24134
redu@@ 24129
üchtig 24129
cture 24129
Infrastruktur 24122
Menschen@@ 24122
creative 24122
ano@@ 24121
schwan@@ 24117
Internationalen 24115
Tabelle 24109
ł@@ 24109
aw@@ 24108
Wechsel@@ 24104
F. 24103
regelmäßig 24102
Arena 24101
dishes 24101
cial 24098
ves@@ 24098
Schwimmb@@ 24094
éri@@ 24081
with@@ 24079
nutz@@ 24075
kinds 24075
zeichnete 24072
calcul@@ 24063
Well 24062
bow 24059
restri@@ 24059
California 24054
berühmten 24053
dor 24052
verloren 24052
hum@@ 24051
splatz 24049
concert 24049
überprüfen 24048
fr 24048
gelt 24046
Fähigkeit 24046
Augu@@ 24046
Rennen 24045
Gay 24045
Å 24043
schwei@@ 24042
docum@@ 24037
Kauf 24031
Sinn 24019
nachhaltige 24018
Lad@@ 24013
solid 24003
turing 23995
Ay@@ 23992
tlicher 23992
stel@@ 23991
kulturellen 23991
spannen 23989
Stro@@ 23989
AB 23989
beu@@ 23989
bewegen 23984
president 23978
Bücher 23977
xer 23974
lösung 23972
Three 23969
bst@@ 23967
gehalten 23958
fern@@ 23953
ika 23950
holen 23945
command 23940
bildet 23939
Mehrheit 23938
DU@@ 23937
cook@@ 23932
spent 23927
abgeschlossen 23925
guard 23923
inch 23923
Süden 23921
ahead 23918
western 23915
ARD 23914
Dublin 23909
edback 23905
Bik@@ 23904
Orchest@@ 23901
circu@@ 23898
dest 23897
Chance 23894
Shanghai 23894
Trop@@ 23892
Cruz 23892
unk 23892
endung 23888
Moscow 23880
Entwicklungen 23873
custo@@ 23868
Antworten 23862
Nie@@ 23849
evidence 23849
platten 23839
GS 23839
Diskussion 23837
gänge 23836
U.S. 23836
identifi@@ 23835
Sant@@ 23833
1987 23829
remote 23825
corner 23820
Grenze 23819
Aktion@@ 23806
strengthen 23806
geschoss 23802
mel 23800
foundation 23798
pfen 23792
1984 23789
sprachen 23781
ott 23777
cep@@ 23775
hoben 23773
Finan@@ 23769
Berge 23768
proce@@ 23768
step@@ 23768
enheit 23765
Kopf@@ 23762
helps 23759
veget@@ 23758
ather 23758
Spitze 23757
Dokument 23755
spru@@ 23752
Ausschuss 23750
entlich 23749
Lok@@ 23740
weiterer 23731
Trau@@ 23731
lish 23729
evil 23729
gelangen 23728
match 23723
ati 23722
myself 23721
seller 23719
Umfang 23717
Num@@ 23713
usi@@ 23712
stated 23710
Gy@@ 23707
pretation 23705
bild@@ 23701
diger 23700
führungen 23699
reicht 23698
Stich@@ 23696
except 23696
Agency 23693
entwickelten 23688
launched 23685
Allerdings 23683
insu@@ 23682
Modell@@ 23680
oo 23678
rie 23674
vals 23672
Priester 23671
ports 23668
ungsh@@ 23667
stech@@ 23667
II. 23666
nd 23663
Klaus 23663
gg 23660
Mission 23658
breiten 23656
Bedürfnisse 23650
traditionellen 23649
Anhänger 23648
kraft@@ 23647
veri@@ 23647
Zimmern 23645
Welche 23640
committee 23640
comment 23635
Brenn@@ 23622
unterstütz@@ 23619
surprise 23609
erzielt 23599
Gegend 23597
recei@@ 23597
ison 23594
kings 23589
Bible 23584
arm 23583
organisiert 23581
stehend 23580
Rumänien 23578
Paar 23576
einhei@@ 23573
zia 23570
ierten 23565
Hauptstadt 23564
ökono@@ 23564
appe 23561
124@@ 23559
1500 23556
garten 23556
104 23555
gewün@@ 23550
Schmuck 23549
Cau@@ 23542
orie 23540
strate@@ 23534
IG 23533
facing 23529
bright 23528
switch 23521
Krist@@ 23519
Firmen 23514
garantiert 23494
desire 23493
meines 23489
Dien@@ 23485
1968 23485
französischen 23484
mie@@ 23481
remember 23478
tech 23477
Planung 23474
Estate 23472
hör@@ 23471
ras@@ 23466
begrüßt 23466
Ah@@ 23465
klang 23460
aj@@ 23457
lated 23454
angemessen@@ 23452
expression 23451
runs 23449
navig@@ 23449
gewi@@ 23446
adults 23443
beschlossen 23440
Nature 23438
expressed 23437
agency 23426
mixed 23421
informieren 23418
Führung 23418
hilfen 23415
Inten@@ 23405
Her 23403
VB 23398
Publik@@ 23398
department 23398
zuletzt 23397
gerecht 23395
fix 23395
langfri@@ 23395
preis@@ 23389
Like 23388
dyna@@ 23387
Engagement 23387
mary 23387
Patri@@ 23384
string 23380
Tal 23377
Gestaltung 23377
simpli@@ 23373
atoren 23368
irts 23365
atischen 23357
boats 23353
eland 23352
tail 23347
iness 23347
cus 23345
damals 23344
otte 23343
house@@ 23339
collaboration 23336
acqu@@ 23333
bra 23332
Charakter 23327
Aktion 23326
bec@@ 23324
wechsel@@ 23317
Don 23311
Herausforderung 23309
solidar@@ 23307
gui@@ 23306
atem@@ 23296
lei 23288
Men 23286
tori@@ 23282
dden 23282
Snow 23280
tragung 23279
Financial 23276
grow 23273
label 23269
proceedings 23265
recorded 23265
stellten 23264
fak@@ 23261
Deck@@ 23258
zuerst 23253
verfüg@@ 23252
Ai@@ 23252
Modern 23249
thetic 23249
älter 23247
URL 23245
artistic 23241
jects 23239
Ev@@ 23237
seeking 23234
Roman@@ 23231
Reform 23230
AF 23225
BB@@ 23220
closely 23213
issued 23213
tia 23211
digt 23204
inability 23202
inquiry 23202
specifically 23201
Form@@ 23196
ld@@ 23196
urn@@ 23195
hibition 23194
alter@@ 23192
count 23189
SV 23186
sexy 23186
pflan@@ 23179
aup@@ 23177
É@@ 23173
relating 23172
Their 23170
Or 23166
garan@@ 23163
Kommission@@ 23157
connections 23152
titude 23148
TU@@ 23147
Hö@@ 23142
hausen 23138
Leitung 23135
vermie@@ 23131
Gepä@@ 23130
belong 23127
heit@@ 23125
† 23125
Vice 23124
dienste 23123
Schau@@ 23122
tigte 23120
Sav@@ 23119
ktur 23119
Secretary 23118
constantly 23117
constant 23116
stisch 23113
orn 23108
Mountain 23108
Immobili@@ 23108
frequently 23106
influ@@ 23099
Spar@@ 23098
Drive 23096
Intel 23093
entschieden 23092
drink 23092
decre@@ 23091
Kun@@ 23090
vieles 23085
Gemälde 23083
sin 23083
zog 23081
bekannten 23079
becoming 23073
woh@@ 23071
weiteres 23068
Bla@@ 23064
eni@@ 23063
channels 23062
Master@@ 23053
raw 23052
enhagen 23046
Protection 23046
mers 23045
UK@@ 23044
etta 23041
Ordnung 23036
essor 23027
Südafrika 23021
Golden 23021
edral 23021
HS@@ 23020
schte 23019
kissing 23019
Corpor@@ 23018
head@@ 23018
brary 23011
Holland 23011
jemand 23009
Niveau 23003
thin 23002
Liter 22999
truly 22998
elections 22993
relax 22991
ICE 22986
Schlei@@ 22979
Nein 22977
perfectly 22977
drop 22976
ancy 22973
television 22973
höchste 22972
einzigen 22970
gü@@ 22965
applies 22963
geändert 22960
Tee 22958
halte 22957
ticket 22955
ulen 22954
sand 22951
sorg@@ 22950
Exper@@ 22942
Further 22939
export 22938
Schiff@@ 22936
hauptsächlich 22923
sculp@@ 22919
tons 22917
keiten 22915
Verb@@ 22914
berücksichtigt 22911
initial 22910
HR@@ 22904
Partnerschaft 22904
empf@@ 22903
dges 22903
higen 22898
packages 22898
betro@@ 22896
yment 22895
amerika 22878
avi@@ 22874
rechnen 22873
Golf@@ 22872
Foto@@ 22869
gewöhn@@ 22869
susta@@ 22866
ords 22863
schließt 22862
Fashion 22860
recovery 22858
Building 22857
dol@@ 22856
festgelegt 22855
zumindest 22848
Ankunft 22846
fers 22846
persönliche 22845
zeigte 22842
ý 22842
aktive 22840
1973 22839
Jap@@ 22838
Clo@@ 22836
aster 22834
27. 22833
initiatives 22831
Benz 22829
Quad@@ 22828
rank 22827
ix 22826
southern 22825
Bedarf 22823
derten 22823
verstanden 22821
inger@@ 22820
Wich@@ 22819
improvement 22818
Arch@@ 22817
Gil@@ 22812
zip@@ 22812
stütz@@ 22811
zige 22809
Weiter 22808
William 22806
zul@@ 22802
gegenwär@@ 22793
ond 22792
Alph@@ 22789
Feuer 22780
abled 22774
hundred 22765
bic 22763
jet 22756
Wilhelm 22755
18,@@ 22754
stimmen 22752
Camer@@ 22747
danke 22733
awarded 22724
engli@@ 22718
Heinrich 22718
bear 22717
fähig 22707
fie 22707
Rio 22707
theme 22707
Tür 22705
Ton 22703
gone 22695
Gäste@@ 22690
dd@@ 22688
geber 22686
lement 22684
caf@@ 22677
fro@@ 22670
reported 22670
Aktiv@@ 22669
chair 22665
wesentlich 22664
1986 22663
künftigen 22660
primary 22652
Afghanistan 22651
ähnlich 22650
gam@@ 22646
Vorteil 22641
quot@@ 22638
chat 22636
tta 22633
108 22632
finance 22631
git@@ 22627
seem 22626
bru@@ 22618
liefert 22617
stra 22615
Schwierigkeiten 22613
Stein 22609
erei@@ 22607
absolutely 22606
regionalen 22603
Zeitungen 22600
..@@ 22599
zugleich 22598
Offen@@ 22598
Wald 22595
Für@@ 22592
flexibility 22592
medicine 22590
unded 22589
speziellen 22588
bindung 22583
mity 22580
ennen 22574
illegal 22565
territory 22565
nom@@ 22563
Finnland 22562
relev@@ 22554
buch@@ 22550
Hof 22550
Asien 22549
Death 22547
anz 22546
ohlen 22546
Bahn@@ 22545
tist 22544
ium 22543
stärken 22532
Nachhal@@ 22530
osed 22526
heben 22524
Indian 22524
specially 22524
Phar@@ 22514
Prix 22504
attack 22502
gebenen 22500
dated 22499
ury 22497
forget 22497
quest 22496
ype 22493
jekte 22492
regime 22490
servation 22490
Fluss 22489
teaching 22485
kei@@ 22484
Staat@@ 22484
Banken 22483
halb 22479
Gum@@ 22479
Laufe 22473
Samm@@ 22471
administ@@ 22469
derer 22460
such@@ 22460
tried 22460
iten 22456
Zone 22453
rural 22446
musste 22444
sä@@ 22438
tos 22435
GM@@ 22420
schnitt 22417
Spra@@ 22416
bereiten 22408
Ibi@@ 22408
author@@ 22405
Veröffentlichung 22399
kontinuier@@ 22397
Kro@@ 22396
weekend 22395
welchen 22393
Ero@@ 22392
finish 22386
ehem@@ 22382
schö@@ 22375
kturen 22368
Zugriff 22366
Zut@@ 22357
auff@@ 22356
dispos@@ 22353
Ernst 22352
certific@@ 22352
golf 22344
länger 22341
Werbung 22339
tension 22338
goals 22338
individuals 22329
detailli@@ 22325
denden 22319
bish@@ 22315
Redu@@ 22312
aring 22310
cap 22310
chinesische 22305
öse 22305
fans 22303
itäts@@ 22300
counts 22290
Ball 22287
Maz@@ 22287
Call 22287
.06.@@ 22279
Eben@@ 22277
Sales 22276
nei@@ 22275
borders 22274
überzeugt 22267
domestic 22264
schnelle 22263
Kommiss@@ 22263
vil@@ 22262
Kaffe@@ 22261
suff@@ 22260
arm@@ 22258
improving 22257
wendet 22252
Panor@@ 22247
Tanz@@ 22245
kommen@@ 22240
stream 22237
brechen 22236
Diam@@ 22235
eci@@ 22235
zzi 22234
nehm@@ 22230
Studien 22227
mos 22227
Klima 22226
ão 22224
seitigen 22222
deleg@@ 22222
aks 22217
formu@@ 22216
Prag 22216
Auffassung 22214
Inn@@ 22211
Vic@@ 22209
someone 22209
generated 22196
Attra@@ 22184
Such 22184
Gericht 22183
Dauer 22182
obtain 22179
schneller 22178
serves 22175
trading 22174
wachsen 22171
suffering 22171
Jedes 22170
etary 22170
Sicher@@ 22169
123 22168
tax@@ 22167
Co. 22157
550 22155
Force 22155
italienischen 22153
Program 22150
Wochenende 22149
mid@@ 22148
reinfor@@ 22147
Pos@@ 22145
tier@@ 22143
Überwachung 22141
Gipfel 22139
geb 22137
Franc@@ 22124
PN@@ 22123
informed 22123
Prime 22114
happen 22114
divided 22114
Konto 22111
setzungen 22108
2019 22108
agenda 22106
washing 22105
Job 22102
invited 22100
Hist@@ 22097
Smi@@ 22096
confirmed 22093
Venedig 22090
dings 22087
orial 22087
examples 22082
bou@@ 22081
Autor@@ 22078
dire@@ 22074
Mili@@ 22074
Division 22074
geliefert 22069
touri@@ 22060
theore@@ 22052
Washington 22050
freundlich 22048
Westen 22044
empty 22042
tü@@ 22041
daughter 22041
opping 22039
Fitness 22034
aside 22029
musical 22024
tigten 22023
patient 22022
funktionieren 22019
K. 22017
Schreib@@ 22016
ila 22014
Executive 22013
25,@@ 22013
ride 22012
sser 22008
slow 22004
gewährleistet 22001
dün@@ 21993
mmen 21991
reihe 21990
günstigen 21990
sophisticated 21987
Psych@@ 21986
til@@ 21978
previously 21976
Rob@@ 21974
verantwor@@ 21972
Stabilität 21971
tot@@ 21970
Scho@@ 21968
Italien@@ 21966
Selbst 21966
poverty 21965
einzelne 21964
Kriterien 21955
Juan 21942
analyse 21938
unge@@ 21937
eer 21937
ror 21935
Ob 21932
Zul@@ 21932
sofern 21930
meat 21930
Wirtschaft@@ 21924
chter@@ 21924
rare 21920
küh@@ 21918
revi@@ 21917
akes 21915
Ms 21913
eur@@ 21908
datum 21906
Watch 21905
rail 21904
Kanal 21899
priv@@ 21899
sy 21897
kunfts@@ 21896
Schluss@@ 21896
vorgesehen 21894
höher 21892
tre 21892
displayed 21883
Hous@@ 21875
Amt 21872
Bulgarien 21870
fic 21866
Freund 21864
Experim@@ 21861
prepare 21861
Jet 21859
impressive 21855
Reb@@ 21852
Н@@ 21851
Il 21849
Out 21848
immediate 21845
deut@@ 21844
ape 21843
duty 21842
1970 21839
Kuba 21836
T. 21829
Orte 21828
pain 21821
sensitive 21818
vert 21816
enne 21815
of@@ 21811
Kunde 21799
orien 21796
commen@@ 21796
bat 21795
einfachen 21793
neuesten 21791
Bell@@ 21787
electrical 21786
Bildern 21783
Anerkennung 21783
Schulen 21780
career 21778
allgemeine 21777
profitieren 21775
last@@ 21756
forth 21756
Schwe@@ 21752
maid 21749
steller 21748
Bene@@ 21745
bereiche 21744
organiz@@ 21733
zipi@@ 21733
Juden 21730
tender 21729
ized 21724
ungs- 21723
tene 21721
supplies 21719
m. 21714
Nahrungs@@ 21714
Fischer 21713
universal 21708
endi@@ 21707
gere@@ 21706
Empfeh@@ 21706
starten 21705
ziemlich 21704
appar@@ 21703
historische 21699
Jos@@ 21695
Verbindungen 21690
melden 21688
belieb@@ 21687
run@@ 21682
Mani@@ 21682
waters 21679
Rechnung 21675
Erwachsene 21669
scenes 21665
Mrd. 21663
appointed 21659
Eisen@@ 21658
Symbol 21651
province 21650
Hän@@ 21643
hängt 21638
Russi@@ 21635
proper 21635
gige 21629
housing 21627
ktiv@@ 21626
Az@@ 21623
Angst 21621
Völ@@ 21619
regel@@ 21618
Agenda 21614
Austausch 21613
Mond 21612
Mount 21605
mäch@@ 21601
sichern 21598
equi@@ 21596
Ama@@ 21595
Kann 21594
aimed 21594
Einkaufs@@ 21592
ere@@ 21591
compon@@ 21590
associ@@ 21588
hafen 21578
Copyright 21574
confidence 21574
log@@ 21572
vir@@ 21569
religi@@ 21567
hill 21567
igungs@@ 21563
pal 21558
graph 21555
provider 21555
Vertri@@ 21554
Inform@@ 21548
Dun@@ 21547
ign@@ 21539
Verpflichtungen 21537
mmer 21535
Lebensmittel 21534
Städten 21530
fän@@ 21529
Wed@@ 21524
campaign 21516
Beziehung 21514
ali 21514
25.@@ 21514
notwendigen 21513
environ@@ 21513
Halb@@ 21511
ador 21509
streets 21509
read@@ 21508
suit 21507
leiter 21502
auth@@ 21501
communities 21499
Following 21498
uma 21496
glich@@ 21495
Gast 21493
etti 21488
Teilnahme 21488
ras 21483
ktiv 21482
Rin@@ 21482
werfen 21481
covering 21479
30.@@ 21479
111 21476
Zoll 21473
recognition 21472
Toile@@ 21470
one@@ 21464
forming 21463
höchsten 21462
Konzep@@ 21459
respond 21459
Ambi@@ 21453
Beg@@ 21451
Times 21448
FC@@ 21447
getroffen 21442
Zusatz@@ 21436
Renault 21432
а 21430
Climate 21427
perfekte 21425
university 21424
practices 21420
Tourist 21418
Mo 21410
DB 21410
resulting 21410
erinnern 21405
division 21402
taxes 21396
größeren 21392
Rent@@ 21388
slightly 21386
ht@@ 21384
Fahrt 21382
gst 21376
inspec@@ 21376
280 21376
italien@@ 21375
tierte 21374
&apos;ve 21374
Prei@@ 21371
Start@@ 21370
lighting 21369
utzung 21366
contrast 21365
undenen 21364
gaben 21363
strukturi@@ 21360
Boh@@ 21354
deckt 21353
Christoph 21351
tung@@ 21348
1.2 21345
crucial 21341
Anne 21338
Ran@@ 21333
erweitert 21331
schließung 21327
gegeb@@ 21324
dende 21323
Ocean 21322
cat 21319
rele@@ 21312
voted 21312
perform 21309
Schlüssel 21302
explor@@ 21302
ural 21300
saving 21295
natur@@ 21294
nötig 21289
relativ 21289
Ble@@ 21286
staatlichen 21280
cream 21273
günstig 21272
außergewöhn@@ 21272
sub 21270
schie@@ 21264
Hauses 21260
istische 21260
Aufgrund 21258
Run@@ 21258
oter 21258
expert 21254
qualifi@@ 21253
happened 21248
ussi@@ 21246
Weiß@@ 21243
Dest@@ 21241
cen@@ 21241
0.5 21239
dish 21237
wel 21236
fan 21234
Annahme 21232
newly 21231
23.@@ 21230
terin 21230
entsprechen 21229
pin 21229
discuss 21228
flash 21226
ouri@@ 21223
bing 21222
primarily 21222
Illu@@ 21218
Van@@ 21218
Wesen 21211
Unterschied 21205
kil@@ 21202
cha 21201
beteiligt 21200
Ok@@ 21199
watches 21192
denk@@ 21185
Werbe@@ 21184
refer 21183
tritts@@ 21176
tert 21175
cash 21175
ogen 21172
verbrei@@ 21170
beschäftigt 21168
Heb@@ 21164
Domini@@ 21163
Delta 21162
endet 21161
facility 21161
develop@@ 21159
vest@@ 21152
conclusion 21152
greatest 21151
achtet 21150
brasili@@ 21149
Fro@@ 21149
investments 21149
ador@@ 21137
effectively 21132
merk@@ 21129
europäischer 21129
ichten 21125
roof 21123
knows 21122
fau@@ 21119
powers 21119
Zit@@ 21117
Sich@@ 21117
Bour@@ 21117
Oder 21115
vy 21113
Dort 21111
printed 21111
270 21105
Kö@@ 21104
Beiträge 21098
Werner 21098
charm 21090
ilt 21085
gehend 21077
linken 21077
möglichst 21077
ingu@@ 21053
discussions 21051
Kni@@ 21050
competi@@ 21050
Risiko 21049
expertise 21049
Blut 21045
kanische 21039
tut 21037
ution 21037
stattet 21032
führten 21032
organised 21032
Termin@@ 21029
ehemaligen 21029
umgesetzt 21028
Berlin@@ 21027
Rosa 21025
Weihnachts@@ 21022
gezogen 21019
dennoch 21016
agre@@ 21015
Ken@@ 21013
berühm@@ 21013
dau@@ 21012
Jews 21011
discovered 21008
precisely 21004
seien 21003
hit 21003
becken 21002
conne@@ 20997
Thank 20997
betrachtet 20993
Sla@@ 20992
rup@@ 20990
tha 20987
wishes 20983
Kup@@ 20982
youth 20979
380 20974
Studenten 20971
schreibung 20970
Formu@@ 20970
errors 20969
Wan@@ 20965
Zeu@@ 20961
sende 20961
künstl@@ 20961
bitten 20952
Verständnis 20952
Arti@@ 20952
Key 20945
Bay@@ 20942
unding 20942
Carl 20941
Yu@@ 20941
strom 20938
rati@@ 20937
notes 20929
zentralen 20928
att 20925
rements 20922
Projekten 20920
Gebieten 20918
Beste 20916
tank 20916
ook 20915
Bag@@ 20912
increases 20910
regularly 20910
Vent@@ 20906
Kul@@ 20904
Dimension 20896
diseases 20885
bezeichnet 20883
baum 20883
connect 20880
Prior@@ 20877
horse 20876
Otto 20875
seek 20874
lined 20869
gendes 20867
Fleisch 20867
0m 20866
DF 20863
peti@@ 20862
leh@@ 20861
chtet 20861
Cloud 20859
gering@@ 20854
therapie 20854
Any 20852
Bank@@ 20851
gebiete 20848
brachte 20848
Blü@@ 20845
Kla@@ 20842
Rahmen@@ 20840
mari@@ 20838
inated 20836
bread 20835
unterkunft 20833
anbieten 20828
erhielt 20826
Soli@@ 20824
bisch 20824
Twitter 20822
bieren 20822
score 20821
Whe@@ 20821
Instal@@ 20819
jährige 20818
portfolio 20817
verursa@@ 20816
characters 20814
‹ 20813
betra@@ 20812
wolle 20807
Provi@@ 20789
Be 20786
betrieb@@ 20785
visiting 20782
.05.@@ 20782
coloured 20782
igkeiten 20776
Stei@@ 20775
entirely 20775
Som@@ 20772
causes 20770
Para@@ 20768
Bud@@ 20767
Glau@@ 20764
Through 20764
stens 20763
irs 20762
Gn@@ 20759
Milli@@ 20753
haf@@ 20750
Wettbewer@@ 20750
derungen 20747
benef@@ 20741
residence 20739
remaining 20738
default 20737
Schlu@@ 20734
dangerous 20726
cir@@ 20722
theater 20722
differences 20721
schafft 20719
laut 20718
pose 20718
missions 20717
Camp 20716
toler@@ 20713
peaceful 20711
Norway 20710
Extra 20704
looked 20700
wire 20699
Techn@@ 20695
Bildungs@@ 20693
deli@@ 20693
ensuring 20693
gewählten 20689
Religion 20689
facts 20683
District 20682
cio 20682
Weiß 20682
Rock@@ 20680
eira 20680
Aller@@ 20678
showing 20677
bic@@ 20676
tat@@ 20674
Ingenie@@ 20666
ough 20666
anyone 20661
commend 20660
zim@@ 20659
annt 20659
Auflösung 20656
hilfe 20652
transparency 20648
schlei@@ 20645
Tam@@ 20643
Blas@@ 20640
supplier 20640
HC 20638
eingeführt 20637
Á@@ 20633
Week@@ 20633
ř@@ 20630
Head@@ 20629
angesichts 20625
Wirk@@ 20623
bestellen 20621
Ausrüstung 20621
nieder@@ 20620
marine 20615
opposition 20615
gie@@ 20613
Person@@ 20610
gener 20610
erklären 20609
eme@@ 20607
Absatz 20604
pet 20603
ums@@ 20602
Milan 20602
depends 20601
egal 20598
pink 20596
Altstadt 20595
Schiff 20594
5000 20593
1983 20588
Berich@@ 20588
3.5 20587
geschäft 20572
24.@@ 20568
ares 20568
websites 20565
tent@@ 20564
züge 20564
flü@@ 20561
Geschäft 20560
Schu@@ 20560
acid 20559
Cable 20558
Insgesamt 20557
schönsten 20553
tively 20553
band@@ 20545
schrau@@ 20542
Adam 20541
perspective 20540
trum 20538
durchzu@@ 20537
Nag@@ 20532
oxi@@ 20530
mte 20529
Hong 20528
nal 20527
Häuser 20523
tower 20523
Om@@ 20522
dded 20521
260 20520
Hav@@ 20519
plays 20517
organizations 20516
allowing 20512
Act 20512
Maj@@ 20511
Spann@@ 20504
ding@@ 20504
launch 20502
dinner 20501
Ereignisse 20500
geschwindigkeit 20498
herz@@ 20497
nen@@ 20496
currency 20495
Gästen 20490
tica 20488
wissenschaftlichen 20486
slide 20486
Tin@@ 20483
yo 20478
erige 20474
arti@@ 20473
1979 20469
songs 20466
Struktur@@ 20465
arte 20462
ok 20461
politics 20460
miert 20459
Communic@@ 20458
dunk@@ 20457
Krä@@ 20450
chinesischen 20448
Erweiter@@ 20447
.04.@@ 20447
Markus 20443
nde 20441
у@@ 20441
Prozesse 20438
Presse 20438
Minim@@ 20436
Fres@@ 20430
Fonds 20423
oratory 20419
eball 20417
stein@@ 20415
cry@@ 20414
showed 20411
Anmeldung 20404
az 20403
serviert 20402
consequ@@ 20398
wege 20395
Bio 20393
räder 20391
expansion 20389
aktualisiert 20382
position@@ 20382
impossible 20381
Transparenz 20380
gorith@@ 20369
Stamm@@ 20369
Reich 20368
Salz@@ 20368
è 20368
zählt 20367
hart 20366
legte 20364
verändert 20362
adise 20362
sugar 20362
ologies 20358
abhängig 20357
Rü@@ 20355
Musi@@ 20354
bestand 20346
repair 20346
determine 20341
geschehen 20340
Gründung 20339
ford 20336
Darstellung 20334
Argentina 20332
incorpor@@ 20329
debt 20324
kin 20319
Tasche 20315
vital 20305
sensi@@ 20304
Betra@@ 20303
charged 20303
Quartal 20301
Kong 20300
drücken 20297
Höh@@ 20295
qualified 20292
promotion 20292
euer 20289
persönlich 20288
Söhne 20285
Nep@@ 20283
victims 20283
deh@@ 20282
Zivil@@ 20276
College 20276
Little 20274
otos 20273
Big@@ 20271
künftige 20265
Verbin@@ 20263
preci@@ 20261
gutes 20259
stik@@ 20259
Gegensatz 20257
tied 20255
turen 20253
photograph@@ 20252
provision 20249
Agrar@@ 20248
Satz 20242
1982 20239
Kü@@ 20235
Firmen@@ 20234
representative 20232
füllen 20223
iny 20221
Mother 20221
Je 20220
identity 20218
best@@ 20214
unmittel@@ 20213
sleeping 20213
ehen 20211
höhere 20211
cky 20211
ected 20207
Glo@@ 20200
Marco 20199
27.@@ 20198
24,@@ 20197
morgen 20186
erscheinen 20182
1.1 20181
Dör@@ 20181
piano 20181
Siemens 20180
Fan@@ 20176
Schüler 20170
cheer@@ 20169
controls 20168
Lehrer 20167
body@@ 20165
Regelung 20163
stem 20158
klein 20156
gebildet 20147
abkommen 20144
container 20144
ckte 20142
Kooperation 20142
collected 20135
Vereinten 20131
Michel 20129
Investitions@@ 20124
impor@@ 20120
enty 20119
doubt 20119
Schreiben 20117
Fähigkeiten 20114
NATO 20113
guidelines 20104
Pink 20103
Gründe 20100
audience 20098
mont 20096
recy@@ 20093
prop@@ 20091
teams 20090
musik 20084
pattern 20081
Li 20077
Related 20075
entitled 20075
ked 20070
transpor@@ 20069
Medizin 20069
bound 20068
petition 20066
arbeits@@ 20061
dist@@ 20054
staat@@ 20051
DP 20051
ept 20047
toward 20047
ial 20046
symbol 20046
Wri@@ 20038
rac@@ 20038
exciting 20035
Snow@@ 20032
lingen 20032
Geschäfte 20031
obtained 20031
oses 20030
cali@@ 20030
lement@@ 20027
Real@@ 20025
Nah@@ 20023
publication 20022
Entwurf 20021
reduziert 20020
zugänglich 20019
umfang@@ 20018
Investment 20013
zierungs@@ 20011
Mediz@@ 20009
erfolgen 20002
Ausgang@@ 20002
steine 20000
Lager@@ 19999
Rot 19986
Panorama 19981
requested 19981
cool 19980
serie 19980
verschiedener 19974
stages 19968
carefully 19964
Hände 19963
ades 19961
Bulg@@ 19960
gh 19959
dei 19958
conducted 19956
travel@@ 19948
syst@@ 19941
Museen 19941
Geschäft@@ 19939
Bun@@ 19937
Industry 19929
Let@@ 19923
commer@@ 19923
agencies 19923
Syst@@ 19913
exclusively 19912
begonnen 19911
terminal 19906
situations 19906
nutri@@ 19903
reine 19902
Vertre@@ 19894
decades 19889
gestalten 19888
ktivität 19875
£ 19874
4x@@ 19872
than@@ 19872
Bildschirm 19871
überschrei@@ 19870
Cla@@ 19868
Schiffe 19868
Drei 19866
bab@@ 19864
Ohne 19863
job@@ 19863
enge 19858
¬ 19858
inter 19858
ritz@@ 19852
verbinden 19850
suppliers 19848
sink@@ 19844
anian 19844
antasy 19843
Bran@@ 19842
besitzen 19841
sinn@@ 19836
vertrau@@ 19834
rent@@ 19831
inieren 19827
ota 19826
grap@@ 19826
3rd 19822
weis 19818
rig@@ 19817
reno@@ 19815
massive 19815
Ron@@ 19813
fahrens 19812
schließ@@ 19812
Voraussetzungen 19811
consider@@ 19810
Glei@@ 19808
cent@@ 19807
mex@@ 19799
accompanied 19797
niemand 19795
regelmäß@@ 19790
sses 19787
umfassende 19783
clean@@ 19780
relatively 19779
Jede 19778
Aktien@@ 19778
brauch 19775
humanit@@ 19773
acceler@@ 19770
sto 19770
BR 19767
sight 19767
Ludwig 19766
Rap@@ 19764
keeping 19764
chairs 19760
stitution 19759
Beteiligung 19759
Automobil@@ 19755
inos 19752
Diego 19749
joined 19749
solcher 19748
kehr@@ 19746
Alternative 19746
consci@@ 19745
stin@@ 19739
shares 19738
auto@@ 19734
gym 19734
latter 19734
izz@@ 19733
Agentur 19733
4000 19732
Exchange 19726
closer 19725
mework 19721
gungs@@ 19719
erstmals 19718
leitungen 19713
Tradi@@ 19713
äuß@@ 19712
Sto@@ 19711
Arab 19711
zeichneten 19710
kurzen 19708
bles 19706
ı@@ 19704
referred 19701
opposite 19700
.03.@@ 19694
etten@@ 19693
werten 19691
lehrer 19691
Abteilung 19690
elli@@ 19687
bis@@ 19678
anten@@ 19677
reserve 19675
offenen 19671
Buff@@ 19670
Interview 19670
selten 19666
gekauft 19662
liegende 19661
apping 19660
stly 19657
compliance 19656
pension 19649
End 19647
lager 19647
fang 19639
adv@@ 19639
ls@@ 19636
sees 19632
sweet 19631
Erst@@ 19628
ßer@@ 19628
colleagues 19626
anspruchs@@ 19624
ective 19618
Pop 19616
gesellschaften 19614
xed 19612
ices 19612
kost@@ 19610
stance 19610
fasz@@ 19608
wesentlichen 19608
Isa@@ 19604
fourth 19601
encourage 19600
31.@@ 19598
erzeugt 19588
pun@@ 19588
Max@@ 19587
keits@@ 19586
considerable 19577
Juli@@ 19573
root 19572
sity 19570
consul@@ 19569
lling 19566
mani@@ 19564
reiche 19563
farmers 19562
craft 19561
smooth 19551
entwickelte 19545
approval 19545
glei@@ 19544
song 19542
Gesicht 19542
asy@@ 19538
Ass@@ 19537
grafi@@ 19536
tables 19532
ames 19518
Metro 19517
acci@@ 19512
Allgemeine 19511
NS 19509
lokale 19507
daraus 19505
brother 19504
limits 19503
Zahlungs@@ 19501
grant 19499
behin@@ 19495
seu@@ 19494
Stockholm 19493
examination 19493
fai@@ 19489
hoo@@ 19482
verfolgen 19480
gelöst 19478
tradi@@ 19477
capable 19472
füllung 19471
yard 19471
Hou@@ 19470
zusätzlichen 19468
tickets 19466
0er 19465
Work 19462
Metall 19462
Stan@@ 19460
hung 19458
Initiativen 19458
measured 19458
reforms 19458
saal 19457
Minute 19456
empfangen 19456
Lob@@ 19452
precise 19447
Torres 19445
Magazine 19444
rechtlichen 19443
techniques 19442
opti@@ 19433
gangs 19432
verfolgt 19432
logo 19429
unbedingt 19429
Current 19428
tner 19421
zeige 19412
ull 19412
Brücke 19408
gerufen 19407
darstellt 19405
statements 19405
Haben 19404
ordered 19404
creates 19402
breitung 19401
unbekannt 19400
elf 19398
Wör@@ 19398
ires 19398
internationaler 19395
entwick@@ 19393
stätte 19391
Schwerpunkt 19388
Water@@ 19388
holding 19388
nine 19382
Mill@@ 19381
maß@@ 19380
schwach 19378
shots 19378
faster 19373
split 19373
Koh@@ 19371
pleasure 19366
designs 19366
wrote 19364
failure 19362
Iron@@ 19359
wären 19355
Lou@@ 19352
painted 19349
Bergen 19347
mming 19347
esp@@ 19343
jährigen 19342
trend 19342
geschri@@ 19336
oods 19332
Archit@@ 19323
sar@@ 19319
League 19318
steu@@ 19311
elektron@@ 19309
Dancing 19309
Märkte 19307
sichtbar 19302
Beispiele 19301
phones 19301
prü@@ 19300
prev@@ 19293
contacts 19288
assist 19287
umwelt@@ 19283
370 19277
signi@@ 19277
ständigkeit 19273
eus 19273
acting 19271
definition 19269
steam 19266
worfen 19265
conventional 19258
dritte 19255
lying 19250
fell 19245
Fernseher 19244
Regierungs@@ 19244
Georgi@@ 19243
za@@ 19242
villages 19240
willkommen 19235
zil 19234
valuable 19228
cab@@ 19221
wohnen 19219
berau@@ 19216
Block 19211
northern 19211
Josef 19210
Albert 19209
gged 19206
cel 19204
migration 19201
Dro@@ 19200
uts 19196
hängen 19193
rechts@@ 19190
atri@@ 19188
keit 19184
Gerichtshof 19183
bot 19182
dokum@@ 19181
Geo@@ 19177
Strukturen 19175
sicherlich 19173
ê@@ 19172
Tower 19169
Snap@@ 19168
cancer 19167
markt@@ 19159
uel 19157
glas 19154
Verfolgung 19154
Landes@@ 19150
Einsatz@@ 19150
Crystal 19150
aircraft 19148
rischen 19147
stick 19147
speech 19145
owned 19144
implement@@ 19141
Krie@@ 19136
Atlan@@ 19135
Veranstaltungs@@ 19133
Sitzung 19133
stit@@ 19131
raise 19130
tail@@ 19128
cie@@ 19127
Rep@@ 19122
Beijing 19121
Those 19118
rt 19111
helped 19111
gay 19107
schwierig 19106
Nice 19105
Vietnam 19103
exact 19102
Ric@@ 19101
tat 19101
contained 19098
dum@@ 19098
rn@@ 19098
aktiven 19096
entstanden 19096
mige 19094
Bli@@ 19091
muscle 19091
gence 19090
gesprochen 19089
zar@@ 19088
bird 19087
Lac@@ 19083
stag@@ 19082
gger 19078
wher@@ 19069
reib@@ 19068
drück@@ 19065
messages 19063
cheating 19059
inate 19056
remained 19055
aki 19052
Beschäf@@ 19049
sort 19043
Them@@ 19038
employed 19034
stur@@ 19033
zogenen 19032
verbindet 19031
Tem@@ 19030
comparison 19030
dinal 19029
europa 19029
ats@@ 19026
schriftlich 19026
icht@@ 19024
Schli@@ 19022
incredible 19021
gment 19019
strongly 19017
lad@@ 19014
blog 19013
Willen 19005
cope 19005
formal 19002
Umsatz 18995
magazine 18993
höch@@ 18991
arbeitete 18991
editor 18990
gemä@@ 18988
dringend 18987
Zustimmung 18986
gegangen 18985
rasse 18980
kleines 18979
rier 18978
auton@@ 18972
priorities 18971
führende 18969
posted 18969
lates 18968
vali@@ 18963
recommendations 18959
noise 18958
kas 18956
reducing 18954
ergeben 18953
Wü@@ 18950
westlichen 18950
gur@@ 18948
Fair 18947
producers 18945
mur@@ 18940
exit 18939
Noch 18937
Night 18934
operators 18928
bige 18924
keys 18921
Hem@@ 18912
ferenz 18908
institution 18907
Abschnitt 18902
geord@@ 18898
Histori@@ 18898
volution 18897
iting 18896
steuer@@ 18895
menschliche 18895
erwischt 18895
tui@@ 18894
DL 18889
dd 18889
Tisch@@ 18886
geleitet 18885
enger 18885
Kau@@ 18884
Küh@@ 18884
unless 18881
Environ@@ 18879
identify 18876
absolut 18875
mention 18874
exerc@@ 18873
Florence 18868
integriert 18861
sichere 18860
ense 18860
Regen@@ 18859
sour@@ 18851
Rede 18851
rings 18847
proved 18842
Qual@@ 18841
territ@@ 18840
Wiener 18838
anzen 18838
sex@@ 18836
vin 18835
Meldung 18823
containing 18822
Ord@@ 18820
park@@ 18820
5.5 18820
Studium 18815
spek@@ 18811
Kein 18811
operative 18807
lements 18806
Will 18805
Č@@ 18804
spon@@ 18804
Kirchen 18803
besucht 18803
sels 18803
Sah@@ 18802
Hinsicht 18800
scientists 18795
clou@@ 18793
glie@@ 18789
Zun@@ 18787
niedri@@ 18787
schrift@@ 18786
330 18784
fit@@ 18778
iPad 18778
klu@@ 18777
apest 18776
Erste 18775
Cr@@ 18775
Oh@@ 18773
Pir@@ 18772
thir@@ 18770
Strateg@@ 18768
gebunden 18765
Hilfs@@ 18761
Beleu@@ 18761
Mitarbeitern 18757
Gebrauch 18756
Jack@@ 18755
alist@@ 18754
investigation 18746
Symb@@ 18744
guaranteed 18744
fleet 18743
Realität 18741
Spr@@ 18741
Ltd 18739
neighbour@@ 18738
Bom@@ 18736
put@@ 18735
Carlo 18735
thers 18734
.01.@@ 18733
gab@@ 18731
wichtigste 18728
consultation 18726
opens 18722
enburg 18720
adventure 18720
Zoll@@ 18719
adequate 18717
ancing 18717
bili@@ 18716
Pav@@ 18715
Tor 18710
Ig@@ 18709
perior 18708
Konzert 18707
salt 18704
less@@ 18702
crime 18702
payments 18700
Prozess@@ 18698
accur@@ 18697
zufrieden 18694
islands 18690
mounted 18686
cock@@ 18683
specialist 18682
č 18679
DIE 18677
ALL 18677
Überblick 18675
Frieden@@ 18671
altar 18670
stattfinden 18669
bergen 18669
außer@@ 18668
erwähnt 18668
öffnet 18667
Stellungnahme 18666
Brem@@ 18665
machten 18663
Rand@@ 18661
kompet@@ 18660
blu@@ 18657
Kreis 18655
Glück 18654
chemi@@ 18654
wirkung 18653
Bestandteil 18651
spiri@@ 18650
hop 18645
Nachfrage 18644
schein@@ 18642
segment 18641
Swedish 18640
erinnert 18636
Cock@@ 18636
fäh@@ 18631
foli@@ 18623
teries 18622
ared 18609
echte 18604
zi 18602
Jürgen 18600
stores 18599
cros@@ 18598
habt 18597
stan 18597
Bridge 18594
gesetz@@ 18592
Pier@@ 18591
Designer 18589
Dadurch 18588
dels 18588
wiederum 18587
ausdrücklich 18579
tch 18576
dauer@@ 18574
trifft 18568
Cot@@ 18562
schläge 18561
identified 18555
gements 18544
humanitarian 18537
Martin@@ 18536
M.@@ 18536
irur@@ 18535
Premiere 18529
Dich@@ 18529
Berichte 18529
regionale 18526
Virus 18517
shirt 18517
Worten 18516
soweit 18515
taus@@ 18514
Wid@@ 18513
nden 18513
instructions 18512
mega 18510
religion 18509
Prinzip 18506
Stärkung 18505
Berech@@ 18504
kräfte 18499
lieb@@ 18497
Know 18497
entes 18497
lien 18495
aissance 18494
legislative 18490
Runde 18485
Verhalten 18483
entsteht 18482
amer@@ 18480
wol@@ 18473
änden 18472
recording 18470
Immun@@ 18469
Wand 18468
befreit 18464
Laut@@ 18463
Regional@@ 18463
schlägt 18461
aufnehmen 18456
explained 18456
erzielen 18452
exam@@ 18439
consoli@@ 18436
sitz@@ 18435
unglaub@@ 18433
ango 18433
medic@@ 18433
grand@@ 18430
heads 18429
Muster 18425
Kör@@ 18425
Freunden 18423
whol@@ 18421
Anstrengungen 18420
decorated 18414
Schäden 18414
Hermann 18414
Girls 18412
die@@ 18409
movies 18409
Engel 18408
elled 18406
siven 18405
Trotz 18404
Bie@@ 18401
schaff@@ 18390
hü@@ 18390
wendungen 18389
represent@@ 18387
olen 18386
Gesam@@ 18385
Kapital@@ 18381
stab 18381
Congress 18380
Elec@@ 18376
deck 18372
klar@@ 18371
solve 18371
Ris@@ 18370
blei@@ 18370
revolution 18370
Ras@@ 18366
bud@@ 18366
ups 18359
Bruder 18359
Spek@@ 18358
classes 18357
nahme@@ 18353
Branche 18352
everyday 18351
tief 18348
ox@@ 18346
inn 18342
Yet 18342
Gig@@ 18337
Wissenschaftler 18331
1944 18326
gingen 18325
calling 18322
isms 18321
coup@@ 18318
Verschie@@ 18311
aper 18306
Berufs@@ 18305
bir@@ 18302
roads 18302
industries 18302
untersucht 18301
interessiert 18300
Ø@@ 18300
liquid 18298
Rac@@ 18297
zentr@@ 18295
Gleichzeitig 18293
blä@@ 18288
weich@@ 18288
mexik@@ 18287
Wort@@ 18285
Sac@@ 18284
Kondi@@ 18283
Risiken 18283
äle 18280
researchers 18280
Ausgaben 18273
Arbeitsplätze 18273
subscri@@ 18272
Führ@@ 18268
Mot@@ 18268
höheren 18266
1981 18263
Consu@@ 18261
trial 18261
Dokumentation 18256
sat 18255
Tiefe 18252
lear@@ 18252
Iraq 18252
uted 18247
shore 18244
Thai 18243
totally 18241
Armut 18240
ütz@@ 18239
treat 18237
enses 18236
Einstellung 18234
änge 18225
Spie@@ 18222
ohn 18222
Schließlich 18216
Nike 18214
einkommen 18213
Energien 18209
plane 18207
fanta@@ 18205
berge 18198
Schlus@@ 18196
amazing 18191
aspect 18189
afternoon 18186
Fisch 18184
Feuer@@ 18179
Protokoll 18179
sher 18177
ttern 18170
verlieren 18169
electron@@ 18169
Publikum 18165
concluded 18164
Führer 18162
anniversary 18162
Prize 18161
letz@@ 18158
175 18154
quit@@ 18150
Af@@ 18149
belt 18149
leihen 18147
denti@@ 18146
tiver 18144
Behin@@ 18143
dirty 18142
19th 18141
ßte 18139
stimmung 18138
Jur@@ 18137
ids 18137
meister 18136
Teams 18134
pit@@ 18130
dra 18124
Mitgliedern 18113
sement 18111
verstärkt 18110
attempt 18100
künftig 18098
amon@@ 18097
dagegen 18096
lec@@ 18095
prepar@@ 18094
schm@@ 18090
Dark 18090
ardo 18089
Questi@@ 18084
Body 18082
dentin 18080
Messe@@ 18079
Bezeichnung 18078
ystem 18077
Karlsruhe 18076
gi 18074
studied 18072
schnei@@ 18071
spoli@@ 18070
Roland 18070
soil 18070
Orange 18068
hits 18067
loo@@ 18067
gerei@@ 18057
Problemen 18057
alismus 18054
Auge 18054
Afri@@ 18053
splan@@ 18051
Taiwan 18044
Secon@@ 18043
Kleine 18041
Arbeitnehmer 18037
Büros 18036
occur 18035
gewonnen 18033
bevorzu@@ 18032
neck 18032
Betrieb@@ 18031
zellen 18031
GP 18029
kilomet@@ 18027
eve 18011
Café 18009
Antrag 18008
lis 18006
dys@@ 18006
größer 18005
surprised 18005
nahezu 18003
movements 18001
fällen 17998
getr@@ 17997
kulturelle 17995
Tipps 17995
Fassa@@ 17993
Sterling 17993
betrachten 17992
Gebiete 17992
Einen 17991
VG 17990
acity 17988
1975 17985
perf@@ 17980
eda 17978
promoting 17978
Blumen@@ 17974
reden 17973
inner@@ 17970
Schil@@ 17968
handeln 17967
altet 17966
partly 17966
Brand 17964
sounds 17963
winning 17962
Flüs@@ 17962
freundliche 17956
interess@@ 17947
sie@@ 17946
inary 17942
consideration 17942
quote 17937
bonus 17935
Allgemeinen 17930
Meister 17929
oned 17927
Gerechtigkeit 17923
cup 17913
Islam 17908
Reaktion 17908
ausgesetzt 17907
ample 17907
Serbia 17906
kas@@ 17901
FM 17899
gradu@@ 17898
SV@@ 17893
Aktualisierung 17892
main@@ 17890
Pfa@@ 17885
verage 17885
Philharmon@@ 17879
Lib 17879
vorher 17876
vorgestellt 17874
vorgelegt 17874
begins 17874
arts 17871
difficulties 17867
Demo 17864
strategies 17862
freiheit 17861
Partnern 17859
einiger 17858
Local 17855
gül@@ 17853
dargestellt 17853
operational 17845
klassischen 17844
entlichen 17841
Seri@@ 17840
conf@@ 17837
urer 17834
replace 17832
tabel 17825
finanziellen 17825
ovo 17824
sleep 17813
NER 17813
tac@@ 17812
schicken 17812
schnell@@ 17807
sharing 17801
verbringen 17799
battle 17798
Kriegs@@ 17795
fies 17792
Represent@@ 17789
ichte 17788
itz 17785
disk@@ 17784
explore 17780
artige 17772
centres 17769
darstellen 17766
demokratischen 17765
Infrastru@@ 17765
zwe@@ 17763
ecu@@ 17759
.at 17758
registri@@ 17752
trieben 17750
preise 17750
Atlantic 17749
emergency 17749
Bek@@ 17746
NS@@ 17746
charges 17741
Fernseh@@ 17739
züglich 17733
talking 17733
geplant 17729
bour@@ 17729
einzel@@ 17727
prize 17725
sach@@ 17720
oting 17715
frühen 17709
will@@ 17708
Cel@@ 17708
schlüssel@@ 17706
trat 17706
bringing 17706
fore@@ 17704
thful 17704
gestellten 17703
Krankheit 17699
dachte 17698
Slovakia 17697
Dortmund 17694
passengers 17692
Küchen@@ 17689
Mario 17689
theory 17689
entgegen@@ 17688
bly 17688
weiten 17686
Richter 17685
Luxus 17682
sung 17682
ssed 17680
1978 17679
dicht 17676
usual 17675
Additional 17673
drucken 17671
racing 17668
anning 17668
kter 17667
ersetzt 17665
Feder@@ 17665
saved 17664
tee 17660
dauert 17659
tele@@ 17657
Gerichte 17655
Ticket 17654
bags 17654
fund 17653
licherweise 17650
ira 17644
д@@ 17644
messen 17643
book@@ 17642
stücke 17639
descri@@ 17639
Giov@@ 17637
races 17636
ateral 17634
betrieb 17628
AW@@ 17624
unabhängi@@ 17622
ausgezeichnet 17621
fo 17621
pending 17621
amounts 17620
disabled 17616
Gut@@ 17610
rant 17609
Bayern 17605
jener 17603
Dieter 17602
ablen 17600
fik 17598
v.@@ 17595
recognized 17594
acken 17590
Opera 17589
Wert@@ 17588
Polizei 17587
reten 17586
steigt 17584
fantastic 17582
foc@@ 17582
gerä@@ 17578
zio 17578
.1 17578
ampen 17574
consult@@ 17573
russischen 17570
rapid 17568
centuries 17566
acker 17565
weltweiten 17563
Amaril@@ 17562
pursu@@ 17557
Haushalt 17555
Ferrari 17554
discount 17551
Barbara 17547
zentren 17540
Rez@@ 17538
garage 17535
trends 17535
gezahlt 17533
verschie@@ 17532
Have 17530
departure 17530
bio 17527
spoke 17527
eph@@ 17526
gelie@@ 17524
kro@@ 17516
ausführ@@ 17515
Matthias 17507
vorgeschlagen 17506
Leder@@ 17504
eless 17496
Ulrich 17494
teste 17493
Fahrrad@@ 17493
Din@@ 17493
ulated 17493
selt 17491
ood 17486
7.5 17486
olive 17486
ergibt 17485
routes 17485
emphasi@@ 17484
Tennis 17481
ahr@@ 17477
destroyed 17476
Ministers 17476
Mittelpunkt 17474
Last@@ 17467
Bah@@ 17466
teilnehmen 17463
aden@@ 17461
oos 17457
Fie@@ 17455
Queen 17455
iste 17454
Beide 17451
nehmen@@ 17450
lee 17450
LG 17448
Heinz 17448
army 17442
arrived 17440
substantial 17439
Fak@@ 17438
Studien@@ 17437
millions 17435
enswert 17434
&apos;m 17429
ellers 17427
respon@@ 17427
übrigen 17423
Überprüfung 17423
alty 17423
attacks 17421
rische 17419
tö@@ 17415
digitale 17412
pp 17409
eing 17407
grünen 17402
fördert 17400
ollen 17399
lass 17393
gewählte 17392
Hof@@ 17392
Tests 17391
Northern 17391
Joint 17391
Regel@@ 17390
Geschäftsführer 17389
drinks 17385
nes@@ 17383
IER 17371
brain 17370
declar@@ 17369
schweren 17367
Unterschiede 17365
Initi@@ 17365
Whether 17365
secret 17364
Wird 17362
Marc 17360
informiert 17359
halt@@ 17359
künst@@ 17359
ince 17358
Karten@@ 17351
heritage 17347
Sierra 17345
vorh@@ 17341
ruh@@ 17339
poster 17338
gues 17337
bution 17336
Econ@@ 17334
Sign@@ 17333
Rückkehr 17333
Ple@@ 17331
klare 17330
fass@@ 17329
charak@@ 17328
xy 17324
nehmer 17324
license 17323
präsentieren 17322
fuhr 17315
Kurt 17308
standen 17306
appeared 17305
funny 17304
täglichen 17302
Wahlen 17302
focused 17300
dollars 17299
scheme 17299
confi@@ 17297
alling 17296
counter 17295
Argentinien 17294
eastern 17293
Pacific 17291
combat 17291
But@@ 17290
alisierte 17289
1977 17282
Variante 17280
unmittelbar 17274
Koordin@@ 17273
ym 17272
sammeln 17271
Aktionen 17264
Handel@@ 17264
Pakistan 17264
Brüder 17259
individuelle 17257
aches 17253
commun@@ 17251
pft 17246
lück@@ 17241
trips 17238
ratio 17235
zau@@ 17234
tes@@ 17233
Operation 17232
reali@@ 17231
ovi@@ 17227
EZ@@ 17225
1976 17224
Reich@@ 17223
rating 17219
shaped 17217
stil@@ 17216
Ware 17216
3,5 17215
Sky@@ 17211
Faktoren 17209
Marine 17206
ingredients 17205
1972 17201
spor@@ 17200
Aires 17198
laying 17197
Sonn@@ 17195
Look 17194
Reformen 17192
blan@@ 17189
skon@@ 17189
ghter 17187
distingu@@ 17186
branch 17185
pairs 17182
Wirklichkeit 17181
gelegten 17179
spartner 17179
Sebastian 17177
Pit@@ 17174
Container 17172
beschrieben 17170
B.@@ 17170
concentration 17170
Touristen 17167
näher 17167
oured 17166
fon@@ 17164
Georgia 17162
Bad@@ 17157
Despite 17156
spy 17155
holder 17155
weißen 17154
tips 17153
Dok@@ 17151
bares 17149
Haushal@@ 17149
ped 17149
Respon@@ 17147
explain 17147
Lehre 17146
Off 17146
erts 17142
diert 17138
Gur@@ 17138
Kohlen@@ 17136
schneiden 17136
Schokol@@ 17135
verursacht 17132
stron@@ 17131
bezogen 17130
weisung 17129
ossi@@ 17129
Quellen 17128
congrat@@ 17125
genuine 17124
berry 17121
Rav@@ 17119
Soci@@ 17119
Elisabeth 17119
power@@ 17119
stehende 17118
extend 17117
Norwegen 17116
Geburt 17113
nä@@ 17112
vite 17110
ausreichend 17103
relative 17102
Honda 17094
stieg 17090
BER 17089
weapons 17089
Hit@@ 17082
tian 17081
gau 17081
praktisch 17080
Sand 17079
ebenen 17076
positiv 17074
Architekten 17073
Hochschule 17070
opoli@@ 17069
targets 17067
abstra@@ 17066
onie 17066
durchschnit@@ 17064
Ben 17064
--- 17063
drückt 17063
Santiago 17058
Kast@@ 17058
Besonders 17054
ida 17049
operated 17048
ghty 17047
ekte 17043
christ@@ 17042
cover@@ 17042
struggle 17042
28.@@ 17039
sail@@ 17036
Imperi@@ 17034
übernimmt 17032
contin@@ 17032
tum@@ 17032
Using 17028
Solidarität 17027
gespielt 17025
Cros@@ 17023
ebene 17022
lasting 17022
29.@@ 17020
Andrea 17019
orte 17015
nurse 17015
behandlung 17014
lichsten 17012
happens 17011
balanced 17011
cos 17010
gebnis 17010
hn 17009
secretary 17009
berg@@ 17008
list@@ 17008
Unfortunately 17006
Jazz 17002
urn 17002
Buenos 16997
Ath@@ 16993
angs@@ 16988
wohl@@ 16987
Restau@@ 16987
Linz 16981
Sind 16976
sprung 16975
niemals 16974
Glaub@@ 16973
Emplo@@ 16973
exhau@@ 16972
banken 16969
osph@@ 16968
Zir@@ 16967
exists 16967
mis 16965
mond 16963
enterprise 16960
tomorrow 16957
Dorf@@ 16951
disa@@ 16942
acquisition 16942
Erfin@@ 16940
bits 16936
vorbei 16936
WH@@ 16933
countryside 16933
kopf 16932
junction 16929
Account 16928
Within 16928
zep@@ 16927
C.@@ 16927
entertainment 16924
märkte 16922
enna 16918
nennen 16917
Zellen 16917
chur@@ 16913
Help 16913
ping 16912
Ring@@ 16908
producing 16904
Quer@@ 16903
Jak@@ 16900
Studi@@ 16896
Pope 16893
MR@@ 16892
anic 16892
exceptional 16889
Panz@@ 16887
finanzielle 16886
Waffen 16885
fees 16882
begleitet 16881
denheit 16880
knew 16880
en- 16874
Brief 16872
geschieht 16871
werken 16870
Christen 16864
attached 16861
Together 16858
introduce 16855
eri 16852
Govern@@ 16852
theatre 16851
Begriff 16847
light@@ 16846
Straf@@ 16842
awareness 16842
erheblich 16841
sobald 16838
zeichnungen 16836
urlaub 16836
hoffen 16831
properly 16821
moderni@@ 16820
Geschenk 16818
vie 16817
etabli@@ 16817
sheets 16815
Lay@@ 16810
replaced 16808
esten 16807
ativer 16806
mix@@ 16804
Kleidung 16799
fter 16799
wissenschaftliche 16794
ebook 16794
expor@@ 16789
bie@@ 16788
hinzu 16786
VS 16785
brid 16785
kir@@ 16784
contrary 16784
sämtliche 16782
Tot@@ 16782
snow@@ 16780
sit@@ 16775
20th 16775
mask 16774
Energi@@ 16773
verbrauch 16772
Ausgang 16771
Holding 16770
ktieren 16766
Blau 16764
familiar 16764
grown 16764
Tom 16762
ceiling 16760
bands 16758
grund 16754
stehung 16749
1969 16749
genauso 16748
ansehen 16748
Abgeordneten 16748
histori@@ 16747
Moder@@ 16744
understood 16743
dose 16738
blocks 16737
Wochen@@ 16736
modell 16736
lap@@ 16736
konzentrieren 16734
inen@@ 16733
Cum@@ 16732
unemployment 16732
stran@@ 16730
Sofia 16729
anth@@ 16727
NAT@@ 16726
renowned 16723
durchaus 16721
neun 16713
geschä@@ 16711
chor 16709
filling 16708
proven 16706
Nau@@ 16705
Singapore 16704
Hit 16704
jen@@ 16702
Einwohner 16701
staatliche 16701
aro 16700
amerikanische 16696
Among 16695
eric 16695
Viertel 16694
berücksichtigen 16694
lessons 16691
leaving 16689
Clar@@ 16687
TB 16684
gün@@ 16683
Pass 16682
Dou@@ 16682
neh@@ 16681
oot 16676
meldung 16676
Eth@@ 16674
Forest 16673
weit@@ 16669
reasonable 16665
nutzt 16663
virtual 16663
benen 16659
sample 16657
beobachten 16656
doesn 16656
eindeutig 16655
Cann@@ 16655
asts 16651
driven 16648
Strand@@ 16647
tico 16647
GDP 16645
bücher 16644
dis 16644
Büro@@ 16643
bische 16641
rika 16639
Gruppen@@ 16635
jenigen 16633
Gerä@@ 16631
keiner 16631
ücksich@@ 16630
komplette 16629
leiten 16627
zit 16622
leadership 16621
scheinen 16617
schulen 16611
wind@@ 16610
deln 16609
perc@@ 16609
pher@@ 16607
privacy 16604
fax 16602
Bronze 16600
hoff 16600
Rig@@ 16595
fron@@ 16593
dé@@ 16592
beleu@@ 16592
ungsprozess 16588
cryp@@ 16588
designer 16583
stet 16582
Soviet 16580
außen 16576
Ausstellungen 16575
Zweifel 16569
Hochzeit 16567
modelle 16564
gearbeitet 16562
lob@@ 16562
betroffenen 16558
Strah@@ 16557
guided 16557
act@@ 16553
Dialo@@ 16551
Legi@@ 16549
proto@@ 16547
cz 16543
Original@@ 16542
Halloween 16542
filed 16541
Menschheit 16539
traditionelle 16537
errichtet 16536
Menschenrechts@@ 16535
strategie 16532
vig@@ 16532
Monster 16531
transferred 16530
kov 16527
museums 16524
fellow 16524
serving 16522
generate 16514
genehmigt 16512
denz 16509
produzieren 16509
gefähr@@ 16508
einfach@@ 16507
gres@@ 16507
Räume 16506
Mutter@@ 16503
speaker 16490
clari@@ 16488
Denk@@ 16483
Ander@@ 16478
Trag@@ 16467
Youth 16467
gefördert 16466
pharmac@@ 16466
educational 16465
omen 16463
high@@ 16462
operator 16462
affect 16462
birds 16461
Britain 16459
collect 16456
GM 16453
gesamt 16447
recip@@ 16447
langsam 16444
H.@@ 16442
Pros@@ 16437
Born 16437
raten 16435
NEW 16435
holes 16434
gewal@@ 16433
boxes 16431
Bühne 16429
agents 16429
behörden 16424
Emi@@ 16423
Fö@@ 16423
thly 16423
Compu@@ 16422
t. 16421
fighting 16421
Corporation 16417
breit 16416
WG 16410
enormous 16410
beln 16408
sing@@ 16408
estimated 16408
thei@@ 16406
pregnant 16404
Pedro 16403
ector 16402
teen@@ 16402
leichte 16401
ado@@ 16401
suggest 16397
früheren 16397
1960 16397
Bis@@ 16394
Victoria 16393
Lufthansa 16390
Inc 16389
lowest 16385
diplom@@ 16384
Grey 16384
Investi@@ 16381
Mauri@@ 16381
indicated 16380
Croati@@ 16379
blieb 16374
Fälle 16374
nut@@ 16367
Umgang 16364
Chancen 16363
inder 16360
migen 16359
zuneh@@ 16356
Rand 16355
1974 16354
Kh@@ 16351
Clu@@ 16349
Aufnahmen 16348
Spannung 16346
Klassi@@ 16344
Kron@@ 16344
nick@@ 16342
Astron@@ 16342
gelei@@ 16342
engines 16342
Charak@@ 16341
enberg 16341
Billi@@ 16340
monit@@ 16338
einheit 16337
welchem 16335
Peti@@ 16335
wäh@@ 16330
tisches 16328
Krankheiten 16328
JP@@ 16327
ativ@@ 16327
Heil@@ 16322
funktion 16320
Joachim 16320
pretty 16319
Präsentation 16318
Onlin@@ 16317
diesel@@ 16315
Schmidt 16313
Haltung 16310
som@@ 16305
Rit@@ 16303
besseren 16303
Massen@@ 16299
prüfung 16296
Erhöhung 16296
tracks 16295
angesehen 16295
Asp@@ 16295
Stärke 16295
aire 16294
zieh@@ 16292
contracts 16290
planet 16287
dogs 16284
Erholung 16278
gebäude 16277
betont 16277
BB 16277
erfolgreiche 16274
ator@@ 16273
gestaltet 16270
abo@@ 16268
criminal 16268
providers 16267
angegeben 16265
mounting 16263
cular 16262
maker 16262
individuellen 16260
pur@@ 16258
orchest@@ 16258
transition 16258
break@@ 16257
Dem 16256
conduct 16256
Mindest@@ 16255
inher@@ 16254
zufolge 16252
dust 16252
architec@@ 16249
Indeed 16248
Bezirk 16247
proz@@ 16247
Based 16247
eling 16244
zeugung 16243
Follow 16242
bearing 16239
geprüft 16235
propos@@ 16234
burger 16230
Hoo@@ 16228
selling 16227
Besitz 16226
mastur@@ 16226
assets 16226
reduzieren 16224
Simi@@ 16224
Mass 16223
therapeu@@ 16223
sicherung 16222
towns 16218
Mitteln 16215
grenzen 16215
thouse 16213
deon 16209
Irish 16208
Kis@@ 16206
porno@@ 16206
getragen 16205
Stör@@ 16203
grei@@ 16202
statt@@ 16200
uro 16197
Clin@@ 16196
Eröffnung 16195
aga@@ 16189
Ausnahme 16187
directed 16187
verschieden@@ 16186
canc@@ 16183
üben 16180
paintings 16179
Dür@@ 16176
unity 16175
dual 16173
Ang@@ 16167
Palestinian 16166
Anne@@ 16162
kon 16161
Buil@@ 16160
native 16158
sac@@ 16158
summit 16155
mits 16154
chap@@ 16154
Schaf@@ 16152
ergi@@ 16152
Kooper@@ 16152
erneuer@@ 16151
22,@@ 16149
prov@@ 16149
Journal 16147
beck 16147
Kontroll@@ 16145
gerung 16143
Kurse 16143
geist@@ 16142
Cali@@ 16141
Handy 16140
contributions 16140
economi@@ 16138
richtet 16137
empfohlen 16134
direkten 16133
inischen 16130
siv 16129
exposure 16128
angepasst 16127
Hill 16126
Computer@@ 16125
gelassen 16125
Kräfte 16123
Ausbau 16123
Beck@@ 16121
bruch 16119
dealing 16119
rations 16116
Slowakei 16113
Squ@@ 16110
fting 16107
Eindruck 16105
Heidelberg 16105
smart 16104
Barri@@ 16100
interessante 16098
umfas@@ 16098
Henry 16094
cloud 16093
romantic 16092
mals 16083
Irak 16082
Verlust 16080
consistent 16080
Süd 16078
sam@@ 16077
definitely 16077
talks 16076
crew 16075
stories 16074
kammer 16071
technique 16068
zin@@ 16066
mutual 16066
hrt 16065
ursprünglichen 16065
viewed 16064
Kran@@ 16063
diagno@@ 16063
tourists 16063
vertre@@ 16061
extraordinary 16059
gardens 16058
spiegel 16058
Mischung 16054
moments 16046
Gusta@@ 16043
utz 16042
alt@@ 16039
Without 16037
pol 16036
Arbeitsp@@ 16034
apart 16034
Kranken@@ 16031
osing 16030
saison 16029
schri@@ 16028
voting 16027
festgestellt 16025
makers 16023
Fans 16022
ny@@ 16022
arrive 16022
ursprünglich 16021
Sri 16021
narrow 16020
deta@@ 16018
ausgewählt 16013
mics 16013
sheim 16012
schätzen 16011
centers 16011
Cher@@ 16010
Freu@@ 16008
adopt 16008
mmb@@ 16006
laufenden 16003
ielt 15999
gin@@ 15999
Israels 15998
anen 15997
gehende 15996
Moskau 15994
sections 15994
draw@@ 15994
Autobahn 15992
fitted 15992
Jack 15991
tsp@@ 15989
dating 15988
felder 15979
kunde 15978
han 15978
Sak@@ 15977
wollten 15969
Rho@@ 15968
Westfalen 15965
lovely 15963
Stern 15960
Easter 15960
cheese 15960
bungen 15959
Fab@@ 15959
Leben@@ 15958
seats 15958
kauf@@ 15957
spra@@ 15951
gig 15950
Letzte 15948
Mir 15947
ffy 15947
maintained 15946
Umfeld 15944
married 15940
0,5 15933
Vorhaben 15933
schlossen 15930
Haar 15930
Einigung 15929
Abstand 15927
Museums 15925
verwand@@ 15924
sodass 15924
Sieg 15921
ruhig 15917
thro@@ 15916
tanzen 15915
clothes 15913
stärke 15912
Jün@@ 15912
hebung 15911
Coll@@ 15910
Zahlung 15908
Seel@@ 15907
beer 15905
Nürnberg 15904
förderung 15898
computers 15894
continuing 15894
ginnen 15892
Capital 15891
pick 15891
Baum 15890
Hun@@ 15888
ganz@@ 15887
confirmation 15885
umfassenden 15876
simu@@ 15874
konkrete 15874
β@@ 15874
heißen 15873
faction 15869
mass@@ 15862
behörde 15855
tu 15854
winner 15852
opf 15851
asen 15850
Gegenstand 15850
hervor 15848
ligkeit 15846
Formel 15845
anhand 15845
SMS 15845
BO 15843
dered 15843
ele@@ 15840
turning 15840
dispat@@ 15840
glicher 15835
false 15835
twi@@ 15833
bots 15830
stood 15830
kanischen 15829
Stimmen 15827
zäh@@ 15825
erweise 15824
af 15821
hospital 15820
Care 15815
Corn@@ 15814
cili@@ 15813
ziele 15806
lagen@@ 15806
inspiri@@ 15803
stammt 15800
siv@@ 15797
offene 15796
tausend 15796
höh@@ 15796
nier 15795
ampf@@ 15795
shap@@ 15794
räumen 15793
lace 15793
ister 15790
gerichtet 15787
teachers 15775
semi 15770
rik 15769
Garage 15768
з@@ 15768
safe@@ 15768
gins 15766
gut@@ 15764
Papst 15761
kette 15758
bezieht 15758
tone 15756
selbstverständlich 15750
expectations 15746
aking 15742
struktur 15740
aufwen@@ 15739
ließen 15737
membership 15732
Plätze 15731
Aufenth@@ 15728
ckets 15728
echten 15726
diesel 15726
spare 15723
dies@@ 15721
fiscal 15721
Sl@@ 15720
Leider 15720
grace 15719
boun@@ 15718
Gut 15717
hearts 15717
Authority 15716
holds 15716
Armee 15712
Trend 15710
acquired 15709
uter@@ 15707
inzwischen 15706
Kreis@@ 15705
2021 15704
chocolate 15702
perman@@ 15701
ef 15699
Foot@@ 15698
assemb@@ 15696
wettbewer@@ 15695
Latein@@ 15695
Kommunikations@@ 15694
resour@@ 15694
arrangements 15693
wachen 15691
vention@@ 15691
tiful 15689
positiven 15687
Abraham 15683
ru 15683
convinced 15683
sprecher 15682
pop 15678
Volkswagen 15676
finding 15673
einfacher 15671
jan@@ 15670
Linien 15663
Beauty 15663
Gegenwart 15659
satisfied 15659
jana 15658
use@@ 15656
Federation 15654
hl@@ 15650
Moderne 15647
inable 15645
Avenue 15642
stro 15641
cian 15639
football 15634
öhnen 15633
atively 15633
requirement 15632
Zim@@ 15630
enzo 15630
gewidmet 15626
Wild 15626
fut@@ 15619
lunch 15619
define 15619
stretched 15617
nicht@@ 15615
gent 15614
teo 15612
ativity 15612
broken 15609
Administ@@ 15609
noted 15606
sem@@ 15605
vierten 15604
declared 15604
ennung 15603
Wegen 15603
vast 15603
Parkplätze 15596
you@@ 15596
Konta@@ 15594
Marken@@ 15592
terrorism 15589
analysiert 15586
Chil@@ 15586
Katholi@@ 15586
law@@ 15584
cooking 15582
VP 15581
rad@@ 15580
Ähn@@ 15579
Skulp@@ 15579
zie@@ 15579
kämpfen 15578
mme 15573
aching 15572
fed 15569
Untersuchungen 15566
bekommt 15562
stil 15562
organi@@ 15561
apers 15561
Infos 15559
bass 15557
antes 15553
strei@@ 15550
settlement 15547
Nic@@ 15545
eover 15545
outs 15544
autumn 15543
Nation@@ 15542
fold 15541
servers 15538
sprogramm 15538
stätten 15538
thoughts 15537
zunehmend 15536
Intel@@ 15533
Rechts 15532
Tö@@ 15532
aes@@ 15532
dish@@ 15525
Kern 15524
Händler 15524
gestimmt 15522
hundert 15521
famili@@ 15521
täts@@ 15519
professionals 15518
gelöscht 15516
kund@@ 15516
Tier 15515
highlight 15513
oberen 15512
Adres@@ 15510
ständen 15508
tap@@ 15508
Sobald 15507
kilome@@ 15504
Fair@@ 15501
beschrän@@ 15498
atar 15498
1971 15493
tages 15493
gestaltung 15491
wissenschaften 15489
favor@@ 15489
investors 15488
Green@@ 15483
found@@ 15481
Danach 15480
ually 15480
Anon@@ 15476
sending 15474
Weiss 15473
Schnei@@ 15471
Personal@@ 15471
popul@@ 15470
Carlos 15468
UE@@ 15468
gert 15467
elected 15466
gepf@@ 15465
calendar 15464
pay@@ 15464
carrying 15461
Straß@@ 15460
Bürgern 15458
übernommen 15455
fts@@ 15455
Delegation 15452
einsetzen 15446
ès 15445
Finance 15442
failed 15441
Jobs 15440
ë@@ 15439
Burg@@ 15438
refugees 15437
obst@@ 15437
perfe@@ 15436
Lern@@ 15435
Hinder@@ 15434
gum@@ 15434
konferenz 15429
1.3 15429
bride 15427
Identität 15425
näh@@ 15421
hell 15419
Cent@@ 15416
Vermitt@@ 15415
symptoms 15413
Ferien 15410
erlauben 15410
Ry@@ 15408
direkte 15406
Bemerk@@ 15404
Wie@@ 15403
TV@@ 15400
see@@ 15398
wn@@ 15398
gefallen 15397
Angeles 15397
betrieben 15397
votes 15397
none 15396
umen 15388
accounts 15381
öffentlich 15379
Jahrhunder@@ 15377
acher 15376
ö 15372
rator 15372
circuit 15369
Peace 15364
Gespräch 15361
public@@ 15361
dict@@ 15356
vater 15353
Versuch 15351
Addi@@ 15351
Bilder@@ 15349
vergleich@@ 15348
firmen 15348
Xi@@ 15345
WE 15342
Ed 15340
messe 15338
prove 15338
mili@@ 15338
Resolution 15338
compromise 15338
otic 15335
bos@@ 15334
1967 15334
entfer@@ 15332
Istanbul 15332
block@@ 15331
Schrift@@ 15329
produces 15328
addressed 15327
Gelände 15325
thri@@ 15325
trail 15325
thilfe 15323
List@@ 15321
zerstör@@ 15319
py@@ 15312
ergänzt 15312
Indon@@ 15308
obvious 15307
brothers 15307
erfolgreichen 15306
tum 15305
stag 15305
vollkommen 15303
rone 15303
uter 15302
Gewin@@ 15297
coins 15295
passt 15293
Limited 15292
jüngsten 15287
ongoing 15286
hardly 15285
toren 15284
consu@@ 15284
records 15284
rats 15283
arr@@ 15283
Papier@@ 15282
meets 15282
oa 15280
dro 15279
gespräche 15278
Silber@@ 15275
träch@@ 15273
Lem@@ 15271
residential 15271
fünf@@ 15269
barungen 15269
Heiz@@ 15269
Rad 15268
spannung 15267
Syria 15264
tatsäch@@ 15261
Zwi@@ 15261
elektronischen 15261
kürzlich 15259
su 15257
buil@@ 15256
hell@@ 15255
Geräten 15254
accident 15251
uch 15250
actively 15249
verhalten 15245
killed 15244
rer 15239
gelegenen 15236
sheit 15231
kolle@@ 15227
Erz@@ 15224
ück@@ 15224
Updated 15224
endorf 15222
turns 15221
Forderungen 15217
collective 15215
Four 15212
GA@@ 15211
Schaden 15210
claimed 15210
Eg@@ 15209
fanden 15209
Leb@@ 15209
fig 15208
namik 15208
effec@@ 15206
verändern 15202
moon 15202
Jugend 15201
Main@@ 15197
Kontakte 15197
clubs 15196
Vielleicht 15195
nov@@ 15193
Assembly 15192
kurzem 15191
threat 15191
bestimmen 15190
selbe 15189
Komp@@ 15188
vorne 15188
Nacht@@ 15187
Brown 15184
vic 15184
Signal 15183
Wünsche 15181
riage 15180
vorbereitet 15179
letters 15174
gesti@@ 15173
1965 15170
tigkeits@@ 15168
sozial@@ 15166
Verfassung 15164
stical 15164
impression 15163
esc@@ 15162
grafie 15160
Bach 15158
gained 15158
addresses 15157
entag 15153
Amb@@ 15151
mented 15151
endor@@ 15151
confli@@ 15150
Vorstellung 15148
stanz 15148
Ferr@@ 15146
inspired 15143
putting 15141
genaue 15140
helping 15138
avo@@ 15136
Auftrags@@ 15130
erreichbar 15129
fisch 15129
passiert 15123
leichter 15122
Benjamin 15122
plenty 15122
lischen 15120
organ 15119
Ice 15118
Entertainment 15113
Aff@@ 15112
Gemeinden 15110
vag@@ 15106
ffer@@ 15096
Sachen 15089
Klavier 15086
mend@@ 15085
schritt@@ 15081
nah 15081
govern@@ 15081
ropoli@@ 15080
brief 15080
ende@@ 15078
wärts 15075
Kün@@ 15074
Leop@@ 15072
lot@@ 15071
itzen 15071
helpful 15070
danger 15069
entdeckt 15065
sterben 15064
Verantwor@@ 15064
verstän@@ 15063
customs 15063
globale 15056
wann 15055
Voraussetzung 15054
ores 15051
Which 15050
symboli@@ 15047
Sop@@ 15047
fehlen 15046
ländlichen 15046
Dau@@ 15046
Deut@@ 15044
Führungs@@ 15044
zweifel@@ 15043
Lee 15039
zent 15037
learned 15037
wahre 15032
wee@@ 15031
Rä@@ 15030
spectacular 15029
EPA 15027
interven@@ 15026
iz 15023
euer@@ 15021
Kel@@ 15017
fahrt@@ 15012
othe@@ 15010
destruction 15009
Brandenburg 15009
lehen 15008
prac@@ 15005
proud 15004
gram 15002
sian 14996
bereitet 14994
menge 14993
Stellung 14993
hou@@ 14990
hinten 14990
Alliance 14989
gehenden 14989
Proble@@ 14986
ologisch 14986
ball@@ 14985
BT 14984
amo@@ 14982
oldest 14981
erial 14977
Frem@@ 14976
robust 14975
bewegt 14974
universities 14973
kirche 14971
succ@@ 14971
sauber@@ 14969
Nachbar@@ 14968
ope 14965
gemeinschaft 14964
Southern 14963
gesucht 14961
spoken 14960
kunden 14957
ula@@ 14956
halter 14955
Therap@@ 14955
dien 14955
WA 14955
185 14954
merely 14953
fahrten 14951
kunst 14951
meant 14949
Airlines 14947
Bauer 14946
dler 14945
Expor@@ 14944
Dennoch 14943
shal@@ 14942
Hafen@@ 14936
Forscher 14932
Nei@@ 14931
pts 14930
magnificent 14926
ftung 14924
Arzt 14921
clos@@ 14916
booked 14915
zah@@ 14912
ho 14912
amed 14911
barung 14910
wealth 14910
minim@@ 14904
ziergang 14904
olle 14901
Got@@ 14901
mens 14897
Verpflichtung 14897
Des 14892
Schon 14892
Kulturen 14890
giene 14889
removal 14887
allgemein 14886
Minder@@ 14886
racle 14886
appreci@@ 14883
Neb@@ 14883
iti 14881
Hund 14879
einz@@ 14877
Planeten 14877
Mut@@ 14873
lining 14871
frü@@ 14868
Organis@@ 14866
Bath 14866
Kreuz 14864
tus 14861
Armen@@ 14860
aufs 14858
displays 14856
upgrade 14855
Right 14854
begrüßen 14854
stall 14852
blin@@ 14847
posse@@ 14844
träger 14844
Dubai 14844
endgül@@ 14841
bil 14839
Schneider 14838
shr@@ 14837
bü@@ 14832
sab@@ 14831
Kaiser 14828
reflect 14828
DNA 14824
drugs 14822
Gang 14821
Currently 14821
Diesen 14820
sender 14817
Innsbruck 14815
Jacques 14812
dness 14809
baden 14807
0,000 14806
Fortschritt 14803
treas@@ 14802
Todes@@ 14798
Junior 14797
dep@@ 14796
stuhl 14795
betroffen 14795
Vorder@@ 14795
bten 14790
intervention 14790
Kil@@ 14786
offiziellen 14785
kurse 14784
gian 14783
berichtet 14781
didn 14781
spending 14781
mitglied 14780
Fernsehen 14779
bekämp@@ 14779
zuständig 14778
ene@@ 14778
akzeptieren 14775
ady 14772
echnik 14772
benden 14771
nec@@ 14769
Religi@@ 14767
seitige 14767
personnel 14763
Florida 14761
Infe@@ 14760
rows 14759
offensichtlich 14756
Weil 14754
Epis@@ 14752
grams 14752
infected 14752
isla@@ 14749
kreis 14748
imag@@ 14743
managing 14743
chief 14743
DJ 14742
Ansprüche 14741
Brot 14741
Graz 14737
präzi@@ 14736
seeds 14735
wahren 14732
Zäh@@ 14732
Block@@ 14732
Blau@@ 14729
aka 14723
Equ@@ 14723
kontrolle 14720
AK 14718
originally 14717
stellern 14715
Besonder@@ 14713
pfe 14712
Baby@@ 14712
illustr@@ 14710
Kontra@@ 14708
Türen 14708
esti@@ 14707
verteilt 14705
Wann 14703
ßig 14701
aled 14698
Stone 14697
nig 14696
gespräch 14695
Versorgung 14695
Datenschutz 14694
Projekts 14693
beeindruck@@ 14693
Zwischen 14693
setzten 14691
Zeitung 14690
verständlich 14685
Wagen 14682
aufgeführt 14671
mann@@ 14671
age@@ 14670
mort@@ 14669
pilot 14668
Direktor 14666
favorite 14663
green@@ 14662
bestehende 14661
Stars 14660
reaching 14660
Fen@@ 14659
Arznei@@ 14658
Gerhard 14658
spanischen 14657
kern 14657
britischen 14654
appli@@ 14651
taining 14641
Angriff 14638
Eva 14637
respectively 14637
Wen@@ 14635
transpar@@ 14634
explains 14630
erzeugen 14629
bew@@ 14625
Luis 14625
lichung 14623
Hat@@ 14622
Gesetze 14621
Betrag 14620
Joh@@ 14620
vil 14620
mentary 14619
interview 14615
alisierten 14611
Besitzer 14609
Lieb@@ 14609
höhe 14606
bekann@@ 14591
Monaco 14589
substan@@ 14587
treue 14587
Immer 14586
tigungen 14585
Sozi@@ 14585
servi@@ 14583
Gun@@ 14581
Heart 14579
sec@@ 14579
nachzu@@ 14575
unable 14574
reagieren 14571
1950 14568
steuer 14566
Kloster 14566
brands 14566
Frie@@ 14564
lity 14564
beau@@ 14563
wirksam 14562
Gang@@ 14560
Unterhaltung 14557
universe 14554
Jens 14553
Genehmigung 14552
Getränke 14547
0s 14543
Grün 14542
powder 14541
Händen 14540
Nordrhein 14539
compensation 14538
hielt 14537
Telefon@@ 14533
Tech@@ 14533
victory 14532
erra 14528
erwäh@@ 14527
ligen@@ 14527
ehmen 14526
aufgebaut 14526
Kunsth@@ 14525
N. 14524
Häu@@ 14523
ärten 14522
antwor@@ 14519
Kamp@@ 14519
schreibt 14515
hob 14515
anschließend 14514
Fahrrad 14513
Fokus 14512
o. 14510
asser 14508
Ear@@ 14508
Rudolf 14507
vierte 14501
imperi@@ 14501
seriously 14500
knü@@ 14497
Entschei@@ 14494
Pfei@@ 14491
Mart@@ 14490
widely 14490
mathemati@@ 14489
behaviour 14489
Beschluss 14486
broad@@ 14485
aul@@ 14483
reaction 14482
Moderni@@ 14480
Prince 14479
hung@@ 14472
candidate 14472
politischer 14469
alisten 14468
strah@@ 14468
Maß 14464
organisieren 14464
Field 14464
ston 14462
Instead 14462
Fähr@@ 14461
Übernahme 14461
Team@@ 14461
Fritz 14461
kürz@@ 14459
Geor@@ 14459
delay 14459
shy 14458
valu@@ 14452
Leave 14451
Chairman 14450
attri@@ 14446
erleichtern 14442
Jun@@ 14440
Lyon 14438
gler 14436
renewed 14432
regulatory 14431
Mid@@ 14428
naturally 14428
ßer 14427
ا@@ 14427
damaging 14426
nien 14424
lists 14423
superior 14417
Szene 14417
Cran@@ 14417
enting 14416
rhyth@@ 14408
hosp@@ 14408
Gemäl@@ 14407
accurate 14407
daten@@ 14404
outcome 14401
sively 14398
entin 14394
keln 14393
Schwarz@@ 14391
gru@@ 14387
enab@@ 14387
Arm@@ 14386
berechtigt 14386
demanding 14386
eingestellt 14385
shift 14382
respec@@ 14381
bay 14380
erkannt 14378
arranged 14377
wan 14372
regeln 14371
schöpf@@ 14370
begrenz@@ 14366
ergeb@@ 14363
medizinische 14359
Militär@@ 14356
artigen 14355
Sorge 14354
DW@@ 14354
prefer 14348
Mobilität 14346
u.@@ 14346
Vorstand 14344
Francis 14343
Alfred 14343
och@@ 14343
starb 14339
Administration 14339
viertel 14336
Nam@@ 14335
passenger 14335
asser@@ 14330
Horiz@@ 14330
wahr 14329
Ost 14329
specific@@ 14328
Entwickl@@ 14327
Aspekt 14327
Urteil 14326
Zuletzt 14325
Hub@@ 14324
Gemüse 14322
Spor@@ 14320
Laz@@ 14317
ags 14314
Künstler@@ 14313
Bam@@ 14312
improvements 14312
fif@@ 14310
confirm 14310
süd@@ 14309
escape 14308
Orten 14306
trotzdem 14305
schlä@@ 14305
herum 14302
Serbien 14301
Oliver 14299
fasst 14293
Effekt 14293
Migration 14293
ccer 14293
Electri@@ 14292
Petersburg 14289
dek@@ 14285
Angesichts 14280
oxide 14280
Anton 14275
pointed 14275
Side 14271
Indonesia 14271
lung@@ 14266
Persön@@ 14265
moves 14263
austausch 14261
strategi@@ 14259
Are@@ 14259
Europa@@ 14259
cup@@ 14254
koord@@ 14253
nut 14253
ule 14252
Athens 14251
cinema 14251
schre@@ 14250
aments 14250
OP 14249
accomp@@ 14248
Literatur 14247
gear 14247
Israeli 14245
annen 14240
mittei@@ 14238
stig 14238
Long@@ 14237
fertigen 14237
stum@@ 14236
sichtlich 14235
degrees 14235
griechischen 14234
adverti@@ 14234
seed 14233
hardt 14233
philosophy 14231
Eintritt 14226
inning 14226
forderungen 14225
seitig 14224
Heimat 14219
Mailand 14214
Traum 14212
leich@@ 14211
gewährt 14209
labor 14207
fuhren 14207
answers 14206
gehörigen 14205
rs 14204
knapp 14203
Bereits 14201
Army 14201
Entspannung 14196
drug 14196
schnit@@ 14195
determin@@ 14194
Erwartungen 14192
intelligent 14192
Präsident@@ 14186
finde 14185
intellectual 14185
drives 14183
copyright 14182
Pflan@@ 14181
atta@@ 14181
Tokyo 14178
wahl@@ 14176
Demokra@@ 14176
bad@@ 14175
reads 14175
selber 14174
whatever 14174
intention 14172
transaction 14169
Priorität 14166
witness 14164
körper 14159
,000 14158
Klassen@@ 14157
Volumen 14155
verhindert 14154
kno@@ 14154
Kritik 14150
hundreds 14150
offer@@ 14148
Manuel 14148
flüs@@ 14147
partner@@ 14142
mutter 14142
lten 14139
Abhängi@@ 14137
Rod 14135
vieler 14134
stem@@ 14133
twice 14133
Pent@@ 14131
hist@@ 14124
Pizza 14123
teils 14121
räu@@ 14121
1939 14117
Zypern 14117
koh@@ 14117
IA@@ 14115
Glück@@ 14112
finds 14111
ě@@ 14109
observed 14109
Erinnerung 14108
subjects 14107
passion 14105
Wik@@ 14103
severe 14103
hofer 14101
Saar@@ 14097
Alexand@@ 14096
begrü@@ 14093
wag@@ 14091
hren@@ 14084
Essen@@ 14083
olt 14082
verwaltung 14080
artikel 14079
itzer 14078
tiere 14076
iss@@ 14076
aning 14076
Europä@@ 14076
Race 14076
Spiegel 14073
independence 14072
column 14068
anerkannt 14066
Kalifornien 14066
Veränderung 14066
legs 14061
bekannte 14058
abin@@ 14057
sister 14053
shine 14052
organisationen 14051
commitments 14051
jk 14049
low@@ 14047
einerseits 14043
N.@@ 14042
advis@@ 14040
Themen@@ 14036
rh@@ 14036
Rosen@@ 14035
cau@@ 14034
Herren@@ 14030
Chief 14029
zuständigen 14028
Made 14028
flug 14025
Iron 14025
schrieb 14020
ologien 14018
æ@@ 14017
Dance 14016
insi@@ 14016
tip 14008
gewähr@@ 14006
producer 14005
µ 14004
scar@@ 14001
celebrity 14000
Fußball 13995
Gespräche 13992
willi@@ 13991
illon 13988
dul@@ 13984
Marok@@ 13984
losses 13982
Kino 13976
survey 13976
welcomed 13972
Metern 13971
emplo@@ 13971
mussten 13970
vet@@ 13970
Männern 13968
Terr@@ 13966
ee@@ 13958
Rhein@@ 13957
198@@ 13955
Stern@@ 13954
Emer@@ 13954
equally 13953
rut@@ 13950
Schatten 13947
hec@@ 13947
gestal@@ 13943
willing 13943
tiefe 13939
roots 13939
limi@@ 13938
pist@@ 13937
Fest 13936
Frühling 13936
subsequent 13935
periods 13933
chapter 13933
Zentr@@ 13930
stronger 13930
attitude 13926
kampf 13925
Lex@@ 13924
desc@@ 13923
uk 13920
veran@@ 13917
Gewinn@@ 13912
6.5 13907
Weg@@ 13903
ordinary 13903
Anfragen 13901
gründen 13897
afel 13897
governance 13897
thick 13896
stands@@ 13895
Empfänger 13894
scheduled 13894
Nicht@@ 13893
Leh@@ 13888
receiving 13888
prefer@@ 13886
oser 13884
Gott@@ 13883
diskutiert 13883
Flan@@ 13882
resp@@ 13882
glory 13880
Mitglieds@@ 13876
Pist@@ 13876
Erwer@@ 13875
Oze@@ 13872
Gef@@ 13871
sens 13870
Syrien 13870
discrimination 13865
Säu@@ 13864
Phoenix 13864
Portuguese 13864
stärk@@ 13863
bone 13861
Ful@@ 13859
atte 13857
Pflanzen@@ 13857
wächst 13857
bezahlen 13856
Ange@@ 13856
chae@@ 13856
Brief@@ 13854
stammen 13852
entran@@ 13848
surely 13847
schein 13843
kore@@ 13841
ersetzen 13840
sendet 13838
inneren 13838
actors 13838
Temperaturen 13836
personen 13836
lehr@@ 13830
adult 13825
sanc@@ 13824
dichte 13820
schnellen 13820
unmöglich 13818
interessant 13810
Olympic 13809
Put@@ 13804
zufrie@@ 13803
stylish 13800
Umständen 13797
design@@ 13795
intense 13793
ret@@ 13792
par 13791
weisungen 13786
26.@@ 13786
holi@@ 13785
Angelegenheit 13784
ulations 13780
onisten 13779
feste 13776
expanded 13776
1.4 13774
Jacob 13774
Denken 13773
Sad@@ 13768
alco@@ 13766
defence 13766
entstand 13764
heated 13764
Dokument@@ 13763
adding 13763
Atom@@ 13760
roll@@ 13758
Git@@ 13758
frem@@ 13754
otyp@@ 13753
Ou@@ 13753
regarded 13753
schwarzen 13752
vertrag 13751
dental 13751
moral 13749
akzeptiert 13748
Planet 13747
abteilung 13747
protein 13746
Bür@@ 13743
roten 13742
overcome 13740
mation 13740
Kär@@ 13739
Stufe 13737
reporting 13736
vre 13735
Jakob 13733
obe@@ 13732
1.6 13731
gross 13728
lässig 13726
polizei 13726
schlagenen 13725
keinerlei 13723
Steph@@ 13723
mig 13722
Samuel 13720
viewing 13717
Bedürf@@ 13715
cure 13715
5m 13714
Mou@@ 13713
everywhere 13711
aer@@ 13710
ellow 13710
gegenwärtig 13709
wein 13708
graben 13707
blas@@ 13705
savings 13703
Coast 13702
FP@@ 13696
s- 13696
rasch 13695
Verteidigung 13693
ickt 13691
Ash@@ 13689
ø 13686
dine 13686
humanity 13683
unterscheiden 13682
judge 13681
absich@@ 13678
blon@@ 13677
omic 13677
sungs@@ 13675
tering 13674
iry 13674
eter 13673
answered 13670
brun@@ 13667
vorstellen 13667
Philosophie 13666
Rohr@@ 13666
chamber 13666
fted 13666
18th 13662
bestä@@ 13659
gelungen 13658
suited 13657
rising 13655
Olymp@@ 13653
pros@@ 13653
Darum 13649
realized 13647
Venus 13646
ologen 13643
geprägt 13641
Vier@@ 13640
Sydney 13639
isse 13638
Hong@@ 13638
jahr@@ 13633
normally 13630
ield 13628
steuern 13627
lustig 13627
gathered 13627
advi@@ 13626
Absicht 13623
ösen 13623
gewer@@ 13622
mende 13621
execution 13621
Öff@@ 13620
geschütz@@ 13618
possibly 13616
Heim@@ 13615
exception 13615
bac@@ 13610
Spec@@ 13610
prison 13610
rechtliche 13609
zens 13609
Eck@@ 13609
golden 13607
displa@@ 13606
Frist 13604
agentur 13604
GH 13604
deutscher 13600
Ebenso 13596
Ecke 13595
cit@@ 13592
bauten 13590
resul@@ 13589
sien 13588
kr@@ 13587
rang 13581
sekretärin 13580
Währ@@ 13579
passing 13573
vern@@ 13571
oy@@ 13570
vorhandenen 13569
vielmehr 13569
jun@@ 13568
Mix 13568
Championships 13567
Chris 13565
Vinc@@ 13561
Masse 13560
fiel 13558
Mangel 13557
dow 13555
Naz@@ 13554
newspaper 13553
wohn@@ 13547
bst 13546
monetary 13545
Aktivi@@ 13544
purch@@ 13543
Woh@@ 13542
limit@@ 13541
Institution 13540
finanziert 13540
Wandel 13539
weak@@ 13539
kus 13538
reply 13536
circle 13536
aktuell 13535
stent 13533
halts@@ 13533
Ansprech@@ 13529
1800 13528
regu@@ 13525
jekt 13523
WIN@@ 13521
aten@@ 13521
pig@@ 13518
recognize 13518
natür@@ 13512
kurz@@ 13509
Bren@@ 13509
Sche@@ 13508
haber 13507
Finanzen 13503
Genau@@ 13502
Kampf@@ 13501
Schuh@@ 13501
volun@@ 13501
Wirtschafts- 13500
branche 13500
flan@@ 13497
ceremony 13496
fehl 13495
him@@ 13495
Freiburg 13495
Cape 13494
Klar@@ 13493
Grande 13492
sträger 13491
Abu 13491
Konsu@@ 13488
treatments 13486
Ersatz 13481
Abend@@ 13480
Ehr@@ 13478
actor 13476
dale 13475
Normal@@ 13475
derzeitigen 13473
VR 13472
Literatur@@ 13471
dding 13462
löschen 13456
lädt 13455
bede@@ 13454
compli@@ 13453
Philippe 13453
hunder@@ 13450
Schwi@@ 13448
Widerstand 13448
auft 13447
tism 13446
Verkaufs@@ 13442
belief 13442
Entfer@@ 13441
coun@@ 13439
brech@@ 13438
Alger@@ 13438
Tsch@@ 13438
normalen 13436
nar@@ 13433
productive 13430
exposed 13430
dil@@ 13429
BI 13429
zenten 13426
revealed 13425
fahrer 13421
Balance 13421
umes 13421
personally 13420
Anmel@@ 13419
Nas@@ 13415
Flag@@ 13415
Einheiten 13415
Verbrechen 13412
opinions 13409
pin@@ 13404
generations 13404
aufbau 13401
equivalent 13394
entgegen 13390
versicherung 13388
Fanta@@ 13386
französische 13383
ammern 13376
schirm 13375
1956 13375
fähige 13369
herrscht 13369
dau 13368
stop@@ 13362
san 13361
collabor@@ 13361
Freien 13359
feiern 13358
precious 13355
Trink@@ 13354
restor@@ 13353
behandeln 13352
unteren 13352
schlägen 13351
glu@@ 13351
Mittelmeer 13349
resol@@ 13349
suspension 13347
verlangt 13346
Ausstellungs@@ 13345
1964 13344
Reserve 13342
Ernährung 13340
verlangen 13339
Films 13339
schlossen@@ 13338
senior 13336
2500 13334
falschen 13328
aufmerksam 13327
blicken 13325
Dü@@ 13321
mate 13320
Arbeiter 13319
operates 13318
Jen@@ 13315
beendet 13314
igten 13309
anta@@ 13309
Blatt 13307
antly 13306
Waren@@ 13305
agen 13303
Alpen 13298
til 13297
hearing 13295
mption 13295
enced 13294
internen 13292
Urhe@@ 13288
Füße 13288
infrastru@@ 13288
GMT 13285
guar@@ 13281
largely 13277
versammlung 13275
underground 13273
weh 13273
propor@@ 13270
rapidly 13270
dependent 13270
asking 13268
impos@@ 13268
großem 13268
Autoren 13267
stolz 13267
steigern 13266
omo 13265
solange 13264
gebieten 13262
photographs 13261
consent 13260
ehemalige 13257
wen 13255
ington 13254
rd 13251
careful 13251
Faktor 13246
nommen 13245
statistics 13245
sci@@ 13245
mirror 13243
Feier@@ 13241
ügen 13238
urs@@ 13238
miss@@ 13238
Gute 13233
ide 13233
beur@@ 13233
script 13232
bewähr@@ 13228
Deutschlands 13226
Festivals 13226
äufer 13226
substance 13226
mobil 13225
neter 13223
falsch 13222
fähigen 13222
negoti@@ 13222
infection 13219
europa@@ 13218
Verbesserungen 13215
lyn 13214
zogene 13213
courts 13213
concentr@@ 13213
hammer 13211
ture@@ 13209
Unabhängigkeit 13209
Währung 13208
elen 13208
kni@@ 13206
familien@@ 13206
kirchen 13206
heav@@ 13204
lte 13199
ücken 13198
ssi@@ 13196
signals 13196
schlecht 13194
explic@@ 13189
ologe 13188
icon 13188
Sax@@ 13186
verpflich@@ 13182
Nick@@ 13181
stör@@ 13180
Patrick 13180
Territ@@ 13180
Unterstütz@@ 13179
Pressemitteilung 13175
preparing 13171
Kok@@ 13169
Fremd@@ 13169
Saudi 13169
Coo@@ 13165
schrän@@ 13164
küste 13159
Nachmittag 13157
Lang 13152
Ganz@@ 13151
continent 13149
FL 13148
Zucker 13147
Edinburgh 13146
schöner 13145
Lernen 13145
surgery 13145
Akademie 13144
Mitt@@ 13143
Hur@@ 13143
oxy@@ 13143
Beweis 13141
Perspektive 13139
ekt@@ 13138
anstatt 13138
Meh@@ 13138
absol@@ 13137
Zealand 13137
beschränkt 13136
weichen 13136
Orchester 13135
astic 13134
Ausblick 13133
Hubert 13133
vorgenommen 13131
engaged 13131
werks 13129
lev@@ 13128
Verkehr@@ 13128
WM 13127
beding@@ 13126
dun@@ 13126
nan@@ 13126
üssel 13122
Eich@@ 13122
tape 13118
diet 13116
rub@@ 13116
erkennt 13115
Ot@@ 13112
Absol@@ 13112
chil@@ 13110
wander@@ 13107
übt 13105
Prop@@ 13104
normalerweise 13099
bestätigen 13099
effici@@ 13097
ghting 13097
Freund@@ 13095
recognised 13094
1966 13091
inters 13089
gedacht 13088
solches 13088
Vaters 13086
Regelungen 13086
Jar@@ 13086
diskutieren 13085
[...]
