. 75519894
, 72597969
▁the 71136600
▁of 40374117
▁to 35571070
▁and 34693554
s 28817150
▁in 26132684
▁a 24838578
▁is 16906471
' 16353174
▁you 14612845
▁I 14486320
▁for 13765151
▁that 11940312
- 10731512
▁The 10129238
▁with 9769706
▁on 9373930
: 9244006
? 8758937
▁be 8697135
▁it 8252538
▁- 8171835
▁are 7907766
▁( 7224954
t 6672327
▁or 6495562
▁as 6418911
▁not 6276823
▁from 6027653
▁this 5998753
▁by 5965247
▁have 5841557
▁ 5761808
) 5696127
▁your 5683901
▁was 5433154
’ 5314636
▁can 5229161
▁at 4774622
▁we 4478765
▁will 4427187
▁an 4023881
▁all 3792387
▁You 3376985
▁has 3206229
▁It 3171532
▁which 3132728
▁he 2994002
▁me 2962245
ing 2898358
▁they 2887982
▁one 2838233
re 2791813
! 2787463
▁do 2779098
m 2763580
▁In 2731963
▁but 2720339
▁our 2701842
d 2686903
▁my 2668421
▁We 2638783
... 2633904
▁more 2630029
▁their 2575735
▁" 2570515
▁about 2563496
▁A 2480477
; 2440662
ed 2418763
▁out 2340109
▁his 2327164
▁“ 2325161
▁This 2278789
▁up 2256010
▁time 2228406
▁what 2215958
▁other 2178011
▁also 2126781
▁there 2124627
▁who 2085841
▁like 2082473
▁so 2080080
▁if 2039390
▁And 1993129
▁know 1990239
▁1 1987300
▁been 1971990
▁were 1950316
▁them 1917299
/ 1891279
▁no 1830967
▁its 1826541
▁only 1811312
▁just 1781648
▁He 1773071
▁when 1737582
▁any 1736540
▁people 1696527
▁shall 1675612
▁may 1622564
▁would 1611217
▁us 1610721
▁than 1603393
▁should 1596129
▁into 1585408
▁him 1584031
▁get 1576416
▁had 1575890
▁If 1565570
a 1542768
e 1527428
▁her 1506222
▁new 1487931
▁What 1470961
▁– 1466391
ll 1443272
▁weather 1424865
▁use 1423568
er 1407982
▁2 1393949
▁first 1387692
▁don 1375222
▁right 1374414
▁here 1367067
ly 1349477
▁years 1334828
▁need 1325781
▁data 1319020
▁want 1303733
▁these 1293774
ve 1287771
▁No 1274810
▁European 1269720
▁But 1261328
▁such 1259645
▁now 1252424
▁some 1243575
▁see 1224947
▁how 1217167
▁information 1213599
▁over 1202100
▁make 1186164
▁most 1182707
▁two 1173032
▁well 1170552
▁3 1163967
▁world 1163217
▁said 1155749
▁Weather 1153290
▁where 1152052
▁work 1151447
▁God 1141069
▁day 1137450
▁take 1130746
▁go 1123521
y 1123271
▁They 1099283
▁Hotel 1090346
▁then 1088622
▁very 1084636
▁she 1059253
▁could 1057464
▁life 1055820
▁So 1043225
▁good 1033114
▁way 1032898
▁How 1014509
▁think 1010505
▁after 1008225
▁For 1003818
▁There 1003816
in 994156
▁States 989345
▁must 988444
▁used 977349
▁back 976962
▁many 975852
▁those 973878
.” 970393
" 963354
▁because 954860
▁That 950319
▁even 938755
S 931837
▁year 929199
▁World 922326
). 917635
▁did 914388
▁& 912708
▁5 912286
▁between 900623
▁free 895387
▁made 895253
▁best 880565
▁find 876336
▁Time 875370
▁through 868685
i 862917
▁before 860194
▁under 859172
▁4 849709
▁10 849532
▁Commission 846884
▁Hotels 840858
▁system 838115
r 835078
o 821858
▁All 821226
▁same 820976
▁man 819447
), 819181
▁come 818034
▁Member 813298
▁every 810738
▁Local 810164
th 808726
▁hotel 807136
▁help 805717
al 802659
▁7 799923
▁got 795504
▁down 792447
▁does 789051
▁without 785640
▁S 783519
▁within 781662
." 779368
I 775298
com 769852
▁place 763553
▁Article 760084
▁own 759498
▁much 759296
or 752319
▁To 749583
▁Do 742599
▁going 722549
▁part 720346
▁say 720046
n 714113
▁C 713650
▁When 707539
▁As 704172
▁number 703385
▁too 700756
▁last 699521
▁long 698580
▁am 694470
▁EU 691798
▁each 689659
▁look 688614
▁being 686891
▁hotels 679052
” 677337
▁She 677027
es 675439
▁2017 672011
▁never 671786
▁set 670587
▁available 666607
▁map 665814
▁conditions 663672
▁products 660718
▁still 657133
▁6 654817
▁love 651577
▁order 646427
▁km 643124
▁different 641985
▁B 641308
▁away 640348
▁really 638703
▁area 637915
▁something 635822
▁high 633803
g 633585
▁United 633165
▁Weekly 631036
▁always 623551
▁great 622598
▁business 620190
A 618818
▁home 617512
▁three 617278
b 615574
▁New 615139
C 614140
▁important 612799
▁city 610493
▁personal 609055
▁service 608330
▁ago 602525
▁found 602250
▁de 601017
▁following 598346
2 597196
▁services 595925
▁' 594751
▁20 594201
▁Regulation 593996
▁‘ 589517
▁around 586303
▁children 581682
▁both 581665
▁My 580071
▁name 579485
▁forecast 578878
▁give 578435
▁things 577429
▁E 574113
▁/ 572568
▁case 567704
▁Well 567189
D 564887
▁| 564229
▁room 561593
▁including 555634
▁near 554778
▁online 553872
▁little 552825
▁off 552454
▁possible 547018
] 544013
▁8 542834
▁days 541539
▁during 540130
▁Union 539706
▁while 538264
▁market 536811
▁offers 535415
▁water 533748
▁provide 531974
▁another 531359
▁better 530852
▁stay 526669
▁car 525336
▁against 522280
▁again 521747
▁On 520608
▁support 520011
▁means 514720
▁family 514108
▁next 513689
▁why 513634
▁public 512852
▁person 511721
▁end 509432
c 508718
▁body 508199
▁company 502180
▁change 500616
▁country 500154
▁Council 498910
▁tell 497416
▁Europe 489465
B 489424
▁gonna 485633
▁didn 483410
▁Why 483153
▁power 481477
▁using 480159
▁D 479371
▁human 476749
▁let 476237
▁countries 476081
▁thing 475110
▁State 472965
EC 469794
▁re 469545
▁Your 469508
to 467686
▁since 465885
x 465068
▁At 464109
k 462992
▁18 462991
▁M 462324
▁level 461521
▁9 460641
▁Our 460053
▁today 459392
▁15 458734
▁areas 458637
ers 458331
able 453587
▁product 453524
▁development 453075
▁control 452097
▁One 451610
▁T 450264
▁night 449717
▁Today 444232
▁Now 441040
▁per 440257
▁put 439499
▁law 439341
▁might 439033
▁minutes 438900
▁provided 438479
▁current 435279
▁old 435090
▁process 434610
on 433487
▁necessary 433484
▁P 433384
▁together 431490
▁12 429935
▁national 429153
▁With 427428
▁point 426407
▁already 425099
▁G 424624
▁house 424150
▁able 423978
▁access 423376
▁period 421678
▁Room 420062
▁rooms 418507
▁real 417735
▁book 416731
▁website 415735
▁few 414161
▁L 414066
The 413690
▁quality 413577
▁called 412404
▁course 410976
▁30 405487
▁money 402652
en 402617
▁mean 402396
▁F 401194
▁account 401129
▁based 400720
▁feel 399460
▁live 399097
▁open 398767
▁game 397099
▁Free 396897
▁These 396610
▁energy 396488
▁second 396098
▁become 395749
▁call 395656
▁subject 395579
▁[ 395462
▁international 395236
▁ever 395228
▁third 394666
▁small 393017
▁full 392631
▁ensure 392506
▁months 392377
▁lot 392176
▁keep 391944
▁experience 390094
▁price 388134
▁least 387735
▁until 387508
▁K 386982
▁form 386174
an 386017
▁men 385485
▁show 384947
▁Search 384919
▁believe 384847
h 383317
▁un 383238
co 382635
▁Hungarian 381220
▁having 379615
▁Where 379460
▁type 379085
▁sure 378954
the 378833
▁English 378813
▁Oh 376922
▁file 376845
▁came 376571
3 375304
▁future 374903
▁start 374714
▁social 373597
▁thought 372991
▁cannot 372347
▁O 372241
▁Hungary 370123
▁left 369698
▁financial 368978
▁non 368467
▁everything 368299
▁heart 367502
▁working 367289
▁measures 367022
▁times 366306
▁food 365297
1 363635
T 363596
man 362844
▁e 362083
▁U 361320
▁given 361015
▁light 360414
▁However 359433
▁rights 359125
G 358831
▁International 357975
▁whole 357706
▁— 357339
▁hand 356984
▁view 356941
▁An 356827
▁protection 355783
▁Let 355437
▁property 353463
▁special 353321
▁Are 353156
▁Not 352917
▁V 352313
▁particular 351251
▁His 350166
▁health 349309
▁anything 349202
▁needs 348673
▁prices 348625
▁Current 348104
▁Don 347684
▁doing 347625
l 346156
▁million 345960
▁less 345527
ic 345300
V 344927
z 344863
▁done 344680
▁example 344052
▁• 344052
▁application 343890
▁play 343746
▁Then 343193
▁Re 342313
▁Can 341373
▁Yeah 340896
▁research 340435
▁far 339823
▁group 338743
▁air 338610
▁won 337788
▁Directive 337720
▁taken 337548
▁told 335756
▁Jesus 334725
▁results 334468
▁accordance 334091
▁looking 332514
▁After 332073
▁certain 331591
▁... 331342
▁private 331279
▁women 329933
▁hours 329721
▁management 329613
▁yourself 327775
▁16 327584
▁offer 326331
▁security 325742
▁legal 325358
( 325242
W 324909
▁state 324906
▁More 324872
▁care 324230
de 323801
▁side 323401
ity 322657
▁Mr 322527
▁often 321862
▁close 320490
▁Just 319477
▁enough 319136
▁local 319060
▁nothing 319052
▁pay 319008
▁Best 318665
▁TV 318115
▁center 317642
▁child 316981
na 316901
▁City 316654
▁program 316367
▁systems 315185
▁kind 314561
▁production 313659
▁Car 313423
▁H 313416
▁fact 313415
▁Hourly 312955
4 312170
K 311507
▁specific 311201
▁risk 311174
▁N 310782
▁rules 310090
▁talk 309934
▁Lord 308718
▁problem 308577
▁processing 308457
ation 308322
▁site 307585
▁R 307378
▁main 307152
▁11 306945
▁China 306676
▁Airport 305281
▁question 303828
▁design 303775
▁La 303226
▁list 303173
▁include 303125
us 302857
f 302472
▁language 302367
▁four 302332
▁later 301677
▁others 301109
▁known 300702
▁further 300180
u 299734
▁makes 299729
▁easy 299179
▁once 299122
▁By 299042
▁please 298673
▁understand 298274
▁week 298113
F 297496
▁yet 296540
▁economic 296162
▁report 295117
▁whether 294376
▁policy 294056
up 293584
E 293184
▁2018 293001
▁present 292083
▁September 291801
▁past 291550
▁common 291548
▁doesn 290582
▁Please 290548
▁natural 290361
▁accommodation 290354
H 289916
▁large 289678
▁July 289405
▁took 289335
▁went 288481
▁25 288422
▁hard 288056
▁guests 287907
▁Home 287785
▁Windows 287571
▁team 287559
st 287537
▁14 287459
ia 287296
▁See 286324
▁activities 285780
Show 285097
▁upon 284419
▁contact 284119
▁mind 283476
▁treatment 283067
▁either 282844
▁school 282310
▁single 282254
▁required 281891
▁walk 281693
▁value 281116
P 280919
▁making 280225
▁Google 280053
▁big 279669
▁young 278812
▁17 278792
▁says 278250
▁decision 278214
▁several 277236
▁May 276837
▁referred 276547
▁i 276498
▁Community 275329
▁someone 274921
▁taking 274543
▁basis 274403
▁seen 274321
▁provides 274062
▁longer 273865
▁among 273606
▁requirements 273594
▁try 273271
ion 272762
▁De 272565
▁Budapest 272515
▁death 272497
▁project 272342
▁authorities 272232
▁date 272200
▁result 272182
▁located 271954
▁leave 271934
▁study 271829
▁related 271466
▁Get 271139
▁top 270995
▁24 270748
▁ask 270580
▁Parliament 270022
▁create 269382
▁From 268192
▁temperature 267758
▁living 266861
▁government 266833
▁technology 266668
M 266516
▁above 266206
▁blood 266139
▁13 266059
▁Who 265919
▁head 265329
▁content 265242
▁building 264881
▁read 263037
▁page 263028
▁stop 262922
▁m 262771
▁Live 262677
▁history 262581
▁five 262312
▁comes 261997
▁according 261708
▁Tomorrow 261243
▁Or 261111
▁wanted 260965
▁address 260534
▁problems 260527
▁therefore 260131
▁50 259658
▁performance 259553
▁line 258881
▁> 258472
▁meet 258219
▁National 258208
▁age 258190
▁father 257791
▁companies 257391
▁Germany 257368
▁true 256874
— 256539
▁check 256487
▁general 256005
▁members 255105
▁job 254879
▁Go 254850
▁University 254557
▁low 254551
▁due 253932
▁individual 253796
ism 253542
▁apply 253536
▁users 253429
p 253398
▁friends 253299
▁bring 252960
▁appropriate 252509
▁safe 252458
▁students 251437
▁action 251300
▁search 250937
and 250851
▁request 250423
▁amount 249990
le 249913
▁features 249072
▁reviews 249013
▁100 248719
N 248556
▁face 248296
▁range 247683
▁words 247466
,” 247374
▁interest 246704
▁plan 246328
▁getting 246075
▁Some 245447
▁mother 245152
▁industry 244701
ness 244250
▁January 243649
▁saw 243474
▁matter 243116
▁coming 243011
▁woman 242236
▁bed 242106
▁cases 242047
▁South 241674
▁safety 241586
▁drive 241199
O 241128
▁field 240045
▁environment 239571
▁similar 239454
▁choose 239435
▁total 239335
star 239317
▁material 239194
▁St 237952
▁computer 237804
▁else 237337
▁training 237209
▁music 236890
▁space 236548
▁test 235779
▁X 235515
▁addition 235411
▁June 235369
▁purposes 234691
▁clear 234615
▁Have 233974
▁works 233821
▁rate 233657
▁sale 233169
▁half 233079
▁son 233021
▁software 232887
▁knowledge 232854
▁situation 232827
▁party 232813
▁everyone 232559
▁location 232418
▁started 231720
▁Christ 230586
▁US 230487
▁increase 230348
▁nature 230348
▁bad 230232
5 230023
▁airport 229751
ro 229355
▁equipment 229115
▁American 228630
▁Al 228543
▁short 227775
▁Be 227737
▁August 227647
▁key 227554
▁event 227072
▁created 226779
▁purpose 226640
▁changes 226634
▁effect 226561
▁Group 226475
ka 225857
▁version 224919
▁2019 224551
ist 224509
▁reason 224481
▁actually 224414
▁learn 224098
▁happy 224056
▁December 223688
▁respect 223330
▁Yes 223256
▁video 223071
▁cost 222961
ton 222616
▁Holiday 222324
▁idea 222196
▁phone 222036
▁war 221980
▁hear 221790
▁visit 221494
▁Here 221117
▁p 221085
▁President 220901
▁word 219264
-- 219240
R 218901
▁German 218901
▁21 218816
▁relevant 218485
▁network 218272
▁run 218061
▁soon 217943
▁W 217939
▁various 217751
▁almost 217210
▁perfect 217210
it 217081
▁Because 217040
▁professional 216536
▁Man 216356
ne 216000
▁House 215556
no 215491
▁modern 214818
▁hope 214720
▁role 214045
▁paragraph 213752
ate 213652
▁self 213512
▁remember 213495
▁Of 213235
▁Top 212653
el 212650
▁technical 212463
▁co 211883
ar 211875
▁asked 211808
▁position 211244
▁France 211132
▁move 211010
▁turn 210840
▁trade 210710
▁San 210707
▁user 210518
▁patients 210472
is 209946
▁wrong 209934
▁beautiful 209850
as 209843
▁lost 209531
▁Park 209506
▁friend 209495
▁truth 209448
▁lives 209214
▁share 208969
▁places 208941
▁terms 208857
▁October 208359
▁rest 208209
▁needed 208097
▁land 207852
▁saying 207820
▁heard 207721
▁front 207503
▁games 207411
▁Did 207131
We 207104
▁deal 206922
▁story 206235
▁effective 206194
▁office 206185
v 206172
▁J 205905
▁Look 205638
▁costs 205528
▁Annex 205346
▁reach 205343
▁Committee 204626
▁political 204558
▁trying 204516
▁outside 203886
ra 203579
▁dead 203487
▁authority 203389
▁complete 203308
▁especially 203299
▁Italy 203089
▁itself 203089
at 202983
▁established 202875
▁View 202864
▁Dr 201745
▁19 201724
▁member 201550
▁sent 201424
▁happened 201400
▁average 201373
▁morning 200894
▁higher 200769
▁considered 200567
▁skin 200439
▁Israel 200416
ian 200415
▁force 200359
rs 200178
▁Wi 200018
▁courses 199935
▁Z 199861
▁early 199792
▁guy 199596
▁girl 199530
▁device 199324
▁concerned 199319
▁global 199183
▁major 199083
▁effects 199068
▁below 198994
▁America 198922
): 198807
▁education 198758
▁March 198708
▁% 198660
▁themselves 198341
▁however 198297
▁Other 198037
▁strong 198003
▁mi 197987
▁direct 197849
EU 197255
▁continue 197250
▁size 197205
▁receive 197162
▁takes 197104
▁though 197010
▁aid 196965
▁buy 196834
▁Come 196552
▁questions 196523
▁ready 196285
ta 196189
▁Bed 195514
▁cause 195442
▁First 195343
L 195058
▁Republic 194871
▁hands 194050
▁weight 193873
▁customers 193845
▁programme 193830
▁booking 193747
▁regard 193711
ment 193498
▁responsible 193431
▁Kingdom 193174
ary 193171
▁white 192499
▁Data 192478
▁22 192466
▁pre 192372
▁Hey 192330
▁apartment 192188
la 192024
▁designed 191946
▁Day 191897
▁alone 191895
▁growth 191871
▁sea 191800
▁meeting 191772
▁General 191415
▁solution 191315
▁provisions 191153
▁York 190702
▁eyes 190430
▁additional 190287
il 190279
▁send 190252
▁centre 190233
age 190051
▁travel 189974
▁Me 189802
▁directly 189519
▁Church 189420
▁received 189222
▁parts 189065
▁levels 188978
▁allow 188918
▁enjoy 188884
▁active 188868
▁built 188842
▁simple 188776
▁Pro 188640
▁isn 188510
▁Find 188282
▁Most 188078
w 188006
▁anyone 187959
▁French 187899
▁events 187778
▁return 187766
▁along 187749
▁became 187734
▁facilities 187669
▁Guest 187594
▁month 187392
ie 187222
te 187209
▁King 187124
▁moment 186800
▁black 186776
▁across 186477
▁Bar 186418
▁Okay 186362
less 186262
▁Nearby 185735
▁+ 185698
▁lead 185658
▁wife 185612
▁weeks 185358
▁final 185096
▁points 184928
▁knew 184860
▁town 184754
▁Business 184670
▁gave 184669
," 184573
". 184090
Fi 184053
▁choice 183985
▁concerning 183421
▁London 183283
▁Central 183242
▁transport 183144
▁himself 183084
ive 182732
▁bar 182595
▁types 182580
j 182333
▁staff 181793
▁photos 181603
▁40 181600
▁procedure 181582
▁society 181553
▁Court 181147
▁Le 180489
▁series 180220
▁activity 179906
▁media 179653
▁Internet 179113
▁agreement 178898
▁held 178701
▁Office 178632
▁programs 178464
day 178271
▁cooperation 178264
_ 178223
▁model 177861
▁save 177733
ry 177728
▁60 177682
▁_ 177655
▁El 177461
▁community 177397
▁implementation 177245
▁wants 177224
▁table 177173
da 177155
▁Apartments 177125
▁Co 177050
▁II 176975
▁bit 176932
▁23 176888
▁six 176778
▁flights 176744
▁details 176196
▁Play 176102
▁existing 175913
▁box 175890
▁popular 175881
▁Good 175832
▁follow 175775
▁2016 175661
▁film 175475
▁brought 175191
X 175182
▁issue 174923
▁oil 174269
J 174029
▁Information 173970
▁card 173897
one 173783
▁earth 173480
▁North 173457
▁region 173357
▁star 173041
▁impact 172871
▁standard 172830
▁groups 172703
▁Accommodation 172687
▁step 172640
▁guys 172586
▁baby 172576
▁eat 172416
▁machine 172117
▁behind 171570
▁tax 171568
▁fully 171508
▁parties 171301
▁flight 171136
▁percent 171130
ch 171083
▁code 170927
▁marketing 170753
▁unique 170715
▁Russia 170604
▁April 170572
▁entire 170021
Y 169995
▁myself 169954
▁x 169614
▁persons 169496
▁added 169432
▁Museum 169364
▁wish 169255
▁High 169136
do 168958
▁post 168724
▁Maybe 168659
▁difficult 168110
▁doctor 167939
▁fine 167711
▁fire 167654
▁issues 167579
▁John 167533
▁files 167475
▁inside 167472
▁potential 167302
▁answer 167190
ul 166933
▁Show 166924
ine 166881
▁Center 166870
▁materials 166837
go 166831
▁Book 166534
for 166533
▁28 166417
▁projects 166351
▁original 166284
▁disease 166209
▁kill 165976
▁Android 165866
▁news 165787
▁hair 165720
▁talking 165551
▁developed 165272
▁physical 165150
▁minute 164911
be 164762
os 164470
▁Beach 164224
▁significant 164140
▁operation 164085
▁restaurant 163879
▁Places 163858
▁storage 163840
land 163775
▁goods 163772
▁art 163700
▁Service 163665
▁improve 163560
▁rather 163461
▁breakfast 163228
▁options 162610
▁attention 162606
ling 162350
time 162025
▁station 162025
▁written 161937
▁Inn 161847
▁climate 161764
▁okay 161660
um 161222
▁Spain 161038
▁killed 160972
▁protect 160766
▁quite 160608
▁uses 160436
▁fight 160403
▁probably 160399
▁parents 160382
▁speed 160237
▁According 160133
ce 159869
▁Love 159593
6 159571
▁0 159454
▁opportunity 159448
▁White 159413
▁carried 159402
▁capacity 159339
▁People 159145
▁largest 159141
▁customer 159063
▁text 159050
▁sorry 158938
7 158724
▁happen 158699
▁born 158652
▁Air 158623
▁Street 158603
▁message 158454
▁sound 158435
▁fast 158212
▁term 158129
ur 158093
▁resources 158003
▁peace 157967
▁payment 157905
▁easily 157898
▁beginning 157817
▁anti 157800
▁solutions 157747
▁connection 157496
10 157416
▁Decision 157369
▁November 157300
▁wasn 157203
▁thinking 157105
▁ways 156576
▁hold 156570
▁door 156539
® 156461
▁Since 156281
▁pressure 155952
line 155949
▁quickly 155812
▁pool 155726
▁simply 155720
▁sector 155207
▁central 154946
▁relationship 154894
▁investment 154849
Z 154796
▁stand 154782
▁allows 154736
▁includes 154620
▁completely 154576
▁Agreement 154338
▁practice 154209
▁review 154159
▁Download 154119
▁died 153994
▁king 153916
▁g 153907
▁wait 153903
▁chance 153842
minute 153742
▁published 153618
▁source 153592
▁Take 153540
▁via 153485
▁sense 153453
▁function 153420
di 153166
out 153129
est 153020
▁Black 152991
▁included 152812
▁speak 152765
▁Two 152634
▁transfer 152540
8 152411
▁(1) 152261
son 152143
▁daily 152089
▁road 151988
▁act 151986
▁enter 151841
▁War 151618
▁met 151460
▁latest 151356
▁27 151339
▁kids 151144
ty 151028
+ 150972
▁contract 150892
ies 150792
▁pain 150656
▁applications 150611
▁deals 150611
se 150427
▁mm 150246
▁increased 150226
▁Art 150113
▁click 150067
▁serious 150024
▁develop 150009
hu 149993
▁applicable 149834
year 149803
€ 149742
▁supply 149727
▁digital 149700
▁Only 149694
▁usually 149579
▁nice 149498
▁mobile 149497
▁capital 149460
▁century 148969
▁standards 148892
▁accommodations 148824
▁immediately 148678
▁throughout 148660
ma 148448
▁Mar 148358
▁internet 148224
▁analysis 148202
▁knows 148170
▁die 148070
▁Online 148016
▁red 148009
▁section 147996
▁Will 147964
▁basic 147641
▁26 147538
▁forward 147331
▁Software 146999
▁wide 146931
▁System 146892
▁loss 146890
ous 146876
▁expected 146820
uk 146810
▁Even 146597
▁framework 146425
▁February 146350
▁medical 146280
▁evidence 146134
▁currently 145976
▁involved 145809
▁towards 145800
▁West 145793
me 145759
▁normal 145503
▁court 145365
▁-- 145344
▁engine 145206
li 145034
▁cover 144982
ant 144981
▁institutions 144929
▁email 144893
▁sleep 144872
▁shower 144862
▁cross 144825
▁charge 144749
▁studies 144711
▁Double 144682
▁coffee 144651
▁double 144605
▁vehicle 144557
mm 144517
▁reasons 144418
▁tools 144410
▁2. 144328
▁changed 144318
▁credit 143953
▁goes 143869
▁Year 143814
▁Many 143672
▁Each 143493
”. 143282
▁internal 143248
▁animals 143168
▁unto 142964
▁31 142936
▁approach 142866
▁images 142841
▁devices 142702
▁ex 142691
▁image 142687
em 142658
▁hour 142634
▁Use 142615
▁parking 142436
▁adopted 142411
▁kitchen 142366
▁drink 142136
▁competent 142077
▁detailed 141865
▁languages 141700
▁gas 141646
▁Apartment 141617
▁Choose 141457
▁communication 141427
▁whose 141380
▁late 141301
▁Guests 141297
▁watch 141165
– 141126
ated 141065
▁cut 140901
▁maybe 140791
▁exactly 140638
ting 140430
▁thus 140330
▁contains 140268
▁partners 139883
▁official 139857
▁economy 139685
▁lower 139601
▁* 139576
▁Part 139441
▁previous 139383
▁environmental 139370
▁budget 138985
▁color 138941
▁likely 138827
▁exchange 138812
▁rates 138794
▁class 138620
▁competition 138404
▁opinion 138392
▁Her 138381
▁29 138246
▁skills 138229
▁Close 138172
▁brother 138137
ca 138130
▁fun 138082
▁Services 137871
▁add 137871
▁Earth 137812
▁shows 137779
▁population 137499
▁prevent 137001
za 136964
▁trust 136888
▁c 136842
▁Red 136672
▁Chinese 136667
▁break 136591
▁police 136584
▁decided 136562
▁documents 136493
ni 136471
▁values 136344
▁sign 136215
ol 136095
▁Every 136047
▁Like 135968
▁Centre 135914
& 135874
un 135855
▁maximum 135769
▁During 135617
▁While 135469
based 135407
ized 135351
▁paid 135319
▁Family 135303
▁East 135285
▁build 135226
▁Station 135221
▁positive 135082
▁interests 134994
▁(1 134910
▁gives 134854
▁success 134829
▁method 134816
▁essential 134810
▁category 134730
▁2015 134539
▁tomorrow 134516
▁ones 134462
▁traditional 134315
▁select 134097
▁allowed 134087
▁Reviews 134046
▁Father 133961
▁Buy 133907
▁Men 133868
▁bathroom 133637
▁faith 133501
▁Add 133381
▁Therefore 133362
In 133314
term 133222
▁About 133050
° 133003
▁began 132996
▁Last 132943
▁Russian 132942
▁etc 132897
▁Help 132852
▁offered 132847
▁Read 132575
▁associated 132292
▁hot 132235
It 132220
▁excellent 132153
▁culture 132152
▁Paris 132122
▁web 132078
▁gone 132000
▁cookies 131988
▁quick 131969
▁selection 131760
▁ground 131743
▁clean 131699
ung 131598
▁focus 131531
▁billion 131381
ü 131300
▁procedures 131287
▁remain 131266
▁feature 131006
▁ideal 130981
▁cities 130952
▁PC 130727
▁writing 130564
▁greater 130555
▁leading 130525
▁agree 130458
▁bank 130374
▁Africa 130264
▁garden 130235
▁methods 130046
▁sun 129966
▁Check 129765
▁partner 129755
▁actions 129735
ance 129609
▁sometimes 129360
▁UK 129284
▁article 129283
ter 129239
▁foreign 129222
▁responsibility 129150
▁seems 129143
▁paper 129135
▁limited 129104
▁plant 129076
▁con 129060
▁books 128966
▁looks 128964
ak 128946
▁pretty 128780
▁screen 128697
▁laid 128690
▁EUR 128670
▁applied 128669
ā 128531
▁running 128476
▁successful 128446
▁providing 128218
▁dog 128153
▁starting 128100
▁states 128099
▁Christmas 127823
▁elements 127639
▁Party 127345
▁benefits 127334
▁require 127250
▁whom 127214
▁Management 127202
ating 127169
▁church 127071
▁Mac 127031
▁reduce 127029
▁win 127012
▁distance 126839
▁nor 126820
▁option 126765
▁sub 126743
by 126693
▁processes 126643
▁construction 126615
▁animal 126578
▁laws 126294
▁green 126264
▁waste 126115
▁Japanese 126062
▁d 125946
▁particularly 125883
▁document 125779
ization 125669
ge 125588
▁achieve 125574
▁exercise 125499
▁Italian 125436
▁operating 125285
mo 125233
▁Di 125217
▁learning 125199
▁player 125192
▁Q 125096
▁wouldn 125041
▁Open 124971
▁assessment 124796
▁ten 124750
▁interested 124589
▁extra 124541
▁worth 124378
▁fall 124320
▁citizens 124278
▁consider 124171
ci 124122
▁recent 124118
▁steps 124016
▁instead 123998
▁Pre 123859
ki 123826
▁style 123759
▁collection 123694
▁eye 123493
▁summer 123361
▁sales 123260
▁holiday 123253
of 123207
▁husband 123153
▁unit 123018
▁Policy 122936
▁avoid 122921
▁daughter 122873
▁girls 122869
sa 122782
▁Games 122774
▁freedom 122680
▁boy 122677
▁Next 122577
▁app 122438
24 122250
et 122230
den 122202
ac 122106
see 122106
▁lose 122077
we 121999
▁unless 121986
▁regarding 121959
▁wine 121921
▁worked 121785
▁Power 121725
▁dis 121684
▁surface 121672
▁Contact 121614
▁en 121568
▁benefit 121479
▁Un 121382
▁floor 121140
▁board 121089
▁bodies 120967
▁placed 120960
▁progress 120787
ze 120744
▁seven 120706
▁forget 120660
▁download 120589
▁stage 120584
▁condition 120543
▁accept 120527
▁strategy 120353
▁tool 120176
▁external 120077
▁shop 119882
▁models 119813
old 119760
▁India 119504
▁David 119402
▁dictionary 119353
▁gets 119333
▁covered 119300
▁store 119222
▁recommend 119214
▁2014 119135
▁vehicles 119005
▁picture 118996
▁cultural 118944
▁carry 118930
ster 118929
▁photo 118895
▁goal 118811
▁opened 118785
▁Women 118714
▁Great 118672
▁creating 118635
▁200 118328
▁complex 118092
▁write 117899
▁Any 117877
▁tried 117728
» 117703
▁legislation 117660
▁Green 117657
▁degree 117632
▁ability 117508
▁reached 117507
▁gold 117325
▁military 117229
▁soul 117103
va 116958
min 116912
▁structure 116873
▁base 116867
▁3. 116831
▁pro 116738
▁happens 116642
= 116577
▁spirit 116506
▁trip 116461
ad 116368
▁mg 116360
▁meaning 116180
▁opportunities 116146
▁produced 116094
▁train 115987
▁2013 115903
▁record 115888
▁# 115880
▁comfortable 115717
▁Facebook 115676
▁THE 115603
am 115594
▁separate 115594
▁haven 115560
▁press 115548
ga 115506
▁ideas 115494
▁shown 115447
▁appear 115431
▁Saint 115406
ó 115374
▁(2 115319
▁reference 115253
▁voice 115246
@ 115185
▁reality 115074
pa 115051
▁object 115047
▁Make 114965
▁giving 114942
▁variety 114936
▁forms 114801
▁independent 114670
▁requires 114666
▁spend 114608
▁Photos 114570
▁display 114486
▁Life 114404
▁Microsoft 114399
▁couple 114374
▁decisions 114323
▁relating 114125
▁difference 114097
ler 114096
▁consumption 114082
▁Would 114059
▁players 114013
▁couldn 113984
▁2012 113931
▁b 113931
▁British 113921
▁plans 113920
▁views 113920
▁Product 113893
▁interesting 113814
▁notice 113802
▁playing 113780
he 113571
▁fear 113443
▁operations 113323
▁felt 112986
▁link 112910
led 112871
▁healthy 112814
▁feeling 112799
meteo 112680
▁USA 112673
▁scientific 112626
▁minimum 112622
▁rule 112551
net 112512
▁Bank 112396
▁highly 112193
▁Company 112185
▁Grand 112136
▁Convention 111963
▁highest 111823
▁cold 111820
You 111745
▁criteria 111727
ful 111684
▁status 111652
▁brain 111624
▁recommended 111591
▁reports 111556
▁equipped 111490
▁la 111432
▁begin 111326
▁Rome 111250
▁Long 111068
▁Australia 110984
men 110973
▁Mo 110935
▁Game 110894
ho 110883
▁planning 110866
▁Non 110802
▁Star 110760
▁units 110707
▁severe 110670
▁Standard 110453
▁Health 110377
▁Right 110371
▁hit 110371
▁Those 110212
▁Back 110169
▁Apple 110155
▁patient 110002
▁Price 109966
▁2010 109917
▁principles 109891
?” 109829
▁entry 109746
▁Stay 109587
▁expect 109530
▁meters 109521
ise 109515
ish 109507
▁Old 109504
í 109477
▁waiting 109323
▁commercial 109190
▁Sea 109071
▁Road 109013
▁School 109012
▁response 108930
ir 108902
▁Development 108718
▁spiritual 108622
▁beach 108560
▁decide 108540
▁proposal 108506
▁numbers 108501
▁statement 108472
▁TripAdvisor 108430
▁pass 108276
▁remove 108271
▁2008 108251
▁crisis 108217
▁turned 108179
▁damage 108150
ya 108099
▁Social 108040
▁Which 107969
per 107958
▁presence 107922
▁understanding 107917
▁Japan 107836
▁examples 107778
▁markets 107711
EEC 107691
▁cm 107687
▁finally 107680
ek 107650
▁setting 107553
▁Treaty 107542
▁hell 107504
▁Christian 107459
▁Thank 107372
▁containing 107350
▁Security 107310
▁assistance 107241
▁driver 107237
▁reading 107225
▁listen 107218
▁sites 107205
▁$ 107198
▁adequate 107184
▁(19 107122
▁helps 107000
▁Area 106937
▁Spirit 106920
ha 106830
▁compared 106807
▁seconds 106791
ley 106706
▁touch 106677
▁Water 106672
▁Number 106657
▁movement 106511
▁industrial 106459
▁season 106418
▁Law 106410
▁led 106329
▁annual 106311
▁workers 106287
▁powerful 106207
▁character 106196
▁task 106180
▁Rentals 106174
▁career 106153
▁served 106148
Re 106139
▁electronic 106133
▁employees 106040
▁Li 106012
▁regional 105984
▁Rights 105919
▁Warning 105883
▁science 105801
▁Design 105797
▁policies 105550
▁stars 105486
▁Ban 105391
▁poor 105361
▁Web 105336
▁Resort 105329
▁programmes 105324
▁secure 105228
▁defined 105205
▁calls 105017
▁Spanish 105012
▁brand 104970
▁famous 104907
▁secret 104905
with 104873
ina 104788
free 104721
▁Spa 104694
▁principle 104605
▁Am 104565
▁beyond 104529
▁Used 104470
▁balance 104455
▁creation 104436
ja 104427
▁drug 104339
▁steel 104337
15 104285
▁caused 104265
nd 104240
▁dark 104218
▁organization 104191
▁Ho 104189
▁cheap 104176
▁guess 104150
▁Products 103922
▁2011 103881
▁serve 103880
▁attractions 103858
▁Minister 103776
▁Son 103729
▁cars 103718
?" 103677
▁blue 103643
▁properties 103539
▁dream 103529
▁afraid 103511
▁attack 103357
con 103353
▁Master 103336
▁Research 103296
▁intended 103290
ted 103289
ative 103225
30 103212
▁2009 103008
ana 102978
▁(2) 102965
▁seem 102943
▁flat 102890
▁thanks 102733
▁selected 102713
▁wall 102686
▁Con 102658
ti 102641
▁purchase 102575
▁reported 102571
▁suitable 102568
▁Special 102547
po 102543
", 102496
▁released 102478
▁News 102371
▁Also 102357
▁circumstances 102323
▁becomes 102315
▁Light 102314
▁importance 102229
▁kept 102216
▁former 102165
▁race 102074
▁aim 102054
▁error 102037
mail 101996
▁items 101979
▁Over 101935
▁camera 101923
▁strength 101827
▁LORD 101792
ner 101766
▁button 101622
▁species 101559
▁500 101508
▁multi 101505
▁useful 101455
▁developing 101403
▁guarantee 101267
▁clearly 101207
▁3- 101124
▁consent 101116
▁round 101063
▁thank 101025
ent 100789
▁Czech 100772
▁Does 100698
▁correct 100693
▁granted 100664
é 100656
▁memory 100641
▁offering 100631
▁Before 100617
▁prepared 100572
▁connected 100342
▁married 100243
▁stock 100239
▁birth 100118
ence 100095
▁Na 100021
▁dose 99978
▁remains 99931
▁availability 99804
12 99795
▁80 99745
▁measure 99738
▁di 99688
▁Board 99674
▁Institute 99541
▁glass 99482
▁Friday 99438
▁Government 99418
▁fish 99416
ping 99318
▁efficiency 99296
▁context 99281
▁objectives 99160
20 99085
▁listed 99085
▁monitoring 99058
▁Island 99050
▁visitors 99020
▁Up 99014
▁technologies 98932
▁prior 98866
▁Paul 98839
▁note 98831
▁lack 98761
▁advice 98694
lo 98599
▁Lake 98591
▁rental 98586
▁instruments 98538
ology 98529
▁35 98518
▁looked 98497
▁growing 98469
▁clients 98442
▁huge 98308
▁path 98297
▁cancer 98244
▁Rooms 98210
▁delivery 98161
ex 98155
▁evil 98132
▁Ne 98103
▁2020 98094
▁functions 98087
▁sustainable 98068
▁Sunday 98064
▁park 98052
▁Although 98011
▁Association 97952
▁movie 97950
▁limit 97949
▁played 97929
▁followed 97892
▁window 97787
▁90 97742
▁En 97736
▁families 97734
▁Peter 97725
▁regular 97604
▁opening 97546
ke 97518
ang 97517
ial 97453
▁cells 97382
▁submitted 97380
ah 97332
▁Ar 97307
▁agreed 97295
▁administrative 97293
▁answers 97260
ities 97243
▁User 97229
▁ship 97188
▁rich 97147
▁feet 97093
ised 97044
▁Agency 96891
▁television 96861
▁sources 96790
▁Act 96730
▁mine 96711
▁sports 96687
dy 96667
▁inter 96666
▁cell 96660
▁combination 96638
▁deep 96611
▁Tell 96540
▁letter 96525
▁equal 96493
▁components 96453
▁Suite 96424
▁ourselves 96336
▁automatically 96328
▁civil 96328
▁mission 96305
▁release 96290
io 96244
▁territory 96162
▁inform 96132
▁loved 96052
▁exist 96030
▁sir 95960
▁street 95892
© 95692
▁Queen 95649
▁stuff 95555
▁track 95546
▁Such 95536
▁demand 95516
▁except 95492
▁o 95446
▁heat 95413
▁Cheap 95411
▁president 95409
▁majority 95391
▁Once 95340
▁whatever 95309
▁mentioned 95249
▁Bay 95232
▁Smoking 95117
▁controller 95115
▁planet 95054
▁contain 94984
▁2000 94862
▁Human 94808
▁Holy 94781
tic 94699
▁worry 94664
▁registration 94623
▁rating 94620
▁collect 94576
▁pick 94503
▁insurance 94494
▁affect 94399
▁names 94358
▁Canada 94323
▁gift 94256
▁manner 94244
▁spent 94233
~ 94221
▁mom 94151
▁length 93999
19 93983
▁IP 93935
▁fit 93924
der 93912
▁closed 93781
▁middle 93760
▁funds 93692
▁factors 93640
▁wrote 93422
▁bus 93411
ri 93401
▁enable 93363
▁lies 93288
▁guest 93258
▁Snapshot 93247
▁specified 93176
▁f 93157
ten 93114
▁2007 93101
zi 93058
▁produce 93049
▁registered 92977
▁College 92856
▁radio 92839
▁Single 92742
▁presented 92728
▁Support 92725
▁generation 92720
▁update 92717
▁Thanks 92657
way 92572
bo 92566
so 92548
▁pictures 92523
▁dinner 92507
▁Him 92478
ize 92432
cz 92379
▁grow 92346
▁comfort 92253
▁Mount 92235
▁dangerous 92214
▁administration 92166
▁pages 92136
▁district 92021
pe 91980
▁machinery 91942
▁otherwise 91902
▁Food 91875
▁determined 91861
▁Ben 91851
▁discount 91839
▁tasks 91832
25 91821
▁individuals 91745
▁aware 91671
▁vision 91585
▁pursuant 91581
▁fair 91570
▁risks 91523
* 91449
▁sit 91410
♪ 91399
▁objective 91354
▁wear 91283
▁consumer 91192
▁jobs 91178
▁named 91158
▁sold 91109
▁houses 91082
▁Western 91063
▁student 91060
▁moving 91024
50 90988
▁influence 90922
▁Three 90864
▁satellite 90787
▁Their 90669
si 90657
▁Apps 90623
▁worldwide 90555
▁symptoms 90542
▁promote 90538
▁recently 90485
lu 90416
hour 90357
▁advantage 90327
▁origin 90315
▁sell 90267
▁join 90262
▁Airbnb 90258
▁challenges 90213
▁determine 90209
▁plants 90204
ger 90176
Q 90131
▁easier 90026
▁employment 89984
▁Y 89977
▁forces 89963
▁Music 89898
▁Code 89889
▁possibility 89880
end 89847
▁efficient 89812
▁target 89791
▁fuel 89789
▁cable 89678
que 89664
▁maintenance 89661
▁translated 89637
▁electric 89622
This 89620
▁universe 89600
▁settings 89599
▁Turkey 89541
▁England 89415
▁described 89409
▁32 89404
▁Poland 89378
▁Blue 89132
▁Previous 89127
ba 89075
▁Type 89039
▁village 89039
▁piece 89019
lin 88984
9 88980
▁efforts 88974
▁compare 88973
▁driving 88938
ard 88919
▁lines 88861
▁innovation 88831
▁border 88817
For 88810
▁organisations 88774
▁regulations 88761
▁shot 88692
▁thousand 88624
▁Po 88606
▁uh 88591
▁fresh 88514
▁resolution 88504
▁committed 88503
au 88490
▁overall 88457
▁maintain 88289
gen 88281
▁package 88197
▁welcome 88195
▁browser 88188
▁Bathroom 88165
16 88158
▁terrace 88154
car 88140
her 88134
qui 87986
▁Select 87955
ally 87879
▁traffic 87875
▁thy 87794
U 87755
▁earlier 87745
▁Ha 87725
▁Set 87706
40 87636
▁Ko 87599
▁mass 87584
▁Austria 87530
▁figure 87524
▁metal 87457
▁fat 87383
ice 87334
90 87286
▁match 87225
▁truly 87207
▁negative 87206
▁obligations 87198
▁45 87163
▁Under 87141
▁wanna 87125
▁sugar 87105
▁hurt 86946
▁larger 86931
▁biggest 86834
▁desk 86829
▁multiple 86737
▁Chi 86731
▁Greece 86661
▁master 86646
▁Sa 86640
ko 86564
▁List 86564
▁protected 86564
▁regions 86550
▁dry 86516
▁tonight 86478
▁concept 86456
▁Villa 86417
▁leader 86402
▁2006 86398
▁wonderful 86313
▁advanced 86260
▁marriage 86211
▁4. 86180
▁missing 86127
▁medicine 86115
▁profile 86092
▁battery 86065
[ 85972
▁lived 85897
▁claims 85883
▁moved 85869
▁(3 85839
▁hospital 85839
▁Stock 85774
▁Vacation 85759
▁Click 85750
▁Romania 85669
ő 85634
▁fruit 85600
▁greatest 85597
▁ahead 85579
▁Bo 85552
); 85544
▁practical 85535
▁extension 85391
▁religious 85341
▁extremely 85339
▁t 85331
▁existence 85305
▁Personal 85242
bar 85126
fi 85108
▁links 85086
▁LED 85054
if 84986
pro 84958
▁kid 84940
▁surrounding 84892
▁increasing 84885
▁Category 84826
▁shared 84777
▁investigation 84754
▁direction 84676
▁trouble 84624
▁completed 84616
▁UN 84614
▁aren 84558
▁cash 84506
▁approved 84502
▁follows 84494
▁deliver 84443
▁300 84385
▁although 84375
▁Another 84372
▁description 84302
▁supposed 84270
▁eight 84257
▁fundamental 84239
▁Give 84238
▁nights 84213
▁supported 84201
ists 84113
▁format 84033
▁issued 84008
▁Department 83937
▁joint 83911
18 83874
▁dad 83838
▁platform 83796
▁Berlin 83795
▁v 83788
▁metres 83783
▁showing 83777
▁Hi 83737
isation 83651
ability 83580
▁proposed 83502
▁practices 83443
ru 83440
▁extent 83428
▁Protection 83405
▁compliance 83401
▁USB 83399
▁Report 83381
▁provision 83256
▁smart 83227
AL 83213
▁consumers 83194
▁Monday 83147
▁manage 83104
▁IT 83071
▁volume 83036
▁replaced 83032
im 83003
▁spread 82972
▁heaven 82938
▁machines 82858
bi 82808
▁Public 82787
▁relation 82779
▁perform 82735
▁installation 82729
▁Saturday 82707
▁matters 82650
▁teaching 82614
▁File 82456
▁performed 82312
▁characteristics 82302
▁claim 82300
▁client 82293
▁island 82283
▁band 82189
▁milk 82177
▁acts 82135
▁yes 82106
▁actual 82082
▁beauty 82082
▁accepted 82071
▁seek 82031
▁70 82013
▁Club 82007
▁wedding 82007
id 81999
▁background 81979
room 81959
If 81912
▁leaders 81911
▁USD 81880
▁Garden 81874
▁trading 81839
▁Jews 81831
ator 81764
▁identified 81737
▁establish 81697
▁Control 81679
▁gotta 81669
ut 81569
▁videos 81526
▁occur 81489
▁4- 81479
▁hate 81477
▁tests 81462
▁Zoom 81424
▁distribution 81417
”, 81408
▁Articles 81390
ring 81354
▁reduced 81348
▁accounts 81305
▁requested 81265
▁mouth 81260
11 81215
▁Photo 81118
▁experts 81103
▁domestic 81088
▁meat 81033
▁fixed 81010
▁alive 80974
ov 80962
▁Ireland 80949
▁thousands 80910
▁duty 80898
ron 80897
▁manufacturer 80862
▁Technology 80844
▁5- 80838
▁mode 80835
▁Science 80810
▁Tom 80788
ino 80736
▁prepare 80736
▁conference 80719
▁Prices 80703
▁miss 80689
▁nearly 80661
▁Se 80637
▁signed 80610
▁Energy 80538
▁anymore 80525
▁thou 80497
▁establishment 80424
▁Description 80358
▁Children 80332
▁diet 80317
▁Per 80297
▁achieved 80292
ite 80202
▁fields 80154
▁situated 80137
▁Tri 80120
▁businesses 80120
▁treated 80094
▁shopping 80070
▁innovative 80036
▁dance 79982
▁hundred 79982
▁tree 79958
▁weekend 79948
▁campaign 79929
▁passed 79866
site 79855
▁Images 79848
▁sister 79832
▁heating 79805
▁historical 79770
▁substances 79716
izing 79702
▁continued 79683
▁Breakfast 79664
▁integrated 79652
ong 79494
▁(4 79453
▁iPhone 79441
▁Name 79403
▁journey 79395
▁objects 79356
ura 79326
0 79323
▁neither 79319
ped 79313
▁liked 79290
▁Program 79266
▁tea 79232
▁buildings 79231
▁feed 79213
▁saved 79183
14 79036
▁CO 79013
▁Sun 79002
▁generally 78839
▁stored 78828
▁Thus 78728
▁leaving 78705
ham 78682
▁Media 78670
ium 78644
▁income 78623
▁appears 78608
▁institution 78546
▁interior 78515
▁drugs 78501
▁ancient 78500
▁Mary 78494
are 78488
▁evening 78459
▁vote 78446
▁affected 78445
▁certainly 78427
rd 78407
▁Pe 78338
▁regards 78228
▁bath 78174
chi 78129
over 78113
(1) 78034
He 78021
▁appearance 77985
▁Full 77950
let 77947
▁Jewish 77933
▁Restaurant 77914
▁infrastructure 77875
▁Main 77841
And 77824
▁club 77783
▁k 77710
▁Economic 77684
▁obtain 77615
▁apartments 77594
▁Super 77495
▁handle 77465
▁super 77461
▁primary 77411
hr 77393
▁contribute 77343
▁entitled 77335
▁chosen 77332
▁Town 77322
▁Uh 77304
▁manufacturers 77159
▁alternative 77135
tin 77121
What 77076
▁100% 77073
▁album 77054
▁organisation 76988
▁Euro 76960
▁Work 76956
▁Los 76937
▁Digital 76909
▁cool 76908
▁returned 76889
can 76885
▁Ukraine 76883
▁deposit 76861
▁Welcome 76835
▁learned 76811
▁OF 76799
▁relations 76791
tion 76727
▁Da 76715
▁shape 76702
17 76701
▁favorite 76688
ita 76681
▁l 76635
side 76618
▁scope 76557
ez 76544
▁applies 76524
▁Royal 76523
iv 76512
ber 76489
▁2004 76470
▁Lu 76450
▁testing 76434
▁effort 76419
▁outdoor 76296
Tuesday 76279
▁nation 76263
TM 76219
▁title 76208
related 76148
▁properly 76143
▁Language 76107
▁euro 76099
▁Private 76061
lan 76053
▁Website 76047
▁foot 76035
▁Su 76015
▁aspects 75833
▁micro 75824
▁Croatia 75803
▁older 75791
▁server 75756
mar 75711
▁announced 75709
▁seeing 75700
▁24- 75695
▁owner 75647
▁explain 75620
▁Michael 75615
▁goals 75609
▁advance 75593
bit 75558
▁impossible 75527
▁Egypt 75500
▁Both 75487
▁identify 75468
▁proper 75464
▁entered 75442
▁regulation 75418
▁sin 75402
▁III 75343
▁swimming 75296
▁rise 75192
▁Hire 75182
▁usage 75136
▁sweet 75094
▁Privacy 75044
▁errors 75029
▁desire 74998
vo 74997
▁database 74992
▁gun 74946
▁Change 74926
▁promise 74817
▁Ka 74776
▁Bible 74775
▁warm 74771
▁fishing 74741
▁ye 74736
ck 74713
▁introduced 74683
▁Santa 74669
▁Ni 74654
▁signs 74574
▁nuclear 74558
▁HUF 74536
▁evaluation 74416
▁copy 74378
▁thereof 74239
▁sick 74233
Base 74218
▁River 74205
▁Mark 74191
▁changing 74188
▁proud 74182
13 74178
▁menu 74149
▁sort 74139
▁Hot 74129
▁comply 74114
▁Programme 74086
gy 74061
▁balls 74046
▁OK 74031
▁Plus 74002
▁religion 73975
▁crime 73971
▁asking 73967
▁wireless 73935
▁Keep 73932
▁challenge 73898
▁del 73889
▁straight 73844
sh 73798
▁finished 73797
▁draw 73788
▁quiet 73786
▁Netherlands 73777
▁cards 73730
▁substance 73724
use 73679
wa 73612
▁wood 73601
▁medium 73592
ING 73582
▁funding 73478
▁homes 73405
port 73389
▁George 73251
▁messages 73249
▁Fund 73241
▁collected 73207
▁Gold 73162
Monday 73115
▁2005 73063
▁Network 73042
▁Square 73015
▁experiences 73009
▁approval 72994
▁Terms 72906
▁Hall 72855
▁Sweden 72839
▁director 72818
▁ball 72748
▁Striptease 72742
▁Thursday 72736
▁stated 72724
▁adults 72714
▁ID 72672
▁everybody 72667
▁preparation 72657
▁Mexico 72652
▁amazing 72638
▁Things 72616
▁causes 72601
▁walking 72560
▁diseases 72556
▁comments 72468
▁cent 72407
▁participants 72397
▁plastic 72372
▁Ma 72354
les 72349
▁miles 72341
▁agricultural 72331
▁reliable 72326
▁orders 72309
▁categories 72292
$ 72229
▁telling 72229
▁adopt 72227
▁song 72184
▁emissions 72131
ny 72095
▁PDF 72070
▁lie 72063
ible 72050
▁stress 72039
▁hearing 72004
99 71999
▁amended 71994
80 71959
▁agreements 71946
▁150 71943
▁doubt 71936
eg 71929
▁tour 71905
▁creative 71871
▁Big 71861
red 71799
▁Rent 71794
▁appointed 71645
▁Ex 71540
▁sufficient 71508
board 71438
▁winter 71374
75 71362
▁treat 71346
▁reduction 71320
je 71265
▁pieces 71227
▁discounts 71201
▁flow 71158
▁competitive 71129
▁guide 71127
▁theory 71125
▁discover 71103
-1 71071
eth 71062
▁height 71044
▁Suites 71028
▁battle 71023
▁chemical 70971
lic 70908
▁Video 70882
▁Without 70834
▁Ltd 70758
▁Real 70711
▁Watch 70711
▁networks 70679
▁Education 70676
▁Wednesday 70646
▁destroy 70623
▁booked 70584
▁fell 70513
▁organizations 70434
▁websites 70369
▁Whether 70340
45 70334
▁realize 70315
▁bear 70298
ep 70257
▁History 70222
▁anywhere 70162
▁instructions 70150
ji 70114
▁instrument 70004
▁drop 69949
▁currency 69946
ville 69934
▁Global 69934
gi 69919
▁Note 69900
▁broken 69881
▁Vienna 69878
▁dogs 69830
▁behalf 69817
▁specifications 69812
▁significantly 69753
▁showed 69742
▁ml 69740
▁criminal 69650
▁furniture 69649
▁gain 69648
▁pronunciation 69627
ig 69554
▁participate 69548
▁suffering 69548
▁worse 69546
▁HD 69514
off 69465
▁combined 69353
▁capable 69299
▁Lo 69291
▁Post 69272
▁Market 69253
▁therapy 69224
▁Te 69194
▁powers 69183
▁Sign 69161
mi 69156
ár 69156
▁Director 69140
▁implementing 69127
tra 69106
▁al 69060
han 69039
▁critical 69038
▁square 69027
▁cleaning 68989
· 68982
▁submit 68979
▁James 68975
▁(3) 68929
▁Authority 68919
ft 68862
▁Everyone 68859
▁crazy 68838
▁twice 68817
▁Start 68807
▁obligation 68787
▁perhaps 68772
▁Du 68733
▁Sometimes 68733
▁Call 68713
▁agencies 68648
▁Jerusalem 68636
▁justice 68585
▁Brussels 68495
▁r 68474
▁assets 68433
▁02 68420
▁teach 68382
▁Section 68335
▁statistics 68313
▁standing 68303
▁seat 68284
▁Was 68261
▁Hong 68253
ju 68250
▁obtained 68243
▁proceedings 68228
▁taste 68215
▁forever 68208
▁ensuring 68183
▁Mont 68182
▁Ke 68171
▁provider 68170
▁balcony 68128
▁Foundation 68113
▁Asia 68099
▁Ra 68094
▁Very 68080
▁install 68059
▁comprehensive 68006
▁experienced 67946
▁operators 67931
▁Mobile 67912
▁Luxury 67897
▁colour 67894
▁Jo 67888
▁delivered 67852
my 67851
▁36 67825
▁approximately 67806
▁labour 67803
▁Anti 67747
▁registry 67701
▁heavy 67686
▁contribution 67661
▁teacher 67651
▁author 67637
▁taught 67572
▁identity 67567
▁Tuesday 67546
our 67503
▁host 67494
▁nations 67424
▁Word 67413
▁App 67403
▁Should 67373
▁calling 67364
▁failure 67317
▁export 67309
▁depends 67306
op 67280
▁item 67243
▁acid 67221
▁Everything 67172
▁mountain 67151
▁AND 67062
▁initial 67022
cha 67000
fa 66968
▁meant 66904
▁phase 66890
▁somebody 66890
▁conflict 66875
▁holding 66865
▁conduct 66837
▁33 66789
▁clothes 66698
▁supports 66691
▁managed 66666
▁banks 66629
▁Festival 66612
▁helping 66580
▁Hill 66577
▁certificate 66552
▁schools 66546
▁Out 66542
36 66498
▁soft 66493
▁bag 66437
ship 66392
sk 66373
▁faster 66341
▁helped 66330
▁ticket 66260
▁advertising 66209
ER 66208
▁Kong 66153
▁prison 66076
▁participation 66041
▁factory 66040
sen 66033
▁Conference 66023
▁ice 66020
▁Date 66017
▁chain 66009
tel 66008
house 66005
▁Ad 65881
light 65857
back 65852
▁2- 65847
▁exhibition 65844
▁mainly 65843
▁cat 65821
▁valid 65810
▁finish 65806
38 65739
▁hairdryer 65703
not 65679
▁becoming 65663
▁integration 65660
▁Max 65656
▁Head 65636
▁Roman 65588
▁situations 65583
q 65564
▁Sam 65516
▁monitor 65501
▁payments 65460
▁horse 65458
▁stone 65458
▁bought 65456
▁Barcelona 65441
▁whereas 65438
wood 65346
▁starts 65328
▁Ta 65316
▁Listen 65314
▁dishes 65259
ious 65253
▁Map 65242
▁joy 65203
▁boys 65192
▁friendly 65131
▁bet 65123
EN 65030
▁commitment 64999
▁processed 64941
▁Homes 64927
ph 64909
▁Review 64909
▁Rentalcars 64893
▁firm 64892
▁Washington 64889
▁Sir 64887
▁alcohol 64868
▁manufacturing 64835
▁discovered 64763
▁murder 64740
▁Korea 64697
▁records 64650
▁numerous 64611
▁mark 64534
▁thoughts 64532
▁Financial 64531
▁establishing 64522
▁removed 64520
▁sounds 64518
▁Size 64508
▁Sorry 64503
▁Save 64477
istic 64473
▁kingdom 64449
▁net 64415
64 64412
▁bottom 64376
(2) 64328
art 64318
▁Plan 64281
▁informed 64248
▁arrived 64232
500 64216
▁fees 64215
▁atmosphere 64199
▁Dis 64183
▁block 64158
▁Restaurants 64134
▁bathrooms 64090
▁privacy 64045
▁dates 64015
▁slow 64014
▁constantly 64005
▁Castle 64001
35 63959
▁regulatory 63926
▁grounds 63891
▁bedroom 63886
▁core 63819
▁drivers 63804
▁university 63796
▁limits 63753
che 63733
▁Switzerland 63716
▁register 63713
illa 63661
ile 63639
▁female 63571
▁sons 63561
pt 63529
▁fill 63519
▁password 63500
▁African 63475
▁Cross 63473
▁till 63399
▁Prime 63394
▁detail 63377
▁planned 63367
32 63325
▁previously 63308
39 63257
▁mid 63230
ning 63212
▁linked 63212
Wednesday 63192
▁violence 63186
▁Card 63177
▁emergency 63163
▁serves 63153
▁Mom 63122
▁scale 63116
▁Parties 63097
▁Nothing 63089
▁weapons 63051
▁stories 62997
▁customs 62967
vin 62955
▁Nations 62915
▁equivalent 62905
▁effectively 62846
▁lunch 62833
▁element 62802
val 62776
▁believed 62774
▁wind 62759
▁guaranteed 62745
ker 62714
▁48 62681
▁connect 62676
▁Academy 62667
▁Official 62666
▁founded 62620
▁concerns 62614
▁implement 62604
▁print 62596
95 62558
▁totally 62534
▁clinical 62532
▁Sha 62514
▁depending 62494
▁happening 62483
▁End 62463
like 62459
▁behavior 62428
▁fee 62398
▁Customer 62375
▁implemented 62345
berg 62330
▁Could 62326
▁recovery 62312
▁smaller 62283
▁pleasure 62281
▁Middle 62278
▁Four 62269
▁wonder 62267
▁spot 62256
▁01 62233
▁Project 62215
▁Greek 62201
iz 62195
▁enemy 62182
▁Palace 62177
hi 62051
▁improved 62041
▁researchers 62021
▁IN 62001
29 61989
pl 61987
jo 61984
▁WiFi 61974
▁sitting 61973
▁installed 61943
▁launched 61925
▁2003 61918
▁army 61912
▁Color 61889
▁cycle 61885
▁consequences 61863
▁mental 61851
▁recognition 61817
ins 61815
ok 61811
▁spa 61809
▁concluded 61799
▁port 61785
▁award 61779
mer 61742
▁providers 61741
ray 61734
Do 61730
▁cream 61725
vi 61721
▁scheme 61712
▁raised 61711
86 61709
▁Copyright 61641
▁sport 61631
▁Ab 61628
▁Learn 61563
▁Finally 61515
und 61497
▁architecture 61488
ising 61453
▁prove 61441
▁raise 61374
▁Second 61368
▁legitimate 61355
▁Prague 61292
▁chat 61276
▁command 61257
but 61254
▁Bachelor 61246
▁closer 61223
▁begins 61218
▁catch 61197
▁accident 61192
▁Film 61170
all 61151
▁yeah 61131
▁Land 61117
tor 61115
US 61091
▁Trade 61091
▁college 61091
33 61081
▁river 61061
▁spoke 61061
▁hire 61055
▁Fa 61041
▁amounts 61026
▁definitely 60998
ec 60992
▁finding 60969
▁transmission 60959
▁Comparison 60934
▁walls 60920
▁professionals 60905
ara 60871
▁sets 60866
▁Furthermore 60860
▁dealers 60851
▁Order 60830
▁Site 60756
▁contracts 60705
▁34 60623
▁County 60599
▁Has 60598
67 60529
bu 60520
▁eating 60517
▁output 60516
▁Cor 60511
▁audio 60510
28 60508
▁spring 60482
▁Arts 60481
▁Mother 60461
98 60382
▁Press 60375
▁operator 60373
▁signal 60346
screen 60315
▁continues 60311
▁producers 60262
▁fighting 60238
▁Studio 60196
len 60167
▁brings 60167
49 60089
▁Safety 60083
▁Ja 60064
▁instance 60053
▁Oil 60046
▁hostels 60020
▁forth 60012
ach 60003
▁manager 59949
▁Vi 59945
▁Mrs 59919
27 59917
ow 59912
▁kg 59892
▁judgment 59862
▁operational 59824
▁telephone 59807
▁native 59788
▁Page 59723
▁strategic 59711
▁Access 59688
▁Place 59675
▁boat 59669
▁carefully 59628
▁absolutely 59622
▁Justice 59607
▁info 59603
▁transactions 59578
▁EC 59574
▁camp 59558
van 59549
ological 59530
▁Port 59524
▁scene 59505
▁travelers 59444
▁represent 59434
ide 59415
▁pray 59414
▁temporary 59395
▁CD 59373
▁Try 59369
▁debt 59364
▁stopped 59361
▁Small 59358
▁leads 59327
▁beings 59309
▁classic 59308
▁Miss 59307
▁load 59286
▁moon 59268
▁Za 59257
▁traktorpool 59252
á 59232
▁representative 59232
▁Summer 59202
ip 59196
▁mention 59179
21 59162
▁colors 59107
tro 59102
▁Dancing 59095
▁motor 59091
ani 59072
34 59065
▁respond 59053
ran 59050
▁DVD 59039
▁ingredients 59030
▁Executive 59025
▁toward 59015
▁humans 58995
▁none 58984
▁Having 58983
▁analyze 58982
▁acting 58981
▁400 58980
▁arrival 58966
▁operate 58961
▁arrangements 58957
▁restaurants 58940
▁rock 58927
89 58868
▁fly 58867
▁salt 58849
▁confidence 58786
▁filter 58739
▁switch 58721
▁venue 58714
▁channels 58688
▁victims 58678
▁speech 58665
▁Ver 58651
▁updated 58649
▁fourth 58638
▁nine 58620
▁beds 58619
▁Islands 58618
▁75% 58591
▁priority 58564
▁express 58544
▁regularly 58519
▁relationships 58486
▁aircraft 58484
01 58472
65 58439
kin 58430
ries 58416
▁supporting 58412
▁Manufacturers 58401
▁infection 58396
▁District 58387
48 58384
▁holy 58374
▁Booking 58371
▁Eastern 58334
▁indicated 58327
▁somewhere 58322
▁Technical 58305
▁facilitate 58287
▁dress 58285
60 58272
▁sexual 58258
▁Ga 58245
▁encourage 58210
▁cast 58190
▁concern 58189
▁observed 58147
▁confirmed 58096
▁reporting 58037
Thursday 58032
▁glad 58029
▁keeping 58025
▁initiative 58015
▁adult 57981
▁cutting 57981
▁(5 57979
▁permanent 57942
ford 57906
ken 57901
▁improving 57892
▁specifically 57885
▁ride 57883
▁Building 57855
▁speaking 57855
▁differences 57846
▁Stop 57834
air 57813
▁Sub 57775
▁Jack 57774
▁Gar 57764
▁filled 57762
▁flowers 57726
▁dining 57708
▁Journal 57700
55 57694
▁solid 57676
tal 57645
▁$1 57644
▁resulting 57594
▁harm 57577
ä 57526
▁Young 57519
including 57509
▁appeared 57505
▁HP 57503
▁imagine 57469
▁exciting 57461
▁corner 57448
▁rain 57424
▁conducted 57400
ver 57393
▁receiving 57383
▁Arab 57379
▁38 57376
▁Key 57323
▁factor 57305
▁corporate 57302
nic 57300
▁EESC 57288
▁Martin 57272
▁destination 57266
▁Never 57263
▁pure 57252
▁Dad 57248
▁dedicated 57226
field 57225
▁football 57204
▁decades 57199
▁massage 57187
▁agency 57186
▁indeed 57134
▁Thailand 57069
▁controls 57048
▁threat 57037
▁Action 57026
you 56999
▁controlled 56995
▁leaves 56994
▁repair 56992
▁replace 56972
▁characters 56951
▁exposure 56941
▁attempt 56940
▁TO 56920
▁millions 56914
▁recorded 56853
ou 56852
▁Remember 56845
▁escape 56841
ably 56780
▁Inter 56765
▁trial 56761
▁Accessories 56730
▁electricity 56721
▁watching 56721
▁75 56720
85 56677
▁Iran 56663
▁Robert 56656
No 56650
▁count 56649
MP 56509
▁EN 56508
▁Ti 56503
▁Wall 56483
gan 56468
▁pull 56455
▁Chapter 56453
▁youth 56430
▁lay 56415
▁nearby 56397
▁locations 56386
▁delay 56370
▁cap 56368
▁visible 56357
▁aims 56353
▁apart 56351
▁Travel 56349
ES 56348
▁failed 56336
▁Put 56324
▁Point 56307
▁ratio 56305
▁zone 56304
▁formed 56301
▁seriously 56271
▁score 56265
▁sectors 56263
▁Catholic 56262
▁sellers 56248
ier 56245
▁carbon 56220
rate 56218
› 56218
▁suppliers 56197
▁hide 56192
3/ 56181
▁Twin 56177
▁route 56176
▁Communication 56152
▁Bridge 56129
known 56113
ification 56112
fer 56100
2/ 56094
▁trees 56094
▁bright 56092
▁Smart 56078
▁Auto 56076
▁fix 56031
▁strengthen 56009
▁dialogue 56004
▁rare 55994
▁packaging 55981
▁resistance 55975
▁sheet 55972
▁techniques 55968
▁stability 55933
▁hazardous 55911
š 55906
▁Society 55904
▁manual 55892
▁birthday 55880
▁stupid 55846
▁teams 55835
▁Asian 55829
king 55817
▁communicate 55799
▁forced 55739
▁shoot 55691
▁bio 55683
▁feels 55679
▁expert 55611
▁willing 55565
▁Jan 55536
ED 55534
▁loves 55527
▁accessible 55498
▁caught 55469
26 55433
▁inner 55290
▁intelligence 55251
gu 55242
▁communities 55226
▁doors 55212
▁facts 55209
▁expensive 55206
▁Table 55144
pi 55132
▁blind 55119
▁extended 55100
▁Tu 55059
▁solve 55057
▁Quick 55044
▁foundation 55025
▁import 55012
▁Country 55011
▁destroyed 54997
▁Compare 54986
▁hidden 54972
▁articles 54956
▁reasonable 54947
ula 54939
▁consists 54938
1/ 54920
▁financing 54915
▁05 54911
▁ring 54895
ging 54893
▁classes 54892
There 54882
▁increases 54864
▁chief 54844
Sunday 54825
46 54824
▁feelings 54818
▁perfectly 54814
▁recognize 54769
▁37 54758
▁taxes 54752
▁fitness 54743
ding 54705
▁authorisation 54703
▁north 54679
▁brothers 54673
▁ma 54642
▁communications 54632
▁Quality 54621
▁Studies 54615
itis 54604
▁recommendations 54599
▁duties 54584
▁empty 54574
▁appreciate 54552
▁virus 54550
▁Ze 54549
▁Lisbon 54546
▁California 54543
▁Near 54514
▁000 54508
▁automatic 54500
▁Moscow 54499
yl 54474
▁Bi 54455
▁Mini 54451
▁plane 54446
▁counter 54416
▁funny 54408
▁n 54395
▁Travelport 54380
▁estimated 54376
▁remaining 54375
# 54359
▁joined 54292
▁stays 54269
▁Gallery 54261
OJ 54242
▁Cha 54235
▁Kar 54228
▁launch 54223
Friday 54220
▁illegal 54210
▁Gi 54204
▁educational 54162
▁residence 54161
IC 54157
▁drinks 54154
▁attacks 54135
▁identification 54131
OR 54112
▁duration 54110
69 54096
▁strange 54078
▁calendar 54063
▁humanity 54020
▁entity 54011
▁teachers 53995
▁Portugal 53992
▁Us 53984
▁bottle 53980
▁Soviet 53957
▁expressed 53951
Saturday 53889
▁channel 53872
▁Night 53850
pre 53846
De 53841
▁Polish 53830
bra 53816
work 53811
ud 53796
▁proposals 53772
ene 53761
▁2002 53759
▁fault 53753
▁divine 53741
22 53737
▁Team 53703
▁Server 53683
` 53675
▁mistake 53667
▁Pan 53651
▁male 53651
▁prayer 53649
66 53626
▁Available 53619
mb 53608
000 53604
▁Indian 53593
ee 53553
▁Inc 53545
▁accurate 53529
▁ordered 53484
▁library 53469
▁250 53444
▁careful 53443
▁manufacture 53425
▁frequency 53421
▁dear 53409
ska 53399
▁stable 53341
ius 53325
▁Series 53323
ris 53318
▁Mi 53316
ev 53303
ros 53292
▁Deluxe 53249
▁beat 53235
▁Moreover 53234
wi 53232
du 53212
▁sight 53210
▁smoking 53164
▁Mountain 53160
▁hundreds 53156
▁primarily 53141
▁everywhere 53115
▁wake 53109
▁soil 53073
To 53055
▁suffer 53052
IN 53039
vis 53030
▁39 53027
▁Wait 53023
▁Yet 53016
▁south 52989
▁Moses 52977
200 52974
▁positions 52967
▁arms 52952
▁component 52947
▁noise 52928
▁requests 52870
▁seeking 52860
42 52838
▁moral 52825
▁forest 52822
× 52793
!” 52760
▁Sports 52758
▁representatives 52735
▁mini 52729
dia 52728
▁entirely 52720
▁accessories 52719
▁shoes 52708
▁Perhaps 52693
▁proof 52687
▁panel 52673
▁pregnant 52636
▁charges 52609
▁agent 52583
100 52563
ari 52553
▁iron 52534
6/ 52513
▁danger 52481
▁teeth 52473
▁imports 52472
▁Professional 52441
▁kinds 52404
tan 52371
▁Las 52370
▁Using 52363
▁talked 52361
▁engineering 52344
SE 52302
▁06 52295
▁blog 52295
▁organic 52287
▁cloud 52283
▁debate 52268
▁h 52268
▁artist 52233
▁calm 52213
▁ads 52207
▁Ya 52193
▁plus 52159
▁declared 52147
▁glory 52147
▁notes 52115
▁contained 52091
▁03 52082
called 52077
▁grant 52060
rk 52051
▁anyway 52038
▁sharing 52015
▁officer 51990
▁Che 51983
▁dreams 51980
▁Express 51978
▁assist 51957
lon 51943
dis 51934
▁04 51893
70 51890
▁Manager 51878
▁Ministry 51878
▁allowing 51875
ons 51871
▁false 51847
row 51809
▁frame 51805
▁bread 51785
log 51781
▁license 51781
▁handling 51762
▁represents 51755
:00 51753
▁Shipping 51731
▁comparable 51726
▁notification 51723
▁flexible 51722
ú 51717
▁throw 51701
▁phrase 51686
▁expression 51677
▁sensitive 51677
▁eternal 51658
▁Working 51639
▁visited 51630
▁functioning 51620
▁lady 51620
▁exists 51617
▁hearts 51613
▁meetings 51595
▁sky 51590
gar 51579
▁Step 51577
▁victim 51567
▁Multi 51555
▁truck 51541
▁carrying 51533
▁42 51525
▁prejudice 51468
▁definition 51465
▁shouldn 51462
▁appeal 51433
▁Hostel 51410
▁Pool 51393
▁judge 51364
▁Christians 51340
▁enforcement 51340
31 51306
▁tells 51300
▁foods 51291
▁movies 51275
▁valuable 51270
▁shut 51269
om 51259
„ 51250
▁fashion 51242
▁fitted 51232
▁Drive 51230
▁conditioning 51199
tri 51187
▁Via 51137
▁Space 51135
▁! 51128
▁Suppliers 51119
▁Common 51100
▁suggest 51097
▁Body 51091
▁Ah 51065
▁Whatever 51059
▁closely 51050
▁reception 51033
▁drinking 51024
ash 51002
▁rent 50971
▁Store 50947
▁Account 50920
MS 50901
▁ski 50892
ik 50882
▁interview 50882
▁reform 50865
▁sides 50861
ations 50837
▁busy 50804
▁abroad 50798
▁reaction 50789
▁Brazil 50787
▁Turkish 50769
cho 50764
▁constant 50757
MA 50756
▁guidelines 50751
▁Fly 50745
▁Total 50693
▁cuisine 50674
▁huh 50658
quality 50651
▁roof 50625
▁draft 50617
▁requirement 50587
▁subjects 50553
sur 50533
▁estate 50514
▁Angeles 50498
▁Natural 50497
▁imp 50495
▁runs 50469
▁profit 50460
▁Model 50441
▁Bad 50433
▁arm 50432
▁ran 50421
ola 50413
▁Rock 50412
▁pen 50406
▁expenditure 50404
▁ended 50403
▁exclusive 50400
▁understood 50399
▁Living 50397
▁unknown 50393
▁applicant 50392
▁OS 50383
▁Modern 50366
▁investments 50363
▁Weekend 50362
Á 50354
▁agents 50353
IP 50349
▁Collection 50318
▁wisdom 50311
▁occurs 50304
sy 50284
▁noted 50275
▁medicinal 50256
▁honor 50247
▁surprise 50244
▁wild 50240
23 50182
▁tourist 50164
▁Cu 50146
▁Popular 50126
ps 50101
▁revealed 50097
▁adoption 50094
▁Nu 50081
▁serving 50064
down 50055
▁sample 50055
beads 50054
▁bigger 50045
▁yesterday 50033
ab 50026
▁Bedroom 50022
▁immediate 50013
87 50012
▁introduction 50011
▁Machine 50005
▁authorised 49997
▁label 49996
ct 49990
▁Nature 49985
▁onto 49976
ery 49967
▁Medical 49945
án 49943
long 49931
▁raw 49918
▁mechanism 49900
▁invited 49898
▁www 49896
▁protein 49890
94 49878
▁lots 49877
ID 49873
▁refer 49864
▁despite 49848
▁organized 49839
▁smooth 49832
▁symbol 49831
well 49820
▁Comments 49809
▁consideration 49804
▁intellectual 49793
▁examination 49738
▁publication 49729
▁familiar 49728
▁Got 49710
▁increasingly 49693
▁vacation 49658
ane 49647
▁luxury 49634
▁consciousness 49591
▁Norway 49581
▁speakers 49575
▁liquid 49568
▁Trump 49567
fe 49561
▁remote 49548
▁(4) 49544
▁indicate 49531
▁Er 49517
▁translation 49515
▁visual 49483
▁ECB 49478
▁consistent 49470
▁mostly 49448
▁conclusion 49427
▁GmbH 49421
▁Question 49421
▁bringing 49415
▁Village 49412
▁Fire 49398
▁Secretary 49398
▁everyday 49398
▁worst 49398
2, 49397
-2 49381
▁Sal 49381
▁academic 49365
ure 49321
▁latter 49318
▁successfully 49318
▁powder 49298
▁explore 49296
▁enables 49280
▁Protocol 49223
▁Captain 49215
} 49199
▁improvement 49183
▁genuine 49178
2) 49155
▁concentration 49148
▁thinks 49133
▁Low 49096
68 49093
́ 49093
09 49092
▁Image 49084
▁universal 49081
▁min 49053
ī 49011
▁happiness 48999
▁Camera 48961
▁lift 48944
% 48921
▁discuss 48917
▁museum 48903
▁pleasant 48892
▁Bio 48891
▁Test 48881
▁Location 48872
▁presentation 48866
▁Har 48857
▁Syria 48849
▁interface 48840
▁quantity 48820
▁Mon 48818
▁session 48814
top 48810
▁trans 48792
mon 48791
▁developments 48772
▁films 48763
eng 48732
▁relax 48704
▁stands 48687
▁tickets 48669
As 48654
▁uniform 48621
▁parent 48616
▁silver 48597
pan 48587
▁da 48585
▁association 48566
▁leadership 48566
▁Foreign 48530
▁Details 48521
▁Cup 48508
▁broke 48505
▁Share 48502
▁Due 48491
č 48490
▁Belgium 48485
gg 48444
ens 48442
▁audience 48404
▁Tower 48402
▁quarter 48395
▁Cap 48388
amp 48369
▁grace 48364
oc 48350
▁Based 48338
▁democracy 48287
▁entities 48277
stone 48267
▁versions 48239
▁borders 48234
▁broad 48224
don 48210
88 48187
▁Unfortunately 48180
IT 48125
▁hardware 48118
▁anybody 48111
▁ISO 48090
▁periods 48081
▁Mediterranean 48074
▁reducing 48073
▁recognized 48071
▁upper 48061
▁remained 48028
▁owners 48022
▁toilet 48011
vir 48001
▁10- 48001
▁designated 47996
79 47986
▁Pa 47934
▁Ask 47933
▁Bulgaria 47931
▁putting 47927
▁stronger 47927
▁55 47924
▁electrical 47916
ns 47911
▁enhance 47903
43 47887
eu 47884
head 47884
▁department 47867
▁displayed 47859
!" 47850
▁scientists 47847
▁Questions 47840
▁IV 47828
▁Systems 47824
▁Conditions 47820
▁declaration 47819
▁injection 47815
▁luck 47807
▁transferred 47801
▁Little 47789
▁sending 47785
edit 47775
▁afternoon 47769
▁Cat 47752
▁election 47751
▁nobody 47747
▁Mor 47739
44 47686
▁Through 47665
▁Joint 47648
▁eventually 47645
▁Van 47641
▁pop 47640
▁Guide 47628
▁Si 47608
▁witness 47604
▁default 47587
▁Kitchen 47582
▁prefer 47566
▁urban 47526
▁killing 47524
▁Want 47523
▁Ten 47508
▁se 47492
But 47488
ria 47488
▁convenient 47480
▁frequently 47448
making 47438
▁awareness 47434
var 47432
▁plays 47432
▁Monte 47394
▁consultation 47394
▁Results 47393
▁producer 47380
▁ends 47379
▁enemies 47369
77 47365
▁subparagraph 47349
▁pregnancy 47342
▁conversation 47304
ned 47284
▁Ru 47278
▁honey 47247
▁Denmark 47228
▁Par 47221
▁tradition 47218
ika 47210
▁yellow 47200
▁Pen 47193
sp 47176
▁Wood 47170
▁governments 47163
▁Snow 47159
▁continuous 47150
ged 47121
▁Train 47116
▁tired 47105
37 47091
▁ho 47088
▁Civil 47082
▁dynamic 47082
76 47071
▁topic 47071
▁vital 47053
▁usual 47048
▁drawn 47031
▁divided 47025
▁tested 47014
▁Um 46994
NA 46934
▁pairs 46915
▁turns 46904
▁Third 46870
▁1990 46847
▁Box 46845
▁percentage 46841
▁sp 46841
▁surgery 46817
▁purchased 46808
59 46803
▁Award 46795
▁effectiveness 46787
▁Bus 46786
▁facility 46785
58 46744
▁partnership 46740
▁Bra 46724
▁updates 46701
▁fellow 46695
▁twenty 46675
▁seemed 46674
▁Think 46672
▁mobility 46666
▁Je 46665
▁exact 46657
▁winning 46654
par 46625
▁meals 46621
▁survey 46616
92 46613
▁tender 46609
▁awarded 46605
▁domain 46594
▁villas 46586
ware 46575
▁concrete 46561
▁plate 46559
▁unable 46547
▁expertise 46536
▁log 46503
▁waters 46486
uff 46485
▁Forum 46477
CO 46449
cy 46436
ians 46424
▁Girls 46416
▁Winter 46407
ony 46381
▁revolution 46376
▁priest 46364
▁Jehovah 46353
▁Members 46346
▁Vo 46332
▁selling 46326
▁Casino 46324
ey 46323
▁theme 46323
CC 46311
▁loan 46308
▁lucky 46300
▁compatible 46298
▁sad 46290
ky 46261
1, 46241
▁Steel 46240
tu 46232
▁exceed 46217
▁Zealand 46216
▁committee 46191
▁occurred 46177
border 46172
▁magic 46167
ski 46158
▁Source 46147
93 46091
▁Send 46086
▁Bal 46083
ical 46079
▁employee 46075
▁explained 46066
▁assess 46060
▁checking 46042
/1 46038
▁Ro 46014
▁Phone 46002
▁Property 46002
▁structures 46001
ants 45994
▁terrible 45994
5/ 45976
▁Bre 45973
class 45960
▁tablets 45957
(3) 45950
she 45949
▁defence 45944
▁figures 45910
£ 45899
▁Rental 45874
CH 45863
:30 45857
▁Flights 45843
▁wheel 45823
▁overview 45811
▁transition 45787
▁na 45783
aw 45782
▁Ku 45775
▁concert 45772
▁Radio 45752
▁Display 45747
▁degrees 45747
▁accounting 45739
▁prevention 45734
▁survive 45734
▁translations 45732
▁bridge 45731
▁Still 45712
▁favor 45706
law 45704
TS 45699
▁personality 45697
▁leg 45680
ade 45679
▁Log 45667
sion 45645
ala 45617
▁65 45611
▁visiting 45604
mann 45580
▁hath 45574
▁Age 45571
-3 45570
▁reflect 45553
▁Sch 45543
▁vessels 45514
▁1999 45511
▁corresponding 45508
▁undertaking 45500
▁Short 45478
▁technological 45461
▁Singapore 45450
▁virtual 45450
▁Dutch 45445
Are 45432
▁saving 45430
▁believes 45429
8/ 45419
box 45418
▁ain 45418
RA 45408
▁Create 45385
▁calculated 45357
▁answered 45342
▁motion 45338
05 45315
▁Ge 45314
▁recording 45306
des 45304
▁Nice 45292
▁Following 45288
▁abuse 45273
▁chair 45266
ven 45251
SP 45247
▁VAT 45245
▁bound 45225
app 45224
▁push 45222
▁Instead 45206
▁pattern 45189
▁god 45185
Con 45181
▁applying 45180
▁Hand 45173
▁plenty 45164
▁transaction 45143
▁contemporary 45119
▁labor 45105
ix 45098
org 45090
▁tough 45086
▁Turn 45079
▁fans 45059
▁MP 45047
▁modified 45036
▁Trans 45026
▁printing 45023
▁Sport 45022
▁composition 45020
sol 45018
▁Mag 45010
▁farm 44993
har 44990
▁letters 44984
▁Agoda 44978
▁lighting 44947
▁ear 44932
▁dozens 44894
▁Frank 44881
▁weren 44864
▁liability 44861
▁Version 44853
▁certification 44852
▁wearing 44795
▁snow 44775
▁minister 44770
▁hang 44766
▁vast 44761
▁reactions 44754
▁Paper 44737
▁Mal 44734
PC 44708
▁lights 44694
▁schedule 44663
▁knowing 44631
ova 44602
▁rid 44589
▁Prince 44587
▁honest 44574
▁covers 44573
▁fares 44538
cs 44536
▁mo 44534
▁supplier 44532
▁helpful 44531
zo 44530
▁Val 44523
▁eligible 44518
▁possibly 44479
▁Front 44474
▁destruction 44469
▁Baby 44462
▁absence 44447
▁weak 44434
{ 44413
▁Factory 44408
▁attractive 44401
▁lo 44397
oma 44391
▁120 44389
▁wash 44378
▁pack 44363
SA 44352
▁pan 44346
78 44337
▁[...] 44309
> 44296
▁compensation 44288
▁Assembly 44280
▁Something 44266
91 44253
▁introduce 44250
▁paint 44250
▁jurisdiction 44244
ona 44229
▁Commissioner 44229
▁dealing 44226
EL 44222
mp 44212
▁recognised 44212
▁Mel 44202
▁focused 44184
ese 44178
▁shares 44145
▁cup 44139
tru 44125
▁grown 44123
▁windows 44122
▁sentences 44119
▁artists 44112
▁demands 44109
▁Line 44096
When 44093
uri 44073
▁Madrid 44072
▁enterprises 44053
▁considers 44027
▁entrance 44023
▁checks 44009
▁comment 44003
▁finds 43998
ye 43996
▁1998 43978
▁Motor 43971
▁Twitter 43945
book 43932
▁aimed 43927
▁injury 43922
▁sc 43903
▁solar 43901
ica 43881
/10 43878
▁Congress 43866
▁delete 43855
friendly 43796
▁favour 43794
▁apps 43773
▁fan 43773
▁mercy 43758
cal 43747
▁buying 43744
ng 43736
▁ordinary 43736
▁breast 43734
▁tab 43728
▁contrast 43727
▁breath 43720
▁Training 43696
▁strategies 43694
▁Micro 43693
97 43680
▁Latin 43672
ple 43670
▁44 43664
▁Easy 43640
▁1000 43631
▁elegant 43627
▁herself 43627
08 43599
▁losing 43599
▁Satellite 43578
▁passengers 43574
▁generated 43570
tain 43568
My 43540
▁rear 43530
▁Theatre 43515
ties 43513
▁Self 43510
ward 43493
63 43485
▁extensive 43485
▁Gy 43483
▁Tags 43480
aries 43477
ö 43460
▁relatively 43437
▁examine 43423
▁extreme 43407
mit 43403
▁interpretation 43401
▁Case 43381
▁audit 43374
▁displays 43331
▁evolution 43331
▁dollars 43325
▁Besides 43323
▁Sciences 43323
▁painting 43318
▁amending 43311
▁neck 43296
▁realized 43295
▁Dar 43289
ney 43285
pp 43275
▁mutual 43275
▁43 43274
▁Organization 43273
▁doctors 43272
▁soldiers 43266
▁targets 43265
war 43261
▁airlines 43256
ano 43250
▁Samsung 43200
▁perspective 43194
▁Industrial 43180
▁exception 43172
▁songs 43170
▁finance 43166
▁marked 43161
▁poverty 43159
▁600 43157
▁fail 43140
▁paying 43109
▁formula 43097
ot 43085
tter 43082
▁custom 43067
▁feedback 43053
▁Joseph 43039
▁Talk 43039
61 43020
del 43008
▁widely 43008
▁intervention 43006
▁negotiations 43002
▁charged 42995
level 42974
▁falling 42974
▁Affairs 42973
▁offices 42970
▁transparent 42957
▁demonstrate 42935
low 42926
▁dating 42924
▁studied 42919
▁toiletries 42912
▁xHamster 42837
mark 42827
OS 42825
▁Slovakia 42822
▁Mer 42803
▁Dubai 42782
▁Hard 42782
▁sauna 42776
gra 42761
▁undertakings 42761
▁migration 42757
▁Chicago 42753
ama 42734
▁discussion 42730
Mo 42726
qua 42700
▁sleeping 42695
▁smell 42695
▁edge 42694
▁beer 42653
nes 42646
▁mix 42637
▁satisfied 42621
▁trends 42614
uck 42590
4/ 42573
▁novel 42568
74 42564
62 42547
▁possibilities 42535
▁historic 42526
▁GDPR 42516
▁th 42514
▁paragraphs 42511
▁promotion 42504
▁birds 42474
▁crew 42455
▁Within 42454
some 42445
▁convert 42440
83 42400
▁notified 42383
▁Fashion 42367
▁restore 42343
▁Someone 42331
▁statements 42325
▁Side 42308
▁Parking 42293
▁smoke 42286
▁adapt 42282
▁Transport 42266
▁expectations 42252
▁Doctor 42230
ath 42219
▁Library 42206
form 42204
▁Developer 42200
▁confirmation 42174
▁lowest 42167
▁Shop 42158
300 42153
▁Application 42152
right 42148
more 42144
▁laptop 42111
▁Ju 42099
▁flying 42090
ble 42077
▁directed 42065
/5 42058
▁smile 42050
▁politics 42048
▁Five 42046
▁measurement 42037
ii 42014
▁Engineering 42010
▁lying 41997
bel 41992
▁worried 41990
\ 41986
cul 41984
▁guidance 41984
▁tips 41982
▁hasn 41981
▁Win 41944
▁RE 41925
ima 41912
▁Cerro 41911
54 41891
run 41889
▁blow 41859
▁mis 41848
ap 41839
▁lock 41838
▁drawing 41835
▁Care 41826
47 41815
▁shipping 41802
▁mixed 41801
▁normally 41801
▁Fe 41788
▁choosing 41788
cause 41767
AR 41744
▁legs 41720
▁Maria 41719
▁stores 41719
▁Secret 41714
9/ 41689
▁ca 41668
▁coordination 41667
▁medicines 41659
▁Update 41655
▁Swiss 41649
▁(6 41634
▁sat 41619
IS 41615
▁mountains 41615
▁promised 41606
▁permission 41605
▁tennis 41605
▁Swedish 41603
▁premium 41596
▁Police 41595
▁celebrate 41583
▁resource 41577
Be 41535
▁keeps 41516
ux 41507
▁choices 41505
▁41 41500
▁heads 41492
▁worship 41480
▁hall 41465
▁Email 41456
▁grand 41448
▁ensures 41440
ella 41430
-4 41395
▁Pu 41395
▁Force 41393
▁Army 41391
07 41384
▁Need 41383
▁07 41377
get 41351
▁turning 41345
▁conversion 41337
▁Wish 41327
▁conformity 41325
▁opposite 41324
▁Golf 41313
▁Peak 41289
▁Culture 41279
▁Adam 41269
▁Britain 41267
▁sake 41264
▁burden 41263
96 41247
▁keys 41238
▁bike 41226
400 41222
▁restrictions 41218
02 41217
▁outstanding 41216
▁stood 41216
▁covering 41215
▁Beds 41205
▁1.5 41204
▁missed 41201
▁promoting 41171
▁suddenly 41171
▁elections 41164
▁initiatives 41162
▁listening 41157
▁entering 41155
▁independence 41153
72 41131
▁belong 41127
▁50% 41114
▁Americans 41108
▁colleagues 41104
▁legislative 41095
ET 41086
ub 41083
▁inspection 41080
▁county 41069
▁respective 41068
▁Em 41049
▁Roleplay 41020
▁Far 41019
sta 41015
▁Para 41013
▁Spring 41012
▁Valley 41001
▁Gen 40978
ada 40960
▁heading 40959
▁MS 40949
▁Being 40939
▁wise 40928
▁Bill 40919
▁Ser 40907
PA 40892
▁represented 40880
▁Ocean 40879
▁difficulties 40877
▁passenger 40873
▁permitted 40858
ku 40847
▁Tar 40842
▁Way 40831
▁Mas 40817
▁personally 40798
▁scared 40778
▁suit 40774
set 40760
tur 40737
▁tablet 40732
ions 40729
▁shooting 40719
PS 40715
▁depend 40682
rin 40652
▁surprised 40650
▁emotional 40637
57 40625
▁Computer 40612
▁regime 40606
▁reserved 40605
▁Located 40604
▁Ford 40596
▁transparency 40589
▁checked 40586
▁47 40580
▁Avenue 40575
▁sins 40575
▁Serbia 40560
new 40536
▁Milan 40529
▁venture 40515
▁st 40513
▁souls 40511
▁flesh 40501
84 40491
▁boss 40488
▁crucial 40484
cur 40482
▁studio 40482
▁healing 40476
▁Mc 40451
▁supplied 40438
▁obvious 40436
▁formation 40433
▁warning 40433
▁Enter 40431
▁streets 40416
ug 40414
▁Further 40409
▁castle 40388
▁advantages 40368
▁settlement 40353
▁investors 40309
▁Actually 40296
▁clock 40281
▁46 40275
that 40273
▁sword 40268
ual 40256
▁withdrawal 40249
▁formal 40235
▁fund 40229
osis 40225
▁qualified 40218
▁Dan 40206
▁stick 40199
▁Superior 40185
2004 40172
▁des 40152
▁Death 40146
▁temple 40130
▁slightly 40119
▁DNA 40102
▁documentation 40086
IL 40083
▁creates 40083
▁League 40057
▁seed 40040
▁Additional 40035
▁grew 40034
▁eggs 40024
▁tap 40023
▁Pay 40016
▁spoken 40004
gate 39983
▁meal 39973
▁Daily 39962
▁Finland 39953
▁Xbox 39911
▁Say 39907
▁Chat 39899
▁PRO 39899
▁collaboration 39899
▁angry 39893
▁spending 39889
▁savings 39868
IA 39862
▁refers 39856
▁layer 39853
▁computers 39846
▁wealth 39837
▁centuries 39827
▁measured 39816
▁le 39813
▁struggle 39804
▁defense 39800
73 39794
▁contents 39783
▁Shopping 39780
med 39776
▁Richard 39775
ME 39760
▁expand 39746
wing 39734
▁killer 39727
▁slowly 39726
▁ships 39724
▁Charles 39712
su 39711
▁lawyer 39695
▁pot 39674
ks 39651
▁Active 39628
▁gender 39615
▁behaviour 39613
▁Request 39612
▁weapon 39607
▁officials 39602
▁courts 39600
▁exceptional 39596
▁navigation 39592
‐ 39590
How 39585
▁Heart 39579
▁Rose 39577
▁Mu 39570
▁comparison 39558
▁dust 39556
type 39543
▁Legal 39543
sha 39541
▁Daniel 39541
▁liver 39521
▁Thomas 39520
▁DC 39468
41 39464
▁deleted 39460
▁genetic 39457
▁800 39441
▁Electric 39425
▁cheese 39413
▁revenue 39413
ă 39403
▁democratic 39403
▁darkness 39399
part 39389
▁po 39388
▁cry 39379
UN 39346
▁exclusively 39345
▁addressed 39302
▁Latest 39275
matic 39270
▁depth 39270
ses 39259
▁Industry 39258
▁Login 39256
▁w 39253
▁Golden 39243
▁Pope 39220
▁im 39219
▁indoor 39203
bro 39196
▁weird 39192
▁ha 39179
▁Tra 39167
Pro 39164
▁typical 39153
▁Framework 39141
uch 39133
life 39129
▁bi 39129
03 39125
▁protecting 39123
▁Regional 39122
OT 39111
date 39111
point 39108
▁Child 39104
▁microwave 39092
71 39086
▁Pet 39082
pha 39077
▁housing 39044
▁functional 39026
▁Casa 39013
▁Ski 39006
CA 38999
▁mirror 38992
▁>> 38988
< 38976
▁owned 38971
▁wishes 38970
ale 38962
▁Prize 38925
DE 38919
▁transportation 38914
▁pair 38913
▁claimed 38902
▁prize 38896
▁stations 38883
▁extend 38882
▁lake 38880
▁jump 38873
nal 38858
▁rail 38840
▁auto 38837
burg 38836
▁retail 38836
▁flag 38821
▁victory 38815
▁angel 38812
▁arrest 38802
▁generations 38802
▁input 38783
til 38780
▁NO 38774
▁typically 38757
▁withdraw 38757
ball 38753
▁merely 38747
▁LCD 38746
▁railway 38741
▁absolute 38731
▁Sand 38720
anda 38716
party 38698
▁logo 38690
int 38662
▁entertainment 38657
▁roll 38657
▁permit 38648
▁accompanied 38643
▁intelligent 38643
▁contrary 38631
▁49 38628
▁programming 38624
É 38612
MO 38611
▁Amsterdam 38607
▁hole 38607
▁execution 38593
SC 38575
nt 38574
rie 38566
▁disciples 38559
▁rural 38555
▁Anna 38540
▁confirm 38537
sch 38528
RO 38521
▁Sh 38521
▁width 38509
▁tourism 38498
▁Answer 38481
nia 38479
▁Hold 38447
▁engaged 38446
▁decrease 38440
▁opinions 38436
▁Print 38421
▁Bur 38410
▁BMW 38398
▁pet 38382
▁ages 38379
▁Classic 38378
▁Ci 38376
▁accuracy 38371
▁gifts 38349
▁amendments 38339
▁85 38337
▁Sky 38334
▁fridge 38320
▁Ve 38318
▁Advanced 38317
cm 38306
▁Visit 38291
▁lessons 38288
▁rapid 38276
▁reserve 38272
▁superior 38271
▁surveillance 38269
▁Class 38268
▁participating 38268
▁era 38259
▁Strategy 38257
ue 38252
▁statistical 38252
▁Northern 38247
▁buffet 38240
▁classification 38231
▁complaint 38222
hal 38219
▁musical 38216
▁muscle 38215
▁technique 38212
▁fraud 38203
ira 38173
▁attached 38165
▁sing 38160
▁tri 38115
▁stages 38102
▁smartphone 38098
▁servant 38072
▁desired 38068
▁du 38049
▁52 38043
GB 38034
▁sand 38031
▁AC 38003
▁holds 37982
▁Despite 37975
▁opens 37970
-6 37953
era 37921
mor 37920
▁proven 37917
▁arrive 37882
▁Nobody 37881
▁09 37880
mes 37878
▁cookie 37877
▁gained 37864
lor 37861
▁swear 37859
▁Villas 37858
▁van 37857
list 37856
▁VI 37845
ition 37836
oid 37817
▁membership 37814
▁Silver 37811
km 37810
▁Contracting 37809
▁tend 37739
56 37731
wan 37699
▁biological 37698
made 37696
▁renewable 37690
ates 37685
cu 37674
▁guarantees 37674
▁sights 37669
▁bo 37665
▁connections 37660
▁flexibility 37650
ther 37637
▁Lady 37637
▁farmers 37629
▁Enjoy 37625
#: 37619
tle 37614
din 37613
▁Fer 37612
▁findings 37612
53 37601
ase 37594
▁chose 37592
▁Among 37580
▁Tour 37559
▁shops 37548
▁fifth 37542
▁enjoyed 37529
▁Iraq 37525
▁Bangkok 37522
▁Meeting 37521
▁Value 37518
▁Sar 37504
▁burn 37504
▁girlfriend 37481
▁Yo 37469
sky 37466
cing 37465
▁2.0 37453
▁Always 37449
▁flower 37443
▁Satan 37441
Me 37437
ON 37436
bed 37434
▁inhabitants 37422
7/ 37414
▁supervisory 37398
▁oral 37382
-10 37369
fo 37365
▁strongly 37364
cent 37358
▁greatly 37355
lia 37354
▁ban 37339
ena 37334
▁Later 37334
▁managing 37332
▁attitude 37293
▁assigned 37272
▁engines 37272
▁suffered 37272
▁Experience 37264
▁Empire 37260
▁bonus 37252
▁Moon 37228
oo 37225
▁Students 37225
▁Del 37217
▁facing 37217
Co 37211
600 37210
▁Francisco 37203
▁Partnership 37196
TC 37195
dal 37192
▁mail 37192
▁senior 37186
tech 37183
▁faces 37179
▁sum 37170
▁Below 37169
▁chocolate 37163
▁mad 37161
view 37147
▁Farm 37140
▁FOR 37138
▁regardless 37136
mel 37135
81 37131
▁Camp 37129
▁pleased 37125
▁Plaza 37121
▁iPad 37115
▁salvation 37115
LE 37114
▁Pat 37112
▁MB 37108
▁younger 37107
▁afford 37100
▁prime 37100
▁mood 37099
▁passion 37096
▁casino 37094
rt 37089
51 37085
▁Administration 37080
ini 37052
ati 37047
▁Mid 37047
MI 37044
od 37037
vers 37024
ai 37023
▁assume 36999
▁supervision 36999
▁Bor 36995
▁coast 36992
▁Ger 36991
▁para 36989
▁fantastic 36969
▁subsequent 36969
▁mess 36963
→ 36954
▁Equipment 36952
▁Investment 36948
ren 36933
Bo 36930
▁sizes 36930
▁Bat 36929
oli 36916
▁Whereas 36916
La 36912
▁Rules 36910
▁admit 36907
▁mat 36901
▁obviously 36892
▁64 36887
▁dictionaries 36874
pri 36870
▁transmitted 36860
▁replacement 36851
pon 36850
▁tank 36834
▁directive 36824
▁causing 36809
ele 36798
▁mechanical 36791
▁2001 36783
▁harmful 36769
▁suite 36766
▁forgotten 36759
▁1.1 36742
▁mechanisms 36729
▁matches 36721
▁parameters 36717
▁Wa 36708
ration 36689
▁damn 36688
Ma 36679
▁split 36658
▁Venice 36656
▁healthcare 36655
▁laboratory 36645
ette 36633
▁2.5 36631
So 36608
▁acquired 36598
▁indicators 36587
▁Times 36569
▁forgive 36552
▁heritage 36551
▁guestrooms 36548
7% 36547
▁laying 36532
▁accordingly 36526
▁lovely 36523
▁Facilities 36519
▁organised 36519
▁nervous 36499
▁east 36467
▁treatments 36467
▁visits 36455
▁ladies 36449
▁posts 36430
zer 36429
▁Tan 36422
from 36410
▁collective 36389
▁Ball 36384
▁bomb 36378
▁Sydney 36373
▁votes 36353
▁originally 36350
▁1997 36335
bol 36326
▁industries 36320
▁adverse 36313
▁preparing 36307
▁enterprise 36306
▁aspect 36303
ites 36286
▁steam 36286
▁Unit 36267
▁MA 36242
▁Brown 36232
▁Shi 36232
▁rapidly 36232
▁Controller 36224
▁pilot 36221
▁Author 36220
▁Beijing 36220
▁grade 36218
▁Sale 36213
▁grave 36211
▁moments 36209
▁ongoing 36209
▁Level 36208
▁Remove 36205
▁Know 36203
▁define 36201
▁rose 36201
▁Looking 36193
▁philosophy 36192
▁guard 36180
▁mistakes 36177
▁refugees 36177
▁amenities 36160
▁Title 36152
▁Related 36149
▁sought 36142
▁Ri 36135
▁secondary 36127
ole 36112
▁Ca 36109
▁Reserved 36108
▁Jordan 36098
▁root 36079
dom 36074
uma 36072
▁removal 36068
▁NOT 36067
▁presents 36065
▁vegetables 36065
tte 36054
▁oven 36050
▁Roma 36046
▁operated 36034
▁Overview 36029
ments 36022
▁occasion 36022
TA 36017
▁Cam 35977
▁movements 35972
▁Min 35967
▁structural 35962
▁appointment 35945
▁Wine 35941
▁Balaton 35935
lt 35931
▁sa 35913
▁PM 35900
▁Options 35889
▁Cal 35886
▁gym 35884
▁sentence 35880
▁sustainability 35878
▁clothing 35860
▁discussed 35856
▁quantities 35846
▁Major 35836
è 35824
ENT 35820
▁describe 35820
▁Happy 35791
▁Flash 35786
▁Fast 35785
800 35780
▁deserve 35767
06 35764
▁Chief 35764
▁Though 35760
▁bars 35756
▁featuring 35753
▁involving 35748
▁Gas 35742
▁defend 35742
▁Ba 35737
▁08 35727
▁brands 35727
▁chapter 35727
▁staying 35720
IF 35696
▁Programs 35683
▁thermal 35682
▁combat 35679
04 35670
▁Emirates 35668
cut 35663
▁topics 35663
▁peaceful 35662
▁Fine 35646
All 35639
▁Peace 35636
▁notify 35629
▁(5) 35625
-19 35617
RE 35607
win 35604
▁bone 35599
ular 35590
▁Band 35587
▁necessarily 35576
▁assembly 35531
▁Outdoor 35529
▁maintained 35528
▁Henry 35527
82 35526
▁possession 35524
▁resort 35496
▁Residence 35486
▁Ce 35484
▁Glass 35476
▁Mad 35472
▁lifestyle 35469
▁backup 35451
▁William 35450
2010 35447
2013 35430
▁servants 35406
▁expansion 35387
▁Innovation 35386
▁landmarks 35383
ida 35365
▁Six 35365
▁supplement 35330
kg 35325
▁dying 35315
▁centrum 35311
▁Simon 35303
▁Content 35290
▁stream 35290
European 35275
▁diversity 35262
AP 35250
3, 35247
▁outcome 35245
▁Tools 35244
") 35241
▁massive 35239
▁agriculture 35238
▁contacts 35226
▁Pra 35197
▁diameter 35196
▁boost 35193
▁Basic 35183
ming 35182
▁DE 35182
▁correctly 35174
▁sofa 35168
▁portfolio 35163
▁Mass 35161
onic 35155
▁priorities 35152
▁priests 35137
▁Israeli 35136
▁Ms 35136
▁1996 35104
▁innocent 35097
▁judicial 35094
▁disposal 35092
▁opposition 35087
▁stakeholders 35079
▁repeat 35074
▁alarm 35049
▁Metal 35044
▁Fo 35025
▁semi 35013
lea 35011
▁Lee 35009
▁Audio 34996
▁Harry 34987
▁departure 34979
▁Points 34970
▁cooking 34955
ox 34952
hand 34938
▁arrested 34925
▁lens 34916
▁Vegas 34907
night 34904
2005 34902
▁Gal 34896
▁Shower 34885
▁belongs 34883
▁Friendly 34880
▁overcome 34872
▁capture 34868
▁vi 34859
▁burning 34857
▁verification 34855
▁Bluetooth 34851
▁geographical 34850
▁Budget 34844
▁diverse 34835
▁bill 34830
▁em 34829
▁supplies 34827
ified 34820
▁bird 34812
nce 34800
▁dimensions 34797
2012 34778
▁eliminate 34776
4% 34762
▁respectively 34761
▁Hu 34759
▁pronounce 34756
▁sensor 34750
▁naturally 34747
IM 34738
▁Follow 34728
▁complicated 34720
▁binding 34692
They 34690
▁directions 34681
▁Tro 34678
▁Days 34677
▁pump 34675
▁narrow 34674
▁Wild 34654
▁zero 34642
▁Ber 34636
▁Fair 34631
▁household 34626
▁invitation 34625
▁receipt 34618
▁thereby 34600
▁officially 34575
▁resolve 34565
mun 34564
ace 34551
▁Universal 34545
▁configuration 34544
▁Until 34541
▁tight 34522
▁Subject 34513
▁experiment 34510
▁nearest 34507
▁broadcast 34499
▁Player 34495
▁Vietnam 34493
AM 34482
.[ 34481
▁fulfil 34478
play 34477
town 34473
▁YOU 34467
▁Ana 34459
▁references 34450
▁schemes 34446
▁Creator 34434
▁considering 34434
▁festival 34430
▁meets 34424
▁sacrifice 34417
▁Marketing 34416
▁51 34415
▁engage 34401
ture 34382
▁elected 34378
rant 34367
▁trend 34358
▁2015, 34350
▁regarded 34338
bus 34328
õ 34314
▁Stone 34312
▁Federal 34305
▁measuring 34284
‘ 34274
▁hardly 34270
shi 34259
▁officers 34248
▁union 34245
▁visa 34234
▁Arm 34225
▁protective 34217
▁incredible 34211
ata 34207
▁returns 34207
▁continuously 34206
▁Smith 34195
▁suspension 34190
table 34183
▁Gre 34180
▁Romanian 34179
▁Afghanistan 34170
▁Address 34166
▁el 34163
▁Better 34155
▁noticed 34139
▁sole 34136
▁Mike 34134
▁Region 34134
▁hero 34113
▁affects 34109
▁ill 34094
sz 34092
▁Operating 34081
▁contributions 34079
▁BA 34067
▁Bedrooms 34062
▁Pop 34058
▁mu 34053
▁decade 34051
▁marks 34050
▁copyright 34044
bin 34043
ans 34038
▁edition 34038
▁adding 34037
▁1995 34034
▁printed 34031
zy 34025
▁Return 34018
▁Wikipedia 34006
▁bathtub 34001
▁Bel 33999
▁SA 33994
▁gradually 33990
▁minor 33986
“ 33979
▁fool 33969
▁vary 33959
▁exposed 33956
▁anniversary 33941
▁newly 33931
▁earn 33923
ag 33919
tes 33911
wo 33895
▁um 33893
▁Clear 33892
avi 33888
▁strike 33879
▁banking 33875
▁division 33875
▁Sen 33869
▁Bag 33867
▁nose 33863
▁Dark 33860
▁angle 33826
▁Environment 33817
▁belief 33816
▁elevator 33815
▁Capital 33802
late 33798
og 33793
▁Production 33787
▁Users 33779
▁shift 33768
▁Exchange 33758
▁Georgia 33726
BA 33723
▁Between 33714
▁transformation 33710
▁Leave 33705
▁vitamin 33702
▁Opera 33699
▁automated 33694
▁(18 33693
▁villages 33688
▁Yu 33683
▁attend 33680
Open 33678
▁Metro 33660
52 33639
bal 33638
▁Cur 33632
▁pension 33625
LA 33622
▁ocean 33620
▁recover 33603
▁platforms 33597
▁Mill 33585
ua 33580
▁precise 33568
ami 33565
rated 33564
▁Olympic 33562
▁flu 33556
▁54 33554
bb 33550
▁Ok 33546
TER 33545
▁winner 33534
▁functionality 33533
▁Similar 33529
▁Hell 33524
▁procurement 33524
▁Korean 33508
▁Gu 33503
▁grateful 33486
tea 33483
▁gods 33475
▁gate 33469
▁patterns 33445
gon 33440
▁relative 33438
Le 33437
▁producing 33436
▁Agent 33421
▁disabled 33417
cer 33416
▁Ken 33403
▁losses 33398
▁inspired 33394
▁Menu 33385
▁wholesale 33379
▁PA 33377
▁exit 33359
▁memories 33353
gli 33352
▁constitute 33350
▁oldest 33349
▁adjustment 33347
▁Provider 33340
▁YouTube 33338
▁Rio 33337
▁imposed 33337
▁refrigerator 33334
▁Battle 33315
▁Bro 33302
8% 33288
▁Transfer 33279
▁Kan 33278
nik 33259
▁conclusions 33246
▁addresses 33242
uring 33240
ient 33236
▁2016, 33233
▁pursue 33232
rich 33227
▁unusual 33221
▁acquire 33219
ric 33218
▁cook 33216
▁holder 33209
▁Miami 33208
▁wave 33208
▁Pack 33205
▁boxes 33199
dar 33197
▁intention 33187
▁iOS 33183
▁classified 33182
▁CA 33180
▁rescue 33178
▁ta 33174
▁10% 33173
▁laser 33164
▁breach 33162
▁competitiveness 33161
▁lifetime 33156
ific 33155
tz 33144
▁Temple 33140
ators 33139
▁drunk 33139
▁universities 33124
▁poly 33119
▁Treatment 33116
▁loans 33116
which 33113
Al 33111
▁Hello 33109
such 33106
▁regret 33105
2014 33100
▁1: 33092
▁Irish 33077
▁servers 33068
ult 33067
▁freedoms 33065
▁storm 33059
name 33053
▁ultimate 33046
▁agenda 33043
▁Han 33040
▁Ray 33035
▁Glosbe 33019
xi 33009
▁personnel 33009
▁precious 33008
▁Dance 32992
6% 32989
▁brown 32983
▁commonly 32978
cia 32952
cap 32936
▁refuse 32926
▁” 32920
▁lists 32907
jar 32903
▁seats 32903
▁te 32898
▁fabric 32893
▁Speed 32877
▁completion 32876
▁kiss 32875
▁56 32870
▁suicide 32870
water 32869
CE 32866
▁Host 32863
▁blame 32862
▁invite 32858
▁Off 32839
lar 32830
-5 32825
/4 32824
▁moves 32824
▁stainless 32819
▁Filter 32814
▁maps 32804
▁Austrian 32796
▁succeed 32778
▁Australian 32774
▁loving 32768
▁encounter 32758
▁Kim 32756
▁recipes 32728
▁Tips 32727
"? 32703
▁Enterprise 32692
▁writer 32692
▁excuse 32688
▁governance 32686
▁immune 32679
▁compact 32677
▁Tool 32673
▁dimension 32673
▁walked 32666
▁bags 32663
▁Vol 32659
▁solely 32654
▁Maximum 32652
▁ought 32650
▁20% 32641
▁95 32631
▁representation 32631
pir 32630
▁wooden 32622
far 32609
▁Features 32607
▁Everybody 32604
lov 32591
its 32582
TH 32579
▁printer 32577
via 32573
▁AM 32573
elle 32566
▁tables 32563
responsibilities 32560
▁Ly 32554
▁literature 32553
▁childhood 32537
▁campsite 32536
wn 32529
▁Kal 32526
▁falls 32525
bul 32522
â 32520
▁equally 32511
▁cooperate 32508
▁maintaining 32507
▁Edition 32505
▁extract 32504
▁Kit 32503
▁guitar 32493
2007 32487
pin 32483
▁indicates 32478
▁arising 32476
▁angels 32475
▁courage 32474
▁sections 32473
gin 32472
▁gear 32468
▁stomach 32451
smoking 32434
▁forgot 32433
yo 32417
▁Sur 32411
ich 32407
▁codes 32402
▁Exhibition 32395
cin 32387
▁favourite 32383
ml 32375
▁Coast 32371
▁illness 32368
▁artificial 32360
▁coach 32360
▁involves 32325
▁adjust 32315
ava 32308
TE 32301
▁explains 32285
tric 32270
▁EEA 32268
ay 32264
▁copies 32258
▁tongue 32252
▁Wireless 32249
AC 32241
▁photography 32240
▁scores 32240
▁Kids 32238
▁marry 32238
▁Coffee 32234
▁ears 32231
▁Beauty 32226
▁excited 32223
▁commission 32221
▁row 32220
ér 32219
Ro 32218
▁tower 32214
▁commit 32202
▁survival 32200
▁Implementing 32196
▁Brand 32189
▁restriction 32183
▁Run 32178
RI 32176
▁Jacob 32167
▁Guinea 32160
san 32147
▁contest 32140
▁Ft 32138
ef 32135
▁Had 32130
▁Bob 32129
lock 32123
▁strict 32123
▁makers 32106
▁minds 32105
sis 32094
▁studying 32094
▁examined 32091
▁HIV 32086
▁damaged 32085
▁justified 32084
▁Offering 32076
▁Week 32074
▁proved 32074
▁searching 32072
Ba 32071
zen 32053
▁egg 32042
▁flash 32037
cher 32036
▁1.2 32030
▁acceptance 32026
▁sorted 32025
▁column 32020
▁hosting 32019
▁cameras 32017
▁Really 31995
▁Analysis 31994
▁mature 31989
▁Vice 31986
▁rejected 31985
eb 31966
▁Pages 31966
▁certified 31955
lie 31949
iti 31942
▁Tokyo 31941
▁spaces 31936
fu 31931
▁concepts 31916
▁jail 31916
▁Cyprus 31910
▁Tre 31904
▁reply 31903
▁index 31891
▁fruits 31889
▁west 31883
▁extraordinary 31877
▁portion 31866
(4) 31865
▁2010, 31864
▁connecting 31863
▁1980 31850
▁2: 31842
mus 31840
▁Toys 31840
▁Indonesia 31838
▁asylum 31832
00 31830
▁vessel 31826
▁Premium 31825
▁Os 31816
olo 31799
▁faithful 31799
▁separated 31791
▁cr 31780
▁preserve 31777
▁mono 31776
▁Future 31773
ili 31759
▁radiation 31755
▁Especially 31748
▁Environmental 31742
▁corruption 31742
▁1994 31738
lay 31732
▁firms 31730
▁continuing 31729
▁polished 31729
▁golf 31717
▁Joe 31712
▁Hospital 31710
▁candidate 31696
▁substantial 31685
▁romantic 31684
▁sheets 31681
▁reputation 31667
▁performing 31662
ral 31661
▁fate 31661
▁Tip 31653
▁talks 31652
▁verify 31652
▁Cable 31651
▁circle 31651
▁targeted 31650
▁1992 31643
▁Youth 31642
▁Average 31639
▁secrets 31632
▁Down 31630
▁Adobe 31629
▁Comp 31620
▁asset 31598
▁Fu 31595
▁Money 31593
▁Pin 31592
▁Supreme 31591
▁freely 31589
▁emotions 31583
▁observe 31582
▁Sound 31577
▁deemed 31577
▁react 31576
▁lab 31574
« 31572
SI 31562
▁assistant 31558
▁Tea 31555
▁Professor 31553
DA 31552
▁fulfilled 31545
▁Angel 31543
▁Excellent 31531
▁pollution 31531
▁fleet 31525
pu 31521
▁2015. 31519
ras 31517
▁precisely 31515
RS 31504
▁Net 31503
ei 31501
▁phones 31499
▁horses 31495
▁lamp 31490
▁whenever 31487
▁Several 31483
▁magazine 31478
▁Pension 31472
▁formats 31472
aba 31464
▁53 31459
▁Style 31459
ste 31447
sized 31442
nar 31432
ñ 31430
▁charging 31430
yn 31427
vy 31409
:1 31403
▁convenience 31397
▁Jean 31392
▁trucks 31368
▁Medicine 31362
▁Mercedes 31361
▁gathered 31351
▁traditions 31344
-8 31335
▁hungry 31324
▁Col 31321
▁gentlemen 31320
▁2017: 31315
▁reserves 31315
▁Ki 31313
▁IS 31311
▁oxygen 31311
▁monthly 31309
▁glasses 31291
▁Pakistan 31289
▁achieving 31281
▁washing 31277
press 31269
LO 31259
▁Officer 31258
▁steal 31256
▁parallel 31249
▁scan 31240
▁calculation 31233
▁authentic 31231
▁Bath 31229
▁reveal 31219
▁Cloud 31206
▁Material 31199
▁Screen 31199
▁gather 31174
▁Ram 31171
kh 31167
▁voted 31167
▁y 31155
pers 31147
▁Th 31145
▁tracking 31143
▁Boy 31130
▁Cho 31124
▁amendment 31110
RC 31098
ovo 31092
▁Register 31092
▁Ac 31078
▁2010. 31067
▁Fort 31061
▁floors 31038
▁Discover 31035
DS 31031
▁surrounded 31028
card 31021
▁Iceland 30999
▁suspect 30992
▁passing 30990
▁Cape 30987
▁unity 30981
▁Direct 30976
▁anger 30971
▁invest 30965
▁actors 30951
▁depression 30950
▁Canadian 30946
TV 30943
▁CEO 30942
▁Yahweh 30941
rum 30939
▁integrity 30929
▁mystery 30926
▁obliged 30926
▁ob 30923
▁tape 30921
▁juice 30916
▁managers 30912
▁Florence 30910
▁vulnerable 30905
An 30891
uc 30887
▁cake 30882
▁Magic 30855
▁mandatory 30849
scale 30840
▁detect 30837
ST 30832
▁Chamber 30826
▁Electronic 30821
▁Mat 30805
▁loud 30793
▁u 30789
▁Pass 30787
▁luggage 30787
▁reservation 30760
PL 30748
▁deeply 30745
▁360 30741
▁samples 30735
▁creatures 30727
mont 30716
▁Chrono 30700
▁Rad 30694
▁Frankfurt 30689
▁thin 30678
▁Aqua 30676
▁commitments 30670
▁civilization 30659
▁silence 30659
▁threats 30658
mat 30653
▁reviewed 30645
▁Jane 30644
▁Study 30643
▁convinced 30643
▁professor 30643
▁routes 30638
▁tissue 30637
▁Flat 30636
▁2012. 30613
rick 30604
▁expenses 30603
▁designer 30601
▁explanation 30599
▁ease 30598
vert 30594
▁trained 30594
▁kit 30589
▁captain 30586
▁tip 30586
▁giant 30582
▁summary 30578
FF 30577
act 30574
▁plug 30569
▁Steam 30566
▁refine 30564
▁finger 30530
▁Islam 30527
DC 30520
▁downloaded 30515
▁separately 30493
▁Nor 30487
▁CON 30485
PT 30483
▁papers 30482
ATION 30480
▁Pri 30467
▁Ak 30459
▁colours 30456
▁enhanced 30450
▁shock 30441
▁tiny 30436
▁acquisition 30429
▁su 30409
▁(8 30405
▁SE 30380
▁underground 30377
▁crowd 30370
ali 30361
▁Activities 30359
▁SP 30353
▁Accommodaties 30351
▁laundry 30323
cept 30320
▁picked 30317
ction 30313
▁editor 30313
atory 30304
▁talent 30302
▁terrorist 30294
▁armed 30282
▁Taiwan 30279
▁Amazon 30277
▁72 30276
▁productivity 30271
als 30268
▁Au 30267
▁icon 30251
▁Ch 30247
▁Form 30243
▁diabetes 30243
▁blocks 30238
els 30223
▁par 30218
▁Too 30216
yan 30210
▁chronic 30206
▁Alex 30205
ș 30194
▁rentals 30192
▁intense 30191
▁troops 30189
EM 30177
▁actor 30170
▁enabling 30170
▁Ed 30163
▁Solar 30163
dic 30154
▁Recommendation 30151
▁3.5 30146
▁Ever 30141
▁Junior 30140
▁Battery 30139
▁namely 30126
Pa 30122
▁License 30116
-12 30110
▁asks 30107
▁Cro 30106
▁chicken 30105
▁Les 30100
▁defeat 30100
▁adventure 30087
▁executive 30083
▁Philippines 30081
▁prescribed 30081
▁laugh 30080
▁closing 30071
▁Added 30058
ick 30057
▁dropped 30049
▁derived 30040
▁Bring 30022
▁2014, 30019
ban 30017
▁Truth 30007
▁Danube 30004
▁friendship 30004
put 29997
inter 29984
AD 29975
▁Athens 29973
▁trigger 29972
grad 29968
▁Dublin 29961
how 29959
▁proportion 29946
▁Mars 29937
▁edit 29930
▁islands 29928
▁evaluate 29927
▁vs 29924
▁suggests 29923
ify 29917
▁Wars 29910
3% 29903
▁sacred 29901
▁retain 29899
▁balanced 29894
▁mandate 29884
▁Portuguese 29881
▁Automatic 29874
▁CE 29874
▁twelve 29872
▁devil 29865
▁15- 29864
▁Construction 29860
pos 29848
▁module 29843
▁safely 29830
▁Hair 29828
▁Texas 29821
▁Seven 29814
▁principal 29813
▁Islamic 29806
conditioned 29800
▁Availability 29800
▁Trust 29800
bon 29785
2009 29779
▁1970 29775
▁57 29774
▁dressing 29774
▁symbols 29772
mas 29771
▁submission 29771
▁strengthening 29769
▁candidates 29764
▁Engine 29763
▁ruling 29759
Xó 29758
stra 29757
▁demonstrated 29756
▁stayed 29753
ç 29751
▁owe 29751
▁affairs 29724
▁phenomenon 29722
▁beneficial 29717
▁difficulty 29716
▁Lodge 29712
▁chart 29701
zu 29685
▁centers 29679
CS 29678
2003 29658
▁Original 29657
▁suppose 29654
▁Paradise 29648
▁subscription 29646
▁dual 29637
▁Hor 29616
▁texts 29615
▁Bon 29602
▁Zi 29582
▁destinations 29576
▁Large 29575
▁competence 29571
▁thick 29568
▁30% 29561
▁capabilities 29561
▁Looks 29557
▁alert 29548
born 29538
▁Boutique 29538
▁Girl 29534
▁Finance 29533
▁involve 29531
▁wherever 29526
core 29523
under 29521
▁spare 29519
▁dispute 29515
▁entries 29499
nica 29491
▁Ol 29484
▁actively 29483
▁disorders 29478
▁2012, 29477
▁Join 29473
▁Analytics 29472
▁stake 29472
vid 29471
▁AS 29468
▁2013, 29467
▁manufactured 29467
▁spacious 29466
▁Chile 29461
▁stuck 29457
▁Package 29451
▁cure 29450
▁suggested 29443
▁publish 29432
▁reliability 29416
▁stops 29410
▁ending 29389
▁GPS 29386
▁repeated 29372
▁specify 29369
▁folder 29366
▁rely 29359
hol 29357
Is 29354
▁southern 29349
▁Cart 29348
▁fa 29341
▁(7 29338
▁SO 29338
▁clicking 29338
PE 29336
vent 29335
wide 29331
ea 29311
▁mask 29307
▁posted 29306
▁Indeed 29303
▁trials 29303
iah 29295
General 29289
▁99 29279
▁buried 29279
2011 29265
▁Flight 29265
▁cute 29265
met 29261
cro 29259
▁composed 29257
▁tub 29252
kov 29250
▁fe 29248
▁Wheel 29244
even 29239
▁affordable 29227
▁mankind 29223
▁voluntary 29220
▁CH 29216
▁Volvo 29203
▁Events 29202
▁coverage 29201
▁locked 29199
▁disappear 29189
Man 29176
▁hits 29176
ency 29173
▁Weight 29169
▁Federation 29168
▁driven 29165
lim 29164
ori 29161
▁Cookies 29160
▁branch 29160
bri 29153
▁GDP 29153
▁Op 29147
”) 29143
tha 29133
▁Judah 29130
▁Sp 29127
▁1993 29120
Cause 29110
▁Tim 29110
ston 29095
▁Cathedral 29095
▁Charter 29090
▁riding 29088
DI 29082
▁chemicals 29079
▁Cultural 29068
itu 29059
▁landscape 29057
ett 29046
▁Gun 29043
▁Cell 29035
▁Bu 29029
▁Louis 29018
▁complimentary 29016
▁kick 29013
▁boyfriend 29009
▁seating 28993
▁Blood 28988
Ex 28987
ics 28972
▁certificates 28972
▁ceiling 28971
▁SMEs 28967
▁specialist 28966
▁wondering 28961
▁deadline 28960
▁Forest 28956
▁sharp 28955
▁licence 28953
▁refund 28944
▁packages 28942
▁Mission 28940
▁newspaper 28939
rian 28938
▁centres 28937
style 28936
▁arch 28932
▁employed 28926
▁brief 28925
▁consult 28923
▁Lock 28922
ose 28904
▁Plastic 28894
ister 28890
▁Kha 28869
▁distributed 28864
▁Kor 28861
▁Yellow 28859
temp 28856
▁argument 28856
▁optimal 28852
▁palace 28840
▁regulated 28834
▁Kft 28833
▁exceeding 28832
▁possess 28828
▁pin 28827
▁Safe 28826
▁tattoo 28820
▁Luxembourg 28819
▁citizen 28812
▁theoretical 28797
▁2011. 28785
▁shame 28785
That 28781
▁guilty 28779
▁disaster 28774
▁reader 28747
af 28745
chen 28742
post 28741
▁Hol 28737
▁leather 28737
▁Obama 28733
▁downtown 28732
▁Tur 28731
iff 28726
▁mixture 28724
▁refused 28724
mate 28723
▁crimes 28699
ight 28698
ax 28690
ute 28689
▁coat 28682
▁Charlie 28673
▁Tube 28671
▁conventional 28668
▁fathers 28662
▁watches 28662
▁Mode 28660
▁2008, 28653
▁brushed 28652
▁Slovenia 28647
▁transfers 28634
▁cart 28631
▁Albert 28630
pet 28621
▁comprises 28617
tus 28614
▁auction 28608
▁Matt 28592
link 28591
▁cooling 28583
▁Cons 28582
▁Lab 28574
ign 28565
▁Pronunciation 28565
LY 28557
▁Munich 28554
ulation 28550
/2006 28539
▁upset 28533
TO 28522
cus 28510
700 28506
sar 28499
▁impression 28496
ory 28492
▁Credit 28490
rad 28485
▁equality 28485
▁processor 28481
▁simultaneously 28453
▁carrier 28451
▁dollar 28445
▁penalty 28442
▁Couple 28436
▁thread 28429
▁generate 28426
▁wire 28419
▁decline 28414
▁59 28411
▁Opinion 28408
ū 28405
▁sheep 28403
▁determining 28398
▁Jim 28385
▁enabled 28374
▁federal 28371
▁Cooperation 28367
▁Face 28365
▁BE 28353
▁disk 28353
▁98 28351
▁wheels 28350
▁script 28346
▁11, 28335
▁pe 28333
gia 28332
▁signals 28330
▁Pinterest 28329
▁plain 28329
▁Statement 28326
▁ratings 28326
▁Shanghai 28309
▁2013. 28298
▁traveling 28297
▁largely 28291
▁Iron 28286
▁scheduled 28276
▁Puerto 28269
▁Supplier 28269
▁Muslim 28268
UR 28266
▁AG 28259
▁divorce 28259
▁Switch 28258
▁Sony 28249
ora 28242
▁hyper 28239
ump 28230
▁Excel 28229
ld 28225
▁roads 28225
▁approaches 28220
▁hat 28220
▁Dog 28206
▁$2 28197
▁Info 28192
▁hosts 28191
▁routine 28188
▁Stand 28187
▁ultimately 28187
▁Again 28181
▁arts 28180
▁hydro 28178
▁Manchester 28177
▁northern 28175
▁surroundings 28175
ob 28169
eur 28168
▁differently 28167
ved 28166
▁ownership 28165
▁discrimination 28157
▁2014. 28152
▁outer 28150
▁passport 28148
kan 28146
▁Tel 28123
size 28120
cast 28113
▁Unless 28108
speed 28102
bor 28099
▁indication 28097
▁speaks 28096
▁council 28094
▁desert 28088
▁placing 28087
▁MachineryZone 28085
▁arise 28080
▁2011, 28073
▁Hollywood 28066
2017 28061
▁Accommodations 28054
▁AD 28045
▁churches 28045
▁Sure 28040
▁taxi 28015
los 28013
▁fake 28011
▁Gr 28006
▁Steve 28003
▁hiding 28001
▁crown 28000
▁infections 28000
▁legally 28000
▁Wind 27986
GA 27985
▁premises 27985
▁Final 27982
▁relief 27979
▁reaching 27966
/6 27960
▁representing 27960
▁chest 27958
▁z 27948
▁mar 27942
▁Solutions 27941
lf 27939
▁tyres 27933
▁Sz 27932
▁Perfect 27931
▁Dream 27913
▁Florida 27910
/8 27908
▁Were 27907
▁2009. 27906
▁Storage 27905
▁prohibited 27905
▁DO 27895
▁crack 27893
▁peak 27893
▁detection 27892
▁00 27889
:// 27888
▁pointed 27884
▁rubber 27876
▁singer 27867
bas 27865
▁ne 27865
▁fewer 27864
▁garage 27857
▁58 27851
▁Costa 27839
▁Linux 27839
specific 27838
hl 27834
▁cleaner 27831
▁considerable 27823
▁Mind 27817
▁ro 27813
▁Dead 27810
▁conflicts 27803
▁reduces 27801
▁Manufacturer 27795
▁Bri 27794
▁excessive 27771
ado 27770
▁Hilton 27766
▁Competition 27765
▁receives 27763
▁improvements 27758
▁Nevertheless 27754
▁assessed 27750
▁belt 27746
▁Shan 27742
▁fought 27735
▁organs 27734
▁Move 27726
▁involvement 27717
▁Southern 27711
▁trusted 27709
▁babies 27699
▁breaking 27694
▁(10 27688
▁Princess 27688
▁Ker 27684
▁True 27684
▁96 27682
▁(6) 27680
▁Pacific 27678
▁Fan 27670
▁Sta 27663
ense 27653
▁silent 27652
▁Football 27647
▁dependent 27646
▁impressive 27643
▁Hat 27635
iva 27633
▁orgasme 27632
▁wellness 27630
Mar 27624
▁Scott 27624
Why 27623
eo 27618
▁Pick 27618
▁2016. 27608
▁satisfy 27589
▁hoping 27586
▁potentially 27585
▁Warsaw 27581
▁69 27571
OP 27568
▁publicly 27566
▁Bitcoin 27564
▁Ye 27557
▁reward 27556
lit 27551
▁Less 27549
una 27547
▁Organisation 27547
▁Fun 27541
▁fastest 27530
▁satisfaction 27525
▁Channel 27522
▁emphasis 27517
▁harmony 27516
▁wines 27512
▁Mis 27507
▁Years 27505
▁literally 27502
▁determination 27496
▁Sweet 27495
▁rated 27495
AS 27492
▁punishment 27489
▁signature 27489
▁LA 27486
▁portal 27486
▁cats 27475
▁Boston 27463
▁workplace 27463
▁2009, 27451
▁designs 27438
▁Eye 27433
▁Easter 27430
▁PS 27428
gal 27423
▁Seller 27419
▁Galaxy 27416
▁carriers 27416
▁frequent 27408
▁instruction 27400
▁combine 27392
▁Registration 27387
▁Cre 27384
▁Anyway 27379
▁acceptable 27379
▁Sri 27377
▁aside 27374
▁monetary 27370
▁quit 27364
ear 27363
▁Stra 27362
▁gay 27362
▁Skin 27361
ew 27360
▁rarely 27360
▁ver 27357
▁Regulations 27352
dra 27349
▁viewed 27345
▁relaxation 27343
9% 27338
▁Round 27338
▁Eco 27337
▁enormous 27332
▁tractorpool 27332
▁Simple 27331
▁painful 27326
▁2018. 27318
▁Nick 27315
0% 27311
▁modules 27301
▁Abraham 27300
▁Job 27295
▁Password 27284
▁tube 27281
▁minibar 27275
1% 27273
▁circulation 27268
stan 27266
▁plot 27265
▁2008. 27258
ien 27242
▁praise 27240
▁cultures 27237
▁incident 27234
▁surely 27232
▁cease 27230
▁Vel 27228
▁GB 27226
▁2007, 27215
gle 27214
▁recommendation 27214
▁puts 27210
▁Freedom 27203
imp 27201
▁allocation 27198
▁1989 27197
▁decreased 27195
▁Count 27192
▁Kon 27185
▁complaints 27185
▁lu 27185
▁Tor 27183
▁beloved 27181
▁bacteria 27175
▁roots 27171
▁remind 27168
▁pocket 27165
▁settled 27161
las 27159
world 27157
▁Nan 27153
▁holidays 27152
▁altar 27151
▁organ 27146
ivity 27144
▁Cover 27144
▁Duration 27133
▁disclosure 27133
gel 27127
▁ceremony 27126
▁returning 27126
acy 27125
ched 27124
▁Limited 27122
▁delicious 27119
rib 27116
▁Kra 27110
-7 27090
▁underlying 27089
▁restricted 27074
other 27069
nch 27059
▁66 27058
▁yourselves 27055
▁Kat 27046
▁180 27042
▁cancel 27041
▁88 27039
▁Ur 27039
▁habits 27033
▁solidarity 27021
▁VPN 27015
▁lenses 27006
▁discovery 27000
▁radical 26999
▁array 26997
▁joke 26992
▁harder 26987
dan 26978
▁Eli 26978
▁filters 26976
▁Wedding 26959
▁residents 26958
▁terrorism 26956
round 26955
▁Heaven 26954
New 26953
▁exercises 26953
▁cop 26952
▁voltage 26947
▁emission 26946
ram 26942
country 26932
▁Ny 26929
▁Phil 26912
▁classical 26911
lip 26905
phone 26898
zar 26892
▁western 26890
ello 26885
▁rising 26881
▁pipe 26863
▁voting 26860
▁Atlantic 26859
▁lets 26849
HU 26843
▁Event 26832
2% 26827
▁operates 26825
▁vaccine 26817
▁optional 26812
▁Ukrainian 26808
ore 26806
ement 26801
ff 26799
ature 26785
Com 26780
▁Hal 26780
▁130 26775
▁Early 26775
▁(" 26773
▁Performance 26772
▁Faculty 26769
▁1991 26756
▁gross 26754
1. 26753
▁Chart 26747
▁Sol 26741
▁resist 26739
▁Climate 26724
▁Internal 26717
▁aged 26716
▁immigration 26716
▁Instagram 26715
ets 26714
▁SD 26711
▁upgrade 26686
▁psychological 26678
▁Solomon 26675
TION 26670
ila 26666
▁graphics 26663
▁employer 26656
▁Made 26649
▁dirty 26647
▁filling 26637
▁olive 26637
▁administered 26633
▁Others 26628
▁UPDATED 26626
▁chrome 26620
▁bones 26613
▁batteries 26593
▁attacked 26589
▁shuttle 26588
str 26585
▁Colour 26581
▁violent 26579
▁cons 26578
dio 26577
One 26576
▁parliament 26564
▁chances 26559
▁Victoria 26548
▁Magyar 26543
▁achievement 26539
ving 26533
▁manifest 26522
test 26518
▁dare 26517
▁excess 26508
▁bra 26492
▁Economy 26489
▁transform 26482
▁sh 26481
▁Custom 26479
▁butter 26469
▁environments 26466
▁Mai 26465
▁Qu 26465
COM 26462
▁stolen 26459
▁interaction 26454
ded 26450
▁orange 26446
lot 26444
▁deeper 26444
▁Sim 26441
-20 26438
RP 26426
▁fired 26418
▁derogation 26417
▁Touch 26407
▁promises 26405
ote 26401
▁Mun 26401
▁folk 26387
▁Client 26371
▁doses 26365
▁Extra 26361
▁fi 26361
▁Sales 26360
▁hi 26360
▁Annual 26359
▁pulled 26359
▁essence 26354
▁Mali 26345
▁lounge 26345
lam 26334
▁Profile 26331
▁workshop 26329
▁stones 26327
▁tourists 26326
hn 26287
ć 26287
▁competitors 26281
NC 26278
▁Cri 26276
▁theatre 26270
▁Cut 26268
▁Chris 26267
pot 26265
▁artistic 26259
▁insert 26257
ically 26252
▁liable 26243
exe 26241
▁Pink 26239
▁grid 26236
▁1) 26224
▁produces 26222
tis 26217
▁institutional 26212
▁arrangement 26205
▁Isn 26202
▁fallen 26202
▁tracks 26199
mic 26198
▁diagnosis 26198
▁gallery 26194
ell 26193
▁Story 26192
▁watched 26190
▁Dec 26185
bank 26168
▁shadow 26164
CR 26153
rest 26143
▁authors 26142
▁Railway 26141
▁Anyone 26140
ique 26131
tar 26126
▁governing 26116
▁mysterious 26116
▁crash 26097
▁shirt 26092
serv 26090
▁2018, 26076
▁strictly 26072
▁confident 26071
▁purchasing 26062
VE 26047
▁Rate 26046
%) 26037
▁mouse 26023
▁Azerbaijan 26017
:10 26014
▁sisters 26013
vit 26001
▁basically 26001
▁medication 25998
▁Slovak 25997
▁lord 25988
▁royal 25986
▁Ste 25985
▁Ladies 25979
▁creature 25965
▁wider 25962
▁Blu 25960
▁Argentina 25957
▁Revolution 25955
▁Currently 25947
▁impacts 25944
▁Virtual 25940
▁Christianity 25932
▁consequence 25930
▁somehow 25929
Let 25921
▁Must 25914
▁Gora 25913
▁travelling 25913
gor 25910
▁700 25908
▁Fat 25905
▁affecting 25905
▁exporting 25895
▁conscious 25892
▁Med 25886
▁Tax 25884
▁Rewards 25881
▁Saudi 25879
▁queen 25879
izer 25876
▁Browse 25876
ever 25875
▁Tourist 25873
▁PornHub 25864
▁circuit 25861
range 25858
▁Jackson 25856
ille 25853
▁Ron 25853
uni 25849
▁92 25846
▁instantly 25840
ero 25833
▁pride 25830
▁infected 25825
2008 25815
Po 25814
▁excluded 25814
▁Jobs 25807
being 25805
▁Cab 25801
▁urgent 25801
▁ju 25793
▁EP 25785
cc 25777
non 25776
fold 25773
▁Mexican 25772
▁followers 25767
▁authorized 25759
▁intend 25751
▁cur 25739
▁strive 25735
-9 25732
▁Except 25722
▁reject 25721
aka 25718
▁logistics 25716
▁Dry 25714
mal 25709
▁Showing 25708
▁significance 25707
▁partly 25706
▁screw 25693
▁pace 25692
▁0.5 25677
▁Syrian 25667
▁dignity 25655
▁plasma 25653
▁injured 25649
▁Pi 25648
ör 25645
▁Peru 25635
▁Vas 25633
▁Ice 25632
▁Cer 25628
▁contractual 25624
▁poker 25618
▁gap 25615
▁objection 25612
▁racing 25597
▁thirty 25596
▁faced 25594
▁Otherwise 25590
▁Manual 25586
nu 25578
js 25577
▁Canon 25573
person 25568
arch 25567
▁container 25558
▁Comfort 25555
▁Poker 25554
UM 25550
▁profession 25548
0.00 25545
ces 25545
▁cabin 25544
▁precipitation 25540
TI 25539
▁Tourism 25535
▁Congo 25525
▁preliminary 25523
ela 25516
▁Important 25512
EST 25509
AT 25508
▁Distance 25508
▁Teen 25500
▁discipline 25500
vel 25499
▁raising 25499
shire 25493
▁identical 25493
ges 25481
EX 25475
▁Base 25471
vas 25470
▁Formula 25465
▁Pico 25465
▁Course 25464
▁Malta 25456
▁champion 25448
▁belonging 25445
▁sn 25439
▁Ter 25433
▁disappeared 25417
▁disorder 25411
▁roles 25404
az 25393
ben 25389
ener 25385
▁shell 25384
▁inclusion 25376
▁Zo 25372
▁Dear 25371
jan 25369
▁breathing 25364
▁internationally 25355
▁Parts 25349
▁toxic 25337
▁Mil 25336
▁headquarters 25331
▁forum 25328
▁distinct 25323
▁Dun 25321
▁minority 25315
▁vice 25304
▁deaths 25295
state 25291
▁4* 25291
▁obstacles 25289
▁#1 25287
EG 25280
▁ironing 25280
▁console 25278
▁Text 25265
▁Panel 25264
▁proximity 25263
▁favorites 25258
▁fulfill 25244
▁lesson 25240
▁Fitness 25236
▁hunting 25217
▁temperatures 25216
Or 25214
▁imported 25214
▁Meet 25206
dale 25198
▁rice 25197
▁neighborhood 25195
▁opt 25195
Ha 25192
nny 25189
▁honour 25181
ography 25176
ups 25172
hor 25169
▁Song 25169
:15 25156
▁Partners 25149
▁Pur 25145
▁migrants 25145
chu 25136
▁focusing 25136
▁transit 25130
▁Fi 25129
2002 25128
▁Beautiful 25128
key 25120
▁burned 25118
▁bearing 25116
▁assurance 25101
▁reforms 25101
inch 25099
▁slot 25093
▁loose 25090
▁2) 25089
▁fer 25089
▁sanctions 25089
▁Pol 25087
▁Pad 25083
▁unlock 25081
▁rational 25080
▁Procedure 25079
▁valley 25079
▁Sin 25072
▁Mak 25068
▁humanitarian 25067
▁marine 25055
▁abilities 25051
▁elsewhere 25051
rah 25049
▁supplements 25044
▁worthy 25043
▁stocks 25042
▁tons 25038
▁preventing 25034
Go 25032
▁pink 25029
▁stroke 25027
quin 25026
poli 25019
▁Istanbul 25019
▁(‘ 25016
▁describes 25012
cess 25011
Our 25008
▁Maps 25002
▁encouraged 25002
▁Diamond 24991
▁365 24989
▁yield 24982
▁reverse 24978
sko 24974
▁guns 24972
▁golden 24971
iya 24961
tical 24961
▁Creative 24959
exp 24956
ón 24956
▁62 24956
▁63 24953
▁adaptation 24953
park 24949
DP 24944
▁bedrooms 24939
▁begun 24932
▁trap 24930
▁Colombia 24929
▁Upon 24929
▁gr 24919
▁reservations 24917
▁bleeding 24905
▁Ring 24895
▁existed 24894
sign 24888
▁creativity 24887
▁renovated 24887
case 24880
▁Palm 24880
och 24879
▁XP 24876
▁euros 24876
▁Ali 24869
▁2007. 24868
▁originating 24868
ome 24864
▁greenhouse 24847
▁warranty 24845
▁ya 24839
▁grass 24838
SM 24837
▁hourly 24837
eni 24836
▁Plant 24833
▁Translation 24801
▁NATO 24797
▁murdered 24791
▁brave 24790
▁Den 24784
▁partial 24783
▁precision 24783
▁110 24780
▁nationals 24778
▁Applications 24766
▁bull 24764
▁concentrate 24760
▁trick 24758
kes 24755
▁Johnson 24755
▁organize 24754
▁mortal 24753
▁Half 24746
▁shalt 24746
▁throne 24737
gging 24732
▁(18+) 24731
▁Lithuania 24730
▁bond 24728
▁announcement 24726
▁Corporation 24719
place 24710
▁Books 24705
▁Stephen 24694
▁coating 24693
▁logic 24692
▁revolutionary 24682
▁stylish 24675
▁liberal 24670
▁Given 24662
▁Scan 24660
▁Camping 24656
▁Core 24656
▁Overall 24656
▁asleep 24651
▁MO 24650
▁engineers 24645
HA 24642
▁Guard 24641
▁kW 24640
▁Kh 24639
▁tries 24639
▁incorporated 24631
▁breakdown 24625
▁interactive 24620
▁Employment 24618
▁None 24613
▁alien 24609
BC 24603
hen 24602
▁(9 24595
▁Hope 24594
▁Ky 24583
▁Norwegian 24579
▁opera 24572
▁Link 24567
▁compromise 24566
▁optical 24564
▁readers 24564
▁Learning 24560
vor 24556
▁neighborhoods 24549
▁ir 24546
month 24538
▁terminal 24518
rea 24517
ack 24514
lation 24512
▁Dress 24508
▁skill 24508
▁20- 24501
dor 24492
▁inspiration 24480
▁worker 24480
▁contracting 24473
aga 24466
▁Airlines 24465
▁Constitution 24461
pel 24458
▁discussions 24456
▁Risk 24455
code 24451
▁preferences 24451
▁350 24447
▁discharge 24447
▁securities 24445
TF 24440
▁seeds 24440
rid 24438
▁zones 24438
▁theater 24436
▁welcomes 24435
dent 24427
▁Much 24427
▁singing 24427
▁Range 24404
▁awesome 24394
150 24391
▁airline 24390
▁Season 24389
▁imagination 24380
cip 24378
▁prophet 24376
▁Bou 24373
▁towns 24370
▁Venezuela 24358
▁WEB 24354
▁Awards 24346
▁desktop 24341
▁initiated 24336
▁pepper 24335
▁Scotland 24327
▁(“ 24322
PP 24321
▁Outlook 24319
▁Ob 24317
▁insulin 24314
rc 24309
▁1,000 24306
sti 24297
▁Consumer 24295
▁applicants 24292
heim 24291
▁puzzle 24289
▁Driver 24286
▁closest 24286
▁Poly 24283
▁Contract 24282
Bu 24279
crea 24278
▁hereby 24278
▁individually 24274
▁amongst 24267
ré 24265
▁blessed 24242
▁welfare 24242
▁meditation 24238
▁Complete 24237
▁besides 24231
▁drag 24231
▁resulted 24230
▁infringement 24229
pul 24226
▁Aid 24214
▁Elizabeth 24206
▁motivation 24206
ulu 24204
▁Political 24204
▁Dragon 24193
▁differ 24189
▁Bosnia 24186
▁initially 24184
rel 24177
▁Entertainment 24174
1.1 24173
▁advise 24173
▁sequence 24173
▁knife 24169
▁attempts 24166
▁parks 24158
meter 24155
▁RO 24152
power 24151
▁wins 24151
United 24150
BS 24149
▁Sudan 24145
▁Apart 24140
▁89 24136
▁grab 24133
▁naked 24125
▁corrupt 24124
▁chamber 24110
▁flows 24105
kar 24104
▁virtue 24092
▁61 24090
cam 24082
bot 24076
▁sudden 24075
▁characteristic 24074
On 24072
▁WE 24070
▁lobby 24065
▁Hungarians 24052
tine 24051
▁unemployment 24048
▁toys 24047
▁nutrition 24035
face 24026
▁nurse 24026
▁heal 24020
▁Province 24017
▁intermediaries 24014
▁Delivery 24013
▁Intel 24013
▁settle 24007
II 23990
▁budgetary 23980
▁Hamburg 23976
2001 23973
▁protocol 23973
ced 23972
▁Animal 23969
▁limitations 23967
▁Bull 23963
▁compete 23963
▁shoulder 23963
cum 23955
▁accession 23948
▁Hosting 23945
▁restructuring 23944
nis 23943
cra 23942
▁Continue 23939
Š 23926
▁propose 23909
▁Gran 23908
▁muscles 23903
▁allocated 23900
▁Platform 23893
▁14, 23884
▁Crystal 23884
▁pal 23881
▁hook 23879
▁investigate 23869
lat 23864
click 23860
▁Staff 23853
▁autumn 23850
▁Dining 23846
▁Wholesale 23846
Lo 23842
▁tobacco 23836
Hotels 23834
lly 23830
▁epi 23827
▁Together 23825
▁str 23819
▁efficiently 23815
group 23811
▁ethical 23809
▁140 23807
▁Apply 23807
▁ME 23805
Don 23796
▁j 23796
▁Lost 23793
▁teenagers 23792
UL 23790
▁Economics 23782
▁hadn 23780
hy 23775
▁Com 23764
▁[2] 23759
▁Different 23756
▁undertake 23744
fen 23743
cor 23742
fin 23742
▁transmit 23741
▁Zen 23738
▁delegation 23729
▁Almost 23720
FC 23714
▁External 23712
▁hybrid 23712
▁subsequently 23709
▁sauce 23704
▁bowl 23702
▁Scientific 23696
▁Declaration 23693
▁neuro 23691
▁vitamins 23681
▁OR 23677
▁4.2 23674
▁perception 23674
▁93 23670
▁invalid 23668
▁awards 23661
▁whilst 23659
▁ST 23657
▁Tech 23654
▁Blonde 23644
take 23636
space 23635
▁Woman 23634
▁waves 23617
stein 23616
▁aggressive 23613
▁surfaces 23604
Car 23602
gger 23602
▁mild 23602
▁spray 23602
▁fairly 23590
▁treasure 23577
▁Remote 23575
▁crying 23571
ifies 23558
▁1960 23558
▁67 23557
▁Marina 23552
IST 23547
▁Mos 23546
▁feeding 23545
▁amend 23541
▁Ash 23540
▁Rich 23540
▁Char 23539
▁Tab 23536
▁fingers 23534
hin 23530
▁Gro 23522
▁Francis 23520
▁tall 23520
▁impose 23514
▁3.0 23513
▁Heritage 23510
▁Bell 23507
▁syndrome 23505
▁territories 23504
▁robot 23503
▁Tree 23497
▁ports 23489
this 23477
▁meter 23475
▁warehouse 23467
▁Andrew 23462
▁76 23455
▁enjoying 23451
▁separation 23449
▁MAN 23447
▁challenging 23445
St 23443
▁magnetic 23442
▁Roll 23439
▁Wien 23438
▁airports 23436
▁Sarah 23431
▁modify 23430
(1)( 23424
▁furnished 23423
SO 23421
▁specially 23421
aki 23420
▁malware 23419
▁FREE 23411
▁warrant 23403
IR 23398
rit 23390
bach 23388
gni 23387
▁drives 23384
just 23374
▁Kam 23374
▁87 23368
▁Spi 23361
▁Va 23360
▁1.6 23351
▁hanging 23331
▁cinema 23330
▁li 23329
Bs 23321
▁sensors 23321
▁amateur 23317
▁idiot 23316
▁Featuring 23310
▁exports 23309
any 23305
▁moderate 23298
leg 23290
▁dishwasher 23287
▁shield 23283
▁bunch 23279
▁foster 23277
▁Buddha 23276
▁admitted 23272
▁adjusted 23270
uz 23265
▁landing 23265
UT 23256
▁Eve 23255
rac 23253
▁consisting 23245
▁Jun 23244
▁Olympics 23242
/2018 23241
ô 23239
▁Knowledge 23233
▁Race 23233
hole 23232
▁2006, 23232
▁Wow 23231
900 23230
▁mineral 23230
sil 23229
▁acids 23228
nz 23224
▁respected 23221
▁Williams 23220
▁hill 23218
▁arrange 23207
▁Split 23206
▁Categories 23202
ifier 23201
▁Petersburg 23201
▁plates 23199
▁organise 23198
tum 23194
▁trace 23186
▁desires 23184
▁curious 23182
▁expanded 23178
▁ethnic 23177
▁Edward 23171
▁conservation 23171
▁blessing 23164
▁brilliant 23164
▁strip 23163
FA 23160
asse 23158
▁integrate 23158
▁tele 23157
▁focuses 23151
osa 23147
rom 23142
▁consume 23133
▁featured 23126
▁Install 23122
▁welcoming 23118
ifying 23117
▁Shoes 23115
▁Gor 23114
▁bid 23109
▁exam 23109
▁reflected 23098
▁Cars 23097
rio 23094
MENT 23092
▁Anything 23089
▁methodology 23088
▁Clean 23084
▁Pronounce 23083
ao 23076
▁(7) 23074
▁Ferenc 23073
▁Ultra 23072
▁engagement 23072
▁brush 23067
▁indicator 23052
▁Division 23050
pur 23045
▁Getting 23044
MM 23040
▁vacuum 23030
▁abandoned 23022
▁Connect 23021
▁adapted 23017
▁miracle 23014
▁stamp 23014
▁Answers 23013
▁Military 23013
▁reign 23010
nk 23009
▁Taking 23004
▁remedy 23004
▁incredibly 22999
▁pills 22997
▁damages 22994
NG 22992
lig 22991
▁noble 22991
▁125 22986
▁cha 22983
▁threatened 22978
▁Past 22977
▁recognise 22976
▁Honey 22963
▁160 22958
▁speaker 22958
▁Works 22952
▁emerging 22949
teen 22946
▁particles 22946
▁globe 22945
▁indirect 22945
▁associations 22941
qu 22935
▁FM 22930
▁Rain 22926
▁branches 22919
▁gotten 22918
▁acknowledge 22917
▁Sel 22910
cri 22908
eh 22908
▁grey 22902
▁Tony 22901
▁combines 22901
▁cab 22893
▁shore 22893
lands 22891
hold 22890
lines 22890
▁physically 22888
▁oils 22875
▁13, 22874
▁physics 22874
▁Partner 22873
▁viewing 22859
▁ego 22858
band 22857
▁seeks 22848
▁Flowers 22847
▁Reading 22847
▁protest 22844
▁modes 22841
▁pharmaceutical 22836
TP 22831
▁societies 22829
▁attract 22826
ening 22816
▁profits 22815
▁blend 22812
▁Terrace 22810
▁leisure 22807
operation 22803
▁et 22798
▁provisional 22796
▁developers 22790
▁horizontal 22789
▁experiencing 22787
lies 22786
bil 22785
av 22779
▁Universe 22778
▁Clouds 22776
▁qua 22772
▁uncle 22767
oni 22766
▁random 22764
▁Neu 22761
▁temporarily 22757
▁sessions 22754
▁Championship 22747
▁tonnes 22745
EE 22740
▁behold 22736
▁cave 22735
OC 22728
▁Bureau 22719
▁Introduction 22719
▁Notice 22716
PO 22708
▁declare 22703
▁Hitler 22689
▁eastern 22687
▁safeguard 22687
▁sy 22683
▁Hy 22682
▁fluid 22681
▁scenes 22680
▁tackle 22680
▁68 22679
▁instant 22678
▁Vista 22668
▁joining 22657
▁marking 22656
▁Cancel 22652
▁contributed 22652
▁sail 22651
▁Jones 22650
▁delivers 22648
▁detected 22645
ibility 22643
▁veterinary 22635
▁seal 22624
▁4.5 22621
ND 22620
▁--- 22620
▁mere 22613
▁prisoners 22613
▁Views 22612
▁1.0 22610
▁Meanwhile 22605
LT 22589
▁accommodate 22588
ways 22578
ches 22575
▁profiles 22575
▁funeral 22573
hard 22558
▁Gospel 22558
▁reaches 22557
▁suspended 22551
0/ 22545
▁captured 22545
most 22543
shop 22541
▁Chain 22538
▁clinic 22536
IVE 22535
▁PR 22532
▁apparently 22524
▁Pic 22519
▁Rule 22518
▁bri 22512
▁patent 22512
▁rough 22507
▁keyboard 22506
hai 22502
▁Insurance 22502
▁tunnel 22502
fully 22499
ech 22498
HD 22492
▁kings 22492
▁campaigns 22486
emp 22484
ache 22483
▁Lesbian 22462
▁attended 22452
ural 22448
▁Downtown 22446
ls 22445
▁900 22444
▁Friends 22441
▁Individual 22437
hotel 22436
▁Malaysia 22431
▁Stockholm 22430
▁Kings 22424
▁beam 22423
▁Excuse 22421
sia 22420
▁pm 22420
▁interact 22418
à 22413
▁Debrecen 22412
lift 22408
▁Sort 22402
▁daughters 22400
▁compatibility 22389
▁accused 22387
▁Motel 22385
▁Lang 22384
▁vicinity 22384
▁confused 22374
▁HR 22368
▁coal 22362
▁renewed 22362
max 22360
▁ate 22359
▁independently 22356
▁Eric 22355
▁intensity 22351
▁Mall 22350
▁PhD 22348
▁participated 22346
ál 22339
▁Bet 22336
holder 22331
▁founder 22327
▁absorb 22321
▁arranged 22321
375 22314
5% 22313
▁referring 22313
▁decorated 22312
▁pets 22309
▁accidents 22305
▁vegetable 22302
▁somewhat 22300
She 22297
mir 22295
▁Tag 22293
itude 22286
PR 22283
▁Il 22283
▁politicians 22281
▁Domain 22280
▁Extension 22278
▁Grace 22277
live 22274
!) 22273
▁forgiveness 22270
▁basket 22266
▁Copenhagen 22261
▁restored 22257
▁Block 22256
▁FBI 22256
▁injuries 22255
itch 22240
▁fever 22229
▁apologize 22227
▁Probably 22225
▁Nar 22217
▁alter 22206
▁Relationship 22205
▁subway 22204
cle 22196
▁Cool 22194
▁cotton 22194
▁monster 22189
▁employers 22187
▁constructed 22180
▁dancing 22174
▁Alternative 22164
▁fiscal 22162
▁elderly 22159
▁figured 22159
FR 22158
▁cohesion 22157
▁breaks 22154
▁Mature 22153
▁opposed 22152
front 22151
▁qualities 22146
▁automotive 22145
bla 22136
▁Marine 22135
▁Mountains 22130
▁barriers 22123
rr 22115
▁constitutes 22114
rus 22111
▁wa 22110
LS 22109
▁minimal 22105
aj 22101
phil 22098
▁Carl 22096
▁territorial 22095
▁2.1 22093
▁Sara 22092
▁Sil 22092
ogen 22088
▁Kenya 22082
▁Fra 22081
▁intake 22079
▁trains 22078
▁preferred 22069
▁Chemical 22066
▁Kas 22059
CI 22049
▁COM 22048
▁letting 22046
oon 22040
▁proceed 22030
▁preparations 22027
▁saith 22023
▁dwell 22022
▁complement 22018
▁Massage 22017
▁lamps 22010
▁17, 22009
▁deny 21996
▁races 21996
▁violation 21996
▁reflects 21991
▁validity 21989
▁Ph 21986
▁Morning 21984
001 21981
turn 21976
▁chip 21976
▁cousin 21976
▁Sk 21972
▁vertical 21958
gas 21957
▁delivering 21957
▁crystal 21954
▁sooner 21951
▁painted 21949
▁Fall 21947
▁Horse 21947
▁grill 21947
▁Didn 21941
▁Soft 21938
ened 21934
tens 21934
▁robust 21930
▁Palestinian 21929
▁Student 21928
▁enjoys 21927
cell 21925
▁variable 21922
▁sufficiently 21919
real 21908
▁tin 21904
Map 21897
▁earned 21892
▁logical 21890
check 21889
▁Melbourne 21886
iel 21883
▁prophets 21883
▁sixth 21881
mos 21873
▁gang 21865
▁correction 21863
▁Ros 21860
▁fiber 21858
rod 21856
▁resistant 21855
NET 21854
▁Var 21854
▁annually 21854
▁Szeged 21853
▁Geneva 21852
▁estimates 21852
▁admission 21847
▁lasting 21847
NO 21846
▁intra 21846
aging 21842
▁pig 21837
▁recall 21836
cht 21833
▁passes 21832
▁Consider 21829
/3 21827
▁ruin 21824
▁graph 21817
▁executed 21815
▁Male 21814
▁intensive 21812
away 21811
▁observation 21806
▁piano 21806
▁Valentine 21800
ule 21799
▁cord 21798
▁panels 21796
ologist 21788
▁essentially 21787
lee 21780
▁Creek 21779
▁undertaken 21776
stop 21769
▁editing 21765
▁Resolution 21756
hem 21753
trans 21747
▁[1] 21744
▁Shared 21741
▁survived 21739
▁shine 21738
▁manually 21734
ident 21730
Article 21723
▁Deep 21723
EF 21721
py 21717
▁Saul 21714
▁Estimated 21709
ert 21706
▁Chan 21706
OL 21705
▁UV 21705
load 21702
▁cycling 21701
dam 21697
▁headed 21696
▁Marco 21694
▁pi 21688
Free 21687
▁allergic 21686
▁consulting 21685
▁bother 21683
▁Karl 21679
▁Danish 21678
▁Fri 21677
▁relate 21675
▁Cla 21674
gio 21670
▁cyber 21670
▁Porto 21663
▁ge 21653
Ad 21649
▁97 21642
▁Divine 21640
mmer 21637
▁hypo 21637
burn 21626
AG 21625
ame 21624
▁governed 21622
▁Cuba 21619
▁visitor 21619
▁1.3 21617
▁Thai 21609
▁pounds 21599
▁breathe 21598
▁tent 21597
▁Democratic 21595
▁Amateur 21590
▁Kur 21586
MB 21580
▁3: 21571
▁alia 21571
▁bite 21571
tive 21569
LU 21563
▁Muslims 21560
▁bell 21560
▁Rod 21559
▁converted 21558
▁unnecessary 21554
CU 21552
fish 21552
▁barely 21552
Th 21550
▁Historical 21549
▁Interior 21549
▁Jabal 21543
▁URL 21536
1) 21535
▁Romantic 21525
▁experiments 21524
▁installations 21524
rating 21523
▁graduate 21517
wear 21511
▁Figure 21506
▁spirits 21501
▁sunset 21501
stro 21497
▁Floor 21489
▁cancellation 21488
▁bilateral 21486
▁signing 21483
▁measurements 21482
▁newsletter 21480
▁brake 21479
▁activated 21477
▁vial 21477
ž 21474
▁Latvia 21468
▁ambitious 21465
▁Settings 21461
▁twin 21454
▁pit 21446
DF 21445
▁doctrine 21440
▁reflection 21439
▁advised 21436
▁bottles 21432
Ö 21428
2000 21421
▁spectrum 21417
▁ba 21410
▁spell 21410
▁tournament 21406
▁tubes 21404
▁wars 21403
▁drama 21400
▁ni 21397
▁threshold 21396
ctor 21387
dian 21386
fall 21386
▁integral 21383
▁Thought 21382
▁Soon 21380
▁Kind 21372
▁renewal 21368
▁bullet 21367
▁shelter 21364
ema 21358
▁Buda 21353
▁Serbian 21352
▁neutral 21344
▁ministry 21342
▁Egyptian 21339
▁hesitate 21339
▁limitation 21333
▁pcs 21328
▁frozen 21321
▁Neither 21313
▁Lower 21311
agon 21310
▁petrol 21306
▁predict 21301
▁Vir 21293
▁Ross 21292
▁wound 21291
tom 21283
▁1950 21278
LC 21276
▁Bai 21266
▁Alexander 21264
▁apparent 21259
▁dies 21259
▁beaches 21257
▁cheapest 21233
tta 21230
▁calories 21230
PM 21225
▁0.1 21224
▁upload 21223
▁Adult 21221
▁quote 21220
▁max 21217
nan 21216
fal 21203
God 21196
▁Orthodox 21192
▁mothers 21192
▁tours 21186
pass 21184
▁celebrated 21181
▁Alliance 21180
▁decoration 21179
▁japanese 21175
▁trips 21175
▁united 21169
▁density 21163
▁touched 21163
▁Marriott 21155
▁Rob 21153
▁tail 21153
▁Built 21151
▁Diet 21150
gest 21148
▁gospel 21148
▁Toronto 21145
▁91 21143
▁pitch 21140
now 21134
▁segment 21131
▁ALL 21126
▁hip 21126
At 21108
▁realistic 21106
▁Traders 21102
▁deck 21102
▁invisible 21092
human 21090
▁consumed 21088
▁disclosed 21082
▁grants 21080
▁protects 21066
▁2005, 21064
▁Brother 21057
▁Ag 21052
rator 21050
▁Template 21046
▁jacket 21046
▁seventh 21046
▁winners 21032
▁preserved 21030
▁disc 21025
▁upcoming 21024
enberg 21021
▁acute 21020
▁commanded 21009
▁eco 21007
▁prescription 21002
▁progressive 20999
▁seller 20999
▁Es 20995
▁granting 20991
▁prevents 20991
▁coins 20990
bert 20988
▁EA 20985
▁Adults 20982
▁Videos 20975
▁tears 20975
▁Simply 20967
nel 20966
proof 20964
▁alongside 20963
rine 20961
▁adds 20961
▁warned 20960
tia 20947
▁insight 20944
▁Houston 20942
▁Virgin 20941
inate 20924
▁conscience 20916
▁Myanmar 20911
▁Agriculture 20905
ied 20901
▁Shin 20897
fur 20896
▁conclude 20889
▁publications 20889
▁Cold 20887
▁collecting 20880
ATE 20878
▁BlackBerry 20878
2.5 20874
▁Tap 20874
▁Drop 20872
▁Length 20866
▁Roger 20866
▁attain 20866
▁Commercial 20865
▁expecting 20863
▁replied 20858
▁2006. 20854
RT 20852
▁mate 20851
↑ 20850
▁EX 20847
▁judges 20844
rim 20835
▁holes 20832
▁investigations 20825
▁terror 20825
▁Payment 20823
▁Mayor 20818
▁styles 20818
▁Wellness 20814
▁Guidelines 20813
▁cops 20810
▁lands 20808
▁teachings 20804
▁hopes 20803
▁Joined 20796
▁crossing 20792
▁specialized 20782
LI 20781
▁pri 20773
▁explosion 20765
▁Kate 20762
▁László 20757
▁requiring 20757
▁Bern 20756
▁anxiety 20756
▁84 20749
shirt 20748
▁Orange 20739
▁dealt 20735
▁Patients 20730
TL 20728
▁discretion 20728
▁continent 20727
▁prominent 20716
▁carpet 20712
▁aviation 20710
▁practically 20705
▁Fish 20704
gre 20702
▁Oct 20701
▁80% 20700
chy 20699
▁77 20696
▁forests 20696
ás 20695
2019 20692
▁decides 20692
▁unlimited 20691
▁midst 20690
▁modification 20690
▁Disney 20688
▁soldier 20686
▁alloy 20684
▁94 20680
▁contributes 20673
▁Aaron 20668
▁compounds 20668
▁Sustainable 20667
duce 20662
▁episode 20661
▁10,000 20660
▁gene 20657
oe 20654
ici 20653
▁Door 20650
dog 20643
▁structured 20643
▁Bol 20641
▁Field 20641
▁tear 20640
å 20633
▁graduates 20631
cen 20629
▁assumed 20624
▁gaming 20612
▁deficit 20611
▁Parks 20608
▁beneficiaries 20608
▁Fundamental 20604
bad 20603
ters 20602
▁closet 20598
▁calculate 20597
▁hunger 20597
/2017 20594
effective 20594
:11 20592
▁celebration 20590
illo 20589
▁HE 20584
OW 20580
▁Edinburgh 20576
▁Estonia 20574
▁71 20570
zh 20566
LL 20562
rat 20560
rn 20559
LD 20556
▁volunteers 20545
▁aluminium 20544
▁Corporate 20540
▁hormone 20536
▁isolated 20536
▁activate 20529
▁Visa 20527
▁denied 20523
▁unexpected 20522
▁rapporteur 20520
▁productive 20512
▁90% 20502
▁Arabia 20502
▁contributing 20501
GE 20500
fire 20498
makers 20497
SZ 20496
▁Explorer 20493
▁SC 20492
▁demanding 20492
▁grip 20492
▁Ready 20476
▁Aug 20470
lis 20465
▁gathering 20463
▁Pot 20462
▁designation 20459
▁ignore 20459
wer 20457
▁margin 20457
▁estimate 20455
▁Kosovo 20454
▁inclusive 20451
cru 20449
▁lips 20449
gri 20447
▁Communist 20444
xa 20443
erg 20442
▁witnesses 20441
▁convince 20438
▁remembered 20436
▁Audi 20433
▁boundaries 20433
▁Adriatic 20426
▁Stainless 20416
▁grain 20416
▁restrict 20415
-15 20414
▁Planet 20414
▁magical 20413
▁Cafe 20410
▁Left 20406
▁Triple 20406
▁wage 20405
▁Houses 20404
▁shake 20399
▁browse 20398
▁confidential 20398
▁obey 20398
-18 20397
bury 20397
▁credits 20389
▁virtually 20389
▁photographs 20386
▁specialists 20385
▁weekly 20382
▁Blog 20378
▁thickness 20374
▁gambling 20372
▁79 20367
▁Message 20367
▁engineer 20366
sey 20357
250 20355
tile 20354
▁Cream 20350
▁durable 20348
▁Luc 20347
▁Process 20347
▁Intl 20342
▁Calendar 20340
▁influenced 20339
▁Consequently 20338
▁jointly 20337
▁swim 20337
▁[+] 20334
▁torque 20329
▁monitored 20318
▁whoever 20315
▁folks 20313
vu 20310
▁closure 20310
▁taxation 20310
▁va 20310
▁gesture 20309
▁bicycle 20306
▁Vin 20304
▁Hence 20300
▁buttons 20300
▁Fel 20297
▁pretend 20295
▁Stan 20291
ering 20288
▁Stayed 20285
▁cl 20284
▁78 20283
stin 20282
▁Sleep 20276
fla 20273
▁Converter 20272
bound 20268
▁Eu 20267
▁inflation 20263
▁consist 20258
▁Montenegro 20251
nie 20249
▁collapse 20246
1.5 20244
▁lesbian 20244
▁revision 20239
▁JavaScript 20235
▁Indoor 20233
▁Editor 20231
▁Nam 20231
▁MI 20224
▁40% 20222
▁travellers 20222
▁Lip 20221
▁sensitivity 20221
sure 20220
▁Zone 20217
▁Kom 20211
shing 20210
▁fisheries 20209
Male 20208
▁layers 20207
heat 20203
Ar 20198
▁covenant 20194
▁accomplish 20193
▁loyalty 20193
▁layout 20192
▁hp 20190
logy 20181
▁Cash 20181
▁Az 20177
▁Uncle 20174
page 20172
▁Mix 20171
▁Additionally 20170
▁observations 20170
▁remarkable 20168
▁spectacular 20168
▁Daddy 20164
▁Dual 20163
ddle 20159
▁Files 20157
▁Write 20154
▁concentrations 20153
▁concerts 20148
▁verified 20146
▁3.1 20141
▁Grant 20141
▁74 20139
1.2 20135
who 20133
▁traders 20127
eva 20124
▁Destinia 20121
▁graphic 20115
▁Brian 20111
▁buyer 20111
▁globally 20111
vol 20110
pat 20109
▁19, 20109
etic 20107
▁Des 20106
▁Hay 20106
▁oh 20103
▁sciences 20102
▁Bear 20096
▁fails 20096
▁Recovery 20095
lau 20093
bru 20092
▁Nigeria 20090
▁Gua 20082
▁Path 20082
▁achievements 20082
ching 20081
rol 20080
▁hurry 20076
▁ser 20076
ato 20075
▁mining 20075
▁Reference 20074
▁economies 20074
bat 20069
ess 20069
▁ja 20068
hel 20067
▁disappointed 20067
▁revised 20065
▁Hum 20063
▁Wo 20062
▁Zoo 20059
▁religions 20059
fici 20057
▁divide 20057
gro 20054
▁Macedonia 20052
▁chains 20052
▁LG 20050
hill 20047
● 20045
gus 20038
▁meta 20038
what 20037
OM 20035
▁resident 20030
▁testimony 20025
▁rush 20020
▁86 20019
▁2.2 20018
Who 20016
▁Bike 20012
▁ON 20010
▁qualifications 20010
▁Morocco 20008
Benz 20005
▁Bookings 20003
hereinafter 19998
▁Hang 19998
chan 19997
▁placebo 19993
▁Monthly 19988
▁Chrome 19976
bur 19973
▁rec 19972
cil 19968
hood 19964
▁Premier 19963
▁compelling 19963
▁Bas 19958
care 19953
▁occasions 19953
LM 19945
TU 19943
▁Vis 19937
phy 19935
pal 19930
▁infinite 19930
shan 19925
▁AT 19925
▁Chu 19924
▁fence 19924
▁lion 19922
phon 19919
roll 19919
▁responses 19918
▁unfortunately 19917
▁threatening 19914
▁opponent 19912
▁copper 19908
▁tooth 19904
FP 19903
▁perfection 19901
lop 19898
▁righteousness 19889
▁Voice 19885
▁fed 19878
▁kettle 19878
▁slave 19874
▁smallest 19872
▁inflammation 19871
▁McC 19864
MC 19862
▁83 19862
▁behave 19857
▁Philips 19856
▁Tam 19855
▁diagnostic 19853
▁playground 19853
▁charity 19844
▁recovered 19844
▁Cooking 19843
▁hiking 19840
▁frames 19839
▁Reserve 19835
5,000 19834
HR 19827
▁1.4 19825
▁Avoid 19821
▁Supply 19821
▁(12 19819
AU 19817
fr 19808
▁Cast 19806
▁arguments 19803
▁nail 19799
▁Spin 19798
▁patience 19798
▁Companies 19792
▁speeds 19788
▁relatives 19785
▁struck 19785
ARD 19781
▁Tele 19781
:12 19780
▁Than 19780
▁violate 19777
▁macro 19769
▁tolerance 19769
▁Edit 19768
▁Sensor 19766
▁packing 19762
▁harvest 19760
00,000 19758
▁Communities 19755
▁boasts 19754
▁purchases 19743
▁buddy 19741
▁Rev 19737
iness 19736
▁Method 19731
▁infusion 19730
▁Expert 19729
▁museums 19724
▁Hills 19723
▁importantly 19722
▁incurred 19718
▁anonymous 19716
▁inch 19713
▁volumes 19711
▁Archive 19702
▁equity 19702
▁loading 19702
▁investor 19700
▁Wil 19698
▁swing 19693
▁iTunes 19692
▁tariff 19692
ctic 19690
▁Fox 19689
▁residential 19687
▁occupied 19686
service 19685
-11 19684
▁Thermal 19681
▁Dal 19679
▁Bucharest 19678
▁safer 19677
▁serial 19677
▁Solid 19672
CL 19665
▁Mail 19664
▁assure 19658
▁grows 19658
▁tone 19655
▁Posted 19651
▁Rest 19651
▁charm 19650
▁planets 19649
▁Vatican 19648
▁Orbán 19647
▁Germans 19643
▁Memorial 19643
▁boot 19641
▁stressed 19640
▁Certificate 19634
▁István 19632
▁tanks 19631
.12. 19627
▁timely 19626
▁Hit 19619
▁assault 19617
▁Luke 19615
▁assert 19614
▁exclude 19613
▁awful 19599
▁thoroughly 19595
▁dealer 19593
▁electro 19592
▁wicked 19591
▁forming 19583
▁ke 19580
▁Bush 19575
▁Tours 19574
▁evaluated 19573
▁Jul 19568
▁hosted 19568
▁expiry 19565
▁Dam 19559
▁gentle 19556
..." 19554
organ 19554
▁Fran 19552
▁Around 19551
▁coordinated 19549
/7 19545
▁Processing 19543
▁tag 19541
▁capsules 19538
▁Ry 19537
▁kilometers 19537
▁sodium 19537
▁Movie 19535
▁exclusion 19535
▁FL 19534
▁towels 19534
tr 19530
▁Pécs 19524
▁op 19524
▁partially 19523
▁stunning 19522
▁hydrogen 19520
phi 19519
▁Jen 19519
ø 19517
▁Mah 19513
▁widespread 19510
piece 19508
▁sends 19508
▁Nokia 19507
ington 19504
▁teaches 19503
▁buses 19494
▁weakness 19493
▁farming 19491
cab 19489
^ 19488
▁clubs 19487
aya 19481
▁beneficiary 19478
▁encouraging 19477
FI 19474
▁spy 19469
▁Geo 19468
Art 19467
eon 19466
▁NY 19465
ush 19461
▁goodness 19460
nation 19457
▁incorrect 19456
/11 19454
▁breakfasts 19453
▁comp 19452
▁ti 19445
▁compound 19442
▁Focus 19437
▁Printer 19433
▁bronze 19432
▁Antonio 19428
▁SIM 19427
▁alliance 19426
▁sha 19426
Ltd 19425
stat 19424
miss 19418
3) 19416
▁destiny 19415
▁4.0 19410
▁notifications 19409
▁avoided 19408
▁paths 19407
▁paintings 19405
▁carries 19401
oxy 19399
▁dental 19399
▁Mur 19397
▁hey 19397
▁termination 19395
▁bold 19388
▁responded 19388
▁exhaust 19382
▁Same 19377
▁Making 19372
▁designers 19364
▁Honor 19363
▁slide 19358
▁climb 19357
path 19349
pping 19349
▁brethren 19347
▁occupation 19345
▁café 19343
▁21, 19339
try 19336
▁bands 19336
▁kitchenette 19336
▁shortly 19326
▁Guesthouse 19325
▁Detective 19324
SH 19322
cial 19322
mine 19316
▁foundations 19312
▁devoted 19304
▁ranking 19300
▁dressed 19298
▁performances 19296
nc 19295
tics 19293
IG 19289
flu 19283
▁Bishop 19283
▁fifty 19283
▁Memory 19279
has 19271
▁Embassy 19271
▁therapeutic 19268
▁Pets 19267
feld 19265
▁Fresh 19263
▁foam 19263
▁Ancient 19258
itz 19257
▁debut 19257
▁analytical 19250
▁diesel 19246
▁extensions 19246
SK 19245
▁Sat 19244
▁Often 19241
▁popularity 19241
▁indirectly 19240
say 19239
▁complexity 19239
▁startup 19237
▁Nagy 19234
▁complain 19233
▁issuing 19231
▁retirement 19231
▁bow 19225
verse 19221
▁valve 19219
▁unlikely 19218
ridge 19213
▁Done 19213
▁handed 19213
▁emails 19209
▁evident 19209
▁Diego 19206
▁Cleaning 19203
▁trailer 19202
▁catalogue 19190
ographic 19188
▁Pictures 19186
▁solved 19185
▁Crown 19183
▁Allow 19179
▁Taylor 19179
▁Traditional 19179
▁tie 19177
HS 19169
▁Ave 19168
▁throat 19165
▁roller 19164
▁Downloads 19163
▁Dia 19162
uf 19161
▁improves 19159
▁diploma 19153
▁solo 19153
▁recycling 19142
lix 19139
▁Cy 19138
▁approve 19135
▁Ay 19133
cons 19131
▁Concert 19131
▁shorter 19131
IX 19130
market 19130
▁Heat 19126
▁exemption 19123
▁Religion 19121
▁Jersey 19119
▁crop 19119
▁Rec 19114
NI 19113
▁Bin 19112
▁inspector 19110
▁suits 19109
▁Ship 19106
▁Wales 19102
▁Babylon 19098
home 19096
▁needle 19091
▁strap 19087
mis 19086
▁exhibit 19085
▁distributor 19077
▁surprising 19074
▁Sep 19073
▁nowhere 19073
▁missions 19070
raw 19067
▁Eat 19067
lab 19066
▁Mari 19060
▁cheaper 19058
using 19053
AGE 19052
▁disclose 19051
▁suspected 19049
▁PO 19046
▁generous 19046
dll 19044
▁renowned 19043
▁constitutional 19042
▁capability 19041
ender 19037
anga 19036
▁Pressure 19036
▁passage 19036
▁Bosch 19034
▁Explore 19034
▁1920 19033
▁controlling 19032
▁scenario 19029
▁Stadium 19028
▁Kara 19027
▁cargo 19026
▁prayers 19026
▁tension 19021
▁Bang 19005
SL 19004
▁(8) 19002
▁accepts 19002
▁stole 18995
pic 18992
▁Drink 18990
▁Virginia 18989
eck 18986
▁certainty 18986
▁bro 18985
▁Challenge 18979
ents 18974
▁25% 18972
▁san 18968
▁notably 18965
▁shapes 18960
boy 18954
▁Depending 18952
▁Swimming 18950
▁Rot 18942
HO 18939
▁Emperor 18937
-30 18936
▁Finnish 18934
▁containers 18932
▁reveals 18930
:20 18927
▁3) 18926
▁browsing 18920
▁mayor 18916
▁dosage 18912
ESS 18910
amba 18910
▁Arabic 18909
▁Juan 18901
▁Sum 18901
▁banned 18899
▁Deals 18881
▁championship 18880
ancy 18877
▁athletes 18877
br 18874
craft 18870
▁Gift 18870
IO 18868
▁humble 18866
(5) 18865
▁Visual 18864
hua 18863
▁conform 18863
▁iPod 18863
▁identifying 18860
tas 18856
▁81 18852
fil 18848
▁removing 18848
▁mount 18847
▁sync 18846
oz 18829
▁Ou 18827
▁permanently 18826
▁outcomes 18825
▁Flower 18823
▁Record 18822
▁summit 18822
▁pizza 18814
▁recipe 18814
▁Gate 18813
▁wings 18807
pen 18801
▁drill 18799
▁Navy 18798
▁dr 18785
ulate 18784
▁expanding 18780
▁Severe 18777
▁AI 18770
▁currencies 18770
▁Imperial 18768
▁efficacy 18765
▁Bru 18764
▁wing 18763
▁cu 18762
RY 18754
▁tomb 18752
nate 18750
▁beside 18750
cat 18748
▁themes 18748
▁rings 18747
▁bloody 18746
▁pricing 18745
atic 18743
Hungarian 18734
▁orientation 18732
11. 18730
▁interfere 18728
▁Gil 18727
▁beliefs 18722
▁criticism 18722
rov 18721
▁accomplished 18721
▁translate 18718
vic 18717
▁Break 18717
▁2005. 18712
▁Release 18710
eau 18700
▁Higher 18698
gue 18696
4) 18695
▁freight 18692
Ra 18690
▁alleged 18690
▁delegated 18678
haus 18676
▁Milk 18674
KE 18671
active 18671
▁metro 18667
mbo 18666
▁legend 18665
owned 18664
only 18663
▁Upper 18663
▁disputes 18659
▁hired 18658
▁develops 18657
abil 18651
▁Grey 18651
▁Tin 18651
media 18648
▁Invest 18648
▁Lou 18643
▁horrible 18643
▁Anne 18638
aro 18636
▁tu 18633
▁treaty 18631
▁Judge 18628
▁drain 18628
▁Flag 18623
▁attorney 18623
▁minerals 18617
▁Integrated 18614
▁funded 18608
▁steering 18604
nor 18602
▁clearance 18601
▁unfair 18601
▁Assessment 18600
itor 18597
▁corn 18597
▁82 18593
▁insist 18593
▁psycho 18585
▁motorcycle 18584
▁cor 18581
▁rolling 18578
AN 18577
▁conferences 18577
rail 18575
▁Freemeteo 18575
iest 18573
▁Hebrew 18571
▁robots 18570
bre 18569
▁ultra 18569
▁poet 18565
▁TFEU 18564
:16 18557
▁coin 18553
▁Hans 18552
▁Fishing 18550
▁realm 18549
arm 18548
▁distant 18548
▁lawyers 18548
▁cuts 18547
▁dig 18547
▁varieties 18544
▁jealous 18541
sburg 18539
▁cleaned 18539
▁Believe 18534
force 18533
price 18530
▁substitute 18526
▁pools 18522
▁refugee 18522
ids 18519
▁introducing 18519
▁addressing 18518
cker 18517
▁Croatian 18515
where 18513
▁Accessible 18509
▁smartphones 18507
GO 18505
lac 18505
▁welcomed 18501
▁Chairman 18498
▁qualification 18495
▁73 18490
▁dude 18488
▁Theater 18480
▁1.8 18478
▁decent 18475
▁Changes 18472
pcs 18471
▁Finish 18471
ock 18469
wheel 18462
▁2.4 18457
▁collections 18456
▁filed 18452
▁sophisticated 18451
▁Fur 18450
body 18448
▁drops 18446
▁Pal 18445
▁Presidency 18443
▁Matthew 18440
▁pole 18440
▁Dallas 18439
stal 18438
high 18437
▁stove 18436
▁gravity 18435
▁invention 18435
▁prohibit 18433
▁consistently 18432
▁volunteer 18432
▁theories 18431
▁guided 18429
▁myth 18426
▁highlight 18422
▁Tha 18417
IE 18416
▁cam 18415
▁decisive 18413
▁2004, 18412
Room 18411
▁revelation 18409
▁1988 18405
▁der 18404
▁dial 18404
▁Database 18401
▁Defense 18399
▁salad 18398
▁Detailed 18393
▁citizenship 18390
▁Dom 18389
▁Upload 18385
CT 18380
▁profound 18379
gt 18377
▁preceding 18377
▁Agricultural 18376
▁poll 18376
tina 18373
1000 18369
fect 18369
▁Cost 18366
See 18365
▁28, 18365
▁Donald 18365
▁renal 18365
▁MBA 18364
▁Seoul 18364
▁mighty 18362
▁specification 18360
▁prestigious 18359
▁Opening 18355
▁adapter 18355
▁Inside 18353
system 18352
:14 18350
▁deserves 18350
▁jet 18350
mber 18346
▁autonomous 18343
▁cares 18341
▁forty 18341
▁labels 18341
▁impairment 18339
▁insulation 18339
▁linen 18339
▁Jin 18338
▁luxurious 18338
yon 18331
▁Month 18331
▁Ryan 18331
▁hub 18330
▁Bond 18328
race 18325
▁bug 18325
▁harmonised 18324
pra 18320
▁camps 18314
▁Unlike 18312
▁Malawi 18309
▁(15 18308
▁Zu 18308
▁necessity 18304
CD 18302
!! 18301
www 18301
▁30- 18301
▁fears 18295
▁commander 18292
▁Mus 18287
▁justify 18287
▁financed 18286
▁Urban 18284
▁Arthur 18283
▁Sy 18283
:3 18277
▁matching 18269
NS 18268
▁Himself 18268
CON 18262
▁Somebody 18262
uga 18261
▁Alternatives 18258
▁flour 18249
▁persecution 18249
Now 18247
▁Dating 18247
▁Strip 18244
▁gut 18244
▁actress 18242
▁treating 18242
▁tumor 18241
master 18240
oph 18240
▁22, 18229
oke 18227
▁Abu 18227
▁Pull 18218
▁Playing 18217
▁comm 18212
▁WordPress 18204
▁customized 18204
aid 18203
▁span 18202
▁Going 18201
▁quota 18197
▁notion 18192
CP 18190
▁Syn 18188
▁dramatic 18180
▁secretary 18180
▁neighbor 18179
cca 18178
rif 18177
▁Bulgarian 18177
tho 18175
▁string 18173
▁guards 18170
▁HOTEL 18167
▁CS 18166
cade 18162
▁hence 18162
▁Ty 18160
▁loyal 18152
▁warming 18152
▁Picture 18151
▁HTML 18150
▁brass 18145
Yes 18140
▁101 18140
▁ruled 18138
▁template 18136
▁distinction 18133
hir 18132
▁accent 18119
▁Workshop 18111
▁trail 18107
120 18106
▁diplomatic 18105
▁Recommended 18104
▁Soul 18104
▁inspire 18104
▁Position 18101
▁NA 18092
▁automation 18092
▁Track 18091
▁clarify 18083
▁syringe 18083
▁nano 18082
▁Ham 18080
yer 18078
▁Lion 18075
▁proteins 18068
▁argue 18067
▁Adventure 18063
▁lean 18058
▁highlights 18057
▁Estate 18053
▁craft 18047
▁bulk 18045
▁Belgian 18042
▁rope 18041
▁Lanka 18040
▁calcium 18040
▁[-] 18038
▁Wolf 18036
▁AL 18035
▁Por 18035
▁developer 18035
sted 18034
▁invented 18034
▁sphere 18034
ume 18032
▁Heating 18028
▁Practice 18028
▁Dominican 18027
aria 18019
▁Condo 18019
▁persist 18014
▁jury 18012
nova 18010
1999 18008
▁logged 18007
fri 18006
▁compartment 18006
▁Emergency 18004
▁expense 18002
▁rhythm 17997
dress 17996
▁charming 17994
▁23, 17989
▁Growth 17984
▁resolved 17984
▁hospitals 17982
▁Toilet 17981
▁Tunisia 17979
▁favourable 17978
▁lovers 17977
▁punch 17975
gno 17973
▁Teacher 17972
▁stack 17966
▁maritime 17965
NE 17964
▁dried 17962
ometer 17960
AF 17959
▁technically 17958
▁Desktop 17950
Ho 17945
iki 17942
▁Behind 17942
ake 17941
▁indicating 17941
▁Bali 17939
zan 17938
▁Labour 17933
▁WA 17928
direct 17927
▁Balcony 17927
▁experimental 17927
▁grandmother 17927
▁couples 17926
▁regulate 17926
▁Playa 17924
▁Usually 17923
▁slept 17922
Book 17920
MF 17920
LP 17918
▁eaten 17918
▁insufficient 17918
▁march 17918
▁Bit 17915
ulated 17914
rage 17913
:13 17911
▁animation 17909
▁0.2 17908
▁pants 17908
Ca 17901
▁Intelligence 17900
▁flood 17898
▁bonds 17897
▁medications 17895
▁freak 17894
▁embrace 17892
▁wallpaper 17890
▁Planning 17884
▁governor 17883
▁Rab 17882
▁Scar 17880
SR 17872
▁spots 17869
▁environmentally 17868
EA 17867
▁2020. 17865
▁Offer 17865
▁bride 17861
▁Uni 17860
▁Commander 17855
iser 17848
▁licences 17847
▁tan 17845
2006 17844
▁Mega 17844
tec 17843
rá 17839
pol 17836
▁cycles 17836
profit 17834
▁referendum 17833
▁gases 17828
vig 17827
▁Trading 17826
▁fits 17825
▁Kap 17824
▁neighbourhood 17821
▁petition 17821
▁cal 17818
▁empire 17818
duct 17814
▁loop 17812
▁characterized 17804
▁SMS 17803
▁Item 17799
izz 17797
▁meaningful 17797
ago 17795
bac 17795
▁journal 17794
▁thrown 17792
open 17790
▁Monitor 17790
▁Rating 17788
pit 17786
▁Situated 17784
▁penalties 17784
thy 17782
▁confusion 17778
ike 17777
▁Dansen 17777
iko 17770
▁alternatives 17768
▁Kid 17767
▁Strong 17765
▁thorough 17763
aff 17761
▁Cook 17760
▁elite 17760
▁walks 17759
▁Koh 17758
Where 17754
▁chi 17754
▁Gra 17751
1.3 17750
▁breed 17745
▁albums 17738
▁pla 17738
▁geo 17737
▁Amy 17735
▁Lighting 17732
▁liberty 17723
▁Vitamin 17722
▁Gel 17718
▁alike 17718
▁tech 17715
▁Fruit 17712
▁Danny 17710
▁Import 17710
▁renovation 17710
▁fossil 17709
▁illusion 17706
▁moisture 17705
▁lacking 17704
▁installing 17701
▁Eight 17694
▁4.1 17693
▁deployment 17691
▁fl 17688
▁hunt 17685
▁associate 17682
▁tar 17678
▁sink 17677
▁suggestions 17676
▁salary 17669
uli 17655
▁PCB 17655
▁Jar 17651
▁screening 17651
▁Sofia 17650
▁administrator 17647
soft 17644
▁intimate 17644
:6 17643
▁cy 17643
▁Export 17639
▁revenues 17637
▁consistency 17636
:17 17635
▁continually 17632
▁TR 17619
▁boring 17619
▁scanning 17615
etta 17614
▁[3] 17613
▁seasonal 17611
▁ties 17611
▁Ground 17610
▁teens 17610
▁realise 17606
▁gates 17604
▁varied 17601
▁attach 17599
read 17597
pil 17595
▁mathematics 17595
▁scar 17594
▁Firefox 17593
▁Mau 17593
WA 17591
▁LE 17582
▁transformed 17582
▁Lie 17575
sum 17572
▁prop 17572
ises 17571
▁Customs 17566
▁Regions 17564
DR 17562
▁habit 17558
ACE 17557
▁Dubrovnik 17557
▁inches 17557
dro 17553
▁chips 17553
nai 17551
▁Damn 17551
▁torture 17551
mid 17550
▁setup 17549
▁gray 17545
▁fled 17543
oriented 17542
▁Temperature 17540
▁endless 17539
▁rep 17536
▁Updated 17534
▁hated 17533
▁Toyota 17532
▁Bla 17530
Li 17527
swf 17522
▁UP 17520
kel 17519
▁Gardens 17519
▁teen 17516
too 17513
▁Phen 17513
▁highlighted 17513
▁emphasize 17512
rock 17511
▁province 17509
▁workshops 17508
▁Exp 17507
▁soup 17507
mu 17503
▁acceleration 17500
berry 17498
▁composer 17497
BO 17496
file 17494
▁genre 17493
▁knock 17493
▁initiate 17492
▁inserted 17489
▁MT 17486
▁portrait 17480
▁Index 17476
▁disabilities 17474
▁scientist 17473
VA 17472
▁determines 17471
▁ceramic 17470
▁dialog 17467
▁excellence 17465
▁tragedy 17464
▁bin 17463
chin 17462
▁Jimmy 17461
▁Border 17454
▁Lane 17452
▁badly 17452
▁maker 17448
▁Electronics 17446
show 17443
▁Lin 17443
▁slip 17442
zing 17440
▁conviction 17440
▁stretch 17440
▁Neg 17436
▁Regular 17436
▁Governor 17435
▁faculty 17432
▁Péter 17431
self 17429
▁sec 17428
▁Participation 17425
▁statue 17422
bble 17421
▁Scientology 17419
▁Resorts 17418
▁announce 17417
▁pushed 17417
▁Cities 17415
▁Response 17414
▁Laser 17413
▁wallet 17411
▁dioxide 17408
Un 17407
▁barbecue 17404
▁ink 17404
▁handled 17400
girl 17398
▁AF 17395
▁appetite 17395
▁commands 17390
▁musicians 17389
▁Orlando 17387
▁detective 17384
▁labelling 17384
▁Buddhist 17383
▁DS 17382
▁lease 17382
▁secured 17381
▁sweat 17381
← 17378
▁ghost 17377
▁utility 17374
ALL 17370
▁Rica 17370
▁Xi 17370
▁unforgettable 17369
▁searches 17368
worth 17362
▁Tun 17362
▁wardrobe 17360
▁newest 17358
▁Pla 17357
▁Coach 17354
▁Lar 17353
▁interpreted 17352
ider 17349
▁leak 17349
▁pol 17345
ished 17336
▁Belarus 17333
▁Notes 17327
▁occasionally 17322
▁Funds 17319
▁assessments 17316
▁afterwards 17313
▁finishing 17313
▁NOW 17312
▁viruses 17312
▁http 17311
▁Albania 17307
▁Putin 17307
▁exhibitions 17302
▁Madagascar 17300
▁lap 17299
▁Wife 17297
▁Communications 17296
▁deposits 17292
▁chairs 17291
ş 17286
tag 17285
SD 17284
▁ministers 17284
▁crap 17283
▁exploitation 17280
▁1986 17277
▁publishing 17276
▁repeatedly 17275
eri 17271
▁Ran 17267
▁fixing 17267
▁packed 17262
ect 17259
▁contacting 17259
fra 17258
▁Episode 17257
lav 17256
▁Deputy 17253
▁PP 17252
▁threw 17246
▁presenting 17240
▁shoe 17240
charge 17236
▁Walk 17234
▁apostles 17233
▁uncertainty 17233
economic 17232
▁linear 17227
hof 17224
▁clip 17223
▁Volkswagen 17217
▁bass 17216
▁talented 17211
▁Wash 17210
▁Chair 17207
Star 17206
▁relaxing 17206
▁identifier 17205
▁orbit 17204
▁Beat 17203
365 17194
▁ecological 17193
▁heavily 17191
elli 17189
▁login 17187
▁Kin 17176
ui 17174
▁recipient 17172
▁Prior 17168
oh 17167
▁ancestors 17167
▁recipients 17167
▁Skype 17163
▁enters 17158
▁Gross 17157
▁dish 17150
pens 17149
tang 17142
▁Kn 17141
▁writes 17139
▁Countries 17135
▁demon 17135
▁networking 17133
igo 17130
▁Dogs 17130
▁microphone 17117
▁palm 17116
▁grandfather 17112
▁Jump 17111
▁override 17107
▁journalists 17105
▁conjunction 17099
▁5.1 17098
▁ensured 17092
▁Theme 17091
▁Portable 17088
▁betting 17088
▁nuts 17086
▁(16 17084
sim 17077
▁Pure 17075
▁metabolism 17075
▁prince 17075
source 17074
▁Born 17074
▁Springs 17073
▁punish 17073
▁pa 17070
▁photographer 17070
▁Pel 17067
▁0.0 17061
▁Tru 17061
door 17059
▁shots 17059
▁Nazi 17057
▁Oxford 17057
▁phenomena 17056
▁64- 17054
▁ashamed 17053
▁stereo 17050
▁Tennis 17049
▁obtaining 17046
▁Ideal 17044
▁Proposal 17044
▁Kos 17042
▁assured 17041
cl 17037
▁1985 17037
▁cabinet 17035
▁distinguish 17035
▁Benefits 17029
▁vaccination 17025
▁doubts 17024
pine 17023
▁pays 17018
▁Summit 17017
▁baggage 17016
▁1987 17011
anti 17010
▁prevented 17007
▁János 17004
tie 17003
▁Nobel 17002
▁Seat 17000
Can 16999
▁Qui 16999
▁scratch 16998
▁apple 16997
▁dragon 16997
2.3 16994
▁dominant 16993
edge 16992
▁Sab 16991
▁450 16989
▁boards 16987
reg 16984
▁col 16983
▁timing 16979
▁NEW 16978
▁Rat 16976
▁kidding 16972
▁Burn 16971
▁Racing 16968
▁restoration 16967
▁Strap 16966
ota 16965
▁pumps 16965
▁cluster 16962
▁drove 16962
▁Operator 16959
zza 16956
▁Lebanon 16955
▁subsidiary 16955
szt 16954
▁texture 16949
▁interference 16947
▁selecting 16947
mond 16944
week 16943
▁carriage 16942
▁recital 16937
▁Chang 16934
▁stimulate 16928
▁Installation 16923
lle 16921
▁brutal 16920
▁innovations 16918
▁orchestra 16917
▁Lieutenant 16910
▁Madam 16908
▁Movement 16907
▁competitions 16907
0.1 16901
uous 16901
▁ICT 16901
▁Cas 16900
▁CN 16898
▁Cra 16897
▁fax 16895
▁generator 16894
▁3.2 16885
▁Customers 16882
▁Liverpool 16881
▁heroes 16880
▁immigrants 16877
▁ridiculous 16875
his 16874
▁populations 16874
▁clarity 16873
▁Coll 16869
▁strengthened 16866
▁Packaging 16865
pper 16854
▁Commons 16854
▁Career 16851
▁Azure 16849
▁Clark 16848
▁Iranian 16847
▁gel 16846
▁analyse 16845
▁GO 16838
rent 16837
generation 16836
▁surrender 16832
▁synthetic 16832
▁Foot 16830
▁Calls 16828
▁Ren 16823
ois 16820
▁Holocaust 16819
▁aesthetic 16818
▁Meteogram 16815
▁Jew 16814
▁Lan 16813
pad 16806
▁Portal 16799
▁(9) 16798
▁catalog 16798
▁Schengen 16797
▁CIA 16795
▁convey 16795
▁3000 16793
▁fuels 16791
▁Alice 16789
§ 16788
▁compulsory 16787
▁tutorial 16787
▁unlike 16785
▁Command 16784
▁waited 16784
building 16780
▁transitional 16780
Fa 16777
▁fortune 16775
▁hygiene 16774
▁easiest 16773
▁partnerships 16772
▁zoo 16768
▁Berg 16765
▁panoramic 16764
▁poison 16757
▁bless 16756
ssel 16755
filled 16751
lib 16748
▁Jose 16748
▁Lei 16746
0.5 16743
mag 16742
▁agrees 16741
▁adjustable 16739
awa 16737
▁breeding 16737
▁feast 16737
▁Resources 16736
▁Meta 16732
▁Oscar 16729
American 16728
▁Leather 16728
2016 16727
tti 16719
▁Arena 16719
▁Kir 16716
▁analyses 16716
▁scrap 16716
▁shade 16712
▁Bonus 16711
Not 16709
▁accessed 16709
▁ugly 16703
▁Nov 16702
▁Machines 16700
▁bay 16698
▁fur 16696
▁5% 16694
▁Pod 16693
ais 16687
▁spite 16685
▁Feel 16683
▁Harbour 16682
▁Lights 16682
:5 16680
▁recreational 16678
▁lodging 16677
▁bears 16676
DO 16670
▁2000, 16666
▁Offers 16665
▁Imp 16663
▁Fre 16660
▁Ji 16660
RL 16657
▁occurrence 16656
▁Recently 16647
▁1945 16646
▁Fix 16646
▁Nord 16645
▁tied 16642
▁Flu 16639
▁Hel 16638
▁spec 16636
onia 16635
▁Java 16635
aemia 16634
radi 16631
▁architectural 16630
▁Gall 16627
arian 16623
▁enforce 16623
▁semester 16620
▁Materials 16619
▁Cave 16618
▁dive 16617
▁woods 16617
▁Magazine 16616
vár 16611
3.5 16610
lets 16610
▁Wide 16608
▁Salt 16607
▁forbidden 16606
▁kidney 16606
▁Fortunately 16605
▁Forex 16604
▁Prepare 16596
▁nevertheless 16593
▁writers 16591
▁shed 16590
▁nationality 16589
▁stranger 16589
RR 16588
▁TA 16585
▁Wilson 16584
still 16583
▁$3 16582
▁relevance 16582
vice 16574
ˆ 16574
▁senses 16574
▁2003, 16573
quest 16570
▁Ticket 16568
▁Caribbean 16565
▁Sit 16563
▁electronics 16562
▁Marie 16561
▁parliamentary 16561
▁Late 16556
century 16555
cking 16552
▁inheritance 16550
▁mal 16550
ern 16549
▁invoice 16549
ija 16548
▁rack 16547
control 16544
lect 16544
▁Purchase 16542
▁resurrection 16541
▁tyre 16539
sex 16538
▁pie 16537
rge 16536
yu 16536
▁hatred 16535
▁FA 16534
▁Lincoln 16534
die 16533
ily 16530
▁Running 16530
▁appliances 16529
▁jo 16528
▁pressing 16523
▁Repair 16521
cord 16520
▁constitution 16519
3.1 16518
▁Document 16517
▁specialty 16517
maker 16511
▁Century 16511
▁curse 16511
spot 16510
▁diagnosed 16508
▁Kel 16503
▁energies 16502
ITY 16500
▁Copy 16497
nder 16491
▁considerably 16486
▁genius 16486
hon 16484
cie 16482
▁adjustments 16479
▁70% 16475
▁malicious 16473
▁Either 16466
▁multitude 16466
▁Algeria 16465
▁economics 16462
sub 16458
▁lottery 16456
▁Organ 16451
lash 16447
love 16447
▁cables 16446
ske 16443
▁RA 16440
▁beast 16439
▁jazz 16439
▁Cancer 16431
▁compassion 16429
▁clouds 16428
▁si 16428
▁unlawful 16425
▁Sto 16424
▁allies 16423
▁practitioners 16420
▁escaped 16419
▁hills 16417
may 16413
▁triple 16413
▁strain 16411
▁yard 16411
▁attraction 16410
tail 16409
▁spin 16404
▁attributed 16394
▁Kuala 16393
▁Amendment 16392
▁photograph 16391
▁pigs 16387
RM 16386
▁intent 16385
anza 16382
▁meantime 16381
:19 16380
▁Present 16380
▁Arch 16376
▁VIP 16375
▁Relations 16374
▁barrier 16374
NR 16373
▁dated 16365
▁organizational 16363
lap 16362
▁campus 16362
city 16361
▁psychology 16359
▁lately 16358
▁crops 16357
vant 16355
▁Sheet 16352
▁righteous 16352
▁26, 16351
▁stopping 16350
▁Kevin 16347
▁Navigation 16346
carbon 16343
▁sovereignty 16342
uro 16340
▁counsel 16339
gun 16338
▁sightseeing 16336
▁Volume 16332
▁updating 16331
▁blocked 16321
Oh 16319
▁Drivers 16319
sty 16315
5.6 16304
flow 16301
▁170 16298
▁erasure 16298
▁heated 16295
DU 16292
▁AN 16292
▁Lewis 16292
▁Thy 16292
▁mathematical 16290
▁SH 16289
▁Tai 16289
▁wounded 16285
▁Shut 16284
▁fo 16282
▁interactions 16280
▁Alan 16277
▁Sounds 16275
▁holders 16275
▁permits 16270
▁roughly 16268
MT 16267
step 16265
▁Palma 16265
▁retention 16265
▁Found 16262
:01 16260
▁Monitoring 16260
lev 16255
▁aluminum 16255
pool 16253
▁careers 16253
▁Match 16252
▁wheat 16250
bell 16248
▁wanting 16248
▁Steven 16244
▁Featured 16239
▁systematic 16229
▁revenge 16225
▁Reg 16224
▁Prophet 16223
▁accepting 16222
▁BBC 16221
ány 16219
▁cloth 16218
▁metals 16217
:9 16214
ulator 16211
▁streaming 16205
▁Hostels 16204
▁Clothing 16200
▁tribe 16197
▁documentary 16193
▁tray 16192
pm 16190
▁defeated 16190
print 16189
▁Minimum 16187
▁Impact 16184
▁enhancing 16184
erie 16183
▁Angola 16183
▁Russians 16183
meric 16182
▁journalist 16182
omi 16181
:18 16180
lag 16180
▁Nine 16178
▁benchmark 16177
▁Ghost 16176
▁Initiative 16173
▁remuneration 16170
▁Strategic 16169
▁sealed 16169
▁statutory 16168
▁Starting 16167
▁acknowledged 16167
▁considerations 16162
▁burnt 16158
catering 16156
▁assessing 16155
will 16151
▁Dynamic 16147
▁receiver 16144
▁Pest 16141
▁sustain 16136
▁Dy 16133
▁Nova 16129
▁textile 16127
▁Vision 16121
DL 16119
mph 16118
▁Fin 16112
SU 16111
▁31, 16110
▁panic 16110
▁distances 16109
▁pursuit 16108
▁lemon 16107
­ 16104
▁Casual 16101
▁Ul 16101
▁0.3 16097
▁powered 16097
▁VII 16096
▁Requirements 16095
▁Sister 16095
▁Cookie 16092
▁implications 16091
PD 16090
▁Summary 16090
lecommunications 16087
▁trafficking 16086
▁avoiding 16085
stock 16082
▁Rollenspel 16082
▁prompt 16080
▁Solution 16077
▁750 16075
▁dirt 16075
▁intends 16070
wind 16067
▁Become 16062
▁Cop 16061
▁physician 16059
▁withdrawn 16058
▁2004. 16057
▁Julie 16057
vac 16056
▁accompanying 16054
▁LI 16052
▁Herzegovina 16050
▁boats 16047
▁Shall 16039
chem 16038
gie 16038
▁Brexit 16037
▁lonely 16037
▁pur 16037
▁hostel 16035
mission 16033
standing 16033
tun 16033
▁assign 16031
▁Types 16029
▁titles 16029
▁guilt 16027
▁Jer 16026
▁princess 16026
▁slice 16026
▁attempted 16025
▁concentrated 16023
▁Greg 16022
▁SS 16020
▁offerings 16014
MD 16012
aught 16010
▁Dollar 16006
bet 16005
▁Build 16005
▁steady 16003
▁Visitors 16002
▁rocks 16002
▁upstairs 16000
▁1984 15996
▁Horizon 15987
▁Printing 15987
▁Degree 15980
▁Reality 15980
▁27, 15979
▁spreading 15979
▁influences 15978
:23 15973
▁Walter 15972
▁decree 15970
▁skiing 15969
▁substantially 15968
encies 15966
▁distress 15964
▁emerge 15963
▁drew 15958
▁4.3 15955
▁cylinder 15953
▁distribute 15953
▁Imagine 15948
▁exercising 15948
▁placement 15944
▁exported 15943
▁Ost 15940
▁departments 15940
tone 15935
▁Doesn 15935
▁occurring 15935
▁wages 15934
▁soap 15931
▁custody 15926
▁bind 15924
▁nutrients 15915
▁Billy 15911
▁horror 15908
▁painter 15906
▁shaped 15904
▁Mm 15901
▁accelerate 15899
mg 15897
▁Naples 15897
walk 15896
From 15895
▁Allah 15894
foot 15893
rous 15893
▁Hua 15893
▁lays 15891
▁titanium 15889
▁loader 15888
▁purely 15885
▁Physical 15884
▁respects 15878
▁crossed 15877
▁suspend 15875
▁cruel 15874
▁fatal 15874
cio 15871
▁Relax 15871
▁trauma 15871
Read 15868
▁Launch 15868
▁firmly 15867
▁Jay 15862
▁indications 15862
▁lied 15862
uld 15854
▁gains 15853
▁promoted 15853
▁Records 15852
▁sw 15849
▁Vector 15848
▁abortion 15847
lick 15846
▁demonstration 15844
▁suited 15842
▁classroom 15841
ente 15839
▁Jet 15839
▁Languages 15838
▁patch 15837
▁sorrow 15834
zzi 15833
▁Holland 15833
▁gardens 15827
▁PVC 15822
▁Orchestra 15821
▁cried 15820
ended 15819
▁CC 15819
▁minorities 15819
▁Phuket 15818
▁Directives 15817
▁dawn 15814
▁reside 15814
▁testosterone 15813
rig 15811
▁Panama 15811
▁Johnny 15808
▁107 15806
▁Compact 15804
▁neighbors 15802
keeper 15801
grade 15797
▁lit 15796
▁clever 15795
▁goodbye 15792
▁remedies 15790
▁Aren 15789
white 15788
▁expressly 15784
▁Fabric 15783
Well 15781
azi 15779
▁(17 15775
▁helicopter 15775
▁magnificent 15773
▁prosperity 15773
▁heavens 15772
▁highway 15772
VI 15770
▁nightly 15770
fat 15769
▁understands 15768
▁Samuel 15767
▁Wifi 15764
▁Obviously 15763
▁NASA 15760
para 15759
aged 15756
▁liabilities 15756
▁Female 15755
▁portable 15753
▁ingredient 15750
▁villa 15750
▁Stars 15747
▁guides 15747
▁tragic 15747
▁alcoholic 15743
▁advisor 15737
▁Cambridge 15734
▁attracted 15731
With 15729
▁Kol 15723
▁cow 15723
.10. 15718
dine 15718
▁arriving 15716
▁bat 15709
▁Emma 15708
▁Rosa 15708
▁medieval 15708
lier 15707
▁Colonel 15707
▁Valencia 15707
▁advocate 15704
▁Oak 15703
yang 15700
▁counts 15700
TRA 15697
▁databases 15695
▁Cameltoe 15693
▁exceeds 15693
▁stairs 15692
▁Warm 15690
▁BO 15689
tern 15687
lio 15686
▁calculations 15686
▁lodged 15685
▁Kr 15683
ë 15680
▁nightmare 15679
▁Ministers 15675
▁Kris 15674
▁releases 15674
eta 15669
▁Guarantee 15668
▁rocket 15647
▁communicated 15644
oti 15643
▁facial 15643
▁delayed 15640
iri 15636
▁longest 15636
ending 15635
ttle 15632
tors 15630
-16 15628
▁Fla 15628
▁29, 15627
▁Helsinki 15627
▁execute 15626
▁reproduction 15622
▁definitions 15619
tron 15616
▁Capacity 15615
▁Leo 15613
ked 15612
▁Healthy 15611
▁partition 15611
Sha 15610
▁organisms 15610
▁incomplete 15609
Di 15608
▁CI 15607
▁glucose 15607
▁Contacts 15604
▁mounted 15604
▁je 15603
▁Cos 15601
▁elect 15601
▁vibrant 15601
▁households 15599
Up 15596
▁Nike 15595
pes 15592
▁Sleeve 15591
rill 15586
▁Torre 15586
unk 15584
▁evolved 15580
▁Television 15577
▁cope 15576
▁Multiple 15572
cious 15571
▁voices 15569
gh 15568
▁Medium 15568
▁mixer 15568
▁pursued 15565
eller 15564
▁Effective 15562
▁dozen 15562
▁conducting 15561
▁Faith 15557
dimensional 15553
oth 15553
▁persistent 15553
▁bored 15551
▁Comment 15550
▁lifted 15549
▁entrepreneurs 15548
▁Cycling 15546
▁Falls 15546
▁Hands 15546
▁Falun 15545
▁confidentiality 15544
▁scholarship 15541
▁directors 15539
▁tremendous 15535
▁Senior 15534
Ta 15532
Sp 15531
▁Animals 15531
▁simulation 15524
▁(0 15523
sie 15521
▁rub 15515
▁CNC 15514
▁Gabriel 15514
▁Prix 15514
▁harsh 15514
4.2 15509
mod 15509
kon 15507
▁profitable 15507
▁intuitive 15505
gr 15504
▁Clo 15503
▁EURO 15503
▁Manhattan 15503
▁Ambassador 15501
▁combinations 15501
▁supreme 15501
▁Pharaoh 15500
▁assignment 15496
▁snake 15494
▁varies 15490
▁WITH 15488
▁welding 15488
▁blast 15486
▁Lot 15483
Mi 15478
▁Forget 15477
▁Charlotte 15476
▁relates 15476
▁shareholders 15476
CK 15471
▁legacy 15471
pack 15467
▁Que 15466
▁Administrative 15458
▁rip 15456
two 15455
▁Hin 15454
▁Speaker 15454
▁Tanzania 15448
▁recommends 15442
▁Gong 15441
▁Object 15441
astic 15439
info 15439
▁Ferrari 15434
▁perish 15433
ae 15430
▁attributes 15428
▁sexually 15427
▁Screw 15426
▁draws 15426
▁wounds 15424
▁Success 15423
sel 15422
▁Archives 15422
▁Kill 15422
▁lawn 15422
▁Oc 15419
4.1 15417
chat 15417
▁Maha 15416
▁Moldova 15416
▁Contemporary 15410
Net 15407
lessness 15405
▁housekeeping 15404
glass 15401
▁chemistry 15400
▁Lamp 15398
story 15396
▁therein 15395
▁Extract 15394
▁Gla 15392
▁inspections 15392
fit 15391
train 15391
▁Connection 15391
▁Vehicle 15390
▁Morgan 15388
▁Philip 15388
▁Vegetarian 15387
▁Throughout 15386
▁flock 15383
word 15379
▁capacities 15379
▁Height 15368
▁sampling 15366
▁virgin 15366
OUR 15365
clo 15365
▁fold 15365
▁Fuel 15363
▁clause 15363
▁pad 15362
▁delicate 15361
:7 15358
▁Campus 15356
ß 15355
hot 15354
▁Andrea 15351
INE 15349
▁fatty 15346
cate 15345
▁authorization 15343
▁15% 15341
thm 15340
▁Lead 15340
▁stain 15338
▁prototype 15334
▁Sunrise 15332
▁completing 15330
ried 15328
ude 15328
▁terminate 15324
▁turnover 15323
▁220 15321
▁inevitable 15321
sec 15317
▁invasion 15317
▁abandon 15316
▁accurately 15315
▁outfit 15315
AA 15314
▁BU 15313
▁Operation 15305
▁Wu 15302
▁passive 15298
tam 15297
▁mag 15297
▁renew 15297
▁UNESCO 15296
▁beginners 15293
Then 15292
▁inherent 15292
imate 15291
▁Secure 15291
cid 15290
▁argued 15290
SON 15284
Sa 15283
Tech 15283
▁jam 15282
▁nickel 15282
▁render 15281
▁spark 15278
working 15276
▁2.3 15276
▁Waste 15276
UE 15272
▁Merc 15272
▁Andy 15269
▁BC 15267
Č 15263
▁60% 15261
▁invested 15260
▁useless 15260
lina 15259
▁skip 15259
▁picking 15258
▁requesting 15258
▁terrorists 15258
▁Guys 15257
rak 15254
▁Monster 15253
eti 15251
▁poultry 15251
oa 15250
▁Truck 15249
▁failing 15247
▁steroid 15247
blo 15246
▁tissues 15244
def 15243
morph 15243
▁Rachel 15241
▁Desk 15240
▁algorithm 15234
▁civilian 15232
▁bases 15231
ico 15230
IV 15227
▁woke 15225
▁ES 15224
Per 15219
vie 15218
elo 15214
▁temptation 15211
2018 15208
▁Discount 15208
▁ok 15203
▁rivers 15202
▁Annexes 15200
▁Mascus 15195
▁commandments 15195
▁fifteen 15195
▁mill 15195
▁nerve 15190
▁Carolina 15189
ean 15187
assi 15185
▁pulse 15185
▁polar 15184
More 15180
▁vibration 15180
▁succeeded 15175
mie 15174
▁Kelly 15172
▁directory 15172
▁equation 15169
Jo 15167
▁SAP 15163
▁Delete 15155
▁humidity 15154
ILL 15153
▁anytime 15153
▁listened 15151
▁8.1 15149
▁approaching 15149
▁loaded 15149
▁Boys 15146
President 15139
bridge 15139
▁absorption 15136
▁undermine 15132
▁grasp 15130
esh 15128
▁awake 15126
▁passionate 15126
▁wives 15123
four 15120
▁promising 15119
▁Guy 15118
▁league 15118
CM 15114
nau 15114
▁workout 15112
▁Specific 15109
▁4.4 15108
ologists 15105
▁correspond 15105
urg 15104
TOR 15101
ML 15098
▁vent 15098
és 15097
▁Provide 15096
▁unite 15094
▁dump 15093
▁pushing 15093
efficient 15092
▁promotes 15091
▁Stage 15090
▁Coming 15089
▁Sad 15087
▁licensed 15087
aire 15084
-01 15080
▁Governing 15080
▁babe 15078
cis 15077
minating 15076
▁modifications 15076
▁(14 15075
▁Deposit 15073
▁toxicity 15073
▁surveys 15072
ulating 15071
▁RS 15071
▁embedded 15071
▁Boat 15066
▁demo 15066
110 15065
▁Architecture 15065
▁Vancouver 15065
▁diamond 15065
▁hydraulic 15063
Learn 15058
OME 15058
▁believers 15058
▁odd 15055
iding 15053
▁Autumn 15052
▁Selection 15052
▁128 15051
Your 15048
▁Essentials 15048
▁complications 15047
▁confess 15047
▁motivated 15047
▁vampire 15047
▁prohibition 15044
▁DA 15042
DN 15041
hoe 15038
▁Policies 15032
▁Ras 15031
▁OJ 15028
▁Yang 15025
▁steroids 15025
▁Rub 15023
Bar 15019
lm 15017
▁fascinating 15017
3.2 15013
rink 15009
▁designing 15005
▁relaxed 15005
▁Vic 15004
▁ch 15004
▁Tibetan 15002
▁makeup 15001
viv 15000
▁1930 15000
▁Zurich 15000
did 14997
▁exchanges 14996
!!! 14992
▁Might 14992
▁Cottage 14991
glu 14989
▁Pearl 14989
▁reset 14988
:25 14981
▁Monetary 14980
▁Montreal 14980
:8 14979
ody 14979
:21 14977
▁leaflet 14976
END 14974
▁Pie 14974
▁dumb 14973
▁initiation 14973
▁wrath 14971
▁Cards 14968
▁wholly 14968
▁Kil 14967
▁Lumpur 14967
▁Representative 14965
▁phases 14964
▁arrives 14963
eus 14962
gam 14958
▁Comm 14955
▁Stick 14955
▁Teaching 14954
about 14953
▁Error 14950
▁darling 14949
▁flavor 14948
▁organism 14947
▁Rural 14946
there 14939
drive 14938
▁explicit 14937
▁Aero 14935
ordered 14931
▁Directed 14929
▁Kun 14929
▁strongest 14927
▁SW 14926
▁binary 14926
▁solving 14926
mov 14922
▁HU 14920
▁Carbon 14918
hang 14915
▁Thou 14914
▁consultations 14913
▁promotional 14913
AX 14912
▁sovereign 14909
▁1500 14907
▁excluding 14907
KA 14906
▁Hidden 14906
▁1979 14904
▁mold 14900
▁rat 14900
ido 14899
▁Die 14894
▁Lift 14894
▁Wiki 14894
▁hy 14894
Peak 14893
▁Feed 14893
▁disable 14893
▁Mare 14890
▁Similarly 14890
ibly 14884
▁Minh 14882
▁AR 14881
adi 14879
▁Dell 14879
▁blade 14878
▁exploit 14878
2015 14877
▁Fit 14877
▁admire 14876
▁beneath 14874
▁scare 14873
oka 14871
▁nest 14871
▁Ethiopia 14867
▁investing 14865
::: 14863
▁6- 14863
▁congregation 14860
▁Dean 14854
aver 14851
▁Alt 14851
▁abstract 14850
angle 14847
:4 14843
▁circular 14842
▁probability 14841
▁retired 14841
▁earthquake 14838
▁Benjamin 14837
▁chaos 14837
▁conservative 14837
▁duly 14835
▁ion 14834
▁intermediate 14830
ander 14829
▁founding 14829
▁Shadow 14827
▁Behold 14825
▁coordinate 14823
▁nails 14823
itive 14822
ops 14819
▁depart 14819
▁urine 14818
▁corporations 14817
▁tune 14815
▁visibility 14814
▁Apparently 14813
▁criminals 14808
▁CAP 14807
horn 14806
▁unconscious 14805
iii 14800
▁sal 14798
▁browsers 14795
▁Terminal 14791
:22 14790
▁legendary 14790
▁Uzbekistan 14789
▁Specifications 14788
▁exceptions 14788
▁defines 14786
▁stocking 14785
PORT 14775
▁Lor 14772
▁Tank 14772
mea 14769
▁heavenly 14769
▁Sites 14768
▁Independent 14767
▁ham 14765
▁perceive 14764
▁acted 14759
▁skilled 14756
▁Cairo 14755
ines 14754
▁Porn 14754
five 14752
▁Deal 14748
▁configure 14748
▁surgical 14744
English 14743
coming 14742
eli 14741
▁tram 14740
clock 14734
▁warn 14733
-17 14730
▁murderer 14730
thing 14726
▁DJ 14726
ime 14721
▁honestly 14720
▁reminder 14720
▁slaves 14720
▁Increase 14719
rai 14718
fulness 14717
lai 14715
▁BR 14715
▁impressed 14713
▁stem 14711
weight 14710
▁Fear 14710
▁Duke 14704
ō 14702
▁chairman 14699
▁counting 14699
▁accredited 14697
▁Loss 14696
static 14693
▁dryer 14693
▁Managing 14692
▁broader 14687
▁mon 14687
▁ranked 14685
▁delight 14684
▁dairy 14681
cover 14677
▁Horn 14676
▁2-3 14671
▁Bottle 14669
▁talents 14665
CFSP 14658
▁Hack 14658
▁YOUR 14656
▁lecture 14654
▁Beau 14649
▁Testament 14649
▁rod 14649
▁condemn 14647
▁Preferred 14645
▁kills 14645
nish 14641
▁pour 14641
ito 14640
:45 14639
▁Mala 14639
▁fireplace 14637
▁prevail 14636
circ 14634
▁urge 14631
▁Device 14630
▁whatsoever 14630
ł 14629
▁spouse 14629
▁maximize 14628
▁XL 14625
▁Jason 14623
AB 14622
▁hose 14620
▁scanner 14614
▁Fed 14612
▁Markets 14612
▁accessibility 14612
▁Phoenix 14606
stick 14603
lish 14602
▁Chocolate 14600
▁Paragraph 14598
▁cholesterol 14598
▁fantasy 14598
rupt 14593
▁broker 14592
▁distinguished 14592
▁Accordingly 14589
▁Reader 14587
▁LLC 14585
▁decorative 14585
ONE 14584
spect 14584
▁Pretty 14581
▁quotas 14581
wel 14580
▁1956 14579
▁105 14577
▁mounting 14577
▁rejoice 14575
▁Gulf 14574
▁Tommy 14574
▁definitive 14573
▁Jerry 14571
▁Columbia 14569
▁nowadays 14568
▁Libya 14567
▁midnight 14566
▁Carter 14565
▁proposes 14564
ete 14557
dies 14556
sai 14556
wen 14554
▁Won 14554
▁Components 14551
▁Howard 14550
▁Module 14546
rica 14543
▁Reservation 14543
▁archive 14543
:59 14542
▁Photography 14542
▁minimize 14540
▁1% 14539
▁solvent 14539
glo 14536
▁adopting 14534
▁Fal 14533
-14 14529
▁Seattle 14529
▁amino 14527
▁galaxy 14525
▁masters 14525
▁guardian 14521
zel 14520
▁conquer 14519
ality 14515
▁vow 14515
▁Guess 14514
▁$5 14512
▁companion 14512
▁oppose 14511
▁Sant 14510
▁caution 14510
▁curriculum 14506
▁Bow 14505
▁cattle 14505
Ch 14504
▁Viktor 14504
▁drawings 14499
sea 14497
RIS 14494
▁bills 14494
main 14491
▁washed 14491
▁10:00 14489
▁Rap 14485
▁Fixed 14480
▁circles 14480
▁TH 14479
App 14478
▁suspicious 14478
ject 14473
pho 14473
▁Poor 14473
▁additives 14473
▁demons 14471
unda 14470
▁hoped 14468
▁bitter 14466
▁Maintenance 14465
cco 14464
asi 14461
▁Hours 14460
▁Bud 14455
▁Polo 14455
▁genes 14455
▁(20 14454
▁123 14448
▁interpret 14448
▁Jeff 14445
▁Target 14445
▁Letter 14443
▁curve 14440
ló 14438
▁(11 14438
▁newspapers 14437
/9 14436
▁payable 14436
▁DG 14435
▁Ap 14432
▁joints 14426
▁proclaim 14424
▁connectivity 14423
▁Gábor 14422
▁wilderness 14422
UP 14420
▁axle 14420
lian 14419
▁tribes 14419
▁widow 14417
▁profiling 14415
▁violations 14415
▁Beth 14411
▁irregular 14411
▁Alpha 14409
▁eliminated 14408
▁Bathrooms 14407
▁Designed 14401
▁Wikimedia 14401
cla 14398
aph 14396
▁Temp 14396
▁pose 14396
1.4 14395
ios 14395
▁Priceline 14393
dumping 14392
▁encryption 14387
good 14385
igh 14383
▁Accounting 14381
▁identifiable 14380
▁presentations 14378
wick 14377
▁clue 14376
▁potatoes 14373
▁foolish 14372
▁desperate 14371
▁quantitative 14370
▁blonde 14366
▁corridor 14366
quis 14365
▁Owner 14365
camp 14364
▁Marriage 14364
thetic 14362
▁tricks 14362
pier 14361
▁reads 14358
color 14357
uru 14356
▁pill 14352
▁proportionate 14348
▁knee 14347
▁rival 14347
Bi 14346
▁saints 14346
▁1982 14345
▁Lamb 14344
▁loses 14341
▁surgeon 14341
▁Preparation 14340
ICE 14339
▁architect 14337
▁courtyard 14337
/12 14335
▁Goods 14335
shaped 14331
EP 14330
▁Slot 14322
7.5 14321
0.2 14320
▁ka 14318
▁Gan 14315
gna 14313
▁Len 14313
they 14312
rina 14310
▁Recent 14305
▁CR 14304
▁Cooper 14304
▁Technologies 14304
▁apparatus 14302
▁preservation 14299
tax 14297
John 14294
▁Erasmus 14294
▁aunt 14288
EUR 14284
▁Auditors 14282
▁Santo 14280
▁nitrogen 14278
▁tick 14278
▁Prayer 14275
▁attachment 14275
action 14272
2.1 14270
▁115 14270
▁Disc 14270
▁Lux 14270
rm 14266
▁Movies 14264
▁Aparthotel 14262
▁successor 14260
▁1.7 14259
Pre 14258
▁biodiversity 14257
▁adhere 14256
| 14251
▁reasonably 14250
▁transported 14248
after 14247
▁PE 14247
▁Players 14246
▁Beyond 14244
▁CV 14244
▁flame 14244
▁restart 14243
▁tailored 14243
▁Grande 14241
▁Tweet 14241
▁Appendix 14240
▁praying 14240
▁Uganda 14239
▁envelope 14235
uter 14234
▁advertisements 14233
know 14227
UK 14226
▁Spiritual 14223
itter 14222
ller 14222
These 14220
▁Bak 14217
▁Deutsch 14215
iro 14213
▁corrected 14209
▁disappointment 14209
▁daddy 14208
▁Rather 14206
▁Fill 14203
▁undue 14203
▁Gh 14202
▁lyrics 14199
▁investigating 14198
▁Task 14197
▁eternity 14194
▁intentions 14194
► 14194
por 14192
▁fatigue 14191
▁gloves 14191
▁proves 14185
big 14182
▁pipes 14181
approval 14180
▁qualify 14178
▁Clinton 14177
▁humor 14176
▁Bass 14175
▁analytics 14175
▁CBD 14174
▁likewise 14174
▁Beer 14171
▁yoga 14170
▁retained 14166
also 14165
▁Studios 14164
▁poetry 14162
national 14159
▁ranging 14157
▁GT 14156
▁Nik 14154
▁beta 14154
▁Rom 14153
▁2030 14149
▁Republican 14144
▁continental 14142
▁Convert 14140
▁shades 14140
Ka 14138
▁AB 14138
▁Traffic 14138
▁affair 14137
nut 14136
▁pending 14136
▁Dor 14134
(1), 14132
ERS 14127
AST 14126
▁deadly 14124
▁1/2 14122
▁Person 14120
▁corners 14120
▁establishes 14119
cient 14115
▁den 14115
▁Statistics 14114
▁arrow 14114
position 14113
▁Pipe 14110
▁boots 14110
▁conversations 14110
ssa 14109
▁countryside 14106
▁Patrick 14105
▁disagree 14104
pr 14103
▁Electro 14102
▁grams 14102
▁immunity 14098
0.000 14094
▁Survey 14094
▁gu 14094
:24 14091
eno 14090
▁FE 14090
▁Mario 14090
...” 14089
▁documented 14085
En 14084
▁Heavy 14084
▁Cinema 14083
▁Contents 14083
GI 14082
yr 14081
▁Pha 14075
▁explicitly 14073
▁hurts 14073
▁postal 14073
▁variations 14073
↓ 14072
▁Own 14072
▁Bella 14071
▁Liszt 14071
▁overnight 14069
▁HA 14067
▁Susan 14065
▁anchor 14064
▁Senate 14060
pac 14059
ril 14057
▁Sao 14057
sson 14050
▁lightweight 14049
▁3*, 14048
▁Prevention 14048
▁Winner 14048
▁Aviation 14047
ovi 14045
▁Plate 14045
▁communist 14044
▁rank 14044
▁shortage 14042
▁Potter 14041
▁mentor 14041
design 14039
▁targeting 14037
jet 14034
▁Parents 14033
▁Arc 14028
▁Dave 14027
▁Guaranteed 14027
▁fiction 14024
▁Commerce 14023
mut 14022
▁Av 14022
▁detention 14022
SS 14016
▁sunlight 14016
▁cognitive 14015
green 14012
▁Essential 14010
▁witch 14010
▁literary 14009
▁Dong 14003
▁broadcasting 13999
▁Corn 13993
▁Dans 13991
▁Politics 13990
▁cartridge 13988
▁Lyon 13987
lem 13985
▁unacceptable 13985
▁LAN 13977
then 13976
tral 13976
aca 13975
lik 13975
King 13974
▁relieve 13974
▁Glasgow 13973
block 13972
0000 13967
rium 13967
▁comforts 13965
▁questionnaire 13965
▁Shell 13962
11) 13961
▁Kay 13960
station 13959
▁Along 13959
▁Lev 13959
▁consequently 13958
▁desirable 13958
▁deletion 13957
▁elimination 13957
▁probe 13957
▁defining 13956
▁implies 13954
▁Kis 13952
▁planted 13952
▁exploring 13951
bou 13950
▁assisted 13949
▁whereby 13948
fort 13946
▁Certain 13946
▁coupon 13946
winning 13945
▁Attractions 13945
▁Jonathan 13945
▁jack 13943
▁Sugar 13938
▁philosopher 13938
2- 13937
eptic 13932
▁Cotton 13932
▁Difference 13932
DER 13931
▁Gab 13930
▁Telekom 13929
▁struggling 13929
BI 13923
ison 13920
MAN 13916
rot 13913
▁Gray 13907
▁PU 13907
3.3 13905
kk 13905
▁Congratulations 13903
▁Et 13903
▁earliest 13903
▁Electrical 13899
▁Hart 13896
▁connector 13892
▁Rwanda 13890
▁Font 13888
kra 13887
ucci 13886
road 13885
▁Devil 13885
▁Sus 13885
rist 13884
▁indispensable 13883
▁Designer 13882
▁Cruz 13880
NT 13878
▁perceived 13876
dri 13874
▁couch 13874
▁4: 13873
▁Cul 13873
▁Leg 13873
▁lighter 13873
▁WHO 13872
▁Nuclear 13869
▁mile 13869
▁loads 13867
▁blank 13865
▁consensus 13865
▁inventory 13864
▁fitting 13862
▁magnet 13862
▁ordering 13861
▁weaknesses 13861
BE 13859
▁retreat 13857
▁Thi 13855
▁realised 13853
▁titled 13853
▁240 13852
▁altogether 13852
TY 13848
tress 13848
▁Atlanta 13847
▁triumph 13846
▁glance 13839
▁extending 13836
voc 13835
▁knees 13835
▁Tat 13834
zone 13833
ION 13831
eff 13830
▁Functioning 13829
▁encourages 13829
▁mall 13825
▁lover 13824
▁zoom 13823
asa 13822
▁Yan 13822
▁pharmacist 13822
▁ruined 13822
host 13820
▁incentives 13811
▁farms 13808
▁interim 13805
▁marker 13805
▁Mono 13804
▁Schools 13800
▁Protect 13799
FS 13797
▁reinforce 13796
▁scary 13794
▁Kö 13792
▁Mb 13792
▁insane 13792
▁graduated 13790
2.4 13788
▁masses 13788
outs 13787
rog 13786
▁sustained 13785
porn 13784
▁5.2 13782
▁Paint 13779
▁antibiotics 13779
▁cage 13778
gram 13776
▁emerged 13774
▁leverage 13773
ELL 13771
udi 13771
atch 13770
▁activation 13769
▁und 13767
BU 13763
▁Laboratory 13763
▁Rapid 13763
▁basin 13762
cycle 13761
lus 13759
▁Whoever 13758
▁Pis 13754
▁Socialist 13754
▁Balance 13753
▁Scripture 13753
▁fraction 13753
− 13752
▁trader 13750
▁strangers 13749
▁kilometres 13748
▁Chad 13746
iac 13745
lá 13744
ire 13741
▁trademark 13741
▁youngest 13741
bag 13740
▁Fourth 13738
▁Vintage 13737
▁FAQ 13735
bling 13733
haz 13733
tok 13733
ECT 13732
▁dumping 13732
sheet 13731
▁Polar 13731
ility 13729
▁govern 13729
▁extraction 13727
hou 13726
▁Jamaica 13720
emi 13718
▁Against 13718
▁Jam 13717
▁aiming 13714
▁Advertising 13713
▁worn 13713
dong 13711
▁Applied 13709
▁competing 13709
▁Lisa 13707
▁publisher 13703
▁Bot 13702
vision 13699
▁Folk 13698
▁borne 13696
▁inquiry 13696
▁cosmetic 13694
evi 13693
▁wax 13692
cite 13689
▁insult 13689
▁Cala 13688
▁Defence 13688
issa 13683
tube 13680
▁Baltic 13680
vio 13678
bl 13676
lou 13676
held 13675
▁Stream 13674
▁pixels 13674
▁Teens 13672
▁adequately 13671
▁participant 13670
▁Boulevard 13669
▁Definition 13668
▁SEO 13664
▁Posts 13662
(6) 13654
▁interviews 13653
pie 13652
▁investigated 13650
▁seasons 13649
ã 13646
▁Crazy 13641
▁Der 13641
▁Leon 13641
Vi 13640
iga 13637
▁Origin 13637
tó 13636
▁deficiency 13634
▁Hydro 13633
Cam 13631
eration 13631
Fe 13630
quet 13630
▁Telephone 13630
▁sex 13627
▁slight 13626
▁Hyper 13623
▁decor 13623
▁reconstruction 13623
”). 13621
▁aroma 13621
▁systemic 13618
▁Writing 13615
AND 13612
▁cancelled 13612
▁coordinates 13611
▁spoil 13611
mato 13610
▁combining 13610
ered 13608
BR 13605
▁exceeded 13602
▁chill 13598
▁brightness 13595
▁Areas 13593
▁Haiti 13593
▁neighbouring 13593
nn 13592
▁Hunter 13591
▁stroll 13591
▁hospitality 13590
▁jewelry 13589
▁Ecuador 13588
▁countless 13585
▁Espa 13582
Ac 13580
hur 13580
▁Coat 13578
▁BEST 13577
▁dissemination 13576
lux 13572
▁flip 13571
▁Mama 13568
rap 13567
▁Kiev 13561
▁distinctive 13560
▁monitors 13560
▁brains 13559
nos 13555
▁Former 13552
▁Gau 13552
▁scandal 13552
lli 13548
▁Birthday 13543
▁axis 13540
▁consecutive 13539
une 13538
▁Manufacturing 13538
▁respiratory 13537
▁Mine 13536
FE 13535
▁silly 13534
▁judgments 13533
gress 13531
▁1010 13530
▁BOOK 13529
▁Feb 13529
▁exercised 13527
▁membrane 13527
▁dayMorning 13526
▁2,000 13525
▁beg 13524
▁lectures 13523
▁trapped 13522
ckle 13518
terra 13518
▁compromised 13518
▁Topic 13517
▁glorious 13517
.’; 13516
▁tire 13515
EAR 13511
posed 13509
▁Egg 13506
▁colorful 13506
▁hormones 13506
▁Qua 13505
▁Sierra 13504
▁shoulders 13500
Hz 13491
▁Joshua 13489
▁Jake 13487
▁farmer 13487
160 13484
ook 13483
▁liquidity 13482
depth 13481
▁entrusted 13478
▁4) 13475
▁miracles 13475
used 13474
ternal 13472
▁Buyer 13471
▁exploration 13470
▁GA 13466
▁1968 13462
▁tractor 13459
▁outbreak 13458
▁excitement 13457
▁Intermediate 13456
▁casinos 13454
▁Clock 13453
▁Status 13452
▁Zoltán 13452
Comp 13446
▁Eden 13446
± 13444
▁molecules 13442
≥ 13439
▁ambassador 13439
▁Hawk 13437
▁horizon 13437
▁libraries 13436
140 13434
▁Written 13434
uta 13432
▁wipe 13428
▁Brush 13425
▁sorts 13425
▁Alto 13424
▁sen 13424
▁controllers 13420
▁Banks 13418
▁Punta 13418
▁Graduate 13417
▁absorbed 13416
▁romance 13416
▁Wave 13412
▁footprint 13411
▁stadium 13410
▁scream 13403
lb 13398
▁Honda 13397
LED 13395
▁lodge 13395
▁lifting 13394
▁odds 13393
▁Wonder 13392
him 13391
▁Puzzle 13391
▁Spec 13391
nov 13387
▁HDMI 13386
▁mixing 13386
▁surround 13385
▁Format 13384
▁Beck 13382
▁Isaac 13380
crib 13376
▁Route 13376
▁quest 13374
idi 13372
cine 13371
itted 13370
▁facilitating 13369
▁Conduct 13366
usa 13364
▁Bird 13364
:28 13361
▁endure 13361
▁edges 13360
lla 13358
▁colleague 13358
▁unpleasant 13358
▁EL 13355
101 13354
wall 13354
▁reinforced 13354
▁indent 13353
▁casting 13352
▁Brazilian 13351
ease 13347
▁sneak 13347
▁bal 13344
▁Campsite 13342
▁Cent 13342
▁Olie 13341
▁Criminal 13340
value 13339
▁Cord 13339
▁Glen 13338
▁abnormal 13334
▁Trinity 13332
ante 13330
▁workforce 13330
▁Rai 13328
▁economically 13328
▁Hamilton 13327
▁Margaret 13323
▁clicks 13323
▁cho 13319
OO 13316
ffe 13308
▁defects 13308
sided 13307
rri 13306
▁molecular 13305
cel 13304
zio 13300
▁Hub 13300
▁audits 13300
▁finest 13300
tten 13298
▁Sing 13297
▁nu 13295
kop 13294
▁prospects 13294
dding 13293
▁Babe 13292
▁impulse 13291
(2), 13289
▁connects 13288
▁demographic 13285
▁Armenia 13284
▁disability 13284
▁Links 13283
▁Haven 13278
▁Push 13278
▁canvas 13278
▁Presentation 13277
watch 13271
▁Standards 13271
illus 13270
▁appropriations 13269
plex 13266
▁glue 13266
▁Pap 13264
▁Kyoto 13263
▁Frame 13262
▁Majesty 13259
▁Yesterday 13258
▁consolidated 13258
▁AP 13257
hara 13256
▁Gear 13252
▁dietary 13252
VO 13251
▁Creation 13251
FT 13250
▁reminds 13250
▁1981 13239
▁criterion 13239
WD 13238
dol 13238
ential 13238
▁Europa 13236
borg 13235
uer 13235
amine 13229
▁Driving 13224
▁prints 13223
▁uncomfortable 13220
▁borrow 13219
▁2002, 13217
▁coherent 13216
▁rotation 13216
ák 13214
▁Assistant 13214
▁procedural 13214
▁arises 13209
ying 13208
▁Robin 13208
game 13206
▁downloads 13205
ubi 13203
KJV 13200
▁vocational 13200
oko 13198
▁tiles 13198
▁Halloween 13197
▁prizes 13197
▁biology 13195
▁heater 13194
▁cigarettes 13193
▁Pak 13192
▁assembled 13191
▁Nutrition 13188
▁leaf 13188
▁Alcohol 13185
▁3.3 13183
channel 13181
▁gum 13181
▁102 13178
▁Disk 13178
▁Pun 13178
▁replacing 13177
▁conveniently 13172
uel 13171
▁György 13170
▁debtor 13170
▁reg 13170
▁Groups 13169
▁iCloud 13169
▁advisory 13168
Time 13165
▁posting 13164
ffi 13161
▁Antalya 13159
▁Emily 13159
▁basement 13156
▁Registry 13154
eria 13151
▁motorway 13151
▁Cyber 13147
▁rats 13146
▁flavour 13144
▁Romans 13143
▁researcher 13143
▁Victor 13142
Gen 13140
▁banner 13137
got 13135
ously 13135
▁anabolic 13135
tana 13134
▁pulling 13133
▁believing 13132
▁Apr 13131
▁Repeat 13131
cultural 13130
▁erase 13130
▁Reform 13128
▁static 13128
lex 13126
▁overseas 13123
▁subtle 13122
▁edited 13120
spire 13119
▁Concept 13119
▁Agenda 13117
▁Hampton 13116
▁VIII 13116
▁maturity 13116
zon 13115
HY 13114
▁Cluj 13114
ars 13113
stage 13112
▁footage 13111
▁perfume 13111
▁Doc 13110
▁Creating 13107
▁isolation 13103
▁pockets 13098
▁derivatives 13096
▁memorial 13094
▁timetable 13094
▁neo 13093
▁simplified 13092
base 13091
store 13090
▁antioxidant 13088
▁gently 13087
▁medal 13087
▁Morne 13086
▁incidents 13086
▁comparisons 13085
mount 13083
▁dumped 13083
▁envisaged 13082
▁prosecutor 13082
ulin 13079
▁Bis 13079
▁blocking 13078
▁hinder 13078
▁kindness 13078
▁sur 13078
▁cultivation 13077
▁contested 13076
▁hung 13076
▁ED 13075
▁Epi 13075
▁Rico 13075
▁beef 13075
▁prolonged 13075
▁von 13075
▁evolutionary 13074
▁Row 13072
▁switching 13072
▁harmonisation 13070
kill 13065
▁Unique 13062
▁snack 13062
▁Constitutional 13061
▁Holder 13061
▁vis 13060
▁Pas 13054
mur 13053
▁Semi 13053
▁Ala 13050
▁episodes 13049
otic 13048
▁1976 13045
▁100,000 13043
▁Published 13043
▁prisoner 13042
▁2003. 13040
ANCE 13039
stead 13037
▁Various 13036
pub 13031
zzo 13031
▁ruler 13028
tica 13025
▁dramatically 13022
member 13020
▁Ant 13020
▁RAM 13019
▁appearing 13019
▁enrich 13018
▁utmost 13018
evo 13015
▁Jedi 13014
▁1983 13012
▁shipment 13012
▁nut 13011
▁striking 13011
▁handy 13010
** 13009
loc 13005
▁lung 13005
:26 13004
▁presidential 13004
▁computing 13002
▁ranges 13002
▁planes 13001
▁subsidiaries 13001
num 12999
▁Standing 12998
▁alternate 12998
▁drying 12997
rna 12995
▁1975 12994
▁basketball 12994
▁Cause 12991
▁delighted 12990
▁locally 12990
▁Neo 12989
▁plugin 12987
▁builds 12986
▁vector 12985
▁shelf 12984
▁autonomy 12982
▁organisational 12981
▁unprecedented 12980
▁voters 12980
▁FC 12979
▁shark 12979
▁Kennedy 12975
meth 12973
▁Documents 12973
▁Miller 12971
0.3 12969
fest 12967
▁bang 12965
▁downloading 12965
▁baking 12962
lé 12961
▁candle 12961
▁supplementary 12961
note 12960
ı 12960
▁Items 12960
▁automobile 12958
PI 12957
RON 12957
▁justification 12957
▁offensive 12956
▁Hai 12954
▁engaging 12953
▁informal 12953
▁Facility 12951
▁gar 12947
▁Sofa 12946
dec 12945
▁locate 12941
wed 12940
cas 12937
ház 12936
▁rewards 12936
▁1972 12934
▁tract 12934
▁refined 12932
GHT 12931
▁sandy 12931
trac 12928
▁Speaking 12928
-13 12927
▁Colorado 12927
nam 12926
▁undergo 12926
▁Warranty 12925
▁Lite 12924
▁cups 12924
▁columns 12923
data 12921
▁marble 12921
▁outline 12921
last 12920
▁Banking 12919
▁aging 12919
▁convention 12919
▁Fil 12918
▁safeguards 12917
▁Researchers 12913
▁Salzburg 12913
▁Directors 12912
▁attending 12912
▁Generation 12911
rang 12910
riv 12908
▁NC 12908
▁burst 12907
strate 12906
▁optimize 12906
▁freeze 12905
onne 12904
▁festivals 12904
▁throwing 12904
▁Directorate 12903
vik 12902
▁socio 12900
BER 12895
lumin 12894
▁appoint 12893
umi 12891
▁Destination 12890
▁Math 12889
ssy 12882
▁Drinks 12880
▁advances 12880
▁Scientists 12879
▁realization 12878
▁collaborate 12876
▁Ghana 12875
▁Load 12874
▁Bee 12872
▁landed 12872
raz 12871
▁regain 12871
▁978 12869
▁MET 12869
▁restrictive 12867
▁Supplement 12863
search 12862
▁Term 12862
"). 12859
▁dangers 12859
▁invites 12859
▁sponsor 12859
▁repealed 12856
odo 12855
▁Brooklyn 12854
▁comparative 12853
enza 12852
▁dentist 12852
▁supermarket 12852
▁1940 12850
▁linguistic 12850
current 12848
▁institute 12848
▁paste 12848
OK 12847
▁exterior 12847
▁Properties 12844
▁Phase 12843
▁hepatitis 12843
▁József 12842
ista 12841
▁disasters 12840
▁fulfilling 12839
ception 12838
▁Birth 12838
▁employ 12838
flo 12836
mol 12836
▁dessert 12832
job 12830
▁Ivan 12829
▁deeds 12829
▁Yoga 12826
das 12825
ý 12822
ashi 12821
▁Mechanical 12821
▁Wear 12821
▁tit 12821
▁Til 12820
than 12818
▁Favorite 12818
oro 12817
▁Advisory 12817
▁chick 12816
▁Counter 12814
ász 12813
▁Attack 12812
Porn 12811
metre 12811
optic 12811
▁laughing 12810
performance 12809
▁protocols 12809
-24 12808
hall 12808
▁colon 12808
▁maintains 12806
▁Dur 12805
▁Eva 12804
▁Adapter 12803
▁plague 12803
▁guesthouse 12802
▁Chip 12801
▁Joan 12801
▁Exclusive 12799
▁Dude 12798
▁lamb 12797
▁Organic 12796
▁cleared 12796
commerce 12794
▁encountered 12792
Am 12791
▁sensation 12790
▁meteogram 12788
amide 12787
▁conferred 12787
▁confession 12786
▁Robot 12785
▁bail 12785
gard 12783
▁(10) 12782
oba 12781
▁rehabilitation 12781
▁Pump 12780
én 12778
▁Solo 12777
▁Chen 12776
▁soccer 12776
▁implant 12775
▁oxide 12775
▁processors 12775
▁1973 12774
▁wondered 12772
▁Papa 12771
▁Kiss 12770
▁Structural 12770
▁subjected 12769
▁Plain 12768
tini 12767
▁Pag 12765
▁Barbara 12764
▁reactor 12762
5.1 12761
activ 12759
▁unchanged 12759
▁Guatemala 12757
4.3 12756
logical 12755
ket 12754
looking 12754
▁touching 12753
Trans 12752
▁Forgot 12752
▁generating 12752
school 12748
▁cosmetics 12747
▁offline 12747
apa 12746
conditioning 12743
▁fancy 12743
hotels 12742
▁healed 12741
ured 12739
▁Af 12739
▁creator 12739
▁Quarter 12735
▁prepares 12734
▁Sabbath 12729
▁1978 12728
▁fra 12728
▁Cologne 12727
▁Pam 12727
▁SharePoint 12727
▁mum 12727
▁thesis 12725
cake 12723
▁Pont 12723
μ 12722
▁Funny 12722
▁Joy 12722
aud 12719
Str 12717
▁settlements 12713
▁Caesar 12711
NY 12708
▁formally 12707
uda 12706
▁Kazakhstan 12706
▁Kre 12706
▁Rou 12706
▁overwhelming 12706
▁civilians 12704
▁fu 12703
▁Delhi 12702
▁ethics 12702
▁english 12697
▁Cambodia 12696
▁Zimbabwe 12696
380 12695
▁floating 12695
▁Audit 12691
ij 12690
▁Cali 12690
clar 12688
▁lid 12688
▁112 12687
enburg 12685
▁Met 12682
▁confirms 12682
▁lasted 12680
▁offences 12680
nick 12677
▁imagined 12676
▁Pine 12675
▁quoted 12674
▁Condition 12673
▁Glad 12673
char 12671
ground 12669
lah 12666
▁Educational 12664
▁organizing 12664
▁quantum 12663
▁instances 12661
▁junk 12661
▁saves 12660
▁altered 12659
▁bookings 12658
▁query 12658
▁laboratories 12657
bian 12656
gene 12656
/19 12652
▁bud 12651
▁cozy 12651
▁Gene 12649
▁[4] 12649
▁gig 12649
▁wool 12649
▁cellar 12647
crypt 12645
▁modest 12643
▁Ober 12640
▁bets 12639
TING 12638
▁conception 12636
6.7 12635
▁IU 12635
▁selective 12633
▁instructor 12630
▁Blessed 12629
▁104 12628
Just 12626
▁Mt 12626
▁Choice 12625
▁purple 12625
NN 12623
▁brick 12621
▁Drug 12620
▁privilege 12620
▁EF 12619
▁optimum 12618
▁delays 12615
▁embryo 12615
▁satisfactory 12611
▁sperm 12611
▁12- 12610
▁interrupt 12609
▁Monument 12607
▁notebook 12607
▁vegetarian 12607
▁theft 12606
▁Forces 12604
▁sculpture 12604
▁Pole 12602
▁backed 12602
▁username 12598
FO 12597
–19 12596
▁mud 12596
▁Carlos 12595
▁Tamás 12595
▁inappropriate 12595
▁Hun 12590
▁Krakow 12589
▁homeless 12587
pher 12585
▁eager 12585
▁Saving 12584
SF 12583
RF 12581
taking 12581
▁ageing 12580
▁Liquid 12577
interoperability 12574
▁Noah 12574
▁pipeline 12573
▁Tickets 12572
change 12567
▁merger 12567
▁dynamics 12566
▁Mira 12561
lang 12559
▁unwanted 12559
▁billions 12557
▁Vent 12556
▁Whenever 12556
▁Zoover 12556
habit 12555
▁Wing 12549
enc 12544
▁Whi 12544
▁predecessor 12544
▁Resource 12542
ffle 12541
▁Laura 12541
▁ventilation 12541
/100 12539
▁battles 12539
▁Jewelry 12537
▁extends 12537
▁openly 12537
▁] 12535
oy 12534
▁complies 12532
▁eleven 12532
▁intervals 12532
▁gaining 12530
▁Championships 12529
▁Nas 12529
▁emotion 12527
▁Mate 12526
ass 12524
▁Exercise 12524
▁Clinical 12522
▁prayed 12522
▁Certification 12519
▁Ple 12518
▁exempt 12518
▁Mik 12517
▁Palestine 12515
▁charger 12515
een 12513
▁106 12512
▁1944 12512
4.4 12508
▁repealing 12506
-25 12504
▁opponents 12504
cup 12503
▁Miskolc 12503
▁admin 12501
ounce 12498
▁beating 12498
guard 12495
▁Vincent 12493
▁divisions 12491
▁disrupt 12490
works 12488
▁Cher 12488
▁discussing 12487
▁poster 12487
▁demonstrates 12486
▁Historic 12485
▁defendant 12483
nne 12482
▁chef 12482
▪ 12481
▁Interest 12480
stadt 12479
▁switched 12479
▁Novo 12478
▁Cute 12477
▁Accept 12475
▁counted 12474
▁Masters 12473
▁fri 12473
▁ko 12473
▁crush 12472
▁Gay 12471
▁versatile 12471
▁Gaming 12469
▁Continental 12468
▁Oz 12468
▁Bologna 12466
▁launching 12465
▁terminated 12465
▁Eger 12464
▁Scottish 12464
▁Furniture 12463
:27 12462
▁trash 12461
dos 12460
tach 12460
▁authentication 12459
▁wh 12459
cea 12457
location 12457
▁1). 12457
▁Older 12457
▁costume 12457
▁Backup 12448
▁intervene 12448
RB 12446
▁purity 12445
▁rash 12445
▁1200 12443
▁Stability 12442
▁gl 12442
▁sta 12438
▁traveler 12438
▁Vila 12437
▁condemned 12436
▁5000 12432
▁109 12430
▁batch 12429
▁recreation 12429
electric 12428
claim 12427
▁CAD 12426
▁aggregate 12423
▁buyers 12423
▁performs 12423
RED 12422
plane 12421
▁nutritional 12421
Every 12419
▁offence 12418
▁Sak 12416
▁raises 12415
etto 12413
▁Canal 12413
▁recycled 12411
▁pursuing 12408
▁coastal 12407
▁legislator 12406
▁API 12405
▁Window 12399
-50 12398
▁Volunteer 12395
By 12391
▁artwork 12389
▁Austin 12386
▁Serving 12386
▁Operations 12384
▁respondents 12383
▁Saw 12382
▁Alzheimer 12381
▁deploy 12380
▁vol 12379
▁silk 12378
▁Bert 12373
▁ritual 12371
▁navigate 12367
Su 12366
▁Normal 12365
▁gratitude 12365
Se 12364
prop 12364
▁Circle 12363
▁Engineer 12362
ib 12361
▁wonders 12360
▁cruise 12359
▁1969 12358
▁socket 12358
▁traveled 12358
▁Logo 12354
▁headache 12354
keeping 12352
▁CL 12351
shed 12350
▁(13 12350
▁1.9 12349
▁Democrats 12346
▁corresponds 12346
▁bust 12344
▁stating 12343
author 12342
▁cooperative 12341
mouth 12340
▁Hmm 12339
▁RES 12339
▁NGOs 12337
▁bench 12336
[2] 12333
▁finances 12333
▁Motion 12332
▁contacted 12332
▁scroll 12332
▁Newsletter 12331
▁rigid 12328
▁weigh 12328
▁Anton 12327
▁Basilica 12327
OU 12326
▁Quartz 12323
▁hood 12323
REA 12317
dict 12314
▁suspicion 12314
jer 12312
tex 12312
/15 12311
▁competences 12310
▁Corner 12308
emon 12307
pop 12307
▁swelling 12307
▁lending 12306
liness 12305
ncy 12305
▁wrist 12304
▁allergy 12303
bie 12302
▁cheer 12301
▁cosmic 12301
▁skull 12301
0.0 12299
bic 12298
▁judgement 12298
lant 12297
dder 12296
stad 12296
GR 12295
▁Pain 12295
▁Philadelphia 12292
▁sch 12292
▁icons 12289
umber 12287
therapy 12285
▁2001, 12284
▁bonuses 12284
HER 12282
▁oath 12281
▁transplant 12281
yp 12280
▁Skyscanner 12278
▁Guangzhou 12277
▁Graphic 12276
ács 12274
▁Phu 12273
▁Cel 12268
▁Chuck 12268
cub 12267
▁trolley 12266
▁Messages 12263
wire 12262
▁Complex 12261
▁Psychology 12260
compliance 12259
▁Khan 12257
▁Marc 12256
▁survivors 12256
▁Julia 12255
aq 12254
▁Label 12254
▁Sala 12252
▁capsule 12251
▁Powder 12247
▁monuments 12247
▁waterproof 12245
Laughter 12244
▁flee 12244
ife 12239
phen 12237
▁Gary 12237
▁beans 12237
▁refusal 12237
▁Nation 12234
▁Euratom 12233
gui 12231
Good 12230
tai 12228
first 12226
▁heir 12225
▁lungs 12225
▁tens 12225
▁Hil 12220
uv 12219
▁Jazz 12218
▁Seg 12218
▁Ultimate 12218
gua 12216
▁memorable 12214
0.4 12213
conf 12213
▁construct 12213
your 12211
Some 12210
▁camping 12210
▁dense 12206
▁handles 12206
▁Mod 12205
NU 12204
▁Trip 12204
▁shaft 12204
/2 12201
▁Expo 12201
▁responding 12200
▁Directory 12198
▁wolf 12196
▁tenders 12194
▁Pala 12192
▁router 12188
zin 12187
▁103 12187
▁Boss 12187
kha 12185
▁Ann 12185
▁Leader 12181
50,000 12180
scribe 12179
▁Huawei 12178
▁evolve 12178
▁durability 12176
▁math 12175
▁swallow 12175
▁Sav 12173
hab 12170
when 12169
volv 12167
▁Effects 12166
▁ambition 12161
▁Levi 12160
▁Amazing 12156
▁cru 12155
▁Fle 12154
▁utter 12154
▁Independence 12153
▁Ep 12151
▁failures 12149
▁infant 12148
▁spill 12147
▁tags 12147
▁Guardian 12146
▁1977 12143
▁Secretariat 12143
▁Transportation 12142
▁baseline 12140
occupancy 12137
▁Rue 12136
▁strikes 12136
oper 12135
▁Led 12134
▁evolving 12134
▁GR 12132
▁abundant 12132
▁inject 12132
▁exert 12131
▁loser 12128
:50 12125
▁clearing 12125
▁destroying 12125
▁regimen 12125
otto 12124
sun 12122
was 12121
▁demanded 12120
▁tra 12120
▁shepherd 12118
emia 12116
order 12116
user 12115
▁Urantia 12115
drop 12114
▁ATM 12114
▁Ways 12112
▁rejection 12112
▁celebrating 12111
▁Liberty 12110
2.8 12108
▁fires 12108
▁tendency 12108
sville 12107
▁Bangladesh 12106
▁Currency 12106
paper 12105
plant 12103
▁lip 12103
▁ignored 12099
▁wealthy 12099
▁Draw 12098
▁Gang 12098
▁Instrument 12095
▁Width 12093
▁sickness 12093
▁Shape 12092
▁Bomb 12090
cles 12088
▁Din 12087
▁optic 12086
▁pap 12085
▁scenarios 12084
▁twist 12079
▁hobby 12077
▁Bab 12076
▁CAR 12076
▁irrespective 12076
▁promptly 12074
▁tro 12074
▁Crime 12073
Ő 12072
▁FI 12071
▁Nearly 12071
Wi 12069
▁1974 12069
▁Vac 12068
▁negotiate 12067
31) 12064
zz 12063
cams 12057
▁Rh 12056
▁Yemen 12054
▁Esc 12053
▁personalized 12053
▁supervisor 12051
▁Instant 12050
▁Shenzhen 12047
▁Duna 12042
▁Thor 12042
▁municipal 12042
▁fats 12041
Na 12040
▁predicted 12039
▁preference 12039
▁Swa 12038
▁testify 12038
graph 12036
▁transcend 12036
▁INFORMATION 12035
▁tropical 12035
▁Booked 12034
▁Cameroon 12032
▁Waterproof 12031
▁FunnyGames 12030
▁comic 12029
▁duck 12029
▁Bug 12028
iling 12027
▁verse 12023
▁wished 12021
▁ram 12020
▁treasures 12019
close 12018
▁selfish 12018
▁socialist 12018
▁interval 12017
▁THIS 12012
▁8- 12009
▁230 12006
trip 12004
▁Fred 12004
▁Sho 12001
ough 12000
▁capitalism 11999
▁wi 11995
▁musician 11993
▁arose 11991
▁combustion 11989
▁cathedral 11988
mini 11985
emo 11984
▁ecosystem 11983
▁gland 11980
▁Ari 11979
dry 11978
▁declares 11978
▁threaten 11977
▁Stein 11976
▁Ot 11975
iers 11974
▁republic 11974
▁Role 11972
col 11971
▁Jos 11968
▁Santiago 11968
MG 11967
jun 11964
▁analogue 11964
▁Interview 11962
▁ranks 11962
▁Primary 11961
▁Valve 11961
▁LEGO 11959
▁wrap 11959
▁Eurosystem 11958
▁detector 11958
▁boom 11957
▁cardiovascular 11956
▁Einstein 11955
▁Brit 11954
▁Vegan 11953
▁Degrees 11950
▁Bac 11949
▁pile 11949
throp 11947
▁Craft 11946
nom 11944
▁readily 11943
▁garlic 11942
▁converter 11940
▁Oslo 11937
▁Sla 11937
▁cafe 11937
▁expressions 11937
HF 11936
bang 11932
rou 11931
▁Courtyard 11931
▁Refrigerator 11931
▁Wor 11929
▁1971 11927
▁coincidence 11927
going 11924
▁Renaissance 11921
▁Twenty 11921
▁accompany 11921
▁expects 11921
▁preventive 11919
▁tile 11919
-40 11918
:29 11916
8.1 11915
nge 11913
▁Quite 11910
track 11909
▁Sunglasses 11908
dul 11904
▁debts 11904
▁Bene 11902
▁establishments 11902
▁blessings 11898
▁Oliver 11897
▁Orleans 11895
▁Slim 11895
enti 11893
▁hug 11893
▁PayPal 11890
View 11889
▁comprise 11886
▁endeavour 11884
▁Said 11883
▁Vale 11883
inf 11879
culture 11878
toxic 11878
Link 11877
▁Diploma 11875
▁Porsche 11875
vine 11874
▁Finding 11873
▁economical 11873
▁Physics 11872
▁Enough 11871
▁Distributor 11870
ANT 11868
▁quarters 11868
▁infants 11867
▁resemble 11867
▁Fully 11865
Auhelawa 11862
EO 11862
▁obesity 11862
▁punished 11860
▁Button 11858
▁colored 11858
.1. 11856
▁vain 11856
writer 11855
▁IF 11855
tier 11851
▁Senator 11851
May 11850
▁Projects 11849
Night 11845
▁addiction 11845
▁allowance 11845
▁adhesive 11842
▁METEOPROG 11840
▁Retail 11839
▁Drag 11838
▁Rein 11835
▁maid 11835
▁accreditation 11834
zzle 11832
▁Attila 11830
▁directives 11829
▁2021 11828
▁registering 11828
▁Legend 11827
graphic 11826
Cor 11825
bud 11823
▁Gem 11823
▁Provision 11822
▁Rim 11821
▁TXXX 11821
▁Pant 11819
▁Gyula 11818
mill 11817
▁Wal 11816
rba 11815
▁committees 11815
layer 11814
▁listing 11811
▁pH 11809
▁Few 11807
▁Hydraulic 11807
section 11803
▁OP 11802
▁mortgage 11801
▁simplicity 11799
▁introduces 11797
▁umbrella 11795
TR 11794
Hi 11793
Ga 11790
tent 11788
▁cooked 11787
▁Leisure 11786
▁Ted 11785
version 11784
▁elders 11782
break 11781
▁belonged 11780
▁complementary 11775
▁Eternal 11772
serving 11771
mix 11769
▁confer 11768
▁:) 11766
▁Cannes 11766
▁Ear 11766
▁Buddhism 11765
▁vintage 11763
▁Lucas 11762
▁declarations 11762
▁beautifully 11761
▁gorgeous 11761
▁mainstream 11761
▁#2 11759
Life 11757
▁Admiral 11753
▁combating 11753
▁exhausted 11752
▁serum 11751
▁tre 11751
▁bump 11743
▁radar 11741
▁Gala 11738
▁pallet 11738
rava 11735
ennial 11732
Ó 11731
▁syn 11731
▁storing 11730
▁Lenovo 11727
▁Refund 11724
▁Est 11723
▁risen 11722
▁resolutions 11721
▁rap 11720
lice 11719
▁homo 11719
▁photographers 11719
cular 11717
▁Lily 11717
▁Sai 11717
▁thankful 11717
▁reductions 11715
▁specialised 11715
▁stresses 11715
▁fairy 11714
▁pr 11713
▁parcel 11712
1.6 11709
▁answering 11709
zhou 11708
▁confront 11708
▁outlined 11707
2.2 11706
9.4 11706
▁cartoon 11705
RN 11701
zá 11701
▁rises 11697
▁slaughter 11697
▁cannabis 11696
quo 11695
▁consignment 11692
▁ste 11691
▁Seal 11689
▁Collect 11688
▁Ages 11687
▁mortality 11687
VPN 11685
augh 11685
stream 11684
resistant 11682
▁obstacle 11682
ambi 11681
▁deciding 11680
figur 11678
▁pyramid 11678
enter 11677
watt 11677
▁firmware 11677
1.8 11676
lement 11671
▁+36 11670
▁bucks 11670
▁cigarette 11670
▁pine 11670
▁offset 11669
▁submitting 11669
▁Toy 11668
ees 11665
▁subsidies 11665
▁Hearing 11663
▁Nathan 11663
▁armor 11663
▁gro 11661
tour 11660
▁Shu 11659
east 11658
▁Edge 11658
▁canal 11658
▁approached 11657
▁ladder 11657
Ü 11656
▁expose 11655
▁occupy 11655
▁0.4 11654
▁Cruise 11654
▁appreciation 11653
▁pub 11651
▁synthesis 11650
▁Dinner 11645
cross 11643
▁comb 11643
▁Album 11641
▁Literature 11639
▁magnesium 11639
▁Pete 11638
▁Rum 11638
▁wasted 11638
anya 11636
▁Bart 11636
▁Gaza 11636
▁personalities 11636
▁eligibility 11635
▁pale 11635
▁Brad 11634
▁incidence 11633
▁1967 11632
dr 11631
▁Rick 11630
▁Brain 11629
▁pioneer 11629
▁Ven 11623
▁breakthrough 11622
▁therapist 11622
▁equip 11620
▁influential 11619
▁Allen 11618
▁milestone 11618
▁Brothers 11616
vari 11613
▁Models 11613
▁TNT 11611
Part 11610
▁bare 11610
▁bombs 11609
vian 11606
▁Esp 11606
util 11605
▁seminar 11604
▁Squirt 11603
▁swap 11602
▁briefly 11601
▁peel 11601
▁shrink 11600
▁Nissan 11595
▁compression 11595
▁frequencies 11594
▁Honduras 11593
▁Taxi 11593
TRO 11588
▁antenna 11586
▁politician 11585
kor 11578
▁Osaka 11577
▁healthier 11574
▁Somalia 11573
emic 11570
loss 11566
▁formulation 11565
production 11563
▁retrieve 11560
▁Understanding 11555
▁tale 11555
▁manages 11553
risk 11552
▁defending 11552
▁FU 11551
▁Aires 11548
▁Renault 11547
▁thereafter 11547
▁Processor 11546
▁Opti 11544
▁Secondly 11544
▁temper 11544
have 11543
né 11542
▁Tibet 11542
▁Actions 11541
▁spatial 11539
▁Miles 11535
▁goddamn 11535
▁dough 11534
▁happier 11534
▁Catherine 11532
36) 11531
natural 11530
present 11530
▁emperor 11529
bau 11528
▁Jacuzzi 11528
▁IBM 11527
▁sits 11527
▁ABS 11525
▁Br 11525
▁Session 11525
▁Sean 11524
▁incompatible 11522
▁triangle 11522
Gu 11520
anna 11520
▁Campsites 11519
▁contamination 11518
sse 11516
social 11513
▁Delta 11511
zia 11508
aunt 11507
▁Stefan 11507
demand 11505
▁Reports 11505
▁missile 11505
▁Mir 11504
▁commandment 11504
▁parental 11504
PG 11503
utor 11502
▁(+ 11501
▁Ohio 11501
▁judged 11501
▁profitability 11501
yard 11500
▁5* 11500
▁monsters 11500
▁thief 11500
32) 11499
video 11499
▁Pig 11499
▁deco 11499
bia 11498
▁Principles 11498
▁Rise 11498
▁quietly 11498
▁Schedule 11497
borough 11496
immer 11495
▁psychologist 11493
▁Skip 11488
▁limiting 11487
▁continuation 11484
▁diagram 11484
▁holdings 11483
▁scored 11482
▁GBP 11479
RG 11476
▁inherited 11476
ROM 11472
uge 11471
▁diving 11471
▁dim 11470
▁occupational 11470
▁rulers 11468
▁Pregnancy 11466
▁multinational 11466
▁examining 11464
discriminatory 11461
▁metabolic 11461
▁Cont 11460
▁enhancement 11459
▁factories 11459
▁pound 11459
▁Escape 11458
▁annex 11457
▁foil 11457
axis 11456
hei 11456
▁Maritime 11454
▁promotions 11454
▁repairs 11453
nant 11451
physi 11450
▁Testing 11450
▁slots 11450
▁OECD 11446
▁Marshall 11445
▁subscribers 11445
▁Guestroom 11444
▁airplane 11442
▁unauthorized 11441
boat 11440
▁Maker 11440
/20 11439
▁(30 11439
▁versus 11439
▁Aunt 11432
▁Grade 11432
▁claiming 11432
nomic 11431
▁Hood 11431
▁Davis 11430
▁descriptions 11430
▁handsome 11430
ichi 11425
▁qualifying 11425
▁hates 11424
▁notable 11423
▁advertisement 11421
▁CT 11416
▁asian 11416
Bedroom 11415
▁licensing 11414
cino 11412
▁Maz 11411
▁obedience 11411
▁Kru 11409
▁accidentally 11409
▁Firstly 11408
Work 11407
through 11406
▁Bratislava 11406
▁Bruce 11406
▁Rear 11406
▁gal 11406
▁outdated 11404
▁hint 11402
▁sweetheart 11398
▁Artist 11397
▁rolled 11397
comp 11393
orn 11393
▁Zero 11392
▁viable 11392
▁zombie 11392
▁Photoshop 11391
ön 11388
té 11387
▁baths 11387
▁simplify 11383
tek 11379
▁Alba 11378
▁Activity 11377
▁workflow 11377
▁ark 11375
▁hazard 11374
▁Isle 11373
▁ft 11373
count 11371
ITE 11370
▁Bog 11370
▁IKEA 11369
▁arbitration 11367
▁recruitment 11367
food 11365
▁supportive 11365
esteem 11363
▁Rep 11363
▁Hawaii 11362
▁EV 11361
▁Serviced 11361
▁hop 11361
methyl 11360
▁Amnesty 11360
▁slavery 11360
Port 11359
▁SZ 11359
▁severity 11359
▁screenshot 11356
▁Causes 11355
▁rounds 11355
▁shave 11355
▁Rates 11354
▁acquainted 11354
▁cooperating 11354
/2000 11353
▁toast 11353
▁fucked 11352
▁segments 11352
▁Example 11351
▁sailing 11350
▁stealing 11350
▁Pierre 11347
▁Persons 11345
▁preview 11344
▁Holding 11343
▁Ombudsman 11343
▁physiological 11343
▁APP 11342
harm 11335
▁Above 11335
strasse 11334
▁investigator 11333
▁Bobby 11331
▁Cole 11330
▁viral 11329
▁resume 11327
▁SPA 11326
▁elevated 11326
▁optimization 11326
fan 11325
▁Slide 11324
DM 11323
▁2002. 11323
▁88% 11323
▁boiler 11323
▁fracture 11322
▁marketplace 11322
stand 11319
yne 11319
▁Promote 11319
▁imperial 11319
▁Yi 11315
▁Bod 11314
▁positioned 11313
▁Hide 11311
▁Russell 11311
▁bot 11310
0.6 11309
▁skirt 11309
▁Emotional 11307
▁fame 11305
▁Ace 11304
▁Undertaking 11304
virus 11303
▁Hero 11302
▁dwelling 11302
▁similarly 11302
01. 11301
▁Million 11301
▁accessing 11301
▁minimise 11301
▁Parker 11300
▁antique 11299
▁presidency 11298
▁livestock 11297
:02 11296
▁Grad 11296
kos 11295
rav 11295
▁Eagle 11292
▁Shoot 11291
▁Knight 11288
▁propaganda 11288
▁Lau 11287
▁defect 11286
▁proceeding 11286
▁privileges 11284
▁void 11282
▁specializes 11280
▁unions 11280
▁Cutting 11279
▁broadband 11279
▁cited 11279
▁unified 11279
▁declined 11278
▁sometime 11278
▁Logistics 11277
(2)( 11276
▁Integration 11275
imo 11273
▁Eddie 11273
▁Sector 11272
▁manipulation 11271
▁Fisheries 11270
▁Sons 11270
▁surprises 11269
▁Fen 11268
450 11267
▁charter 11264
ships 11263
▁sporting 11263
▁Mut 11262
▁AIDS 11261
▁Purpose 11259
Smoking 11258
rh 11258
5.8 11257
▁Municipal 11257
▁18+ 11256
át 11255
▁Aviv 11255
▁Generally 11255
▁DI 11254
▁insights 11252
▁%) 11251
wash 11249
▁Cle 11249
▁Lub 11249
▁conditional 11248
8,000 11247
▁ignorance 11247
▁Novel 11244
▁analysed 11244
▁oc 11244
mobil 11243
▁Promotion 11243
▁fulfilment 11242
▁acoustic 11241
▁122 11240
▁polymer 11240
▁prosecution 11240
▁Alfa 11237
▁fighter 11237
web 11236
▁multilateral 11233
▁val 11233
lysis 11232
▁Structure 11230
▁geographic 11225
▁superb 11224
▁refreshing 11223
▁Wan 11222
▁Dimensions 11221
▁drank 11220
▁packs 11219
▁Nowadays 11218
▁Tisza 11218
▁$10 11217
▁trademarks 11216
wal 11215
▁95% 11214
▁designate 11214
▁educated 11214
▁Buenos 11213
▁Loma 11212
▁boast 11212
▁seized 11212
▁Arctic 11211
▁casual 11211
shot 11210
rank 11209
▁shocked 11209
▁Sándor 11207
EAS 11206
▁reminded 11205
▁Laundry 11203
▁attempting 11203
▁caring 11202
▁bridges 11201
▁earthly 11201
chemical 11200
▁Disease 11200
▁calculating 11198
▁offense 11198
inder 11196
▁coated 11196
▁Strasbourg 11195
▁imply 11194
▁severely 11194
5.00 11193
pay 11193
▁bathing 11191
:40 11188
▁CYP 11186
▁snap 11186
▁Franklin 11185
▁particle 11185
▁Batman 11184
▁Apartman 11183
▁Ryokan 11183
▁Computers 11182
▁Intelligent 11182
▁0.7 11180
▁disciplines 11179
▁worm 11179
▁MY 11178
▁Affiliate 11177
▁Prison 11176
5.5 11174
rice 11174
▁Mobility 11174
▁SSL 11174
ssen 11173
▁witnessed 11173
▁appreciated 11172
▁strengths 11172
▁interventions 11171
▁suppress 11170
▁Surface 11169
▁electron 11169
▁stepped 11169
105 11166
▁Auction 11162
▁peculiar 11162
▁scattered 11162
▁Harvard 11161
▁Wake 11160
▁Titanium 11158
▁melt 11158
▁Mol 11157
▁cottage 11157
KK 11156
▁Revelation 11156
130 11155
▁Hindu 11154
▁108 11153
▁Apartament 11153
fix 11152
▁Meat 11150
▁hello 11150
▁screens 11149
Come 11148
▁AV 11148
▁Wire 11145
▁enthusiasm 11145
▁ruins 11145
telli 11144
▁forestry 11142
inger 11141
umba 11141
▁Flow 11141
▁fabrics 11141
▁salon 11141
Office 11139
▁strings 11139
▁Piazza 11138
ée 11137
▁Christopher 11136
▁fibre 11134
▁pra 11133
bid 11131
▁logs 11131
▁oak 11131
▁Aw 11130
▁Submit 11130
▁pirate 11129
▁hid 11128
▁plea 11128
▁favorable 11127
▁incoming 11127
mina 11126
▁5.5 11126
▁thematic 11126
▁Ara 11123
▁Charge 11119
verb 11118
bay 11117
▁Walking 11117
▁UTC 11115
▁1-2 11114
/16 11113
6.8 11113
lom 11113
▁Grill 11113
▁Prof 11113
▁Whit 11113
▁Pilot 11112
▁Bl 11111
▁collar 11111
▁collateral 11111
Du 11109
▁cheating 11108
▁deployed 11107
hine 11105
language 11103
yuan 11102
▁enzymes 11100
tree 11095
▁periodic 11094
▁Airways 11093
▁Kai 11093
▁supporters 11093
zol 11092
▁franchise 11092
▁variation 11092
▁inspiring 11091
▁unclean 11091
▁Arrival 11089
▁clips 11089
hat 11087
▁awaits 11085
▁sanctuary 11085
▁corporation 11083
normal 11082
▁consulted 11082
▁nominal 11082
▁Wang 11081
▁modular 11079
▁pillars 11078
▁Plug 11077
▁thermo 11076
▁Pr 11075
▁shelves 11075
esti 11074
▁suggesting 11073
3.4 11071
▁Statute 11071
▁dispatch 11071
▁additive 11070
▁mega 11069
▁Beta 11068
HI 11067
▁0.6 11067
▁Regarding 11066
roid 11064
▁limb 11064
▁unhappy 11064
▁beverages 11063
tool 11062
▁TE 11062
duction 11060
ffer 11060
▁climbing 11060
▁conductor 11060
▁fertility 11058
▁vaccines 11058
lum 11056
▁touches 11056
fib 11053
▁Borg 11053
▁troubleshooting 11053
setting 11052
▁origins 11052
▁tolerate 11051
7.8 11050
▁traditionally 11050
▁preserving 11049
▁4.8 11047
▁Vote 11043
▁Julian 11042
▁Angela 11040
▁lever 11039
▁freezing 11037
cf 11036
sensitive 11033
▁magazines 11033
33) 11032
▁newborn 11032
frame 11031
350 11030
▁auditor 11030
▁unfold 11029
▁alteration 11028
BL 11026
▁newer 11026
oi 11023
owner 11022
▁Workers 11020
▁chapters 11020
▁Zrt 11019
▁foremost 11019
▁valued 11019
metry 11015
photo 11015
▁Conf 11008
16) 11005
▁Numbers 11005
▁lifelong 11004
▁Rd 11002
▁vulnerability 11002
▁Tara 11001
▁pest 11001
▁corrosion 11000
▁quotes 11000
▁herbs 10996
HL 10995
▁Pakistani 10995
rik 10994
▁Election 10994
▁IX 10993
▁outlet 10993
▁paradise 10993
▁cult 10991
yama 10990
ACH 10989
▁multimedia 10989
▁MHz 10988
▁braking 10987
▁premiere 10986
▁rig 10985
xo 10983
▁inviting 10983
itation 10981
▁Bristol 10981
▁advancement 10981
▁drone 10981
▁keen 10980
▁Manage 10979
nee 10978
▁lawful 10978
▁Words 10977
ides 10975
▁flush 10975
▁halt 10972
▁Lama 10970
▁Zagreb 10970
▁spam 10968
▁CPU 10967
▁Terra 10967
▁abide 10967
▁validation 10966
▁Cru 10965
▁jewel 10965
▁3* 10964
▁Microwave 10964
▁motel 10964
▁Ain 10963
▁incorporate 10961
script 10958
▁0.9 10958
▁reflecting 10958
▁squad 10958
▁pearl 10956
4.5 10955
hm 10955
▁Hopefully 10955
▁Adrian 10953
▁Lots 10952
▁Reply 10951
▁grocery 10951
▁2001/ 10950
▁THAT 10950
▁ter 10950
▁Tong 10949
mers 10947
pea 10947
▁refuge 10947
iler 10946
three 10945
1.7 10944
Class 10944
▁gentleman 10944
▁likelihood 10944
▁screaming 10943
TURE 10939
▁Tub 10936
▁cough 10936
root 10935
▁Raspberry 10935
▁Tattoo 10933
▁Experts 10932
▁Mouse 10932
flower 10931
ingen 10930
▁continuity 10929
▁tv 10928
oso 10927
▁Already 10926
▁Jon 10924
▁Michigan 10918
except 10917
▁SU 10916
▁liar 10916
▁Glo 10915
▁650 10914
▁hammer 10914
▁trunk 10914
trained 10913
wang 10913
▁freezer 10913
▁Lucky 10911
7.7 10910
▁ergonomic 10910
▁switches 10910
▁Nelson 10909
▁unemployed 10909
skaya 10907
yi 10906
▁eu 10906
▁divorced 10904
▁curtains 10903
▁rigorous 10903
▁Europol 10899
▁caffeine 10898
EI 10897
▁feared 10897
▁RC 10896
▁feasible 10895
▁tailor 10895
▁Wooden 10894
▁Cad 10893
ario 10892
▁dreamed 10891
ogenic 10889
▁warnings 10888
▁Fifth 10887
▁Worldwide 10887
▁clay 10887
▁eh 10887
▁infringe 10887
▁Greater 10886
▁bend 10885
▁Migration 10883
[...]
