, 104695174
▁a 78675113
. 74517912
▁és 30319743
▁az 30234144
▁A 20300450
▁hogy 16235235
t 15947453
- 15307915
▁ 14500434
i 13069719
: 12490986
▁- 10493343
▁nem 10392916
▁egy 9581644
? 8958838
) 8449921
▁is 7878777
▁( 7077049
▁meg 7043895
▁Az 6921051
a 6849055
e 6278459
▁vagy 6058868
k 5644162
! 5635562
ra 4976389
ek 4958899
nak 4860880
s 4697747
ban 4678044
ok 4660474
▁el 4426271
re 4310570
▁kell 4224613
▁van 4126164
nek 4091879
et 3853081
▁ki 3672637
ben 3608713
en 3270583
▁– 3161743
▁mint 3111761
d 3060725
ni 3053971
on 3003217
▁volt 2909820
▁ha 2899156
ja 2887021
▁de 2800218
▁azt 2658331
z 2594089
... 2583961
▁csak 2519990
▁Ez 2492692
es 2475174
▁ez 2436664
▁fel 2423479
▁Nem 2389821
át 2383291
ot 2343954
▁be 2287236
▁olyan 2284682
▁„ 2273284
▁Ha 2250951
▁minden 2227160
; 2140090
m 2093834
ét 2033151
at 2033073
os 2028311
▁" 2020164
hoz 1998738
ba 1971478
▁már 1949288
/ 1893745
▁még 1886678
▁itt 1755964
n 1753196
sz 1658539
▁De 1634703
▁le 1608303
ak 1585460
▁ezt 1556663
▁amely 1534943
▁1 1526615
ó 1525751
ik 1525724
okat 1504911
▁mi 1488724
▁akkor 1483775
an 1467665
▁új 1466900
” 1454532
ról 1437135
▁És 1433576
▁több 1431899
be 1419137
om 1405962
▁időjárás 1392786
▁lehet 1370853
unk 1365524
A 1361712
▁számára 1350171
▁más 1342065
▁2 1325184
ból 1320711
▁idő 1317459
em 1316397
ed 1313085
▁nagy 1309419
ről 1304990
y 1288919
▁úgy 1279550
▁szerint 1270260
▁Egy 1269938
ünk 1268536
▁e 1267864
va 1263824
hez 1261647
▁által 1212175
eket 1211522
▁sem 1200989
ának 1199548
( 1198107
val 1193860
ének 1188022
▁lesz 1176575
▁én 1160207
▁való 1145296
▁S 1144759
▁3 1143318
▁valamint 1140207
▁ami 1115643
" 1114188
▁pedig 1111657
tól 1111262
▁első 1101335
▁jó 1087241
▁arra 1086988
▁így 1080302
ta 1078451
▁E 1068757
▁amit 1053728
ig 1053504
ve 1049640
▁között 1045569
▁két 1043413
ás 1026817
o 1024951
ért 998475
▁mert 995552
▁amelyek 993728
▁Mi 992595
ként 991016
▁át 987282
től 983175
j 980479
▁most 973184
ő 972935
od 972355
▁aki 966089
▁Időjárás 964439
▁amikor 962563
▁után 958876
▁nagyon 957835
er 944733
▁majd 943864
ből 933625
▁annak 918901
ott 918221
▁te 912621
▁vagyok 902819
▁akik 891153
uk 884620
▁egyik 878608
▁ember 876668
án 871137
▁Ön 870056
▁s 859052
▁saját 854591
ú 851456
én 849662
▁Meg 849096
vel 845807
▁következő 842275
▁C 840521
ére 838992
▁legjobb 837452
▁4 834579
▁ilyen 831568
). 831025
▁5 828669
▁ne 827880
▁vonatkozó 818619
▁területén 816920
▁Európai 813621
je 811652
▁teljes 808537
▁K 796429
▁vissza 793377
▁alatt 791083
▁fog 789900
▁világ 789342
▁Isten 784672
▁Helyi 779527
▁mindig 778187
.” 776025
as 775651
ában 774695
▁előrejelzés 773708
▁volna 768144
te 765227
▁10 765072
ára 764233
▁T 762933
B 762450
na 762392
▁Egyesült 761791
▁El 760628
▁B 759936
▁ő 754557
▁található 754229
▁sok 739779
ják 738026
▁egész 736877
▁kis 732443
▁7 728131
el 724662
▁Azt 720940
▁érdekében 719990
▁/ 718576
nál 717621
ával 713582
▁Világ 712638
b 708706
juk 707645
▁nincs 706309
▁megfelelő 704831
▁Hotel 703030
▁Bizottság 701858
in 699489
▁miatt 698169
ük 694711
▁vannak 694576
▁áll 692153
S 691040
ű 687817
▁Csak 682490
▁össze 682384
▁őket 682012
▁illetve 668597
l 665745
▁nap 664505
ul 659495
▁Minden 657125
és 656543
▁Ki 655235
ség 654303
▁M 653046
C 651758
▁km 650437
ett 649943
sal 649250
▁Ne 648905
▁ahol 648462
▁nélkül 647986
▁alapján 647899
it 646081
▁során 644726
c 642645
▁akár 638847
▁összes 636989
▁mit 635745
▁I 630811
▁Heti 630550
▁F 630545
▁rá 629908
com 629678
tam 629152
ekkel 626656
2 626565
ével 625844
okkal 620636
D 618314
▁rendszer 615025
é 614539
V 612310
▁ma 611479
▁emberek 607669
ták 606687
▁Ma 604719
▁P 604474
ék 603325
▁azonban 602633
▁előtt 601574
ság 599539
▁D 598315
K 590025
F 588461
▁év 583727
▁| 580332
f 580107
h 578431
▁ebben 577314
kor 574321
▁szükséges 572754
▁V 572580
▁G 571082
ját 569936
p 569217
▁személyes 568929
▁L 568275
▁mind 564959
▁például 563251
ne 560220
▁európai 556783
az 556327
tek 556021
▁másik 555698
▁“ 552809
sel 551192
▁történő 550974
▁hanem 547968
nél 546905
▁közelében 544794
kal 540242
▁Én 539479
kat 538977
▁H 535868
▁mondta 535750
▁adatok 534213
▁adott 532488
▁2017 530632
▁túl 528315
▁különböző 524964
tal 523939
." 520701
tak 520188
T 519123
▁jól 518835
▁legyen 518103
▁szóló 515443
ében 514660
▁6 512601
▁együtt 512400
▁nemzetközi 509853
▁ott 508096
▁20 507598
ai 506450
al 506385
▁Te 506293
' 505622
▁ezen 502080
▁online 501427
▁fontos 499274
▁három 496222
jük 496184
] 495783
▁néhány 493285
▁belül 493146
▁közül 491125
▁keresztül 487865
▁mely 486022
EK 483587
▁éves 483312
▁azok 481245
▁mellett 480448
▁hogyan 480426
▁fő 477200
G 476291
▁Hogyan 475545
▁ellen 474746
▁b 474116
▁milyen 473378
▁lenne 473306
x 473054
▁egyes 472348
▁elő 471837
ák 470388
▁8 470165
▁élet 469707
▁program 468489
▁mivel 466581
ol 463696
▁leg 462767
▁azért 462757
▁hozzá 462530
tem 460840
ing 460539
▁Le 459648
▁Ezt 459445
H 458442
M 458423
▁kapcsolatos 458246
le 456728
▁termék 456379
▁rendelet 454386
P 452958
▁neki 450556
▁Be 448291
g 446838
▁Igen 444555
us 442958
ható 442481
▁vagyunk 442101
▁f 442010
1 441858
ása 441560
▁újra 437852
▁teszi 436962
▁valami 436880
▁Államok 436308
hu 436286
▁ezek 433020
▁Miért 432603
▁cikk 432101
3 430440
v 425882
▁tudom 425831
▁szoba 424081
▁játék 423857
▁esetén 423168
▁Még 422236
ad 422125
▁nagyobb 420770
▁lehetővé 419430
▁legnagyobb 419148
ül 419096
I 418125
▁egyéb 418058
▁15 415777
▁ezért 413177
▁[ 411778
▁azon 408166
r 407351
▁szó 406745
▁megfelelően 406236
▁ezelőtt 405626
▁esetben 405034
hat 404724
▁jobb 404360
▁további 404008
ei 403837
▁lett 403034
▁in 402930
▁Most 402764
▁N 402317
▁ország 400666
▁rendelkezik 400088
tel 399956
▁Úgy 399486
▁egyetlen 399173
▁módon 397687
▁amelyet 397570
▁Ezek 394488
▁Ő 394117
▁emberi 392732
▁m 391998
▁jog 390880
▁maga 389745
▁említett 389557
▁(1) 387567
ál 387022
ték 386852
ma 385346
▁szabad 385206
▁tudja 384966
▁12 383888
▁közötti 383547
▁különösen 383071
▁Mit 382003
▁pénzügyi 381778
▁R 381739
▁sz 381117
▁EU 381102
▁miért 379987
▁Hogy 379811
▁számos 378557
▁9 377682
▁nemzeti 377648
ka 375262
▁hasonló 373372
cs 372592
▁városban 372455
▁arról 372397
de 372234
▁érintett 371854
▁uniós 371844
▁közös 371698
▁& 370233
▁nekem 370144
éhez 369783
▁szállás 369669
bb 369650
L 369563
▁millió 369501
ter 369262
u 368759
▁1. 368584
▁teljesen 368379
▁Óránként 368294
▁harmadik 368018
nk 367937
▁voltak 365639
ához 365190
▁tovább 364434
▁magas 362766
▁ingyenes 361579
W 360629
▁város 359686
▁termékek 358204
▁gazdasági 357250
▁Amikor 357208
▁Van 356410
▁ide 356047
ny 355273
▁fél 355026
ha 352546
▁• 352481
▁elég 351932
▁víz 350873
se 350350
▁ennek 349572
▁üzleti 349261
▁tagállamok 349218
áról 348411
ki 345909
▁jelent 345793
▁abban 345440
▁vele 345304
▁szálloda 345302
▁napos 345274
▁igaz 344997
▁Na 343844
abb 342327
▁dolog 342116
▁c 341705
▁második 341309
▁semmi 341205
▁szükség 340285
▁jelenlegi 340142
▁Fel 338107
ia 337850
▁részt 337718
▁esetében 337644
▁megjelenítése 336509
▁azokat 336459
▁The 336300
het 336004
4 335897
▁óta 335619
▁bizonyos 335417
▁rendelkezésre 335124
or 333991
▁Unió 333600
▁július 333565
▁ahogy 333151
N 333094
▁magát 332501
▁Jelenlegi 332452
hető 332414
▁munka 331703
▁hosszú 331288
▁kapcsolatban 330819
▁körülmények 330437
▁La 329776
▁álló 329695
▁19 329266
▁azzal 328974
▁hely 328877
▁Itt 328625
▁... 328616
éről 327478
▁J 327049
▁18 326935
▁kellene 326682
▁W 325903
▁ezzel 325676
▁kerül 325203
▁of 325053
▁magyar 325052
▁lévő 324844
▁szolgáltatások 323193
tál 322786
am 322781
kel 321399
▁erre 320730
▁30 320060
▁történt 319527
▁alá 319168
jának 319126
ök 318740
él 318637
▁helyi 318415
um 318218
ar 318022
ése 318012
is 317398
jon 314605
▁Jézus 311862
▁O 309796
▁kellett 309712
▁ön 308808
▁pár 308132
▁Akkor 306773
▁2. 305088
▁képes 304709
▁Nagy 304208
▁legalább 303999
▁Ezért 302706
▁segítségével 302592
▁kínál 302351
gy 301264
▁ezeket 300751
E 300554
▁melyek 300526
▁személy 300467
egy 300200
▁jogi 299978
▁gyermek 299641
son 299437
▁igen 299087
ket 296751
hatja 296368
▁hotel 296060
▁időjárási 295654
▁jelenti 294456
▁jelen 294351
R 293661
▁Mert 293041
gal 292834
▁irányelv 292511
▁Úr 292492
O 292456
▁belső 292247
▁kívül 291475
▁Már 291063
▁Új 290551
▁nő 290485
ikus 289713
▁Így 289390
▁perc 289188
▁tud 288935
▁amerikai 288479
▁része 288385
▁ahhoz 288102
▁Magyarország 287547
ani 284759
▁őt 284627
▁négy 284577
▁gyors 284019
▁valaki 283671
ár 283556
▁Nagyon 283504
man 283408
▁használt 283228
▁kép 283191
▁szolgáltatás 283134
▁vezető 282935
di 282085
▁24 281689
▁Jó 281583
ebb 281236
ly 281212
▁Google 280119
▁biztonsági 279895
▁ár 279255
▁neked 278515
▁(2) 278014
Az 277579
▁évvel 277512
▁sor 277308
▁célja 277153
▁benne 277140
▁meghatározott 277059
▁mindent 277042
▁utolsó 276156
▁ad 276078
õ 275878
sa 275178
▁re 275040
▁k 274558
▁New 274191
▁mindenki 273467
▁mikor 273280
▁11 273230
▁létre 272221
▁többi 272021
Térkép 270800
eit 270523
▁Sz 269353
▁test 268913
▁oldal 268389
▁bele 268132
▁valamit 267989
▁száma 267409
ton 267059
▁talán 266922
▁eszköz 266693
▁Windows 265635
▁16 265075
▁pont 264875
▁50 264215
▁adatokat 263591
▁pénz 263587
▁Al 263566
▁3. 263333
▁> 262292
▁alap 261593
▁hiszem 260978
▁oda 260812
▁lehetséges 260605
▁lehetőség 260579
▁Több 260551
il 260297
▁távolságra 260183
eg 260135
▁rossz 259947
▁sokkal 259555
▁egyszerű 258304
leg 257790
▁Hol 257743
ön 256765
▁felé 256663
▁gyakran 256376
▁soha 256213
▁szemben 256089
▁fogja 256031
▁kap 255991
▁él 255970
▁történik 255899
▁100 255812
▁rövid 255780
▁csillagos 255169
▁követően 254347
▁se 254263
▁Tanács 254207
▁nyújt 253927
▁helyzet 253788
J 253694
▁csapat 253626
▁férfi 253379
▁Z 253297
▁Amerikai 253022
▁Ennek 252607
▁inkább 252558
▁éve 252495
▁biztos 252093
▁Re 251818
li 251758
▁14 251377
tor 251293
▁g 251146
eni 251118
▁évben 250922
▁amíg 250197
▁legtöbb 250078
▁út 249089
▁közel 249063
▁jelentős 248670
▁csoport 248587
ait 247746
▁nyelv 247618
▁minket 247338
▁különleges 246969
▁mondja 246653
ös 245628
▁információ 245492
”. 245395
▁általános 245186
to 244900
▁cél 244774
▁Nincs 244029
heti 244015
▁jobban 243565
▁erős 243309
▁tökéletes 242851
nem 242646
ába 242388
ából 242167
▁tett 242102
ít 241620
▁külön 240829
szer 240762
▁tartalmaz 240670
▁projekt 240536
▁míg 240470
▁információk 240210
co 240110
▁amelyeket 239636
▁cég 239111
▁figyelembe 238441
ment 238290
▁Milyen 237835
▁adat 237814
▁szervezet 237791
▁tekintetében 237769
▁film 237438
▁Önnek 237376
▁szól 237101
▁egyre 236867
▁U 236754
da 236600
▁természetes 236559
▁tartozó 236551
▁akar 236495
▁angol 236471
▁energia 236397
▁szerinti 236367
▁17 236351
▁térképen 236074
mal 236041
# 235622
▁kormány 235315
ító 234969
▁nekünk 234957
▁Dr 234923
▁közösségi 234769
▁információkat 233981
go 233741
▁azonnal 233674
▁készült 233664
X 233331
▁alábbi 232309
▁rendelkező 232209
▁Budapest 232049
▁Ingyenes 230867
ér 230817
vá 230451
▁Amennyiben 230121
▁X 229934
– 229263
▁könyv 229095
▁hang 228603
eink 228382
▁politikai 228355
▁lenni 227696
▁többet 227649
▁25 227407
fel 227305
▁nehéz 227268
▁került 226506
▁szálláshely 225781
▁egyszer 225333
▁öt 225111
▁13 225049
10 224712
▁törvény 224402
▁vállalat 224165
tok 223643
▁kicsit 223558
▁élő 223540
bi 223452
▁család 222990
ca 222595
▁föld 222526
▁bár 222450
szám 222357
lo 222329
▁könnyen 221962
▁voltam 221940
▁általában 221721
▁p 221616
▁tűnik 221532
▁bármely 221436
▁köz 220469
▁fény 219727
▁elérhető 219687
▁engem 219289
▁biztosít 219267
▁bőr 219261
im 219078
▁támogatás 218989
gel 218437
▁kapcsolat 218371
▁0 218082
th 217289
▁beleértve 217216
▁autó 216836
ral 216595
▁fehér 216193
▁helyek 216078
▁Wi 215999
vagy 215879
▁4. 215875
▁ti 215700
▁vált 215677
▁fa 215586
▁gyorsan 215322
▁tenni 215219
▁hol 214966
▁al 214763
▁rész 214629
▁tehát 214521
▁Talán 214467
▁vér 214467
▁tagállam 214424
▁először 214295
▁hét 214031
▁otthon 213872
▁állam 213751
▁óra 213638
▁ismert 212602
▁segít 212264
▁tart 212153
id 211668
▁modern 211613
Z 211407
’ 211219
▁társadalmi 211189
ez 211017
): 211010
▁szem 210617
▁d 210609
▁szeptember 209800
▁eszközök 209666
za 209408
ink 209295
5 209210
▁eljárás 209127
▁anyag 208801
▁gyerek 208475
▁Szóval 208145
▁ház 208117
▁kérdés 207926
ci 207409
▁szám 207180
▁folyamat 207034
▁később 206847
nyi 206656
ce 205918
ver 205548
▁Ti 204797
▁Hát 204765
▁szín 203425
▁széles 203002
▁megállapodás 202896
▁korábbi 202877
▁szoftver 202827
▁amelynek 202649
▁továbbra 202587
▁További 202383
ók 202345
rel 201951
▁továbbá 201728
▁tér 201639
▁Európa 201583
▁San 201534
▁róla 201533
▁Magyar 201529
▁Ezen 201505
vé 201504
▁néz 201493
▁közvetlen 201448
▁gép 201041
ga 200933
rendszer 200214
▁külső 200157
üket 200101
▁tudod 200085
▁tudjuk 199634
▁Pro 199613
▁október 199602
▁valamennyi 199226
▁amennyiben 199098
ális 198842
mail 198750
▁verseny 198710
int 198617
▁jár 198463
▁rendszerek 198377
▁vendégek 198183
▁bármilyen 198122
pl 197913
▁régi 197600
▁TV 197460
▁mértékben 197408
▁összhangban 197186
▁előre 196921
» 196870
▁(2 196842
▁lehetőséget 196668
▁Szálloda 196617
▁működik 196606
▁Királyság 196582
▁június 196537
▁hatékony 195833
50 195762
▁Szállodák 195550
▁lány 195223
▁Nos 195202
▁magam 195089
nék 194831
30 194552
▁típusú 194394
▁Park 194287
st 193838
▁nők 193506
▁terület 193427
der 193389
no 193232
▁Szállás 193177
▁marad 193017
▁közvetlenül 192938
▁adó 192885
▁intézkedések 192581
▁eredeti 192218
nom 191911
▁fiatal 191891
▁mielőtt 191876
tunk 191772
▁igazság 191768
▁hat 191602
▁viszont 191231
▁hőmérséklet 190908
me 190712
▁nélküli 190688
▁egyedi 189928
▁származó 189475
▁napon 189464
nunk 189310
▁oldalon 189239
▁Krisztus 189097
▁kapott 188990
▁december 188773
▁szeretne 188588
▁Olyan 188512
ír 188425
▁használja 188345
ic 188226
ir 187971
▁elmúlt 187741
lak 187719
▁határozat 187541
ap 187365
ától 187177
▁cím 187077
jét 187053
▁király 186489
▁Mivel 186230
▁aztán 186165
▁korábban 185901
▁elnök 185672
▁senki 185582
▁ideje 185549
▁hát 185435
▁kor 185358
▁igazi 185347
▁* 185017
▁szép 184999
▁legfontosabb 184981
ást 184890
EU 184814
▁mintha 184784
û 184546
▁Co 184329
▁érdemes 184186
▁nép 184052
▁szobák 183656
fa 183556
la 183323
▁40 183301
Y 183265
ang 183212
▁alapvető 182995
öm 182896
ty 182800
7 182715
ke 182694
▁keretében 182280
tuk 182273
ur 182254
▁fekete 182136
▁szüksége 182109
▁60 182090
▁biztonságos 181592
okban 181542
▁szerződés 181514
▁vállalkozás 181506
▁2018 181479
▁Ebben 181469
elő 181343
▁német 180999
▁kar 180966
▁Közeli 180769
lag 180626
▁nekik 180209
▁Németország 180161
ítás 180079
▁környezet 179990
mi 179942
▁neve 179675
▁mm 179451
okra 179333
ná 179232
▁Két 179144
▁jelenleg 179090
▁St 179055
▁érték 178867
▁piac 178825
▁csupán 178611
▁fájl 178550
▁+ 178446
ám 178332
▁Mar 178290
kkal 178265
▁kereskedelmi 178209
▁cikke 178055
▁_ 177943
áz 177818
▁mondani 177775
dal 177757
▁egyszerűen 177564
▁játékok 177457
▁Sok 177456
olt 177441
▁tette 177362
tünk 177122
▁együttműködés 177059
w 176466
anak 175896
▁Bar 175868
jában 175854
▁elleni 175624
▁feltételek 175333
▁szállást 175013
▁mai 174833
einek 174826
▁körül 174775
▁(3) 174648
▁Lehet 174420
_ 174398
▁jelentés 174391
▁jön 174300
▁hiszen 174291
▁and 174283
▁vár 174168
". 174116
▁globális 174012
áció 173999
▁tartozik 173969
▁terv 173856
▁II 173750
▁évek 172977
zi 172864
▁Vagy 172655
$ 172647
ze 172598
▁igazán 172534
▁magad 172428
▁este 172362
▁helyen 172358
Fi 172347
▁anyagok 172304
▁köszönhetően 171933
▁válasz 171914
▁végzett 171884
▁tesz 171770
▁ér 171743
▁című 171726
▁attól 171710
ház 171550
▁Ó 171547
▁révén 171462
hely 171376
mo 171327
▁alacsony 171280
▁weboldal 170825
▁Bár 170800
▁Holnap 170736
▁szív 170522
ján 170315
▁szereplő 170285
▁ők 170262
▁magán 170247
nal 170169
kép 170125
ására 170046
▁vizsgálat 169939
▁beteg 169931
▁semmit 169861
ette 169579
▁Hotelek 169267
▁használata 169218
▁alkalmazás 169212
ung 169031
▁kapcsolódó 169001
▁5. 168925
▁keres 168881
▁Szálláshelyek 168660
vi 168444
beli 168376
▁melyet 168309
▁mások 168153
▁felelős 167649
▁hatalmas 167531
▁január 167446
▁velem 167432
▁éppen 167220
ro 167033
▁' 166947
▁valódi 166886
▁ellenére 166885
▁York 166773
▁lép 166749
▁Franciaország 166657
▁probléma 166652
▁kiváló 166446
▁tudni 166138
▁anélkül 166035
▁velünk 166026
▁Más 165941
▁időben 165929
▁Android 165911
ck 165823
tél 165678
▁hit 165537
▁2017. 165320
ött 165165
▁könnyű 165156
oknak 165096
öl 165063
00 164969
nia 164935
▁tudományos 164794
▁francia 164767
▁ezer 164176
ált 164146
▁erről 164100
▁választás 164034
▁innen 163775
▁pl 163738
▁központi 163658
ult 163645
nünk 163552
▁bor 163460
▁digitális 163424
ong 163339
land 163176
▁egészségügyi 163092
▁mégis 162875
▁kutatás 162747
▁Parlament 162728
▁teljesítmény 162685
▁ingatlan 162638
▁hajó 162624
▁megy 162462
▁közben 162118
▁jött 162104
ló 162089
40 162029
▁sport 161945
▁Szent 161891
▁időt 161872
▁to 161858
▁repülőtér 161794
▁verzió 161783
▁értékelés 161772
▁részére 161722
▁felhasználó 161398
▁ügy 161247
[ 161214
▁tevékenység 161068
▁szinten 160820
U 160774
▁Mint 160712
▁Olaszország 160711
▁Nemzetközi 160658
▁venni 160476
▁Dél 160323
▁kezelés 160315
▁x 159993
▁szintén 159940
éből 159822
▁Mikor 159744
▁illetékes 159744
ását 159659
meg 159449
mm 159408
▁szöveg 159327
▁gépek 159239
op 158949
mat 158825
kon 158786
▁használni 158670
▁hoz 158559
▁szállodát 158473
ukat 158466
▁lehető 158460
etek 158219
▁dolgok 158121
▁látni 157813
▁Kína 157637
▁látható 157613
24 157434
▁megoldás 157373
mer 157301
lel 157283
zás 157001
— 156846
25 156819
▁Car 156747
▁természet 156726
▁kisebb 156608
▁He 156500
▁számít 156320
14 156234
▁ment 156073
▁valóban 156046
endő 155872
▁tényleg 155625
▁Live 155475
▁In 155447
▁időszak 155238
▁halál 154983
▁hivatalos 154911
▁vonatkozóan 154859
né 154831
hi 154736
▁Li 154682
ill 154583
▁újabb 154497
ya 154485
▁hatóságok 154083
▁Di 154010
zó 153849
▁szintű 153846
á 153796
▁közösség 153705
▁irányuló 153687
▁szállodák 153686
▁részét 153488
▁jövő 153420
▁fej 153179
▁keresése 153129
ozó 152958
ou 152957
▁kizárólag 152944
▁téged 152814
▁úr 152749
▁programok 152618
▁annyira 152290
▁magának 152263
▁pénzt 152238
▁hasznos 152199
▁kezelése 152153
▁céljából 152086
▁000 152068
▁országok 152010
▁hagyományos 151977
og 151956
▁Tudom 151870
▁végre 151869
▁Tudod 151701
▁szakmai 151701
▁h 151238
0 151115
▁pontosan 151038
▁Tehát 151009
▁egység 150975
▁Ro 150974
tük 150972
▁szeretet 150756
▁használ 150672
▁1- 150608
▁orvos 150601
otta 150565
▁kapcsolatot 150370
telen 150362
▁Mr 150119
let 150077
▁május 150059
▁területen 150048
tan 149970
▁Ja 149901
▁Egyetem 149871
▁március 149685
▁Ri 149424
11 149405
▁ágy 148852
▁rendelkeznek 148850
tár 148714
▁tanácsi 148547
▁állami 148496
ainak 148479
000 148463
▁hónap 148445
mp 148386
▁kevesebb 148334
▁telefon 148323
▁súlyos 148262
▁modell 148208
ébe 148115
nő 148090
▁6. 148041
▁szabályok 147831
▁ok 147824
ü 147597
▁múlt 147572
▁végén 147566
▁Vissza 147534
▁hálózat 147525
▁ismét 147483
▁közé 147476
▁városában 147267
pa 146945
▁országban 146936
▁Sa 146848
▁Ho 146515
▁jogosult 146446
15 146429
▁City 146429
8 146312
▁lesznek 146291
ner 146220
▁milliárd 146137
▁Keresés 146126
lan 146032
nap 145788
▁Man 145628
nie 145555
▁egyedül 145452
zen 145398
▁vett 145396
▁Néhány 145390
▁üveg 145380
lat 145379
▁2019 145352
▁v 144813
ítő 144733
▁Spanyolország 144439
lő 144202
16 144053
+ 143865
met 143826
▁akarom 143801
▁várja 143735
▁fizikai 143657
▁miközben 143569
ész 143469
ri 143453
ug 143411
▁videó 143235
per 143233
▁Ka 143221
▁elektromos 143186
▁hotelek 142844
▁folyamatosan 142778
▁háború 142717
▁sokat 142710
▁haza 142633
▁oldalán 142560
étől 142531
▁apartman 142520
ry 142493
▁foglalás 142424
▁használják 142374
▁szak 142306
▁hal 142032
▁társadalom 141919
eknek 141843
▁Vi 141821
▁árakat 141772
▁gyógyszer 141768
▁betegség 141664
öd 141570
▁szinte 141567
pe 141377
fi 141087
ler 141045
▁21 141022
▁cikkének 141019
ekben 140966
▁Nemzeti 140928
▁azonos 140886
oz 140838
adó 140715
▁április 140654
bor 140652
▁hír 140555
▁adja 140554
hatnak 140481
▁Kar 140454
▁akarok 140052
▁válik 139794
▁gazdaság 139713
▁fognak 139705
▁november 139619
▁szociális 139578
▁feladat 139516
▁családi 139379
▁tekintettel 139236
▁per 138908
▁történet 138814
unkat 138758
▁No 138746
▁alkalmazott 138713
jára 138704
▁Mac 138620
▁embert 138513
▁nyújtott 138423
▁világon 138416
▁értelmében 138412
▁függ 138396
▁tűz 138341
▁stb 138326
ási 138238
ven 138134
▁teszik 138047
▁épület 137971
izmus 137927
▁meleg 137860
▁Ft 137755
út 137724
▁Ami 137690
▁alkalommal 137630
ítés 137629
mel 137566
▁vesz 137566
ekre 137518
ers 137489
▁magasabb 137438
▁internet 137379
▁rendkívül 137377
▁Köztársaság 137370
ger 137298
ch 137226
▁akarsz 137177
▁piaci 137076
▁ért 137070
í 137035
▁Nap 137035
jával 137018
jön 136977
atlan 136942
▁aktív 136755
▁lennie 136726
▁szervezetek 136695
▁osztály 136412
up 136340
▁mobil 136272
▁központ 136250
▁baj 136207
28 136170
▁bekezdés 136088
▁tagja 136085
eszt 136001
▁nyelven 135967
▁információt 135893
ája 135888
▁kínai 135877
▁biztonság 135847
jai 135735
▁tiszta 135699
▁Inn 135674
▁munkát 135596
▁játékos 135570
ina 135461
▁lap 135334
▁sorozat 135281
® 135252
▁végül 135251
öt 135187
▁veled 135046
▁személyek 135022
▁vezet 134991
▁tudják 134901
séggel 134877
▁olcsó 134867
▁darab 134843
▁amelyben 134834
▁érte 134803
játok 134768
° 134735
nod 134719
▁tartalmazza 134694
▁vége 134670
▁for 134645
▁élelmiszer 134626
6 134612
▁számítógép 134351
ö 134213
mentes 134063
▁akarja 133995
▁Vendégszoba 133983
▁sikeres 133805
▁l 133804
▁22 133793
▁lakás 133624
▁olaj 133557
si 133317
▁állnak 133062
den 133013
▁miután 132861
▁Mindig 132839
▁minőségű 132793
▁Or 132738
▁közép 132680
▁helyezkedik 132555
▁arc 132498
höz 132283
lin 132003
▁üzlet 131985
▁műszaki 131936
▁vasárnap 131772
▁szolgál 131711
▁mozgás 131570
▁készülék 131551
▁gyakorlat 131475
▁tudok 131458
▁szeretné 131404
ley 131394
Ha 131319
▁speciális 131306
jék 131193
▁eredmények 131176
▁reggel 131106
60 131099
ezés 131051
▁eredmény 130965
▁the 130843
▁név 130834
▁Me 130806
▁igénybe 130798
elt 130752
ut 130729
▁méterre 130689
áért 130607
▁Si 130537
ine 130485
▁gyerekek 130455
▁évi 130359
▁%- 130353
▁mondtam 130328
▁elektronikus 130301
▁Repülőtér 130246
▁azoknak 130216
▁o 130207
▁nyom 130182
▁felhasználók 130171
▁Oroszország 130099
ista 130063
sh 130008
tér 129980
ünket 129923
ah 129872
▁akit 129718
▁állat 129711
▁utazás 129669
▁alkalmazása 129656
▁alkalmas 129634
▁Biztos 129616
▁létezik 129562
▁kivéve 129549
29 129532
ana 129500
▁tekintse 129486
▁napi 129321
▁lehetőségek 129314
▁térkép 128992
▁városközponttól 128968
▁kéne 128944
mar 128881
▁perces 128778
ozott 128755
kar 128658
gó 128638
lek 128637
▁rajta 128621
▁kötelezettség 128596
▁(19 128458
▁módszer 128458
ie 128277
▁született 128263
▁pro 128246
▁sikerült 127895
▁rám 127854
▁200 127834
13 127712
un 127590
▁augusztus 127559
▁zöld 127542
▁agy 127451
▁fejlődés 127410
▁választ 127352
▁jármű 127219
▁bizottság 127126
▁egészség 127036
csoport 126983
▁ajánlatot 126979
▁cm 126962
▁szállítás 126882
ését 126833
lap 126626
▁mögött 126619
aink 126555
ex 126492
▁vendég 126435
van 126113
▁képesek 125875
del 125868
▁egészen 125808
▁szolgáló 125688
▁lépés 125605
▁Jól 125578
▁többé 125495
▁szabadság 125473
18 125308
▁iránti 125299
▁bank 125226
▁helyet 125226
▁esemény 125183
▁bekezdése 125045
▁felett 125029
sége 124994
▁biztosított 124938
▁intézkedéseket 124796
▁Mo 124738
▁képek 124715
▁egyéni 124695
hatják 124643
▁gond 124544
▁semmilyen 124510
ozás 124507
▁népszerű 124463
20 124385
▁terén 124355
▁Szállások 124253
▁hatóság 124155
▁Akár 124154
▁Cs 124030
▁(3 124025
▁sosem 123920
▁kulturális 123843
▁valaha 123744
▁kifejezés 123740
▁Ezzel 123737
▁egyet 123721
▁gyermekek 123547
▁dolgokat 123501
lik 123339
lás 123311
▁USA 123297
▁tartó 123049
tó 122973
▁London 122922
min 122782
▁megtekintése 122778
▁gy 122773
▁mg 122751
okon 122695
olás 122694
▁bal 122321
▁többek 122287
ac 122204
ított 122170
jen 121857
▁helyes 121845
▁szeretnék 121830
jének 121817
▁Japán 121646
▁követő 121604
▁28 121583
▁használható 121443
= 121414
hatatlan 121236
▁keret 121158
nyelvtanfolyamok 121155
adás 121088
▁tudtam 121071
▁valójában 121024
ep 121004
▁úton 120867
junk 120814
▁motor 120722
hal 120657
▁szerepet 120529
▁technológia 120504
▁To 120413
▁ég 120406
▁7. 120398
▁csomag 120398
▁tanulmány 120377
▁embereket 120358
▁biztosítja 120336
etlen 120276
▁jut 120212
ET 120176
▁férfiak 120068
▁küld 119997
▁hozott 119982
▁egészséges 119948
andó 119805
▁pontos 119801
do 119790
▁gáz 119780
▁Ba 119733
01 119723
35 119708
▁di 119693
▁intézmény 119651
▁nemcsak 119486
▁egységes 119477
zék 119468
SZ 119436
▁állapot 119398
▁arany 119355
▁február 119334
mag 119286
9 119266
▁módja 119250
▁Fa 119143
90 119111
▁Kis 119072
▁alkalmazni 119029
ző 118937
▁Föld 118889
▁legújabb 118804
▁iránt 118394
▁jogok 118352
zel 118276
▁értem 118263
19 118235
hetnek 118145
▁valószínűleg 118134
sen 117856
ített 117788
▁érvényes 117681
21 117582
▁vállalkozások 117546
ov 117495
▁mindössze 117223
▁kezd 117182
▁vélemény 117180
ők 117014
▁addig 117003
▁szent 116969
▁folyó 116965
▁mód 116916
▁tíz 116873
▁tudás 116833
ült 116776
▁papír 116746
▁döntés 116722
▁láttam 116625
tur 116605
▁John 116601
▁ipari 116589
ation 116587
▁problémák 116468
▁méretű 116438
▁ideig 116340
▁orosz 116211
▁helyett 116187
▁Bo 116120
32 116033
enek 116020
ow 115999
▁International 115851
tartó 115781
▁ajánlat 115726
ságot 115707
▁kon 115677
ud 115642
▁maradt 115610
▁ka 115571
▁ággyal 115556
▁körülbelül 115483
séget 115473
▁beszél 115468
ád 115453
▁véve 115432
mű 115418
80 115401
kkel 115358
osz 115355
▁gyönyörű 115286
▁rendben 115258
▁akartam 115229
▁pozitív 115224
álás 115222
▁dollár 114984
EN 114928
▁kedvenc 114912
▁23 114880
▁Aztán 114858
@ 114836
▁magában 114827
▁szét 114772
▁haj 114560
▁kötelező 114518
▁anya 114514
▁Se 114504
▁komoly 114502
▁kör 114466
▁árak 114435
chi 114417
tikus 114416
sor 114407
▁10. 114377
▁gazdag 114367
▁engedély 114318
▁8. 114284
▁egyáltalán 114127
▁Ahogy 114116
▁Mind 114026
▁felhasználói 113917
▁oka 113776
▁Beach 113772
ham 113725
!” 113722
▁eddig 113714
▁ír 113684
▁Izrael 113672
▁ehhez 113657
wa 113632
▁Microsoft 113598
men 113570
▁Ra 113528
esz 113511
ho 113397
eng 113368
▁független 113312
12 113299
▁siker 113275
▁egyaránt 113273
▁Q 113268
▁legnépszerűbb 113233
▁ügyfél 113149
▁gyártó 113107
▁állandó 113100
▁ugye 113094
▁Ko 113029
▁500 112912
▁Alap 112706
tétel 112681
ica 112501
▁Lo 112499
▁vevő 112483
▁Ban 112450
ssz 112420
▁velük 112415
vezető 112405
▁tartani 112363
zés 112245
▁nyilatkozat 112143
ber 112135
▁27 112069
oldal 112023
zon 111898
ót 111897
szolgáltatásokat 111895
▁szempontjából 111826
▁Azonban 111786
őr 111745
▁hittem 111618
▁(1 111564
▁fogják 111555
▁Múzeum 111553
▁fenntartható 111537
▁megfelel 111474
▁Oké 111471
au 111463
▁szolgálat 111429
jenek 111371
▁Online 111367
▁felső 111324
▁nagyszerű 111278
▁határ 111256
▁tag 111207
▁tevékenységek 111168
▁méret 111157
▁Street 111126
áj 111106
▁életet 111029
hetetlen 111028
▁épp 110997
▁természetesen 110993
22 110927
▁Ta 110867
cz 110817
var 110813
pont 110770
▁mintegy 110768
ör 110734
gi 110658
▁(4 110645
▁szellemi 110637
▁mély 110612
▁biztosítása 110462
▁adni 110358
rész 110326
▁tény 110321
anyag 110288
▁években 110232
von 110164
▁helyszínen 110153
▁fegyver 110121
▁Ben 110042
▁adatai 110022
▁héten 109987
▁föl 109944
▁tartott 109884
▁EUR 109849
po 109845
tik 109813
▁híres 109793
▁ugyanis 109785
▁étterem 109761
▁talál 109758
▁bíróság 109675
▁magukat 109642
▁jel 109532
▁olasz 109522
▁fal 109466
▁díj 109340
▁támogatja 109290
▁oktatás 109273
▁hónappal 109265
▁amint 109249
▁növekedés 109203
▁Bank 109128
▁képzés 108970
▁hiba 108957
▁80 108947
▁technikai 108926
janak 108878
Ez 108864
▁Con 108583
▁hív 108533
▁távú 108524
▁Maga 108479
▁ideális 108467
17 108459
gép 108407
▁válság 108186
ens 108088
▁kívánt 108088
▁állatok 108074
▁Azért 108017
▁webhely 107936
▁veszélyes 107909
▁készül 107875
▁kényelmes 107855
▁valamely 107806
▁adatkezelés 107761
hogy 107711
▁alkalmazandó 107637
70 107526
▁kedves 107494
EL 107487
OS 107463
▁részletes 107453
▁vonatkozik 107387
ény 107355
szi 107319
ium 107279
▁Eladó 107224
▁erő 107166
▁egymást 107105
▁Három 106943
▁ko 106934
▁lehetnek 106930
▁világban 106906
▁Át 106858
so 106803
▁bekezdésének 106783
▁csodálatos 106781
▁történelmi 106741
▁legyenek 106723
▁bármikor 106720
ko 106710
▁Olcsó 106686
▁szállások 106684
oszt 106641
▁betegek 106599
▁érzés 106540
▁indul 106478
▁elsősorban 106472
▁hozzáférés 106408
26 106330
▁dolgot 106329
▁előírt 106225
▁2016 106181
Nem 106167
▁tenger 106116
▁vég 106083
▁hitel 106030
▁régió 105956
emet 105941
▁Fi 105843
▁asszony 105826
ász 105821
▁on 105797
▁elé 105769
▁Majd 105755
▁Kérjük 105689
▁jelenségek 105647
tin 105562
▁életben 105550
omat 105389
ser 105352
▁alapuló 105266
▁Lu 105258
▁használat 105243
▁Európában 105236
▁kereszt 105227
▁biztosan 105223
▁beszélni 105179
tetés 105131
▁orvosi 105059
reemeteo 105049
EGK 105011
▁kiegészítő 104949
▁mutat 104941
▁figyelmet 104918
▁Go 104895
▁intézmények 104855
▁tagjai 104847
elem 104758
▁esetekben 104731
▁(4) 104704
▁társaság 104694
▁kattintson 104642
har 104625
▁véget 104584
talan 104556
▁képest 104550
▁melynek 104462
▁26 104452
▁szobában 104324
▁megbízható 104316
▁bűn 104235
▁tartalmazó 104235
▁szint 104157
szor 104138
▁szerda 104126
▁adatait 104117
▁hatással 104035
▁Du 104022
▁35 103911
▁PC 103901
usz 103888
▁éjszaka 103855
▁Észak 103853
▁forrás 103844
ard 103834
ru 103822
▁érdekes 103820
▁Cor 103732
▁Bor 103710
▁állás 103708
▁azaz 103696
▁Először 103692
sé 103657
▁Egyéb 103645
▁média 103563
bo 103474
▁Mai 103455
55 103436
▁órás 103390
éért 103380
▁költségvetés 103303
vin 103281
▁kapcsolatba 103279
szerű 103278
nel 103265
▁néha 103213
▁spanyol 103157
▁egyház 103021
ô 103009
▁akinek 102912
▁konyha 102898
ag 102640
köz 102513
▁Miután 102466
▁eltérő 102417
▁hő 102359
▁számú 102320
wi 102287
▁száz 102231
▁folyamatos 102168
▁Válassza 102106
▁Bu 102059
▁zene 102015
▁la 101917
▁Apple 101817
▁TripAdvisor 101814
rend 101794
▁kötött 101761
▁Ott 101648
▁kér 101617
Sz 101587
38 101580
▁fiók 101580
▁mennyire 101559
▁ötlet 101529
▁tömeg 101504
for 101498
▁légi 101469
▁fiú 101424
▁szombat 101422
▁bekezdésében 101380
érték 101326
ika 101297
▁mindkét 101281
▁Ár 101273
szint 101263
▁Pi 101236
▁annál 101222
▁fizet 101201
▁Po 101192
oló 101168
▁világszerte 101160
dat 101157
▁felek 101078
▁nevét 101009
ré 101004
▁változás 100981
09 100972
▁külföldi 100951
▁elemzés 100871
31 100828
▁templom 100792
▁meglévő 100785
▁90 100720
▁fotó 100717
▁vezeték 100651
▁ellátás 100579
cu 100508
▁kemény 100463
▁dolgozik 100425
& 100394
kó 100328
▁Nyaralók 100316
▁hétfő 100264
sd 100257
▁kávé 100094
▁élmény 100087
por 100075
▁japán 100060
▁Általános 100051
ációs 99992
▁folytat 99972
▁figyel 99949
▁ellenőrzés 99918
▁kutatási 99903
elés 99888
▁Figyelmeztetés 99869
▁öreg 99850
▁regionális 99825
▁lak 99811
▁Apartmanok 99778
▁stílus 99778
ésére 99770
▁veszi 99660
▁töltött 99659
▁tervezés 99631
▁Mindenki 99623
▁javaslat 99603
▁rendszert 99590
zs 99587
▁Gi 99560
mond 99519
▁segíteni 99490
hetjük 99485
▁átlagos 99464
TM 99453
▁szolgáltató 99428
zott 99363
▁Fehér 99344
szel 99332
2- 99280
▁IP 99141
▁kétszemélyes 98981
ion 98949
▁tudunk 98947
▁kész 98821
▁Hotels 98810
▁felület 98789
▁Ver 98785
szt 98783
▁készít 98721
▁utóbbi 98687
ES 98657
▁Szoba 98592
▁dolgozni 98494
▁terjed 98445
▁fekszik 98433
▁költségek 98409
▁sétára 98392
he 98387
▁sincs 98297
▁csütörtök 98287
▁ugyanakkor 98218
sék 98188
▁ajánlatok 98183
▁világot 98142
▁9. 98114
mény 98090
▁konkrét 98085
▁partner 98052
ór 98031
▁uram 98014
▁Y 97978
▁minőség 97922
▁szerepel 97915
▁üzenet 97873
by 97872
akat 97859
▁fogok 97854
ge 97839
▁gondoltam 97834
23 97819
▁acél 97797
▁kedd 97795
ford 97714
▁marketing 97670
▁parlamenti 97628
ezett 97520
új 97507
▁Nézd 97503
▁fájlt 97374
ster 97300
99 97266
▁eljárások 97212
▁folytatott 97199
▁automatikusan 97155
* 97148
▁Térkép 97108
▁Annak 97068
▁típus 97068
▁euró 97051
▁Önt 97042
▁Za 96965
▁Szerintem 96947
szem 96941
gg 96919
ós 96885
▁helyszín 96873
▁nincsenek 96860
ian 96851
hang 96846
▁hosszabb 96845
▁foglalt 96837
Q 96798
lal 96797
▁állt 96793
est 96788
ván 96754
▁vallás 96654
▁szakasz 96600
mon 96531
vány 96362
▁csinálni 96301
jén 96266
len 96230
▁úti 96171
▁melléklet 96170
27 96141
▁kockázat 96118
▁előző 96035
▁Ni 95962
▁Ők 95956
típus 95935
▁Rendben 95822
▁melyik 95814
▁kód 95806
ező 95793
?” 95733
ségét 95728
ron 95722
48 95720
▁tervezett 95697
▁ellátott 95684
▁eset 95633
sá 95621
que 95614
08 95602
▁Wa 95494
alkalmazások 95469
▁amire 95443
▁Hé 95424
▁kevésbé 95414
áb 95390
▁lát 95367
tag 95335
▁kocsi 95329
lát 95319
▁mutatja 95297
▁szabályozás 95297
▁Semmi 95286
ach 95197
▁maguk 95177
▁nevű 95173
áló 95138
▁projektek 95130
esebb 95126
▁kik 95081
▁választott 95081
▁mondom 95054
▁Do 94987
▁valós 94963
▁katonai 94927
▁Facebook 94875
▁szóval 94841
▁előzetes 94763
éd 94734
age 94718
▁Ca 94703
▁kérjük 94677
▁felnőtt 94660
▁szerv 94621
▁fül 94620
▁írás 94604
▁láb 94589
▁házasság 94582
▁fia 94563
ub 94559
▁kék 94536
▁tartja 94448
▁legmegfelelőbb 94445
vet 94390
▁belüli 94383
▁cookie 94382
▁szótár 94379
▁szén 94375
Ó 94351
kezelés 94279
▁rend 94260
▁események 94238
05 94231
▁32 94214
ell 94206
▁Da 94185
ológiai 94149
▁Tra 94147
▁legmagasabb 94145
▁szót 94118
sága 94076
▁tőle 94051
34 94027
end 93983
▁Su 93945
▁tartalom 93916
▁zsidó 93878
▁ebből 93784
▁mezőgazdasági 93776
▁ENSZ 93703
▁hatás 93674
▁tapasztalat 93672
▁viselkedés 93625
▁végső 93559
▁tudnak 93521
cy 93519
▁vásárlás 93490
ány 93477
▁Á 93473
▁ügyfelek 93423
▁eladó 93320
▁sötét 93314
▁Airbnb 93127
▁halad 93122
▁megtalálható 93087
▁Home 93077
asz 92957
▁Per 92951
▁Például 92920
▁por 92920
▁repülőtértől 92915
▁Ke 92901
▁fejlesztés 92867
▁annyi 92798
▁Fél 92738
▁függetlenül 92709
▁különféle 92684
▁45 92669
▁szeretném 92657
▁évig 92587
ony 92583
ice 92580
▁felel 92561
▁összeg 92503
▁Pa 92457
▁leginkább 92435
▁Sal 92426
▁jogszabályok 92379
▁péntek 92374
▁védelem 92348
szigetek 92337
úr 92320
▁segítséget 92280
világ 92241
▁vala 92201
zik 92198
▁szolgáltatást 92161
▁életét 92116
▁írja 92093
▁működő 92065
▁költség 92001
Á 91982
▁Bal 91920
nyom 91894
▁levegő 91806
jel 91790
idő 91783
▁fém 91777
▁Sch 91723
▁elegendő 91701
▁ajánlott 91681
rá 91656
▁adatvédelmi 91649
▁vagyis 91557
ítani 91546
▁vi 91530
▁valóság 91514
if 91509
▁elfogadott 91491
33 91457
▁század 91438
▁tudsz 91438
▁Tom 91387
▁bír 91369
edet 91284
▁ajándék 91256
▁tudta 91247
▁elem 91207
▁lég 91205
▁300 91176
▁hatása 91166
▁vet 91148
▁csinál 91123
▁ágazat 91103
ned 91098
▁szél 91075
▁kellemes 91028
központ 91004
▁hi 90987
▁persze 90981
hatjuk 90940
inak 90869
▁29 90854
▁okoz 90771
▁hideg 90733
▁funkció 90725
▁megtalálja 90719
zár 90715
▁végig 90707
▁tölt 90702
▁kevés 90653
ria 90632
erő 90605
ési 90587
tus 90585
we 90568
Mi 90554
▁Kon 90552
▁finom 90523
▁nyitott 90468
▁továbbiakban 90350
ották 90345
▁mag 90340
▁olvassa 90335
esen 90253
▁világos 90250
▁kábel 90199
▁elnöke 90195
kra 90112
▁egyetem 90107
ker 90074
dy 90042
▁nyomás 90018
atív 89991
▁faj 89982
vár 89967
▁különbség 89962
▁ülés 89877
▁tudomány 89848
rin 89847
▁élni 89811
▁Magyarországon 89790
▁vágy 89769
▁lemez 89764
▁áldozat 89753
▁Aki 89735
▁gondolat 89670
▁berendezés 89644
knak 89587
atok 89583
▁sebesség 89583
2) 89574
▁hagy 89563
old 89535
39 89502
▁sokan 89499
▁utal 89474
▁bizottsági 89445
▁női 89411
▁fenti 89409
▁Persze 89389
▁Végül 89389
▁felelősség 89383
▁kapcsolatok 89383
▁csillag 89368
▁Kft 89366
q 89301
mint 89294
▁negatív 89253
iai 89228
▁ingyen 89221
▁készített 89132
!" 89125
▁támogatást 89114
▁For 89109
▁Kor 89099
▁múlva 89068
jünk 89060
▁Rész 89042
▁cs 89026
▁gyártók 88993
▁Fő 88982
ola 88972
▁fogva 88931
▁meghalt 88921
▁virág 88914
▁zavar 88896
▁piacon 88890
ülés 88875
▁dönt 88868
▁készen 88854
▁célból 88819
átor 88813
▁vállalatok 88812
▁Senki 88688
▁diákok 88673
gar 88661
▁ahogyan 88635
ide 88608
▁boldog 88604
vonal 88566
zet 88564
▁sír 88560
▁adatkezelő 88547
▁kezdeményezés 88542
▁Web 88498
▁Gy 88491
▁tele 88486
▁Internet 88442
▁érzem 88439
▁mire 88438
▁brit 88429
▁következők 88405
▁Központ 88402
▁holnap 88289
▁sziget 88251
▁nemzet 88232
▁parkoló 88193
vény 88192
▁En 88126
▁érdekel 88122
▁rádió 88037
▁jellegű 87949
▁menni 87947
▁Szabad 87914
▁átfogó 87812
álló 87784
▁Jo 87782
▁illetően 87777
▁idegen 87766
tu 87753
▁mester 87688
▁70 87684
▁területére 87656
▁Azok 87640
▁É 87638
▁felül 87620
€ 87608
▁keresztény 87591
▁profil 87588
▁interneten 87554
itás 87516
▁r 87491
▁kerülnek 87477
▁legfeljebb 87456
▁alapul 87317
▁távolság 87284
▁pillanat 87225
▁õ 87206
▁mondják 87202
▁bennünket 87199
▁megközelítés 87178
ür 87157
▁foglalja 87156
tad 87138
▁kapacitás 87075
▁Lát 87068
▁szolgáltatásai 87043
▁ingyenesen 86967
cia 86926
AT 86883
▁idején 86866
▁állomás 86862
▁maximális 86860
iszt 86826
▁fájdalom 86766
49 86757
75 86739
▁West 86705
▁leszek 86637
▁akiknek 86608
▁nyílt 86565
▁Ilyen 86564
▁adag 86482
▁részben 86423
▁kezelésére 86418
▁éjjel 86417
▁Szerződés 86410
ku 86368
▁étel 86361
iz 86360
▁fürdőszoba 86314
ec 86301
▁kicsi 86270
▁szerkezet 86245
▁Tánc 86212
▁klasszikus 86208
▁friss 86184
▁nyelvű 86147
04 86132
▁adatbázis 86117
ódás 86094
▁(5 86079
▁Los 86068
▁oktatási 85977
▁halott 85945
munká 85942
szak 85828
zük 85788
ést 85662
▁párt 85655
ély 85605
78 85600
▁fogsz 85547
oly 85499
▁számított 85496
▁különös 85480
pr 85445
▁környékén 85444
▁követ 85433
▁termékeket 85426
▁kutya 85415
▁tartomány 85333
féle 85324
▁House 85321
pi 85292
▁naponta 85278
▁Egyház 85274
▁Autóbérlés 85231
ff 85214
▁Tényleg 85203
▁gonosz 85195
▁2018. 85194
▁vagytok 85187
zni 85146
« 85113
▁fizetés 85086
▁hozzájárulás 85084
▁cikkben 85065
▁Játék 85044
▁ideértve 85010
▁Soha 85009
▁kérdez 84992
▁berendezések 84988
vo 84978
▁tanács 84978
Ő 84947
ásához 84935
▁teszt 84928
▁LED 84846
▁örök 84687
▁százalék 84672
▁lányok 84670
▁bármi 84660
▁Bíróság 84644
▁biztosítani 84642
port 84612
▁ugyan 84579
lásd 84574
▁egyike 84492
program 84438
▁minőségi 84364
▁asztal 84352
▁Program 84330
▁írt 84242
▁megadott 84213
▁kíván 84129
▁Ga 84100
lét 84072
▁felszerelt 84060
ög 84058
▁Volt 84018
▁mond 83962
ással 83928
▁évente 83890
▁bio 83872
?" 83867
sák 83824
line 83792
▁távol 83771
▁művészet 83730
▁anti 83729
▁formában 83714
▁dokumentum 83674
▁kérdést 83661
▁másodperc 83652
▁nyilvános 83637
▁lehetett 83564
▁karakter 83561
hetik 83543
36 83527
02 83510
▁eső 83470
▁összesen 83413
ant 83406
▁letöltés 83406
▁Resort 83383
▁várható 83378
▁termelés 83333
elme 83316
▁káros 83260
▁Sam 83251
▁kért 83222
▁fogom 83181
▁du 83164
eken 83134
▁éven 83132
▁rendelkezésére 83119
zák 83096
▁nyomon 83095
▁kb 83084
▁gondolom 83050
▁nyolc 83004
▁kár 83000
▁köztük 82999
▁nevet 82958
▁Valami 82940
▁műanyag 82933
▁intézkedés 82914
▁környezeti 82867
berg 82857
▁szabályzat 82804
▁szélsőséges 82777
▁helye 82773
▁2020 82718
▁akarod 82709
▁kiadás 82703
▁Köz 82699
▁kulcs 82693
▁Bel 82677
▁bárki 82648
▁függően 82637
▁kommunikáció 82622
▁táblázat 82618
▁nyer 82574
lip 82571
ted 82551
ások 82497
város 82479
▁jelentősen 82451
▁nyert 82402
▁strand 82370
írás 82366
▁ellenőrzése 82343
▁tör 82296
47 82279
▁találod 82268
▁használatával 82237
▁pap 82237
▁korai 82190
▁fogyasztók 82171
▁Használt 82142
37 82122
▁Közösség 82103
▁vizsgálatok 82092
▁öröm 82091
les 82088
▁terméket 82085
▁megjelent 82029
tro 81986
▁ill 81912
ásának 81902
▁amik 81878
▁gyakorlati 81867
▁Vannak 81813
▁fogunk 81810
▁hegy 81787
mb 81763
É 81753
bin 81748
ino 81744
ségi 81701
▁belőle 81685
▁mondat 81669
▁Természetesen 81657
▁politika 81621
▁napig 81617
RA 81558
▁járművek 81546
▁jövőben 81540
▁központjától 81482
▁javasolt 81462
▁Szerepjáték 81446
aszt 81381
▁Össze 81377
▁elején 81356
könyv 81321
▁Ju 81312
▁betegségek 81200
▁jelenik 81170
▁egymás 81168
▁emberiség 81146
▁visszatér 81137
▁pontja 81079
kör 81049
▁mikro 81018
▁USB 81013
▁képet 81010
okhoz 81006
▁alkalmazások 80986
▁nevében 80986
ásra 80907
▁körű 80879
til 80828
▁fogad 80805
▁követelmények 80799
our 80786
▁területek 80741
▁időszakban 80734
rit 80717
don 80714
cha 80642
▁valamilyen 80606
ánál 80597
▁oly 80579
sági 80561
▁rengeteg 80527
▁megöl 80526
gen 80508
▁hús 80505
▁embernek 80482
▁szépség 80476
▁lélek 80471
▁Ar 80448
▁használatát 80433
▁válassza 80433
▁mindennapi 80399
▁mindenkinek 80337
▁Mu 80334
nyer 80328
▁ver 80290
▁képviselő 80289
fog 80273
▁ám 80213
▁Legjobb 80210
▁rendőrség 80199
▁Standard 80150
▁11. 80133
eb 80104
▁dob 80088
▁megjelenés 80076
▁Első 79960
ling 79936
▁vette 79843
io 79813
▁melyeket 79800
▁Playen 79797
▁vám 79786
▁2015 79775
▁képernyő 79771
06 79737
▁tanár 79737
▁Tovább 79730
▁köt 79723
▁abba 79672
cím 79670
▁Erre 79658
▁hall 79628
▁Fontos 79621
‐ 79606
▁kérdések 79579
▁kéz 79533
▁szabvány 79505
▁hallgat 79483
▁gomb 79471
▁150 79453
▁utat 79428
che 79380
▁honlap 79371
odat 79370
▁szellem 79311
tatás 79282
▁harc 79279
▁Nekem 79262
▁játszani 79247
▁szívében 79241
▁írta 79238
test 79215
▁arány 79198
▁kert 79197
▁számunkra 79184
ásával 79161
▁Termék 79122
~ 79051
kód 79046
▁vendégeit 78975
▁áram 78946
▁néven 78926
▁reggeli 78926
▁ítélet 78925
▁hamis 78903
▁Villa 78869
1. 78843
▁Teljes 78843
▁Ugyanakkor 78811
▁megoldások 78804
▁hozzájárul 78786
▁súly 78745
▁bér 78744
víz 78705
▁Gar 78695
pp 78678
ág 78675
▁iPhone 78633
▁hazai 78612
▁ablak 78557
▁von 78528
▁ml 78510
▁tárgy 78488
kol 78479
▁kiválasztott 78470
ip 78460
▁egymással 78443
építés 78439
▁isten 78382
▁Bay 78342
járól 78341
▁Ku 78278
▁kampány 78267
▁vírus 78241
▁hónapban 78209
▁egyedülálló 78200
▁személyzet 78151
▁hulladék 78096
▁területeken 78081
ves 78057
▁csökkent 78046
han 78026
▁rád 78005
▁db 77999
▁szeret 77984
▁Ezeket 77959
▁ül 77957
ity 77933
▁innováció 77906
▁voltál 77808
▁működés 77766
védelmi 77753
▁majdnem 77743
▁Star 77698
▁Mag 77675
▁béke 77633
▁beszéd 77619
▁2016. 77613
sággal 77510
áns 77486
▁remek 77472
▁bolygó 77461
▁szabály 77433
▁igény 77428
alap 77388
▁nektek 77384
▁Val 77376
▁formájában 77358
fej 77344
▁gyümölcs 77334
▁fájlok 77252
▁reklám 77245
év 77224
45 77216
▁Jelenleg 77215
▁nappal 77188
tív 77184
ém 77161
▁nőtt 77143
▁klub 77100
din 77081
▁technológiák 77016
▁iskola 77011
▁India 76980
▁kezdve 76975
▁elérni 76961
ER 76930
sük 76913
szín 76880
▁programot 76876
and 76830
▁Kategória 76826
▁aktuális 76825
▁adta 76783
fal 76767
ts 76765
▁mindegyik 76760
▁közt 76733
▁napja 76696
▁Pillanatkép 76673
▁III 76672
▁mennyi 76646
ekhez 76634
▁Élet 76628
csi 76612
▁fi 76592
▁egyszerre 76571
▁szakemberek 76560
▁szempontból 76560
▁tej 76541
▁lehetne 76532
3) 76529
▁Ahhoz 76527
▁EGSZB 76505
▁műsor 76505
▁beállítás 76466
▁Értékelések 76417
get 76389
▁kezdődik 76389
▁Mont 76388
fe 76375
▁kiejtése 76353
▁esetleg 76278
▁történelem 76257
▁vörös 76196
zat 76169
▁hamarosan 76153
dar 76111
▁megint 76109
▁édes 76049
und 76007
tető 75976
▁szer 75974
▁zsír 75913
lis 75890
▁akarnak 75874
03 75857
▁kifejezetten 75818
▁hozzáférést 75802
bol 75775
▁bármelyik 75761
▁száj 75761
▁tévé 75753
▁Számos 75736
ther 75720
▁akkumulátor 75683
áll 75681
▁hagyja 75663
▁áru 75645
ulás 75607
▁fenn 75505
hol 75502
▁végrehajtási 75499
ay 75412
▁nézve 75381
bu 75362
▁alacsonyabb 75354
1) 75349
▁származik 75332
▁Pár 75308
▁számát 75281
üt 75258
▁szeretnénk 75236
▁frissítés 75230
▁n 75205
▁védelme 75202
▁problémát 75193
alapú 75169
▁élt 75137
▁stratégiai 75058
▁Intézet 75024
▁enged 74954
46 74931
▁Men 74919
ris 74917
▁vegye 74909
íteni 74900
ab 74895
▁környezetben 74882
ember 74878
US 74877
du 74877
© 74876
ró 74875
▁évre 74869
▁kitűnő 74854
▁épít 74842
▁rendelkezések 74839
▁megpróbál 74814
jog 74800
gon 74768
▁egyértelmű 74757
hagy 74753
▁növény 74726
kban 74725
▁kapcsolódik 74719
▁mondott 74711
▁szabadon 74690
▁tétel 74664
▁értesítés 74652
▁Közép 74649
▁Keressen 74645
▁érkezett 74632
ítja 74621
sch 74619
▁Ezután 74615
▁tanácsadó 74569
▁kilátással 74518
▁civil 74516
▁minimális 74422
▁Mon 74386
▁észre 74377
▁egyenlő 74367
way 74329
Egy 74292
▁órán 74279
Alap 74256
▁gyártás 74213
▁szerzett 74172
cal 74155
▁csoportok 74071
▁Túl 74068
▁Fekete 74043
▁támadás 74036
▁ezáltal 74033
68 74030
▁kiadó 74015
▁útján 73995
100 73983
AS 73981
▁barátom 73954
▁kő 73951
▁támogató 73916
▁Horvátország 73860
▁luxus 73835
▁Port 73814
ég 73790
▁kettő 73772
▁érintő 73766
▁Személyes 73749
▁jutott 73735
okról 73722
játék 73711
ügy 73631
▁kibocsátás 73611
▁or 73541
▁12. 73520
▁rendszeresen 73435
▁János 73427
▁Lengyelország 73416
▁Best 73387
▁juthat 73375
jú 73352
▁igényel 73346
▁következtében 73326
▁kérem 73316
▁akiket 73296
▁innovatív 73270
lu 73254
▁Saint 73239
ódik 73174
▁visel 73143
zuk 73119
▁lánc 73062
▁hány 73060
▁megállapított 73052
▁technológiai 73021
▁vagyon 73015
1- 73013
▁előbb 72993
zett 72991
▁Road 72924
▁csomagolás 72899
▁szólt 72897
▁Péter 72882
AR 72870
▁lehetőségeket 72840
fen 72812
one 72797
▁tábor 72793
07 72781
▁Spa 72765
való 72762
néz 72758
▁előadás 72755
▁tengeri 72720
gat 72685
▁My 72651
▁vállal 72648
▁abból 72632
isták 72605
▁tényező 72603
▁Tri 72506
59 72505
4) 72495
▁33 72471
▁Államokban 72447
▁meghal 72442
más 72436
sav 72418
▁személyiség 72367
▁Arra 72324
58 72261
▁létező 72254
▁ismer 72244
OK 72203
Jelenítse 72181
▁hadsereg 72080
▁gondol 72077
▁PDF 72038
▁fent 72028
▁olvas 72010
▁megoldást 72007
▁36 71999
einket 71993
díj 71989
jához 71979
▁parancs 71979
▁találni 71922
▁fe 71915
); 71913
cion 71903
▁alatti 71891
▁tartoznak 71875
▁vezetés 71833
ist 71819
fő 71800
▁változat 71791
95 71765
all 71746
ké 71741
▁tőke 71665
▁megyek 71664
▁forgalomba 71635
▁Hu 71594
▁hiány 71592
▁album 71578
▁Ujjazás 71575
kez 71514
▁ipar 71512
▁kiállítás 71512
▁összehasonlítás 71510
▁járó 71491
▁tanítás 71483
fejlesztés 71480
ED 71474
▁ajtó 71468
▁messze 71465
▁Grand 71463
▁Mor 71445
ín 71439
▁használatra 71413
▁hu 71349
▁kérelem 71298
▁létrehozott 71243
▁Kap 71233
▁gyógyszerek 71192
▁zár 71175
▁utána 71152
▁franciaágy 71089
▁Képek 71063
▁találja 71033
▁Gu 71031
▁elkezd 70993
▁áron 70984
▁próbál 70955
▁Sport 70937
kodás 70929
▁üres 70913
▁tanul 70899
▁száll 70866
RE 70852
olni 70842
eiket 70833
▁szoftverek 70827
▁szabályokat 70809
of 70806
▁segítség 70802
▁változások 70801
▁keresett 70784
▁fiam 70773
▁foglalkozó 70728
▁doboz 70673
▁park 70643
▁fajta 70598
▁módosított 70560
▁csúcs 70539
áig 70536
▁Törökország 70531
▁kártya 70487
▁önkéntes 70474
▁fiai 70469
▁tiszteletben 70442
▁isteni 70402
IS 70389
▁Továbbá 70383
▁só 70353
▁valamelyik 70353
▁fordul 70350
con 70348
▁tanulás 70270
nánk 70245
su 70228
▁útmutató 70221
szó 70215
▁szék 70207
AL 70204
ődés 70188
▁testvér 70178
▁fogjuk 70164
▁mű 70143
▁So 70111
lem 70104
▁feldolgozás 70084
▁% 70019
▁Tud 70019
▁könyvtár 70016
69 69965
▁monda 69965
▁módszerek 69958
öv 69951
▁szervez 69951
56 69938
▁minute 69873
▁tegnap 69850
▁szánt 69843
▁Tudja 69837
bar 69831
ív 69823
ney 69813
· 69788
▁fizetési 69754
▁napot 69748
”) 69740
▁részén 69709
▁fickó 69695
ságát 69682
▁száraz 69668
▁gyár 69624
▁HD 69621
▁műholdas 69592
▁megvan 69583
bel 69582
log 69490
▁játékot 69488
▁pontjában 69467
ob 69456
▁jegy 69428
▁emlék 69416
▁percre 69410
▁nézet 69396
ville 69395
▁poli 69389
▁cégek 69358
bal 69354
3- 69353
▁egyben 69324
▁amellyel 69320
▁zsidók 69290
▁Párizs 69288
▁talaj 69280
▁vonal 69271
▁amiket 69267
shi 69264
▁létrehozása 69252
▁segíthet 69250
▁ugyanaz 69234
▁helyre 69207
88 69206
▁bekezdésben 69197
▁alsó 69119
▁joga 69103
▁Las 69089
▁Bra 69084
▁fejlesztési 69081
▁utáni 69080
▁programokat 69069
▁tetszik 69059
▁Pu 69041
▁Köszönöm 69035
▁31 68983
▁hatalom 68968
▁országokban 68924
▁Emellett 68889
▁bu 68861
▁alig 68853
▁Art 68825
▁mar 68800
íti 68756
▁szerelem 68751
▁rendszeres 68729
▁szokásos 68705
▁Hall 68695
▁Hi 68689
▁Válasz 68689
▁leírás 68663
▁apró 68621
▁idősebb 68614
▁története 68613
▁stressz 68612
osan 68604
jt 68600
▁sőt 68598
▁Euro 68582
▁jogot 68547
▁Ny 68534
▁jogos 68528
vis 68525
kezelő 68513
▁13. 68511
▁tehet 68497
▁válaszol 68493
ellenes 68472
▁Összes 68470
ft 68468
▁járt 68441
rán 68431
▁kilátás 68419
▁stratégia 68395
▁ételeket 68366
▁élete 68361
OR 68347
▁tegye 68334
▁Er 68327
hr 68317
▁érdek 68274
▁szándék 68272
▁Izráel 68267
▁tájékoztatás 68267
ágy 68255
▁forgó 68252
▁véd 68244
▁minél 68202
▁ügyvéd 68166
knek 68159
ács 68107
▁közelben 68087
▁órák 68070
▁szolgálnak 68025
▁bizonyíték 68014
▁vezetője 67955
ká 67945
▁kezelni 67902
▁tartják 67901
▁okostelefon 67896
▁bevétel 67865
▁korlátozott 67835
▁komolyan 67828
▁átlag 67826
▁ára 67779
ón 67743
▁vizet 67670
▁küldött 67667
low 67649
▁színes 67634
ance 67620
list 67598
▁tűnt 67592
▁Játékok 67585
▁alkalmazható 67578
▁alkohol 67553
▁Chi 67549
▁15. 67539
44 67531
▁vezetői 67520
▁előtti 67491
▁árat 67465
▁Tu 67460
▁vak 67458
▁érzi 67450
▁Elég 67448
▁gyakorolt 67403
▁Legyen 67337
koz 67331
szk 67300
▁Cha 67289
két 67286
▁(5) 67285
▁privát 67231
▁szülők 67215
ozni 67212
▁kg 67210
▁látta 67191
▁ideiglenes 67149
▁fizetnie 67145
▁ellenség 67133
▁tudat 67102
ye 67078
▁1000 67048
▁látja 67048
▁számomra 67039
▁példa 67036
ent 67035
▁padló 67027
okból 66797
▁szálláshelyek 66792
szik 66716
▁fejezet 66700
pro 66696
▁sí 66694
▁alternatív 66679
IT 66677
▁szervek 66661
▁Uram 66603
▁bíró 66592
ésének 66584
ON 66570
sza 66549
▁Ismer 66534
óra 66530
ód 66519
▁célok 66517
▁kezelt 66489
▁kínálunk 66447
▁költségvetési 66418
▁Sajnálom 66396
IN 66386
▁végez 66386
▁Görögország 66384
▁hasonlít 66374
7. 66366
▁Élő 66325
▁Fog 66299
ran 66277
tán 66255
▁hibák 66227
▁magasság 66202
▁teremt 66195
csomag 66178
▁dolgozott 66178
▁19. 66169
HL 66154
▁lakosság 66131
▁keresés 66111
▁tulajdon 66102
▁gondolkodás 66076
▁ital 66076
nev 66070
▁klinikai 66067
▁negyedik 66048
▁Róma 66006
▁miniszter 66005
▁Ausztrália 66002
▁eredményeket 65993
▁Tor 65978
▁fiatalok 65976
▁kapu 65972
▁helyzetben 65967
▁voltunk 65964
▁réteg 65955
▁csendes 65938
ügyi 65924
▁válaszokat 65915
▁vezetett 65910
park 65899
▁Remélem 65855
­ 65852
▁kijelző 65849
▁életem 65846
▁Michael 65817
▁polgári 65799
GY 65793
ust 65793
net 65772
ették 65770
▁Pan 65734
▁módosítás 65718
asztal 65664
▁hozni 65642
▁Air 65633
▁normális 65597
▁védő 65577
EM 65500
▁jelentést 65497
85 65490
83 65467
▁titkos 65447
▁törzs 65444
▁amivel 65434
▁rájuk 65427
BA 65409
▁hozzám 65409
▁elsődleges 65384
▁esetleges 65369
42 65368
▁csökken 65356
▁felesége 65355
▁végleges 65332
▁Rendszer 65326
tani 65315
▁2010 65309
▁hatálya 65296
▁körében 65285
OL 65266
▁remény 65266
▁cukor 65234
▁javítás 65230
▁embereknek 65212
októl 65199
▁közlekedés 65192
▁Jobb 65176
ula 65163
▁értékelések 65160
tic 65101
▁úgynevezett 65073
mes 65064
▁2015. 65058
szolgáltatás 65044
▁folyamatok 65034
▁kelt 65021
▁Ru 65016
▁video 65014
▁Rentalcars 65009
▁George 65006
▁eredménye 65004
▁del 64990
MA 64986
▁látom 64937
dia 64914
▁köteles 64914
▁beszélt 64909
kap 64897
▁inter 64878
tch 64874
▁értékesítés 64874
mos 64861
▁Ehhez 64836
▁kés 64833
▁Ex 64832
▁márka 64831
▁nyugati 64829
▁hirtelen 64820
▁Airport 64806
alm 64786
▁2- 64762
ami 64748
▁Red 64731
▁ettől 64716
▁böngésző 64706
▁mást 64677
pin 64670
▁Center 64641
▁növekvő 64628
▁játszott 64615
vétel 64598
▁18. 64588
▁transzfer 64575
▁Négy 64535
▁2013 64519
mér 64505
rk 64491
▁kommunikációs 64469
▁Ö 64461
▁támogatási 64448
▁rugalmas 64429
▁kereskedelem 64428
▁szerver 64423
▁illeti 64417
▁tényleges 64404
▁baleset 64385
▁fejlett 64381
▁ajánljuk 64354
▁34 64353
▁akció 64339
▁hálózati 64337
▁jellemző 64325
▁valakit 64324
▁űr 64324
▁Sza 64314
▁48 64308
65 64257
tes 64255
part 64254
41 64239
▁hasonlóan 64194
zol 64173
▁Bi 64159
cc 64156
▁Gyors 64131
▁do 64119
▁internetes 64119
▁mennyiségű 64118
▁Office 64105
▁érdekelt 64100
▁tiszt 64099
▁(6 64028
▁David 64023
▁anyagi 63991
▁Felhasználó 63984
nám 63978
▁tartós 63964
▁dolgoz 63963
▁látsz 63934
org 63930
▁együttes 63919
▁dolgozó 63913
▁téma 63890
gu 63848
▁körben 63843
kod 63824
▁annyit 63795
▁utas 63774
▁alapú 63736
▁Női 63724
▁érted 63719
▁szállítási 63702
▁képesség 63694
ps 63688
▁2000 63686
▁terasz 63677
▁módosítása 63591
vég 63586
ológia 63559
vas 63553
ox 63547
▁Amit 63539
▁kapcsán 63522
▁idén 63519
▁akart 63512
▁apa 63509
hatunk 63485
43 63481
▁fotókat 63476
▁amiért 63473
▁okos 63462
▁bemutató 63444
▁szexuális 63435
gor 63432
▁Bizottságnak 63403
▁kétszer 63389
her 63366
▁nálunk 63365
▁Ház 63355
▁Rá 63351
▁Max 63350
eim 63335
▁Ügynökség 63328
▁da 63288
▁medence 63274
▁USD 63269
▁Vajon 63232
▁by 63227
ói 63214
▁Sha 63201
66 63187
▁térség 63170
▁üzemanyag 63156
▁vajon 63135
▁foglal 63117
▁szívesen 63117
▁automatikus 63110
kő 63103
eu 63094
▁apám 63073
▁egyensúly 63069
▁hallgatók 63061
▁mutató 63056
▁last 63037
▁munkavállalók 63014
▁csökkenti 62992
▁pre 62977
▁Leg 62966
▁változó 62953
▁2012 62946
▁dokumentumok 62940
▁fürdő 62930
▁források 62925
▁Munka 62908
▁Mennyi 62902
▁elől 62900
▁20. 62886
▁standard 62878
▁14. 62873
ier 62870
▁vállalati 62863
▁cipő 62856
heted 62845
▁elemek 62809
▁rák 62800
▁talált 62788
▁áruk 62786
▁földön 62764
jegy 62735
▁azután 62735
▁kritikus 62732
lit 62726
▁400 62720
unkban 62718
▁38 62688
tő 62677
> 62664
▁piros 62597
▁Víz 62596
▁tanú 62592
▁iroda 62589
▁Pen 62580
500 62522
ések 62517
▁hivatal 62505
ály 62504
jatok 62466
lé 62461
▁hallottam 62456
▁nyitva 62450
▁település 62446
▁kreatív 62429
▁bo 62397
▁találkozó 62390
cin 62355
környezetvédelmi 62341
▁részvétel 62332
▁Fürdőszoba 62330
▁készlet 62262
▁épült 62257
▁élnek 62237
▁kijelölt 62222
▁po 62221
▁támogatása 62219
▁veszély 62217
jába 62208
▁lakosztály 62182
▁szembe 62143
▁ennél 62136
lés 62095
állás 62050
▁2012. 62020
▁Santa 62013
eivel 62006
▁Valaki 62001
▁ciklus 61989
▁bi 61986
▁Igaz 61980
ődik 61960
▁Olaj 61956
▁dél 61954
▁Zoom 61950
▁Egyes 61936
hatók 61913
▁egyértelműen 61905
▁magánszemélyek 61852
▁gyártási 61830
▁zárt 61824
▁szövetség 61807
tion 61806
▁indult 61797
nának 61796
▁mérete 61786
▁kereső 61725
▁általi 61718
▁3- 61712
▁Apartman 61672
▁tagállamban 61669
▁platform 61663
▁World 61648
art 61641
illa 61622
▁nemdohányzó 61614
▁kutatók 61612
▁16. 61605
▁Társaság 61597
▁web 61571
▁Ci 61563
▁érdeklődés 61563
▁ismeretlen 61559
▁Mount 61550
fer 61513
ning 61489
izál 61462
89 61437
▁legjobban 61428
▁intelligens 61403
▁Csoport 61401
nénk 61391
izálás 61385
név 61368
▁leszel 61354
▁Dan 61324
ji 61303
▁Gyere 61299
▁városi 61297
-1 61294
▁2014. 61293
▁utazó 61282
ll 61274
▁játszik 61272
terület 61257
▁gondolja 61226
▁oké 61201
▁felügyeleti 61175
▁polgárok 61173
▁Amint 61172
▁szeretem 61172
▁CO 61160
▁miniszterelnök 61155
▁nyári 61121
hetünk 61120
fr 61096
86 61084
▁Vásároljon 61080
▁w 61079
▁érhető 61068
▁Közel 61062
olaj 61056
▁beavatkozás 61045
▁szerintem 61022
▁busz 61006
▁végrehajtása 61000
▁Gyerünk 60994
▁Orgazmus 60991
osabb 60983
▁értékes 60968
fon 60964
▁követel 60946
▁kül 60906
▁2011. 60904
▁látogatás 60903
▁alól 60898
ski 60896
▁tudott 60895
▁Nyugat 60889
ys 60842
jei 60836
▁Nézze 60835
▁zs 60818
▁szerepe 60780
▁információs 60747
▁szállító 60738
nák 60729
ái 60727
▁állít 60725
▁2013. 60677
dob 60652
▁igazgató 60633
▁tánc 60624
▁Don 60619
▁kísér 60619
▁bejegyzés 60614
▁ismeri 60604
▁értékelése 60594
▁Gal 60554
▁elment 60550
▁döntött 60545
▁mechanizmus 60532
▁ugyanolyan 60521
▁vizsgálati 60483
▁illesztőprogram 60482
▁részletek 60480
▁diák 60470
▁ku 60461
▁gyilkos 60445
▁szuper 60439
sorozat 60435
alak 60416
▁vonatkozásában 60408
▁ro 60370
▁segített 60362
▁feladatok 60325
nya 60321
▁bölcs 60320
▁hagyni 60293
▁esküvő 60285
ország 60256
▁lelki 60253
▁vásárol 60245
▁Néha 60229
aim 60226
ura 60217
ákat 60207
▁rosszabb 60176
▁Com 60172
határ 60171
▁író 60171
▁University 60166
▁Istennek 60159
▁szükségünk 60140
▁hozza 60127
▁állítják 60071
▁barátok 60070
▁szerep 60069
▁okozta 60066
▁lényeg 60062
▁operációs 60049
▁védelmi 60016
▁tervez 59986
▁dolgozunk 59976
▁South 59968
▁We 59951
▁ügynök 59933
▁erőszak 59926
▁gombra 59921
76 59920
öz 59914
▁étrend 59892
▁www 59879
res 59874
▁találta 59850
▁hatást 59819
oc 59815
▁görög 59803
▁falu 59790
▁önálló 59779
▁magunkat 59766
▁Sajnos 59747
▁miként 59743
rák 59741
▁javítása 59741
▁napján 59740
57 59732
▁blog 59707
▁21. 59702
▁méter 59685
olja 59684
▁Green 59679
▁jelölt 59673
▁Bizottságot 59661
bra 59657
▁kívüli 59650
ipar 59645
▁közelebb 59640
leges 59633
▁magunk 59630
▁díjat 59605
▁Berlin 59561
▁kedvező 59543
▁közepén 59539
▁baba 59533
sok 59531
▁engedélyezett 59519
▁korlátozás 59514
▁75 59510
pár 59501
▁Fájl 59487
▁Tan 59486
▁fejlesztése 59483
▁titeket 59469
▁fok 59461
▁megrendelés 59436
dik 59430
▁Bre 59421
nád 59394
64 59368
▁erők 59366
ainkat 59361
▁egyezmény 59359
▁Válasszon 59326
▁vita 59323
▁integrált 59315
▁traktorpool 59309
▁design 59308
▁Férfi 59285
bil 59282
▁szűrő 59276
▁közlekedési 59227
pal 59218
▁hirdetés 59214
hatsz 59212
▁dózis 59208
▁felsorolt 59190
▁oldala 59188
▁üzenetet 59183
föld 59180
Ö 59170
▁17. 59164
Meg 59156
▁dal 59142
▁Ya 59096
▁kérés 59078
cse 59070
▁mondtad 59055
▁nevez 59036
▁Paul 59030
▁alkalom 59009
▁Év 58942
szerkesztés 58936
ület 58920
▁folyamán 58908
éves 58901
▁eredményei 58899
▁Ken 58892
▁Leírás 58890
▁küldetés 58879
▁Is 58876
▁amilyen 58867
▁hozzánk 58842
ódott 58819
óz 58817
▁DVD 58815
▁elmélet 58782
▁Je 58778
5) 58772
pel 58758
▁mondták 58750
▁harcol 58721
▁telepítés 58713
El 58687
odott 58666
▁napban 58665
oli 58664
▁ta 58663
▁árakon 58662
▁százaléka 58648
▁menü 58618
▁viszony 58616
ném 58611
▁könyvet 58607
jetek 58606
▁Következő 58605
67 58585
▁bejelentés 58580
▁Hasonló 58574
▁szállodában 58574
▁fordítás 58571
▁főleg 58559
▁karrier 58554
▁elegáns 58521
▁szeretnél 58517
▁közeli 58506
▁értéke 58456
▁határidő 58439
▁fórum 58437
▁kivételével 58426
▁kultúra 58409
DA 58399
▁06 58380
▁reggelit 58339
▁Beszél 58330
▁Mer 58251
▁Anti 58242
▁kérlek 58242
▁CD 58221
▁óriási 58213
▁enyém 58208
▁srác 58172
▁vezetők 58168
▁szereti 58150
▁Cu 58149
például 58139
▁Jack 58138
▁250 58137
ona 58113
▁2011 58049
▁múzeum 58047
foglal 58042
▁tan 58034
▁vág 58000
▁edzés 57994
4- 57993
▁természeti 57986
▁Kérem 57979
▁irány 57978
▁egyébként 57976
▁indít 57950
▁kötelezettségek 57946
▁Gazdasági 57940
▁címe 57936
▁használnak 57933
▁nyilvántartás 57926
▁Hivatal 57917
▁számukra 57907
▁me 57899
hetők 57896
▁Washington 57892
ence 57889
▁menet 57876
▁menedzsment 57867
▁eszközöket 57812
▁ételek 57808
▁Inter 57804
▁barát 57779
▁elismert 57763
iv 57726
▁eljárást 57726
▁James 57723
▁Íme 57720
▁közzé 57718
▁biztosító 57709
▁észak 57705
▁magával 57682
▁Kattintson 57670
▁beszélgetés 57656
SA 57648
▁eladás 57629
▁fölött 57610
▁ugyanazt 57598
▁jelentette 57595
▁általa 57588
▁felvétel 57586
▁városok 57558
▁szóban 57553
▁támogat 57552
▁lo 57549
DI 57542
▁koncert 57540
▁főnök 57501
▁An 57489
▁10- 57484
sze 57475
▁akarta 57467
ten 57456
▁fut 57431
▁kapni 57426
▁öl 57425
kedés 57409
▁Har 57387
field 57351
▁rendelete 57349
▁Ed 57341
▁azonosító 57324
▁azóta 57314
98 57303
TS 57296
▁Ekkor 57290
hatod 57271
▁aminek 57270
▁Ber 57266
▁Ér 57263
ey 57249
▁forró 57241
ció 57235
▁37 57232
▁nyak 57223
▁fénykép 57200
▁Ol 57192
▁mér 57177
felvétel 57167
▁tökéletesen 57161
8. 57143
▁Angeles 57138
nok 57108
79 57105
▁eltűnt 57105
▁hívás 57092
▁4- 57087
▁sejt 57071
▁tartalma 57066
▁elért 57063
▁partnereink 57060
tikai 57031
54 57025
▁5- 57024
77 56951
▁szálláshelyet 56935
▁hátsó 56929
▁háttér 56923
▁Premier 56914
▁Sztriptíz 56911
▁közönség 56910
ella 56909
▁felelősséget 56903
▁lehetősége 56897
▁idők 56863
▁Inc 56862
▁esik 56839
terem 56830
suk 56826
▁mező 56803
▁visz 56796
▁bar 56784
ítsd 56776
▁magatartás 56756
▁kategóriában 56741
▁vonat 56738
▁benyújtott 56734
▁Egyezmény 56727
› 56726
▁utazási 56716
▁rendőr 56715
▁időre 56710
▁Hang 56690
▁jóváhagyás 56677
▁statisztikai 56675
form 56612
▁er 56610
▁tár 56593
▁többsége 56564
▁érkezik 56555
▁Vár 56537
▁beépített 56523
▁rendelkezés 56514
▁alakul 56501
sk 56489
nének 56436
ráz 56427
▁fele 56426
gondol 56416
▁állítja 56405
▁tri 56394
▁igények 56366
▁sütő 56344
iss 56335
▁gyilkosság 56327
mérő 56325
▁fordít 56306
▁part 56288
any 56286
hálózat 56284
▁Tur 56278
▁szerző 56272
ita 56251
▁alvás 56249
▁Dávid 56225
▁jellemzői 56211
verseny 56159
▁Peter 56153
▁sokáig 56143
▁étteremben 56125
▁szilárd 56117
▁zenei 56116
▁lehetetlen 56115
▁North 56102
97 56099
▁befektetési 56093
menet 56084
▁halt 56081
▁Black 56080
jo 56073
kan 56065
AN 56056
▁Hold 56054
ségének 56051
▁ezeknek 56034
Ki 56014
▁Ford 56010
▁2014 56008
enci 56004
Minden 56001
▁Hosszú 55999
▁értékek 55998
▁imád 55993
▁kezdett 55987
nes 55980
▁kézi 55962
▁fogod 55952
▁vallási 55949
▁izgalmas 55927
▁repülőtérre 55923
▁Letöltés 55919
sziget 55908
▁tisztel 55899
▁negyed 55894
tol 55885
▁földrajzi 55883
▁Honnan 55861
▁növeli 55860
hatóság 55848
gan 55841
töltés 55836
▁HP 55824
▁játékosok 55803
nd 55776
▁reakció 55766
▁sikerül 55763
▁hisz 55755
▁félre 55753
▁érzékeny 55748
▁modul 55739
sem 55725
▁Pál 55707
ekről 55693
▁j 55693
▁Ser 55685
▁rögzített 55665
▁értelme 55663
▁Vegye 55644
▁ex 55636
pó 55634
ME 55613
▁75%- 55611
gli 55574
▁nézze 55570
poli 55557
▁Kapcsolat 55536
lon 55535
▁tető 55508
▁drága 55507
▁feladata 55505
▁Hat 55489
▁Par 55465
▁okozott 55446
▁szenvedő 55435
▁oszt 55434
vir 55423
▁megszállni 55415
Ma 55373
▁pillanatban 55354
▁környéken 55346
/4 55328
▁őr 55318
▁házi 55300
▁Öt 55295
▁rendezvény 55293
íz 55285
× 55249
▁szenved 55248
▁Autó 55199
▁Dar 55196
▁fiúk 55195
▁művelet 55189
▁tapasztalt 55189
▁kerek 55173
▁szed 55155
▁elmondta 55145
▁folyamatban 55123
▁stabil 55123
▁könyve 55088
nagy 55086
aw 55065
▁Her 55062
tartás 55059
▁udvar 55052
▁Travelport 55049
▁Anya 55045
ségek 55042
áját 55036
izált 54999
▁látszik 54998
▁na 54995
jánja 54986
▁jég 54974
▁előzmények 54967
jak 54958
té 54957
▁angyal 54945
▁büntetés 54945
▁lét 54935
▁Egész 54932
▁emlékeztet 54927
▁élelmiszerek 54926
▁dollárt 54919
▁Pe 54899
▁tettem 54895
▁évet 54878
ős 54869
edett 54858
▁érkező 54838
▁nézni 54827
ish 54810
MP 54803
▁42 54803
▁Cal 54793
▁lépéseket 54751
▁Suites 54733
▁Uni 54725
▁felhasználóknak 54724
▁regisztráció 54685
▁értelemben 54683
▁kapta 54676
▁Figyelj 54675
▁mer 54662
HA 54652
De 54647
vid 54647
are 54633
▁Pont 54629
lam 54620
▁jelentenek 54612
▁táv 54607
rd 54593
▁Ide 54576
▁megkap 54569
▁terhesség 54558
MS 54557
▁kikötő 54553
képpen 54548
▁meghatározása 54547
TI 54545
teljes 54542
▁US 54527
ain 54512
▁Fe 54511
▁szülő 54499
▁levél 54493
ics 54483
▁Bon 54483
▁veszélyt 54477
ein 54475
51 54470
▁vas 54454
▁célra 54451
▁im 54449
▁okozhat 54446
▁feltételeket 54442
▁lista 54415
▁tesznek 54401
▁Hely 54388
OP 54346
term 54337
▁bel 54336
▁Robert 54328
ológiá 54321
▁apja 54310
▁es 54310
▁biztosítják 54309
vált 54307
▁generáció 54295
▁közösen 54287
vér 54283
szék 54274
fotókkal 54269
tató 54253
”- 54252
encia 54240
▁előadó 54227
▁Ám 54211
▁képviselői 54209
ID 54180
bit 54169
▁segítenek 54155
▁Kanada 54154
6) 54109
jukat 54097
▁jelentése 54066
▁kettős 54058
▁mondd 54058
▁szavak 54042
▁Elő 54034
▁SZ 54028
▁2009. 54022
▁reform 54021
mul 54017
▁feszültség 54014
▁05 54009
▁export 53980
eiben 53978
▁irányítás 53978
fin 53976
87 53969
hassa 53952
▁kapnak 53950
mány 53928
▁felhasználás 53917
▁részéről 53899
Hőmérséklet 53898
tter 53878
▁recepció 53876
▁extra 53824
▁alakult 53798
▁feletti 53790
▁harag 53787
film 53767
▁típusa 53737
stru 53733
▁para 53701
▁alkatrészek 53674
étek 53650
▁tanulni 53644
▁járat 53625
▁maradni 53616
▁Adatvédelmi 53597
ésével 53595
▁kihasznál 53591
▁Via 53587
▁reagál 53587
biztonsági 53586
▁állapotban 53574
szállásfoglalást 53571
dor 53564
▁Mark 53564
▁30- 53553
TA 53521
▁Kelet 53517
▁tájékoztatást 53510
▁nyílik 53489
▁09 53472
▁Add 53466
ottak 53453
▁vonzó 53445
▁döntő 53425
▁hátra 53402
burg 53400
▁Jog 53392
ipari 53364
▁kivitel 53362
▁Kell 53360
ev 53351
▁Ezenkívül 53351
▁sérült 53348
▁2010- 53341
▁ID 53334
53 53326
▁tőlem 53320
állomás 53318
▁Free 53317
▁Pre 53311
ezni 53282
▁társ 53269
▁39 53265
▁kezdődött 53252
▁repülő 53240
▁menj 53237
fehér 53233
▁Sta 53225
▁működési 53223
bl 53222
200 53214
▁hó 53210
▁elhelyezkedését 53207
▁fogadás 53204
▁lépjen 53202
▁működését 53199
▁Rövid 53190
▁2019. 53181
▁tulajdonos 53179
▁Sol 53166
▁vers 53137
▁szegény 53135
▁stratégiá 53124
▁ugyanazon 53091
▁kutyák 53064
▁interjú 53063
forrás 53039
▁létesítmények 53031
pu 53025
tika 53022
▁megtart 53017
gh 53016
▁nyaralás 53003
ésre 52999
▁kerékpár 52967
▁Can 52947
▁Tre 52946
▁kölcsönös 52942
▁Min 52940
▁részlet 52923
san 52915
96 52910
▁jegyzőkönyv 52906
jek 52900
5% 52892
▁Island 52884
▁Top 52858
▁Állam 52855
▁Családi 52826
▁felmérés 52821
▁She 52814
▁művész 52792
▁meglát 52782
▁hívják 52781
▁Szolgáltatások 52762
▁utca 52761
0.000 52760
qui 52758
ture 52749
▁May 52743
▁oszlop 52743
▁húz 52730
▁Megjegyzés 52721
▁drog 52676
▁tünetek 52675
gő 52672
▁lehessen 52668
▁erősebb 52641
▁ennyi 52629
▁men 52629
▁példány 52628
▁kaphat 52622
▁résztvevők 52614
▁modellek 52602
▁sajtó 52588
▁gyakori 52582
▁tényezők 52571
▁Pri 52564
▁All 52555
onként 52543
▁sokszor 52536
▁éreztem 52527
▁(18 52516
▁kamera 52506
▁tanácsadás 52498
ölt 52495
▁egyetemi 52492
▁biológiai 52464
▁látott 52445
▁küzdelem 52428
▁szükségem 52426
▁későbbi 52425
▁képvisel 52417
▁Bur 52393
▁Adatkezelő 52377
már 52370
▁szembeni 52370
sha 52368
▁látás 52368
▁szenvedés 52358
▁vizsgálata 52348
▁csatlakozás 52344
ati 52334
▁stabilitás 52321
▁fertőzés 52320
▁Azon 52318
jével 52313
▁Mielőtt 52310
▁rendez 52302
▁kombináció 52297
▁akarják 52272
▁legolcsóbb 52269
ari 52260
▁tárgyalás 52256
▁2010. 52239
▁találhatók 52237
▁forma 52220
▁vezérlő 52192
▁szab 52188
fl 52174
▁találsz 52170
▁órát 52156
▁foglalkozik 52155
▁Napi 52154
▁tojás 52141
▁akarat 52137
▁ekkor 52136
▁Holnapi 52133
▁befejez 52123
énél 52116
sti 52112
In 52104
bri 52103
ä 52099
▁Bécs 52081
mód 52073
▁Mos 52070
▁01 52021
▁hajók 52007
▁hozta 52001
▁kaland 52001
▁Románia 52000
ord 51995
▁Barcelona 51952
▁Ausztria 51945
ock 51938
"- 51937
▁tapasztal 51925
író 51921
▁vendégeket 51914
▁számol 51911
▁bármit 51909
▁Business 51902
▁Es 51895
▁Menj 51881
ess 51880
▁hagyta 51877
▁összetett 51874
▁Hill 51870
▁tisztelet 51867
▁államok 51849
▁rendkívüli 51831
▁bónusz 51815
munka 51813
▁Később 51813
▁lényeges 51804
▁jöttem 51802
▁néző 51794
▁king 51790
▁hiánya 51788
▁Mester 51782
▁Ugyan 51781
▁méltó 51766
jó 51727
▁látogató 51727
▁Szín 51719
▁vad 51711
▁lény 51702
▁Hadd 51686
▁Épp 51681
fu 51673
▁2008 51673
▁he 51664
ozza 51663
▁ősi 51650
▁részei 51643
▁beszámoló 51625
▁koncepció 51622
ken 51608
▁félelem 51607
▁világháború 51602
▁lengyel 51588
▁testület 51587
▁hangzik 51577
ano 51574
▁kulcsfontosságú 51569
éséhez 51565
ori 51556
▁mindannyian 51544
▁dátum 51536
▁sárga 51528
tudományi 51527
niuk 51521
▁mennyiség 51492
▁figyelemmel 51491
▁boldogság 51472
yl 51464
▁támogatott 51463
▁alkalmazását 51441
▁hibát 51437
▁Foglalás 51428
védelem 51427
éssel 51426
▁Könyv 51418
eget 51416
▁rendelés 51403
▁használjuk 51398
▁programban 51398
▁Szép 51393
jelen 51392
űr 51392
▁íz 51390
▁halála 51372
▁sohasem 51367
▁ránk 51352
▁zené 51346
▁Valójában 51339
▁kezdő 51337
▁belép 51334
▁rosszul 51330
▁feltétel 51320
▁Örömmel 51316
▁energiát 51304
kozás 51300
▁rendes 51299
jében 51291
▁haver 51291
▁élvez 51276
▁megtanul 51275
felé 51263
▁Elnök 51260
▁autóbérlés 51259
▁2008. 51247
▁időtartam 51246
▁erdő 51242
▁pi 51239
▁Gyermek 51230
hatás 51229
▁Biztonsági 51215
enként 51212
cer 51190
▁jót 51190
▁kol 51188
▁színű 51176
▁Kiadó 51169
▁szívem 51167
▁földi 51160
▁Svédország 51146
▁normál 51144
▁zaj 51143
nn 51138
ng 51124
▁gyakorol 51100
▁minta 51099
▁többször 51099
▁felszerelés 51082
▁légy 51074
ary 51060
▁eszközt 51059
▁Hírek 50989
▁várt 50973
aj 50963
▁repülőgép 50954
▁Martin 50953
hajó 50947
▁katolikus 50946
▁panasz 50925
IA 50909
▁jönnek 50897
zunk 50894
▁ri 50887
▁Win 50883
94 50882
▁megfigyelés 50851
▁amelyen 50848
lemez 50844
▁jellemzők 50841
ix 50813
▁Termékek 50790
▁esélye 50779
▁Sun 50771
▁kedvezménnyel 50771
▁okok 50770
▁nappali 50765
ska 50757
▁kiemelt 50748
▁funkciók 50746
barát 50742
▁2015- 50723
▁csökkentése 50719
▁keleti 50703
▁20- 50699
▁fűtés 50685
ezer 50672
6. 50659
▁fellépés 50658
▁könyvek 50647
▁adnak 50629
▁fontosabb 50622
▁Ger 50611
▁konferencia 50593
▁szobákat 50573
▁korszak 50572
▁futtat 50564
▁halászati 50557
▁Kezd 50541
▁Műszaki 50528
▁helyez 50509
▁véleménye 50507
▁munkáját 50499
61 50473
▁Ferenc 50460
▁buli 50432
dra 50431
▁mellé 50417
▁szi 50410
▁kaptam 50404
▁táj 50402
▁Kérdés 50388
▁életre 50388
▁végző 50387
▁kéri 50384
Le 50383
ene 50382
▁üzem 50371
▁Auto 50362
▁jövőbeli 50361
▁mini 50358
▁találtam 50354
kán 50340
eik 50339
▁ügyfeleink 50282
▁kihívás 50261
edik 50254
▁Station 50238
▁Pedig 50219
▁tettek 50211
▁Szobák 50205
pol 50203
▁hatékonyság 50199
▁App 50194
▁kérdése 50185
▁kapitány 50163
▁kard 50160
▁tervek 50155
▁Agoda 50154
▁álom 50150
▁nyomtató 50149
cső 50148
IL 50142
▁színész 50140
oknál 50136
lány 50103
▁seb 50098
▁31- 50096
▁55 50078
▁vonatkoznak 50036
▁Un 50029
▁helyébe 50027
nyomás 49970
▁hivatkozás 49959
▁pr 49948
▁szervezett 49946
ius 49935
▁személyre 49934
▁HUF 49928
▁megjelenik 49925
▁44 49914
▁átmeneti 49909
▁Irán 49907
▁Sp 49901
▁Ge 49896
BS 49879
ává 49854
▁Információ 49853
72 49851
évé 49850
▁tanfolyam 49850
▁ügyben 49848
ogat 49844
elek 49825
▁lassan 49825
▁szoros 49814
▁ló 49813
CO 49807
▁hiányzik 49806
▁említ 49797
▁épületek 49796
rom 49773
▁kényszerít 49773
▁visszatért 49767
▁Kal 49754
osztály 49737
▁hírek 49718
▁kutató 49711
▁rak 49706
▁hűtő 49693
▁Sokan 49692
▁forgalmazóitól 49691
▁szórakoztató 49690
▁Alapítvány 49681
▁hordozó 49672
▁Mindent 49665
▁kormányzati 49644
▁tea 49643
▁várni 49641
▁folyadék 49638
▁erőforrások 49605
▁Mad 49603
▁Mal 49594
▁mo 49589
▁[...] 49559
▁időpontja 49549
▁Kérlek 49548
▁összefüggésben 49547
▁Német 49541
▁kifizetés 49540
▁bán 49526
lánc 49512
▁Hivatalos 49511
▁virtuális 49500
▁elfogadja 49484
▁masszázs 49475
▁kiválasztás 49462
▁ritka 49452
▁értéket 49452
egység 49447
észeti 49445
▁Mózes 49444
▁időpont 49437
▁fokozat 49427
▁ítél 49425
ath 49414
▁Deluxe 49413
▁dr 49406
▁déli 49405
▁határozza 49405
▁Üzleti 49396
▁helyezett 49377
93 49358
véd 49340
ól 49326
▁Egyszer 49324
▁Mel 49287
foglalás 49283
▁Kan 49276
▁nővér 49265
▁árnyék 49262
▁Idő 49261
tar 49256
▁felügyelet 49228
▁enni 49221
vert 49219
▁fizetni 49215
vezetés 49214
▁hatását 49208
ient 49203
▁elképzelés 49202
▁karbantartás 49200
vizsgálat 49180
▁központjában 49180
▁párbeszéd 49172
▁leszünk 49135
▁tagállamoknak 49134
vál 49131
▁eleget 49129
▁professzionális 49123
▁érint 49123
▁híd 49114
▁(6) 49103
kre 49099
▁old 49093
▁Szak 49090
ama 49085
▁tévével 49082
▁East 49081
▁Kapjon 49080
▁ellenőrző 49067
▁(„ 49053
▁divat 49043
▁délután 49041
▁adhat 49024
▁kérelmező 49022
▁Ír 49011
▁könnyebb 49008
▁kísérlet 48999
átok 48997
š 48996
CH 48984
6- 48972
▁hangulat 48958
▁viszonylag 48951
▁tanít 48920
▁török 48916
▁Mondd 48913
▁tekintetben 48907
▁One 48901
“ 48891
▁Pat 48884
▁kerület 48879
▁tanulmányok 48853
választás 48852
▁lépett 48843
zo 48842
▁oldalak 48833
▁folyik 48808
alitás 48758
ml 48743
▁kivétel 48737
▁cikkében 48732
▁igazságot 48724
▁15- 48723
▁releváns 48713
IP 48703
▁Általában 48673
▁orr 48657
▁örül 48657
▁térképek 48641
▁szolgáltatók 48635
esek 48632
▁gyakorlatok 48620
képp 48619
▁Saját 48618
▁műveletek 48617
▁épített 48609
▁következőket 48605
ssa 48594
▁amelyik 48591
▁akarunk 48586
▁bonyolult 48580
aik 48569
▁ISO 48544
▁Központi 48534
▁segíti 48521
▁szabott 48516
▁nyelvet 48512
▁Kat 48507
▁On 48499
▁járatok 48489
▁alak 48476
▁Nu 48458
è 48427
▁Miss 48426
▁Tar 48426
köd 48424
▁életében 48422
▁életed 48400
követelményeknek 48397
▁biztosítás 48395
oid 48383
52 48382
lia 48373
5- 48369
▁600 48357
RI 48344
▁Monte 48336
▁céljától 48308
▁tagállami 48304
politikai 48299
▁Fo 48289
▁Bill 48288
▁ajánlás 48285
anya 48270
col 48264
▁engedményhez 48242
▁vízi 48236
cho 48215
▁feltétlenül 48195
biztonság 48193
▁felhő 48179
ges 48174
▁műtét 48170
▁közigazgatási 48163
▁sors 48162
▁szereplők 48156
▁legközelebbi 48154
hasson 48152
▁nyújtanak 48152
▁Melyik 48151
▁hatékonyan 48141
▁imádkoz 48136
▁befolyásolja 48134
▁mindez 48134
▁számla 48123
▁esett 48119
inek 48118
▁időszakot 48118
▁érinti 48118
% 48099
európai 48088
▁elhagy 48072
▁IV 48069
▁kislány 48069
▁Super 48060
▁Trump 48054
▁bezár 48046
mont 48042
▁vicces 48040
▁DNS 48039
▁hagyomány 48038
▁helyét 48031
▁optimális 48031
yo 48028
wood 48004
▁Keress 47999
ün 47998
63 47987
▁Ok 47958
▁koncentrál 47945
▁furcsa 47937
▁fesztivál 47935
▁amelyre 47893
oda 47884
▁számlá 47884
tette 47878
mu 47876
ala 47851
▁listája 47849
sion 47848
▁Motor 47844
cker 47838
▁írni 47827
▁Kér 47825
▁növények 47819
akor 47818
▁lakó 47818
▁őrült 47806
des 47786
74 47784
ert 47777
▁Sosem 47766
▁hálózatok 47763
pé 47751
▁északi 47744
▁megállapodások 47725
▁ny 47724
képesség 47693
abbá 47691
▁végezni 47691
▁máj 47687
▁változik 47684
▁Mér 47682
▁világítás 47671
lt 47668
tart 47666
▁azonnali 47665
▁Museum 47664
▁port 47634
▁azokra 47615
▁személyzetétől 47610
▁szigorú 47609
reg 47608
járat 47607
▁számodra 47601
▁hős 47600
▁kérni 47588
▁vendégeitől 47578
▁eredményez 47552
▁szabályozó 47548
▁családok 47528
▁Ur 47526
▁Bizonyos 47521
▁Zo 47505
sar 47498
▁Különösen 47496
▁adatot 47487
▁man 47486
▁önt 47485
szent 47480
▁Design 47464
▁ebéd 47449
▁kiemelkedő 47443
▁védelmet 47427
▁kom 47421
▁Mini 47419
▁jogszabály 47404
▁szerződések 47402
vesz 47399
▁Kép 47395
▁Br 47370
▁meghatározza 47343
▁ÉS 47343
▁zenekar 47332
▁Hatóság 47309
▁Jan 47292
▁Bio 47290
uri 47283
▁Ltd 47281
esség 47278
fény 47265
▁törvények 47254
71 47242
▁vendégei 47236
▁Abban 47233
▁megtalálni 47230
▁pontban 47227
▁helyezés 47212
▁létesítmény 47211
▁beszélünk 47209
▁levő 47209
ef 47206
mann 47199
▁számítógépes 47192
▁dolgoznak 47183
▁aggód 47182
▁2007 47179
fil 47164
▁referencia 47163
▁hajlandó 47149
▁messzire 47147
▁Kr 47146
▁Mégis 47143
▁azáltal 47142
▁alkotó 47132
▁ke 47132
▁sajnálom 47119
AC 47118
osság 47112
▁kölcsön 47105
▁stúdió 47105
▁ezüst 47102
▁VI 47101
lim 47093
▁támad 47086
▁ellenőrzési 47081
▁Shi 47064
▁elengedhetetlen 47043
méret 47042
5%- 47036
eszköz 47034
▁gyűrű 47033
TV 47032
▁tájékoztató 47030
anyagok 47004
ld 46990
▁otthoni 46989
▁sérülés 46977
▁Film 46967
▁Che 46966
7- 46960
▁AZ 46949
▁vétel 46939
▁mell 46925
▁illegális 46901
▁2014- 46895
erek 46890
ítsa 46889
zus 46888
▁bennem 46885
▁mértékű 46884
▁alkalmazzák 46882
ast 46881
▁lapok 46880
ÉS 46874
▁sze 46863
▁képeket 46853
▁jóval 46851
▁IT 46850
▁tekint 46849
84 46840
tá 46833
készlet 46832
▁olvasó 46831
▁anyám 46821
73 46816
fia 46816
▁kaszinó 46807
▁vezethet 46798
▁általunk 46793
▁Teljesen 46791
▁részeként 46773
▁xHamster 46771
▁pozíció 46751
▁összpontosít 46731
ero 46723
▁65 46716
ros 46697
▁tették 46694
termelés 46684
▁2012- 46678
tűn 46670
▁elme 46655
▁Rossz 46652
▁Arab 46649
▁ugyanúgy 46646
▁változtat 46626
ünkben 46592
”: 46572
▁Szeret 46564
▁résztvevő 46557
▁felnőttek 46553
▁értékeléseket 46543
▁EKB 46542
▁kategória 46541
▁adatainak 46520
▁multi 46516
óni 46510
▁Del 46509
▁>> 46495
▁szintje 46494
▁nukleáris 46478
▁mondhat 46471
használat 46464
lus 46458
▁láthat 46455
▁ó 46455
▁melyben 46449
▁Rock 46445
▁csomó 46431
▁sör 46425
▁autót 46421
▁szobát 46392
▁dinamikus 46390
abban 46383
▁idős 46380
▁potenciális 46379
cher 46378
▁döntést 46369
▁börtön 46366
tri 46362
▁rendszerben 46361
▁síkképernyős 46361
▁Ter 46358
▁ezután 46357
▁Egyiptom 46354
rag 46349
▁2008- 46334
▁robot 46325
▁Szervezet 46317
▁karácsony 46313
▁u 46301
via 46298
aival 46266
▁csavar 46258
▁kívánja 46257
▁Test 46255
▁Pra 46252
▁Ven 46252
▁Bővebben 46244
▁gyenge 46238
ettem 46225
▁háló 46224
dzs 46194
▁ördög 46189
82 46179
EC 46177
▁jelzi 46175
▁alapok 46170
▁fáj 46167
▁régióban 46156
▁lettek 46142
▁ígér 46124
▁hétvégén 46116
▁szükségük 46100
▁kínálat 46081
▁kialakítása 46080
▁mellékletben 46073
élet 46062
▁csoda 46061
terv 46042
gáz 46041
▁értékesítési 46039
▁óceán 46038
▁dátuma 46036
▁végtelen 46024
▁Str 46014
▁közlemény 46009
▁ál 46006
▁laptop 45991
gál 45976
▁kamat 45975
▁szakértők 45969
▁tenné 45956
▁mindenkit 45948
IC 45947
▁mesél 45940
▁megoldásokat 45931
▁kiegészítők 45916
▁2006. 45903
par 45892
▁2016- 45884
▁helyszíni 45884
▁esz 45882
▁biztonságban 45878
▁elfogad 45876
váltás 45874
▁koncentráció 45873
▁2007. 45869
fo 45853
č 45849
▁következik 45847
▁Jelen 45841
▁kilenc 45841
▁zseb 45841
▁Frank 45824
▁Kínában 45822
IR 45816
▁minősített 45815
▁Fény 45814
lic 45790
▁hiszi 45789
▁tartsa 45781
▁számot 45747
▁120 45743
▁tartózkodás 45742
PS 45739
▁szűk 45728
▁megközelíthető 45725
▁panziók 45724
▁késő 45721
▁munkaerő 45719
▁tároló 45717
áris 45714
▁stílusú 45699
▁Lake 45691
▁szerette 45685
▁herceg 45677
▁átlagosan 45677
▁ruha 45669
▁Power 45661
VA 45658
▁jönni 45654
▁erkély 45634
▁legfőbb 45618
gés 45613
rol 45607
RO 45601
▁Neked 45593
▁távoli 45591
▁Svájc 45587
▁finanszírozás 45584
anda 45577
mis 45553
▁veszteség 45553
▁integráció 45551
▁elküld 45546
▁kedvezményezett 45539
7) 45537
▁szim 45537
kur 45530
91 45522
▁poszt 45515
ata 45509
▁köze 45506
▁hatályba 45504
▁Magas 45496
közi 45495
ack 45471
▁(10 45471
▁Maria 45457
jait 45455
ass 45453
▁Kol 45429
ráció 45420
▁ügynökség 45412
▁bankok 45404
▁lenyűgöző 45403
▁vetett 45393
rendszerek 45378
▁Group 45374
ította 45370
▁bölcsesség 45367
▁ennyire 45353
▁07 45351
▁bejelentkezés 45351
▁Előző 45344
▁Bro 45341
▁kérdéseket 45338
▁megelőző 45338
▁43 45332
▁szövet 45326
emmel 45320
▁nevezik 45309
▁esély 45299
/1 45296
ich 45282
▁problémái 45282
▁megfelelés 45274
▁Istent 45256
▁kilométer 45256
▁41 45253
pat 45250
▁Royal 45234
▁kincs 45229
jött 45217
MI 45202
▁futó 45196
BC 45188
▁akadály 45183
▁vásárolni 45182
▁problémákat 45179
mun 45169
▁kezdete 45130
▁előírások 45125
▁kutyá 45075
▁szórakozás 45070
khoz 45060
▁konfliktus 45054
▁egyén 45040
▁vadász 45039
▁hozzászólás 45018
▁színek 45016
▁Oh 45003
▁Otthon 45000
▁befektetés 44998
▁Apartment 44986
| 44984
▁társa 44984
▁megnyitása 44980
edés 44969
▁kelet 44959
▁kapható 44946
▁erőforrás 44926
▁előnyei 44922
▁nézd 44913
▁hatások 44884
▁alkalmazásával 44881
▁gyermekei 44880
segít 44874
▁erősen 44861
▁barátja 44859
tenger 44853
▁konzultáció 44836
▁bolt 44833
▁szomszéd 44829
iás 44826
▁jelenség 44819
▁Ebből 44816
▁Szeretném 44805
▁szépen 44802
▁örökség 44802
▁sajátos 44788
▁megyünk 44786
▁hétre 44779
nyal 44768
▁legkisebb 44766
▁vízum 44763
▁csap 44752
kák 44750
▁képzel 44749
▁Gyakran 44747
▁csatlakozó 44746
▁02 44740
▁barátai 44736
ax 44732
Ne 44719
▁nyújtani 44706
▁2013- 44702
▁napra 44696
▁Hungary 44681
▁önmagában 44673
ington 44668
csak 44648
▁jólét 44645
▁meglepetés 44639
dr 44628
▁foglaljon 44622
▁sajnos 44614
▁mesterséges 44613
ada 44604
ect 44591
▁figyelmét 44588
/10 44586
▁Club 44584
▁alapja 44584
▁tó 44584
▁hullám 44579
▁televízió 44577
▁Mc 44571
▁követni 44569
tartalmú 44568
▁célokra 44567
▁pontot 44556
ere 44548
atos 44547
▁partnerek 44545
▁összefüggés 44544
▁hazud 44539
▁ir 44529
▁elv 44528
▁véli 44524
▁transz 44521
▁injekció 44508
AD 44506
▁2017- 44496
▁épül 44493
ins 44486
szter 44484
▁Istenem 44483
▁találhatsz 44477
▁Biblia 44472
▁tagad 44451
▁hardver 44443
iában 44442
hetsz 44431
hesse 44419
▁írásban 44419
▁tagok 44418
▁merül 44415
▁fogyasztó 44399
▁Amerika 44380
▁csapadék 44380
zal 44376
tör 44371
▁étkezés 44370
▁szezon 44366
▁HU 44356
LA 44347
niük 44347
▁csalás 44339
Ü 44336
jából 44319
▁parti 44319
eo 44308
▁végéig 44303
▁atom 44300
▁srácok 44294
tölt 44293
▁házban 44282
kibocsátás 44280
sis 44248
8- 44245
dés 44242
▁fennálló 44235
beállításjegyzék 44234
iát 44223
▁úgyhogy 44223
▁2007- 44219
▁blokk 44207
▁kínálja 44197
▁indokolt 44195
top 44190
vitel 44178
▁Míg 44178
▁menekült 44164
▁term 44155
▁lennék 44152
▁Samsung 44147
száz 44141
izáció 44137
▁Árösszehasonlít 44134
▁Zöld 44126
▁járatot 44126
▁szakértői 44124
zem 44111
dok 44110
▁Mil 44097
▁Angol 44094
▁100% 44074
▁Mindegyik 44070
▁szükséged 44067
Re 44066
hatom 44049
▁megérteni 44045
▁szakember 44045
▁éles 44039
▁tengerre 44035
▁emellett 44034
▁ilyet 44009
▁aktivitás 44006
▁hozhat 44006
▁érez 44004
HO 43995
▁gumi 43993
nor 43990
▁építés 43990
▁látnivalók 43985
▁bázis 43978
▁par 43954
alizmus 43943
ring 43932
▁tartanak 43932
▁Plus 43930
▁Németországban 43927
▁tekinteni 43887
red 43882
▁objektív 43873
▁2009 43865
▁elmond 43860
▁célzó 43857
▁követelmény 43851
▁éjszakánként 43851
▁Col 43847
▁fogyasztói 43827
▁aránya 43814
hegy 43806
▁hallgató 43789
▁Egyszerűen 43777
▁foglaltak 43775
SE 43770
▁címet 43770
▁világegyetem 43760
▁létrejött 43750
car 43748
▁csinálsz 43743
ej 43737
▁Thaiföld 43734
szerte 43730
▁tárolás 43727
bizottság 43717
▁többiek 43706
▁válnak 43698
▁személyesen 43693
▁részében 43672
▁sikeresen 43651
PL 43633
▁készítmény 43630
▁2011- 43627
▁hónapos 43622
▁irányít 43611
0% 43610
▁lépést 43607
▁onnan 43603
▁köszönöm 43587
▁forgalom 43580
eire 43570
▁villamos 43566
▁Szem 43561
ight 43560
▁megengedett 43536
▁nyugdíj 43527
▁régóta 43521
▁engedélyt 43517
irat 43503
▁szektor 43489
▁éjszakára 43488
▁tudós 43485
▁gyere 43478
▁Várj 43464
▁percig 43461
▁fektet 43456
▁szerzői 43454
álni 43447
xi 43437
▁szerez 43426
▁04 43423
▁hord 43408
kul 43403
kék 43403
▁szokás 43401
esítés 43387
▁bíz 43386
▁kedvezmény 43375
▁ígéret 43373
▁veszik 43365
▁vesznek 43364
▁fennáll 43363
▁takarmány 43361
ren 43359
▁Segítség 43355
▁Önök 43351
▁Tele 43342
br 43310
eszközök 43310
▁időszakra 43305
▁szálláshelyen 43299
▁célú 43295
▁éjszakai 43295
▁Éppen 43288
▁színvonalú 43287
▁találat 43269
▁pat 43259
▁csinált 43251
telep 43243
▁formátum 43234
▁Éttermek 43220
OT 43219
▁elkötelezettség 43212
▁feltételei 43202
mark 43196
▁fogyasztás 43191
▁Tag 43175
fizetés 43174
▁álmod 43174
62 43166
▁alakú 43166
▁mutatják 43165
bon 43158
OM 43154
▁kissé 43149
▁határozott 43148
▁alkalmaz 43145
▁mész 43132
▁százalékkal 43131
▁videók 43118
▁vegyi 43115
▁Pin 43096
▁tevékenységet 43090
:30 43089
▁Booking 43070
▁várost 43070
▁területet 43067
kát 43063
▁vehet 43053
▁eszközei 43044
▁Stra 43043
▁Kam 43042
▁6- 43040
▁honnan 43031
▁színe 43031
▁találtak 43030
▁számok 42998
öket 42995
▁könnyedén 42993
▁házat 42988
politika 42984
▁elérése 42979
kereskedelem 42973
▁Népszerű 42963
▁800 42958
▁benneteket 42955
▁parlament 42941
▁intéz 42938
ava 42935
▁Szövetség 42934
sp 42917
ózis 42901
▁csatlakoz 42896
▁működnek 42886
ítse 42875
▁gyülekezet 42861
▁közzétett 42854
mező 42839
▁beszélek 42836
▁rejtett 42829
▁iszlám 42825
▁mentén 42819
▁tanúsítvány 42810
lar 42792
▁amiben 42779
▁megad 42776
▁légitársaság 42773
▁sp 42773
▁08 42770
▁fájlokat 42767
▁században 42762
ázs 42748
▁közepes 42742
értékelés 42739
▁gyűjtött 42731
▁kiterjesztés 42725
▁tudósok 42723
▁meghatározó 42721
▁mentális 42713
éig 42705
▁Forrás 42704
▁Hány 42701
vén 42689
▁feladatai 42682
ille 42656
▁eredő 42650
▁légkondicionáló 42646
▁Atya 42620
▁központja 42610
▁King 42604
ítva 42593
gr 42591
▁golyó 42581
▁lift 42578
▁megállapodást 42571
ektől 42566
▁2009- 42565
▁kiválasztása 42560
▁vád 42556
▁tárgyalások 42546
▁követi 42541
▁rep 42506
▁besorolás 42504
▁licenc 42502
▁fázis 42499
▁Inkább 42494
lm 42478
sta 42477
▁hazugság 42473
nov 42469
▁Apartments 42466
▁izraeli 42462
talál 42456
szol 42447
▁tekinthető 42439
▁iránymutatás 42430
▁elkötelezett 42407
▁Mária 42402
▁meglehetősen 42401
81 42397
▁eredményes 42397
▁erkölcsi 42396
▁hónapja 42394
▁szülei 42390
▁népesség 42383
ódnak 42374
▁Zene 42362
▁ebbe 42359
gyártás 42358
▁várhatóan 42349
tök 42345
det 42340
▁fejlesztett 42332
▁sejtek 42332
▁villák 42326
▁autók 42316
▁támogatások 42314
can 42305
PA 42303
▁kínálnak 42298
-2 42295
▁felfedezés 42295
▁versenyképes 42287
▁árul 42272
▁letölthető 42258
▁biztosítanak 42254
▁Legalább 42245
▁fantasztikus 42242
▁tárgyak 42241
▁éttermek 42237
köt 42209
▁hozzáférhető 42203
▁szolgálja 42188
▁megszüntet 42160
▁menetrend 42160
Í 42149
▁igazolás 42147
▁46 42144
▁beruházás 42142
▁kutatások 42140
▁megállapít 42132
▁csont 42130
jár 42125
▁költöz 42114
▁Szer 42108
▁egybe 42105
▁légkör 42105
▁add 42098
▁Tim 42092
jelentés 42089
▁hajszárító 42087
pad 42086
▁határokon 42076
▁Szolgáltató 42071
▁lennél 42054
▁azokkal 42043
▁vélemények 42041
▁Ir 42033
▁feleségem 42033
▁elkerül 42027
▁főként 42024
hl 42020
▁pápa 42019
▁maradjon 42017
▁lásd 42015
▁nyilvánosságra 42014
▁gondolta 42013
szár 42001
▁Sar 41996
▁nőt 41994
▁némi 41986
▁esetek 41983
▁eltér 41982
▁lánya 41972
▁03 41969
▁átnyúló 41965
▁aláírás 41963
▁madár 41957
uti 41954
▁irányul 41946
▁mentes 41943
▁munkahely 41941
▁nyomtatás 41938
▁Fer 41923
▁környéke 41922
amp 41920
▁keresi 41915
szolgálat 41911
▁megújuló 41891
▁apartmanok 41877
gue 41868
▁ábrázol 41865
omban 41846
▁ered 41845
Be 41838
▁Bol 41833
▁alumínium 41832
▁dokumentáció 41830
oo 41829
▁kever 41829
▁halálos 41826
▁elvesz 41823
▁Ab 41821
▁védett 41812
▁határoz 41810
▁Ze 41769
bot 41757
▁gyűjtemény 41750
▁plán 41742
▁Fin 41714
▁tönkre 41712
lly 41707
▁Zs 41677
▁pu 41675
▁minimum 41673
▁komplex 41648
▁font 41639
9) 41628
ekből 41628
▁nyilvánvaló 41624
▁filmet 41623
▁szeretett 41623
▁lefoglalhatod 41619
piac 41615
▁férj 41614
▁kezelést 41600
▁gombot 41598
▁Csehország 41597
▁alábbiak 41592
92 41579
túra 41569
▁Hot 41567
▁vettem 41558
▁örömmel 41557
igaz 41538
óban 41509
▁kontroll 41509
▁következményei 41508
had 41504
▁Hor 41502
▁foglalkoztatás 41499
▁bocsát 41497
▁Boldog 41490
lov 41489
▁hatóanyag 41489
odik 41486
▁Va 41480
▁Carl 41478
alom 41473
vág 41469
▁Viszont 41469
▁szakértő 41466
▁Prága 41459
▁szavazat 41457
▁Sur 41456
bolt 41455
▁javaslatot 41440
nkat 41439
well 41439
▁árfolyam 41439
▁Ch 41432
▁eredetileg 41431
▁előfordulhat 41429
▁raktár 41423
▁megye 41422
▁helyzetet 41419
tex 41415
▁Mintha 41413
▁Írország 41412
▁behozatal 41390
▁Haj 41381
▁Város 41372
ődött 41371
▁fenntarthatóság 41367
▁személyi 41365
▁Lehetővé 41354
▁Dol 41353
▁OS 41353
▁LCD 41347
▁sark 41341
▁Oldal 41340
▁választhat 41329
▁termelési 41326
▁Central 41323
▁orvosok 41317
emel 41315
▁százalékos 41313
▁váll 41313
vállalás 41310
▁Belgium 41310
▁felhasznál 41307
Korea 41300
▁összefüggő 41293
▁forradalom 41285
▁nyelvek 41265
▁illat 41264
qua 41258
las 41254
▁fogalma 41254
hen 41251
kin 41248
sam 41243
▁erőt 41241
▁fogadó 41234
▁legfrissebb 41234
lom 41227
hessen 41216
pt 41211
▁kialakítás 41190
The 41184
mit 41166
▁kereslet 41161
} 41151
szerkezet 41146
▁jelentett 41145
▁li 41133
▁anyagokat 41132
▁hivatalosan 41125
▁díjak 41123
▁tartalmaznak 41119
▁téli 41112
▁legszebb 41109
▁próbálja 41105
rus 41100
▁anyagot 41095
▁ellenállás 41095
▁Kínai 41084
▁minősül 41083
dő 41077
▁Sand 41074
▁gyorsabb 41064
▁téve 41063
▁kockázatok 41061
▁holland 41053
íg 41047
▁mozog 41035
▁mondod 41022
▁IN 41019
▁győztes 41010
▁fejlődő 41009
▁kastély 41007
kezés 41002
tom 40989
▁edző 40987
▁mondjuk 40987
Mar 40981
▁elismerés 40977
▁széffel 40973
arch 40970
▁magyarázat 40945
▁47 40943
▁betart 40943
kció 40937
▁római 40923
▁eredményeként 40922
▁szavazás 40902
▁MP 40892
▁bírósági 40889
▁Gra 40882
▁piacok 40881
▁EK 40879
▁Anna 40872
▁meghatározni 40869
lehetőségei 40865
▁bejárat 40863
kori 40850
kál 40839
▁tudná 40838
eid 40826
▁ötödik 40825
tassa 40819
hn 40800
▁Mindez 40800
▁Fu 40787
▁Család 40785
mus 40779
▁Ram 40779
av 40771
▁kémiai 40770
▁látogatók 40762
▁utasítás 40761
▁tavaly 40758
▁magára 40744
▁sajt 40742
▁fed 40739
▁Para 40735
▁Tour 40733
▁olvasható 40719
the 40708
▁széf 40708
▁hibás 40697
▁hegyek 40694
▁betegeknél 40685
▁ismerete 40685
ázás 40681
▁Ph 40677
▁dicsőség 40670
▁forint 40670
▁szegénység 40670
ima 40656
usok 40656
kártya 40641
▁mérkőzés 40635
▁tanult 40634
12. 40627
▁Pic 40617
lop 40615
▁igazgatója 40610
ismer 40600
▁alakít 40587
▁Bejelentkezés 40583
▁szőlő 40583
gépek 40576
▁Annyira 40574
▁országot 40570
▁témák 40566
jétek 40547
▁gyorsabban 40533
▁József 40522
▁jogai 40520
▁legutóbbi 40512
▁házak 40508
▁krém 40504
▁64 40502
▁Ellen 40495
▁gyerekeknek 40485
▁újság 40472
lép 40468
▁lyuk 40462
▁születés 40462
▁hallani 40456
▁fák 40442
▁valahol 40442
▁átláthatóság 40433
▁akarjuk 40427
▁pálya 40425
ellátás 40413
okba 40413
▁hiteles 40409
▁hónapon 40408
§ 40407
elni 40389
▁hatáskör 40377
▁havi 40373
▁ge 40370
▁nyaraló 40359
▁Mire 40352
▁Úrnak 40346
enünk 40342
▁mos 40338
▁húsz 40337
▁Utazás 40336
▁okai 40336
▁hálószobával 40335
▁no 40334
▁főbb 40329
millió 40317
védő 40316
magyar 40310
vissza 40296
▁foglalási 40295
▁megosztott 40294
▁gondolkod 40291
▁egységek 40286
járó 40283
▁keresni 40283
jától 40276
ága 40272
▁megtaláljuk 40265
▁helyiség 40260
▁egymástól 40251
aira 40250
rum 40242
táció 40225
▁Ráadásul 40221
CS 40215
▁ázsiai 40215
beszél 40203
▁” 40197
▁meglátogat 40185
▁szerves 40183
ónia 40163
vitamin 40155
▁tu 40150
char 40147
ju 40143
▁Sea 40134
▁kérek 40130
far 40129
▁kezel 40113
kész 40101
▁mindezt 40093
hatok 40070
▁szög 40069
\ 40056
képzés 40052
▁vasúti 40038
▁49 40036
▁kerültek 40031
ds 40016
▁készpénz 40014
▁megismer 40011
kapcsolat 40008
▁cső 40008
▁Sőt 40000
▁beszállítók 39990
▁fokozott 39982
EG 39981
▁And 39977
mailben 39972
▁Adat 39972
ph 39950
▁Ve 39942
▁min 39938
LE 39934
cseré 39932
▁Dor 39922
▁bánt 39922
ss 39917
nu 39907
▁Hozzá 39907
tten 39906
▁mikrohullámú 39905
▁Kezdőlap 39892
▁segítsen 39892
▁demokratikus 39890
▁találkozunk 39880
/3 39871
▁leírt 39871
▁Fort 39869
▁látogat 39862
▁komp 39859
▁Segítsen 39856
▁Em 39855
▁percet 39851
▁megtagad 39844
▁megelőzően 39843
keret 39841
▁emlékszem 39840
▁tehetség 39837
-5 39820
▁családja 39820
▁figyelmébe 39820
▁győz 39815
▁gondolsz 39810
▁minősítés 39794
▁hölgy 39784
▁Madrid 39780
▁adósság 39768
▁abszolút 39759
jelző 39757
▁Will 39718
▁kan 39717
uz 39706
ate 39698
hetnénk 39685
▁Tal 39680
▁vizsgálni 39666
▁gyógyszert 39658
▁némelyiket 39651
▁anyja 39644
▁Cap 39642
▁Xbox 39641
aiban 39638
ükben 39634
▁tisztességes 39628
És 39620
▁Kiváló 39616
▁mérföld 39600
▁WC 39597
▁szörnyű 39592
▁Hó 39587
▁kurzus 39583
▁téved 39580
▁nyugodt 39579
▁kézikönyv 39570
▁Cat 39555
▁szalag 39549
▁kezét 39544
▁Pal 39536
▁órával 39535
▁éjszakát 39529
▁Pr 39527
▁áldás 39519
▁Ana 39515
▁létrehozni 39513
▁Dal 39508
▁Gold 39508
▁törlés 39499
▁szálláshelytől 39493
▁fényes 39476
▁Holiday 39473
Mo 39467
helyek 39467
▁megnéz 39458
▁érkezni 39449
off 39448
tervezés 39446
▁előírás 39442
▁ténylegesen 39433
▁szag 39425
▁környék 39422
▁Unióban 39420
▁fedez 39412
▁életmód 39409
▁összekapcsol 39408
▁szeg 39397
▁császár 39393
II 39386
▁Újra 39381
▁szemüveg 39376
▁arab 39375
▁képzési 39375
hetem 39372
ware 39372
▁kiadott 39363
▁ügyfélszolgálat 39360
hotels 39359
af 39351
▁békés 39346
-10 39338
▁beállítások 39337
▁változata 39337
ely 39335
ı 39327
▁ünnep 39323
▁útvonal 39316
▁választani 39315
▁Cam 39305
▁szükségesek 39292
▁fokozatosan 39290
▁BMW 39288
lá 39280
ajánlat 39273
▁gyakorlatilag 39273
közel 39269
▁Nyom 39260
▁Ly 39257
▁gondoskod 39255
▁nyúl 39255
▁erőteljes 39252
▁irodá 39244
▁Barát 39243
▁Mond 39218
▁emel 39209
FI 39205
hatnánk 39201
▁képzett 39188
▁Műpénisz 39180
▁tennie 39178
▁vitá 39170
▁hatásai 39168
▁hatalma 39161
stan 39157
gua 39150
▁rendező 39150
▁birtok 39147
▁felhívás 39138
▁partnerség 39130
fél 39127
▁módosításáról 39125
▁Nehéz 39123
gás 39122
hár 39118
▁vastag 39114
▁filmek 39111
▁gyártott 39107
GA 39104
▁sétál 39103
zer 39102
▁válhat 39094
bár 39089
oxi 39080
▁mobiltelefon 39079
▁részleg 39077
▁megbízás 39072
▁versenyképesség 39071
▁egyfajta 39069
sky 39067
▁élünk 39064
▁folyamatot 39063
▁kihívások 39059
gá 39053
▁növekszik 39043
▁lehetőségét 39039
▁megváltoz 39039
▁menned 39036
▁forgatókönyv 39030
só 39025
hin 39022
▁szekrény 39020
▁színház 39016
sc 38995
▁veszít 38995
▁parkolás 38994
▁amiről 38988
▁megtenni 38985
▁használhat 38970
▁Vas 38968
▁svéd 38962
jogi 38961
▁11- 38961
▁hozzád 38960
▁indiai 38957
Afrika 38955
▁jelentések 38943
szoba 38941
▁menjen 38940
▁Minisztérium 38937
▁formája 38936
▁mért 38932
▁művészeti 38932
isz 38931
ánk 38925
▁építészet 38912
▁panel 38911
séges 38909
▁királyi 38904
▁feleség 38897
fajta 38895
out 38892
▁Haza 38879
▁utazók 38878
300 38877
▁felejt 38873
lett 38864
▁létrehozásában 38861
▁Színház 38858
▁Lásd 38852
▁megkérdez 38844
▁7- 38841
rö 38837
▁rögtön 38836
▁Mrs 38826
▁med 38825
▁állunk 38824
▁ter 38821
▁Hollandia 38818
▁regény 38816
▁Express 38808
▁figyelmeztetés 38798
▁telefonszám 38781
▁eléggé 38777
aikat 38776
ele 38749
▁törlése 38744
▁István 38741
zor 38737
▁22. 38735
▁feltéve 38735
▁2018- 38724
gol 38723
▁munkája 38720
▁Él 38716
▁legrosszabb 38713
▁tartalék 38711
win 38709
▁infrastruktúra 38707
▁gyalog 38699
▁vérnyomás 38696
▁Point 38691
▁fizetett 38688
▁tapasztalatai 38685
▁sík 38682
▁Hostel 38681
▁állampolgár 38678
▁iskolá 38677
▁jelenet 38677
▁fagy 38666
▁Casa 38660
sia 38647
táv 38647
▁kaptak 38645
▁kérelmet 38633
házak 38617
▁Brüsszel 38616
▁paradicsom 38599
▁disz 38598
hor 38594
tartalm 38592
▁alább 38591
▁követés 38581
▁törőd 38578
ux 38576
▁elégedett 38576
▁férje 38565
▁cselekvés 38552
▁polgár 38537
▁idei 38534
▁felirat 38515
ure 38494
▁állapota 38486
▁Vörös 38482
viz 38472
▁Mari 38472
▁tengely 38472
▁MB 38458
vetés 38452
▁időtartama 38451
▁Far 38449
zza 38448
▁Cho 38447
▁nyilvánosság 38446
fürdő 38431
▁garancia 38425
▁Mus 38423
▁repülés 38422
▁tucatnyi 38422
ím 38420
sunk 38411
▁War 38408
▁52 38397
▁8- 38386
felület 38381
adni 38379
▁belváros 38368
▁állandóan 38368
IF 38367
enz 38366
▁értékű 38363
▁Sim 38354
▁Budapesten 38352
▁EN 38352
▁termel 38347
▁elfogadta 38340
▁szövetségi 38336
▁imp 38330
press 38312
uszt 38310
▁leírása 38304
▁életkor 38302
uf 38278
▁küzd 38267
▁albekezdés 38262
▁közülük 38249
zsák 38245
▁iPad 38240
24- 38239
▁csi 38233
▁szerszám 38230
hát 38227
▁eszközökkel 38212
▁hold 38210
szerzés 38208
hiány 38202
▁végrehajtás 38196
▁megtalál 38193
▁össz 38191
pan 38185
▁tőlünk 38170
▁izom 38166
▁szerződést 38166
esett 38160
▁magazin 38150
▁Találatok 38141
▁ellátva 38136
▁példákat 38132
▁érett 38125
▁iparág 38123
NY 38119
▁életünk 38103
▁néki 38100
▁tekintve 38095
▁kiszolgáló 38094
▁kellemetlen 38093
Ro 38092
jal 38088
▁Együtt 38084
▁asztali 38076
▁készségek 38076
pálya 38037
CC 38036
1/ 38035
tha 38028
▁megvizsgál 38022
TP 38019
▁megtesz 38006
▁használati 38002
▁védjegy 38000
over 37999
▁sötétség 37997
▁2005. 37990
tört 37987
▁Term 37966
▁utaz 37965
▁Op 37964
▁elveszett 37963
kov 37951
▁elfogadás 37950
zünk 37935
▁adják 37935
▁tisztában 37931
▁Egyik 37930
▁határozatot 37924
▁images 37922
▁fényképezőgép 37909
▁naptár 37900
▁maradnak 37890
▁[+] 37884
adja 37883
▁hajt 37881
lad 37879
▁85 37871
pályá 37868
▁fogalmaz 37865
▁ajtót 37858
▁fordított 37842
▁látjuk 37836
▁akivel 37835
dioxid 37833
▁alul 37830
▁megjegyzés 37830
▁Ukrajna 37827
▁kézzel 37824
▁Nappali 37822
▁mono 37820
▁szert 37812
▁Bas 37808
{ 37785
▁érdem 37784
▁főváros 37779
uss 37775
▁Típus 37764
▁meccs 37748
gomb 37725
▁zászló 37722
▁Balaton 37715
▁mértéke 37702
▁memória 37697
▁Len 37695
▁National 37695
▁Különleges 37691
▁Apa 37689
▁összeget 37688
▁összege 37686
hel 37681
▁előny 37680
▁Iroda 37678
▁tartózkodási 37674
▁terhes 37668
▁Főoldal 37660
▁elfoglalt 37660
SH 37655
▁felől 37655
üz 37646
▁költségeket 37642
▁tükröz 37642
szív 37641
▁nyomozó 37624
▁céllal 37621
▁elhelyezés 37620
▁Fülöp 37616
▁vékony 37603
▁Ce 37599
EZ 37592
▁hatóságai 37590
jétől 37586
▁fejez 37584
▁kérdései 37574
NS 37571
▁elfog 37567
▁elfogadható 37566
▁szállodai 37563
▁őszinte 37558
▁plusz 37556
▁Sc 37553
▁állati 37528
tetni 37526
▁rendeletben 37521
▁regisztrált 37514
dog 37511
jére 37506
▁spirituális 37505
▁Üdvözöljük 37505
▁Language 37497
▁irányba 37494
▁közölte 37491
▁kezdte 37490
itis 37489
▁szakaszban 37486
osztás 37478
▁körbe 37475
▁egyének 37474
▁idéz 37460
▁2004. 37450
IM 37446
▁Tár 37441
hy 37426
▁csatorna 37423
▁Ügyfél 37423
▁kérdésre 37421
SM 37407
▁opció 37404
▁megfelelnek 37403
▁kezelő 37400
▁szorosan 37379
gátló 37378
cionális 37377
bert 37370
tatni 37368
▁Út 37366
▁apád 37365
▁Vagyis 37363
▁Vendég 37351
▁képez 37351
▁uralkodó 37337
NG 37332
ival 37325
autó 37316
szerel 37313
▁teli 37312
▁Hív 37301
▁feltételez 37299
▁Ty 37295
▁megkezd 37290
mé 37289
▁csal 37282
▁jöttek 37280
▁Raktáron 37275
▁olyanok 37269
aki 37261
▁hirdet 37240
▁Blue 37232
ding 37231
zavar 37228
▁hadd 37227
▁indulás 37227
sse 37222
túr 37221
▁forrása 37220
▁Valószínűleg 37218
▁kereskedő 37214
/5 37213
▁CS 37213
ettek 37208
▁állította 37205
yn 37203
▁biztosíték 37200
town 37194
St 37191
▁op 37175
rand 37174
▁céljai 37173
látás 37171
▁találkozás 37170
▁beváltak 37164
▁Mountain 37163
▁emlékez 37147
▁eredményt 37147
▁nevem 37145
Ú 37143
▁héttel 37143
ida 37133
▁rozsdamentes 37133
▁kiadások 37130
vezet 37129
▁szárny 37121
▁Arany 37112
átum 37111
▁érkezés 37109
▁lenniük 37094
▁legyek 37091
▁állítás 37078
lement 37076
▁evangélium 37072
▁hozzájuk 37072
mbi 37066
dom 37063
▁ahonnan 37048
▁Csoportos 37047
CA 37045
ékeny 37042
▁Vegas 37037
▁egyenesen 37034
▁Bad 37032
gazdasági 37024
▁Partner 37016
▁alapvetően 37016
TE 37008
▁nyit 37008
fogyasztás 37007
▁magyarországi 37002
▁szomorú 37002
▁25. 36999
▁alapon 36998
▁megváltoztat 36996
ive 36994
▁mondván 36991
▁rendelkezései 36988
▁maradék 36987
▁iskolai 36985
▁szerepét 36983
▁Pontosan 36982
BB 36979
éj 36978
▁terep 36978
▁English 36973
▁Fiatal 36972
▁emberekkel 36969
SP 36963
▁lennének 36959
▁intenzív 36956
▁eljön 36950
▁tesztelés 36950
▁általuk 36947
▁megjelen 36945
▁egészében 36913
▁elkap 36912
▁kérésére 36910
▁sütik 36900
▁okból 36893
Al 36887
▁Cseh 36887
▁büszke 36885
▁12- 36872
energiá 36869
▁univerzum 36869
moz 36867
▁elõ 36864
▁útra 36863
▁megértés 36858
ped 36857
▁By 36856
▁Lev 36853
▁szemét 36849
▁kezed 36848
▁tranzakció 36840
HU 36835
▁kipróbál 36835
▁[1] 36825
kos 36818
ászat 36818
▁profi 36796
▁győzelem 36795
▁Szám 36791
DE 36790
ost 36789
▁pal 36788
▁Szellem 36784
ÁR 36783
▁jelölés 36781
▁szerte 36779
Ű 36775
▁szobái 36760
▁Oda 36753
▁megosztás 36753
▁bűnös 36752
▁kerülni 36751
▁Arc 36749
olta 36739
▁vizsgálatot 36733
▁tőled 36726
mutató 36725
▁rém 36721
helyzet 36719
éghajlatváltozás 36708
vó 36706
▁adjon 36705
▁hiszed 36701
▁leggyakoribb 36693
▁hossza 36689
pon 36687
▁induló 36686
▁területét 36686
ile 36684
támogatás 36680
▁bejelentette 36679
▁fogadja 36677
▁kikapcsol 36670
▁objektum 36670
▁mennek 36668
▁rendszere 36668
▁mindenféle 36667
mor 36664
kot 36661
▁eljött 36650
▁törvényes 36644
ness 36642
▁utál 36637
▁kerülhet 36630
▁érezni 36624
▁alkalmazásának 36621
▁2020- 36619
flu 36613
▁prioritás 36613
▁teremtés 36613
gia 36608
▁Richard 36603
▁23. 36599
▁szállodától 36586
pos 36585
▁számtalan 36585
▁Elnézést 36583
zz 36578
▁fordult 36575
stra 36574
▁tisztán 36574
▁nagyjából 36564
▁olvasni 36562
▁fotók 36556
▁országos 36553
▁kötelezettségei 36551
ric 36541
▁Attól 36539
▁módosítani 36537
ston 36536
▁véletlen 36536
ítják 36528
SI 36527
ania 36516
▁napok 36514
▁hagyd 36512
▁tisztítás 36500
▁járnak 36490
▁tünetei 36490
▁atyá 36487
▁vizuális 36487
wan 36486
▁tervet 36484
NA 36480
▁kritériumok 36477
cél 36474
▁tükör 36473
▁Yu 36470
tetett 36459
termékek 36450
▁élményt 36447
▁meglepő 36444
mester 36442
ace 36439
▁adás 36438
ÁL 36437
▁ho 36425
▁oldalt 36418
éri 36408
▁Ali 36405
▁pontok 36401
óm 36398
▁dimenzió 36395
▁óránként 36385
awa 36376
bán 36375
▁cselekedet 36370
▁nyereség 36367
amerikai 36364
tatott 36364
IG 36342
▁ismerős 36339
osztott 36310
doboz 36309
RC 36304
▁(7 36304
cell 36303
▁kérte 36303
országi 36301
sur 36298
▁eltérés 36285
▁Kra 36280
▁Konyha 36279
▁24. 36278
▁25- 36269
cel 36259
▁rendel 36251
▁tok 36250
▁Ismét 36246
▁századi 36242
ús 36241
TC 36236
▁jellemzőkkel 36232
▁elfogadni 36229
csillagbesorolás 36225
▁figyelembevétel 36225
▁Master 36217
▁Joe 36216
▁Fran 36204
lor 36196
▁szokatlan 36190
▁Duna 36187
▁növelése 36185
▁alkalmazást 36184
▁címzett 36184
▁előmozdít 36182
▁app 36181
▁ritkán 36178
▁betét 36173
lay 36166
▁találhat 36166
▁professzor 36156
alista 36151
▁(15 36147
hit 36109
▁beruházások 36103
vers 36101
▁keresztények 36101
▁kedvel 36099
▁kivételes 36098
áram 36094
▁fajok 36094
▁előtte 36090
▁okokból 36082
▁rajz 36067
▁Log 36063
ting 36056
▁Mexikó 36054
▁kivonat 36048
▁has 36045
jegyzés 36044
▁Szerinted 36042
▁medencé 36037
hív 36033
▁tegyen 36018
▁városa 36012
▁irodák 36000
▁működni 36000
▁51 35999
▁zenét 35996
szal 35994
▁hatékonyabb 35991
▁tesztel 35983
▁Mindkét 35981
▁CA 35980
▁méteres 35976
▁Hal 35971
▁megjelenő 35964
▁nehezebb 35962
▁növekedési 35960
▁amelyekkel 35947
▁barátság 35946
szob 35941
tekint 35935
▁irányító 35929
gyár 35913
ezte 35905
▁legkésőbb 35905
▁válás 35893
szállítás 35892
yer 35882
▁Hiszen 35880
▁képezi 35880
▁figyelmen 35878
társ 35875
▁Fiú 35873
▁állomány 35872
▁felhasználása 35871
izz 35854
▁Th 35853
▁heti 35850
▁Segít 35849
▁szabályozási 35849
uma 35846
▁jóvá 35844
▁lények 35840
▁2006- 35839
▁Zi 35839
▁vesszük 35839
▁Nor 35838
▁jelzés 35837
▁megáll 35835
bá 35823
▁tágas 35818
▁Programok 35817
graf 35815
▁eléréséhez 35814
ssi 35803
▁földet 35803
▁óvatos 35802
▁jegyzék 35800
ednek 35799
▁Res 35784
▁hívja 35784
rt 35782
▁piacra 35768
▁30. 35766
▁ellentétben 35751
szolgáltató 35750
▁Sir 35745
kereső 35736
▁megelőzés 35735
▁vonz 35731
▁Egyszerű 35727
osítás 35726
▁beszélget 35726
dan 35720
▁kényelem 35720
zió 35700
RM 35697
▁Yo 35696
tiszt 35691
▁Twitter 35689
▁tapasztalatok 35687
▁csere 35679
▁elpusztít 35673
▁létezés 35672
▁jogát 35669
▁perccel 35663
UR 35659
▁lépni 35657
▁Ugyanez 35654
▁eltávolítása 35651
▁Vibrátor 35650
▁töltés 35648
▁helyesen 35644
▁hamar 35640
▁követelményeket 35640
▁Cím 35639
▁(7) 35631
▁Reg 35631
‘ 35628
▁szakaszában 35622
▁választási 35619
kocsi 35617
▁kábítószer 35616
▁Földön 35606
enge 35602
▁2005 35602
▁repül 35600
▁Állat 35600
▁fekvő 35597
▁adtak 35586
ítése 35584
▁légkondicionált 35579
▁megkér 35577
▁cselekvési 35572
▁leggyakrabban 35569
▁bemutat 35563
▁eddigi 35560
▁nehezen 35558
sy 35549
▁(8 35549
▁Portugália 35531
▁kamerá 35528
▁kr 35520
▁találj 35515
▁meghatározás 35503
▁szürke 35498
▁barátságos 35496
▁létrehoz 35492
▁Day 35491
▁toll 35491
etta 35487
ója 35486
▁érti 35477
▁kiegészít 35468
▁teher 35454
adat 35449
lott 35444
tűz 35441
▁űrlap 35425
PC 35415
▁szintet 35406
▁Egyesület 35405
▁rendelt 35404
▁felülvizsgálat 35403
▁ésszerű 35401
osok 35398
lev 35388
▁Simon 35386
▁katona 35385
CI 35374
eidet 35374
-19 35369
▁együttműködési 35366
▁telep 35362
▁pihenés 35355
óval 35337
▁amelyekre 35324
▁fix 35324
▁Il 35323
lépés 35318
▁szempont 35311
▁Peak 35310
▁bárhol 35310
▁közösségek 35303
▁tevékenységei 35302
▁régen 35300
▁honlapján 35295
CP 35285
szok 35283
▁Hisz 35278
csillagos 35274
▁nyug 35274
▁szar 35271
húz 35262
szintű 35251
▁örülök 35243
▁kezdeti 35242
▁Küld 35238
▁Szolgáltatás 35225
▁élettartam 35215
▁Mike 35211
▁találták 35209
▁Post 35207
day 35201
▁Felhasználói 35200
▁viz 35195
▁ügyek 35190
▁készíteni 35182
▁igaza 35180
dolgoz 35174
▁Mary 35174
▁Szív 35174
▁szerkesztő 35174
▁szolgáltat 35169
▁telt 35168
▁Cerro 35164
▁kialakított 35164
buk 35152
▁foglalj 35152
▁megőrzés 35152
itek 35149
▁civilizáció 35143
▁készülékek 35140
▁bizalmas 35137
▁megerősítés 35137
kér 35129
▁együttműködést 35125
▁mégsem 35120
▁Sin 35114
▁végére 35110
▁önnek 35109
készítés 35102
▁tulajdonosa 35098
▁nyelvi 35081
▁Erős 35074
▁csökkenteni 35072
ese 35066
lova 35065
▁mellékhatások 35062
mikben 35061
▁férjem 35060
ológus 35056
▁Kereskedelmi 35056
▁keresel 35056
alis 35053
ságának 35041
pusz 35040
kerül 35037
igény 35036
▁Adja 35031
▁Dun 35030
▁Mondtam 35027
nyíl 35013
och 35012
2/ 35007
▁mozi 35002
▁56 35000
szeg 34994
▁Fej 34992
▁falak 34990
▁Utolsó 34984
zar 34977
▁Amíg 34974
vitt 34969
állomány 34969
▁túlságosan 34969
fér 34964
▁áramlás 34955
▁2006 34949
▁szerettem 34942
▁ideg 34938
▁következmények 34938
▁belépés 34937
▁összehasonlít 34937
▁lezár 34932
mad 34930
RT 34924
▁monitor 34922
< 34921
▁mérték 34913
vent 34912
▁ártatlan 34907
▁változtatni 34905
▁valószínű 34898
▁régiók 34894
▁bizonyítja 34893
▁gondolatai 34892
▁Keres 34889
▁használó 34886
▁vehető 34886
uch 34880
▁legyünk 34880
AM 34879
▁Charles 34876
nik 34873
▁szerelmes 34869
kom 34867
▁Cikk 34867
▁ellenében 34866
hívás 34856
▁harminc 34856
▁hónapig 34842
▁Char 34833
▁Lányok 34830
▁rögzítés 34821
ball 34819
ünkre 34818
▁benzin 34810
▁vegyes 34803
Ch 34801
▁szégyen 34801
▁érzelmi 34795
▁érzed 34791
▁felfedez 34784
▁ellenőrizni 34776
▁Közös 34774
▁Vo 34755
▁Kom 34745
▁demokrácia 34745
busz 34743
má 34732
▁mehet 34729
▁határozzák 34728
▁használatának 34727
▁afrikai 34726
▁cser 34725
▁Azonnal 34720
▁egyenértékű 34719
▁gondolod 34719
▁vál 34718
almas 34714
▁munkás 34710
▁ellenőrizze 34699
Pro 34698
▁tanuló 34694
ruhá 34693
▁csata 34670
▁állásfoglalás 34668
▁választotta 34658
▁auto 34656
▁vízzel 34650
▁betű 34649
▁Multi 34645
▁valakinek 34645
▁értelmezés 34640
ottam 34630
An 34620
nan 34616
▁kategóriába 34616
▁segítségnyújtás 34615
emen 34589
ici 34587
▁27. 34586
▁születésnap 34584
▁szobákban 34583
arc 34582
írt 34582
▁célkitűzés 34578
▁terhelés 34568
▁jelenlét 34567
▁wellness 34567
anti 34560
▁Pol 34556
▁fék 34549
mell 34539
NI 34523
▁euro 34523
▁Szeretné 34521
400 34516
▁Emberi 34501
ené 34499
▁szabadtéri 34488
▁országból 34483
ind 34482
▁megbízhatóság 34472
▁River 34470
▁Sydney 34470
▁Aqua 34469
▁Szociális 34467
▁pályázat 34466
▁tartály 34463
kutatás 34461
▁szenvedély 34461
▁részesedés 34450
▁szünet 34442
▁pokol 34441
darab 34428
egészségügyi 34423
ián 34420
▁bérlés 34419
▁beszélnek 34415
▁túlzott 34415
ezet 34413
vonás 34411
▁megjelenése 34411
▁töltő 34403
▁várják 34396
▁javasol 34388
▁mennem 34384
▁Harry 34379
▁jelek 34379
▁félnek 34376
ítve 34371
▁integrál 34370
▁dísz 34369
/2 34368
▁méh 34367
▁tudatosság 34352
dé 34338
▁hozatal 34332
▁szerencsés 34332
▁palack 34331
▁egyidejűleg 34328
▁kínáljuk 34328
▁jogokat 34327
shire 34324
▁Cra 34324
vevő 34322
▁kapcsoló 34320
▁Ker 34318
▁nyújtó 34308
▁ilyesmi 34300
▁Játssz 34299
▁történ 34286
▁olcsóbb 34279
▁tanulmányoz 34275
▁fordításokat 34274
▁macska 34271
▁tisztviselő 34270
▁királyság 34269
ították 34266
▁Fia 34265
▁Excel 34262
▁lépések 34260
LT 34249
▁szervezeti 34249
▁emiatt 34247
PP 34229
▁ezekkel 34229
▁kezem 34229
DS 34222
▁szállít 34218
▁hűtőszekrény 34213
2016 34193
iskolá 34188
rie 34183
▁ereje 34153
▁Alex 34148
▁tervezési 34129
▁éget 34122
párra 34107
▁amelyekben 34096
pot 34091
▁kevesebbet 34087
MD 34078
ente 34071
▁benned 34070
▁séta 34067
▁megváltozott 34066
▁kanapé 34061
▁Szó 34060
▁Felek 34050
színű 34049
▁vágás 34043
mász 34040
indul 34039
▁vettek 34035
▁megölte 34018
▁részének 34013
▁pol 34012
hetek 34008
▁ellene 34008
▁beleegyezés 34005
▁9- 33997
▁kiderül 33982
▁olvasás 33982
▁ismeret 33977
▁gén 33969
▁legyőz 33969
ado 33963
▁szerezni 33960
▁bot 33958
▁Jeruzsálem 33953
megy 33950
▁szörny 33947
▁felhív 33946
▁folytatni 33944
▁Comp 33943
▁Legújabb 33943
▁fiatalabb 33942
▁forgalmazó 33942
▁elméleti 33940
▁szerz 33937
▁rom 33934
▁GB 33928
▁ügyfelei 33928
dit 33922
▁erkéllyel 33920
▁Bármi 33918
emben 33917
▁You 33914
▁bocsátott 33907
▁kövesse 33906
essen 33898
▁példá 33895
▁amelyeknek 33892
▁legalábbis 33890
▁sáv 33890
rendel 33882
▁végrehajtott 33876
▁miszerint 33873
▁remélem 33869
▁bent 33868
▁festék 33866
▁szótárat 33860
▁ismeretek 33835
▁vacsora 33826
▁indított 33822
▁szeretnének 33818
▁Tudományos 33813
teni 33804
▁Dom 33798
▁hitte 33792
▁ezekben 33789
csap 33788
▁Bluetooth 33780
▁meghaladja 33779
▁ügyet 33777
▁viselked 33770
▁örökké 33763
▁Thomas 33759
▁levelet 33756
▁gyökere 33753
szállás 33748
láb 33723
▁lámpa 33723
áru 33705
▁igazat 33703
▁utoljára 33701
▁gépjármű 33697
▁Restaurant 33696
lg 33695
▁határozata 33695
▁vezetni 33678
▁tőlük 33675
▁Élelmiszer 33670
▁jelez 33665
piaci 33655
ezik 33653
ova 33641
▁mu 33639
▁hibákat 33634
▁területe 33628
uc 33624
nce 33621
▁Med 33620
▁túlélés 33616
▁Jel 33615
▁Pas 33605
▁Valóban 33605
▁tr 33605
▁Big 33588
▁Gor 33588
LO 33585
▁ketten 33571
▁Tro 33570
jaink 33565
LC 33560
▁28. 33559
▁elemezzük 33553
▁barna 33552
mények 33551
▁High 33549
▁queen 33543
▁ajánl 33541
▁menekültek 33538
szerűen 33534
▁befolyás 33533
▁br 33529
Co 33525
követ 33524
▁kockázati 33520
▁alkotmány 33500
▁szabályai 33497
tea 33487
▁szeretik 33483
▁Sky 33482
▁állítani 33480
▁pa 33473
▁Király 33468
▁Jogi 33467
▁versenyt 33466
motor 33464
ször 33463
▁Részletek 33462
folyó 33461
jut 33458
▁mobilitás 33453
▁szélesebb 33451
▁kimenet 33448
▁jóváhagyott 33447
▁szavai 33446
▁katonák 33445
▁függetlenség 33440
▁kártyá 33437
▁regisztrál 33433
▁lettem 33432
▁recept 33427
▁közzététel 33426
▁weboldalon 33425
▁Video 33422
sátok 33416
▁Smart 33400
▁bevezetés 33400
▁egykori 33399
mennyiség 33392
▁vezette 33391
tr 33389
▁oxigén 33389
▁rokon 33383
▁felismer 33372
act 33366
▁White 33364
▁Garden 33362
▁(16 33345
ógép 33338
anta 33333
▁Szia 33327
uro 33324
VE 33320
▁növényi 33320
ual 33314
▁épülete 33307
▁fordításán 33306
▁csaj 33304
▁érzék 33300
fejlesztési 33297
▁kiderült 33296
▁domain 33292
▁EL 33289
▁rendelkezéseket 33286
ommal 33280
▁felmerülő 33280
▁jöhet 33279
▁egyszerűbb 33277
▁nincsen 33272
mál 33268
▁Anyag 33264
▁ösztönzi 33264
▁iOS 33259
▁hiányában 33253
▁Ü 33248
▁támogatni 33246
▁különbséget 33240
▁Pénz 33236
▁eléri 33228
SC 33227
GO 33224
▁keresnek 33223
lf 33219
zom 33215
▁észlel 33215
▁OK 33212
▁Ugye 33210
▁tudatos 33199
▁tulajdonságai 33198
▁kerék 33194
▁szül 33194
fed 33188
ms 33188
2013 33186
rs 33183
▁biztosítására 33178
▁cserél 33174
▁ujj 33174
▁téren 33172
▁láng 33169
▁használhatják 33159
▁igényei 33159
box 33152
▁eredetű 33146
▁hatására 33146
▁eskü 33140
▁bővül 33133
▁csatlakozott 33128
▁kiált 33127
▁várakozás 33124
LI 33118
▁elolvas 33103
▁alkalmazásában 33101
▁segély 33099
▁telepítése 33097
▁31. 33095
▁műhold 33094
▁beszélsz 33089
illeszt 33085
▁53 33082
▁gyárt 33082
zsa 33075
▁alkalmazottak 33074
▁tudták 33071
▁egyenes 33069
▁vihar 33069
gin 33068
▁ragaszkod 33050
ságok 33049
kh 33047
▁Hét 33040
▁befektetők 33029
▁ideges 33022
▁akad 33014
▁akadályoz 33007
▁2005- 33006
▁jogait 33005
MC 32998
▁járul 32998
▁napló 32997
▁Örülök 32994
▁tenisz 32985
▁formák 32983
▁célkitűzések 32982
▁László 32981
▁ikon 32979
▁képen 32973
▁Fesztivál 32968
▁hálószoba 32967
▁Orosz 32964
▁leány 32963
▁Glosbe 32962
▁54 32950
szög 32949
▁igényeinek 32940
king 32938
▁vizsgálja 32931
TEL 32929
kodó 32928
▁kereskedési 32927
láz 32926
▁kel 32926
▁állampolgárok 32923
hotel 32922
▁követte 32920
▁megtakarítás 32912
heim 32910
▁lefoglalva 32910
▁Centre 32906
vásárlás 32903
úz 32902
▁ellenőrzések 32902
▁irat 32902
▁megoszt 32900
▁techniká 32896
▁kínált 32895
fiók 32892
▁hatályos 32891
▁Számvevőszék 32886
száll 32880
▁emelet 32867
▁rólam 32863
▁kárt 32862
▁kilométerre 32860
▁nettó 32858
▁link 32852
▁180 32846
▁cent 32845
▁fehérje 32844
▁jelszó 32844
Ba 32843
TER 32842
▁Mű 32832
▁hihetetlen 32829
▁összegyűjt 32829
ásában 32826
▁gyermeke 32826
▁nyilvánít 32822
▁román 32821
▁Server 32819
▁str 32819
termék 32807
▁Pil 32804
pát 32803
▁Szinte 32794
▁Brit 32791
▁elrendelt 32791
ming 32778
▁mentés 32777
isztikus 32769
side 32766
inger 32762
változás 32759
▁testet 32753
▁fenntartás 32749
hon 32747
▁másolat 32739
▁tartalmat 32737
▁Moszkva 32733
▁Kur 32729
▁kultúr 32713
▁Mol 32710
ator 32708
▁játszhat 32708
▁helyén 32705
▁Qua 32703
▁elnökség 32703
▁ken 32696
▁termelő 32695
▁többség 32694
▁záró 32692
▁kórház 32685
▁Királyságban 32677
tátok 32675
▁2.0 32673
▁korán 32673
▁munkák 32667
▁26. 32664
▁örökre 32663
▁változott 32661
▁bolond 32659
▁távon 32659
▁Louis 32658
esd 32654
▁kockázatot 32650
bõl 32649
▁email 32649
▁Árak 32648
▁alkalmazza 32647
▁HIV 32633
FT 32628
▁gondoskodik 32616
▁teljesítményt 32615
▁Qu 32609
▁szeretettel 32608
▁adminisztratív 32597
▁haladéktalanul 32597
fut 32595
▁kezdeni 32590
▁szolgálják 32590
▁visszatérés 32580
▁alkalmazási 32579
LS 32577
ÁS 32577
▁kiegészítés 32575
▁tonna 32573
nc 32568
▁Golf 32559
▁hülye 32543
▁Bl 32527
▁95 32526
▁technika 32524
▁Digitális 32518
▁körzet 32515
▁vidéki 32513
UN 32510
Te 32508
▁politikák 32501
▁árt 32501
▁rejt 32495
▁szerepelt 32494
ull 32489
▁szabadul 32480
▁jelentkező 32478
▁Fla 32477
extra 32475
történet 32473
▁pohár 32469
▁Vel 32465
▁mellékletében 32465
▁Maradj 32456
▁szavaz 32452
▁Anál 32448
▁játékban 32448
ciós 32443
ă 32438
▁gyulladás 32433
utas 32430
Are 32424
▁humán 32423
▁bútorok 32421
▁oktató 32415
▁termékei 32415
kert 32404
▁mérés 32404
▁madarak 32401
▁képviselet 32394
▁teljesítményű 32393
▁banki 32391
▁léteznek 32384
▁sereg 32382
▁Egyetlen 32379
▁biztosítási 32376
▁lépcső 32375
▁kockázata 32374
nivaló 32372
▁Tökéletes 32372
▁mentő 32369
▁Dia 32360
-3 32349
▁mindketten 32349
▁Old 32347
▁újonnan 32335
▁bűncselekmény 32329
▁Milánó 32323
▁mutatott 32321
pszich 32317
▁tervei 32312
▁ölte 32305
dj 32298
nként 32297
▁ragad 32296
▁Eu 32295
ükre 32293
sin 32292
▁Plaza 32292
▁állapít 32289
▁tartalmak 32287
▁Lan 32286
▁tagság 32283
▁korában 32277
▁rögzít 32275
▁GmbH 32266
▁vádol 32265
▁MA 32252
teg 32243
▁elvégezni 32243
▁terrorizmus 32243
hét 32234
gé 32226
▁ruhá 32226
▁Finnország 32220
▁intézkedést 32219
juss 32205
▁Superior 32203
▁tartalmát 32198
▁közúti 32190
▁fenntartva 32182
▁céggel 32171
bul 32169
▁Gyártó 32169
oper 32167
▁összetevők 32162
▁játszanak 32159
▁Nyelv 32153
dí 32151
▁megkapja 32150
▁Open 32147
▁nyár 32142
▁bizalom 32135
▁területi 32134
bla 32127
CE 32126
▁(17 32125
▁iskolában 32122
▁gr 32111
állítás 32108
▁misszió 32108
akkal 32107
▁kapsz 32098
tum 32094
▁hű 32093
technológiá 32089
▁érthető 32089
▁szolgáltatási 32087
▁Sor 32084
▁mélyen 32077
cle 32075
ütés 32071
▁elhelyezkedő 32068
▁önök 32067
▁megmutat 32066
` 32063
rajz 32056
betegség 32054
▁ellentétes 32054
▁Kong 32046
ble 32045
▁tedd 32041
kád 32040
▁idővel 32040
▁kemping 32038
▁tárgyal 32034
▁Láttam 32032
▁190 32031
▁elérhetővé 32031
▁zárva 32031
▁zöldség 32030
▁megtapasztal 32026
▁intézet 32022
▁ura 32018
▁nyelvhasználat 32016
▁finanszírozási 32014
ite 32008
otok 32004
▁felszín 32004
▁védelmét 31990
▁1,5 31967
▁csaknem 31965
duc 31960
▁kezelési 31956
▁környezetet 31953
▁cseh 31951
▁keverék 31949
▁feltételeknek 31946
▁weboldalak 31941
▁rendezés 31933
→ 31931
▁nyeremény 31931
▁mezőgazdaság 31928
GB 31925
▁Adobe 31923
▁ismerik 31906
▁véletlenül 31902
csodá 31895
▁használhatja 31892
Ka 31890
Me 31888
szállító 31888
▁98 31885
▁Miami 31884
more 31883
▁Lég 31883
▁Weboldal 31883
▁felhasznált 31883
▁magába 31883
nt 31877
▁kinek 31873
▁automatizált 31870
▁jogosultság 31869
▁veletek 31869
ikai 31868
▁ünnepel 31868
▁teheti 31867
▁látják 31864
▁királynő 31861
▁értékét 31860
▁13- 31852
▁romantikus 31852
▁Arch 31850
▁tekintet 31847
▁tra 31847
/8 31844
▁képező 31838
▁potenciál 31835
▁szub 31835
▁ügyvezető 31833
Gy 31832
▁fürdőszobával 31829
▁érezte 31820
▁népek 31819
▁Tél 31813
eiről 31803
ING 31795
▁Gre 31795
▁informatikai 31795
▁választja 31795
▁School 31782
▁jellem 31781
▁Szentlélek 31767
▁fejlesztő 31762
▁harcos 31762
▁tagállamokban 31762
/6 31761
▁Fejlesztő 31761
zia 31752
uló 31745
▁nyomja 31745
▁vették 31744
▁megszervez 31737
▁vetjük 31735
▁CE 31734
▁Sen 31732
lapok 31727
▁Nev 31724
nemű 31721
bér 31720
▁Gép 31720
▁lányom 31711
asztó 31710
törés 31707
▁00 31706
▁költ 31702
▁gyógy 31699
▁melléklete 31698
▁szeretni 31696
▁elérhetőség 31692
▁taxi 31687
▁eredményeit 31686
tõl 31684
▁maximum 31683
▁gitár 31682
▁Long 31674
▁Mercedes 31671
▁órában 31671
lep 31670
▁világosság 31670
▁célt 31668
▁növekedése 31657
▁juttat 31640
vol 31639
▁kompatibilis 31637
phi 31635
▁Avenue 31631
▁tájékoztatja 31621
▁álláspont 31612
▁SA 31611
oxid 31608
▁Nép 31608
▁bizonyult 31606
ua 31603
▁számíthat 31591
tudomány 31589
cso 31575
▁nemes 31570
▁csel 31569
▁évszázad 31565
▁lop 31561
▁kiválaszt 31541
▁kapja 31534
▁tippek 31534
▁Om 31526
▁meghatároz 31523
▁mosoly 31521
▁fontosságú 31517
▁kezeli 31513
▁tanulási 31509
▁Ray 31505
után 31496
mmer 31493
▁hatású 31491
tech 31490
▁érvénytelen 31485
▁csoportos 31481
▁identitás 31481
▁egymáshoz 31479
kerek 31478
▁Energia 31470
▁állni 31470
▁tények 31468
▁tisztáz 31466
▁Cre 31465
ulat 31461
▁segítő 31461
elemzés 31454
▁tű 31452
▁nemzedék 31450
▁Cigarettázás 31446
▁Smith 31441
▁amennyire 31441
szerelés 31439
▁kapcsolódnak 31421
megyek 31412
támasz 31412
▁Ennyi 31412
▁gyűlöl 31412
▁18- 31410
▁erőszakos 31404
tett 31395
ítása 31394
▁férfit 31392
▁földre 31388
nyújtás 31387
▁Han 31386
▁fil 31381
▁tiéd 31377
ogatás 31372
AG 31364
▁kávézó 31363
▁szőnyeg 31362
▁készség 31356
▁92 31352
▁Rob 31346
▁tilos 31343
tároló 31340
able 31336
matikus 31334
▁Daniel 31330
▁kora 31328
▁gondolkoz 31327
▁tengerpart 31324
▁megtörtént 31323
▁álmai 31322
▁Foglalja 31320
▁közti 31320
▁csapatok 31314
▁kém 31314
▁mélység 31313
11. 31309
társa 31309
house 31307
▁portál 31304
▁Micsoda 31302
▁egészet 31302
▁alapított 31295
▁oldat 31293
▁okozza 31281
tiv 31277
▁üzletszerzés 31276
▁Egészségügyi 31275
▁terem 31268
▁valahogy 31264
▁iskolák 31263
▁senkit 31260
Műhold 31257
▁Water 31248
▁megerősíti 31242
zött 31239
▁helytelen 31235
▁alaposan 31234
▁nehézségek 31234
▁Értékelés 31232
▁Kedves 31228
▁táplálék 31227
▁Mik 31224
▁összetevő 31224
▁Media 31216
▁autóútra 31215
▁üzletek 31212
▁gondolok 31211
▁72 31207
ább 31203
▁osztrák 31202
-6 31184
▁olvashat 31181
kereskedelmi 31180
▁Bat 31180
▁használták 31180
tesse 31175
▁bevándorlás 31173
LM 31172
jem 31170
▁méltóság 31162
▁hajtott 31156
▁3* 31141
lég 31140
▁közvetítés 31130
▁előnye 31121
▁haszon 31118
▁tervező 31117
készülék 31116
▁zajlik 31116
▁Chrono 31106
▁közvetett 31103
▁letöltése 31103
▁Kék 31102
▁mutatni 31102
▁2017: 31100
társaság 31098
▁terjeszt 31096
▁keresse 31095
▁háromszor 31093
▁véleményt 31093
ings 31088
▁nemrég 31085
..." 31079
▁biztosítva 31072
▁azonosítás 31069
▁energiahatékony 31068
há 31065
mutat 31061
▁válaszok 31057
▁jelleg 31053
▁Indi 31049
sol 31046
▁14- 31046
több 31041
▁építési 31041
▁Mindazonáltal 31040
elve 31033
▁járni 31024
FA 31023
▁Jetcost 31022
▁bevezetése 31017
▁háza 31015
▁Szingapúr 31014
▁tesztek 31013
król 31011
▁aludni 31009
La 31002
▁logó 31002
▁Találkoz 31001
▁hajszárítóval 30992
pen 30989
▁döntéshozatal 30987
▁bútor 30986
▁felbontás 30985
▁Wall 30983
▁üzemeltető 30983
▁fr 30982
▁genetikai 30976
▁hangsúlyt 30974
▁dolgozók 30971
▁AC 30969
▁hordozható 30967
▁medencével 30966
▁Kormány 30963
▁kellő 30960
▁Ember 30949
aként 30947
▁lehetőségei 30947
felügyelet 30943
rio 30943
bre 30937
▁Wal 30935
▁jele 30931
szól 30930
▁Egészség 30918
ib 30910
▁linkek 30910
▁kizárólagos 30900
▁próféta 30899
▁sérelme 30897
▁fejleszt 30896
kop 30895
▁Mur 30892
▁alkatrész 30887
▁Matt 30886
oy 30881
▁hangsúlyozza 30869
▁mindennap 30868
▁törekvés 30867
▁feladatokat 30866
▁kísérleti 30860
▁döntések 30859
három 30856
▁tervezték 30853
▁azelőtt 30852
▁rendszerrel 30849
▁fegyvert 30847
▁Lap 30838
▁cikkek 30837
▁műszer 30837
▁22- 30830
▁próba 30827
berendezés 30814
uff 30805
▁mérleg 30804
▁garantáltan 30802
▁családom 30795
▁nyomozás 30786
▁semmiféle 30784
▁24- 30779
zá 30778
▁használatára 30777
anom 30776
▁Intel 30776
oktatás 30775
▁Tol 30774
▁Bulgária 30771
▁forgalmazás 30760
▁teljesítése 30754
minden 30753
aná 30751
▁Őt 30745
▁megakadályozza 30743
▁átlátható 30741
▁NE 30738
▁okmány 30738
vic 30727
▁mindenkor 30726
iális 30725
▁Hong 30723
▁könny 30723
kár 30718
▁fájdalmat 30707
tlen 30703
biztos 30701
fok 30695
▁Havi 30692
▁repülőjegy 30691
▁meggyőződés 30686
alu 30685
▁Legutóbb 30685
▁teszünk 30685
▁Fr 30679
▁optikai 30674
▁Országos 30671
▁szabályozott 30665
▁szervezés 30665
▁átlagárával 30664
hossz 30658
▁megold 30657
▁homok 30654
▁megkülönböztet 30654
szövetség 30636
▁Engem 30636
menni 30629
▁felújítás 30627
tanács 30626
▁fejét 30623
▁fogalmazott 30623
▁nyáron 30623
▁vall 30622
▁Pakisztán 30621
▁irányelvek 30621
▁elér 30617
▁szállását 30617
▁show 30603
▁ártól 30603
▁innovációs 30600
▁klímaberendezés 30598
2018 30596
▁módszert 30596
▁szomszédos 30596
▁57 30592
zsi 30589
▁érdeklőd 30581
▁tanácsot 30580
Car 30579
▁Mars 30576
▁jövedelem 30576
▁Kíná 30573
▁élénk 30573
▁eldönt 30571
▁art 30569
▁index 30554
▁szimbólum 30552
Pa 30547
▁16- 30547
▁kíváncsi 30547
▁Bocs 30544
▁Régi 30542
▁Im 30541
ukban 30532
▁Pl 30529
-12 30526
▁éghajlat 30525
▁Vol 30508
▁teremtett 30507
▁visszavon 30502
▁abbahagy 30495
▁hozzáállás 30495
ső 30491
▁pusztán 30487
▁márká 30478
információk 30476
▁egér 30474
▁értek 30465
▁England 30462
▁Légy 30462
prop 30458
▁visszavonás 30458
ezzük 30457
▁fegyveres 30451
▁érzékelő 30447
▁számítógépen 30444
▁tabletta 30443
▁egyetért 30439
SD 30436
nök 30436
▁Rengeteg 30428
▁konzol 30423
▁technológiát 30423
▁bárban 30411
fájl 30409
▁döntéseket 30409
▁munkahelyi 30409
vig 30406
PT 30401
▁Szo 30401
▁visszatérítés 30400
dá 30395
▁barátaim 30395
▁funkciót 30394
▁világnak 30378
félék 30368
▁jónak 30368
▁megállapította 30366
▁hirdetések 30365
▁Bangkok 30362
▁tetszett 30362
▁kávét 30361
áshoz 30346
▁Szerződő 30346
▁kötet 30335
▁munkatársai 30332
▁Henry 30329
hassák 30324
rip 30321
▁kereskedés 30314
▁Jane 30313
funkció 30310
▁gőz 30306
▁William 30302
▁teszem 30295
▁360 30286
▁Village 30283
â 30281
ebben 30279
felhasználásával 30277
▁alapos 30276
▁meghajtó 30274
▁Kör 30272
▁generál 30268
▁időn 30267
▁hozzon 30261
▁Elérhető 30259
gyűl 30251
▁tárolt 30251
▁bizonyítvány 30250
▁Luxus 30249
▁senkinek 30241
▁sugárzás 30240
▁Megpróbál 30235
csökkentés 30233
una 30232
▁Jár 30232
▁Ipari 30222
▁Remek 30222
▁Nincsenek 30217
▁leányvállalat 30212
▁ős 30207
▁depresszió 30206
▁pasi 30199
vét 30195
▁Fri 30192
▁Sokkal 30191
esztő 30188
▁sarok 30188
▁mozgat 30168
▁bejelentett 30164
▁királya 30164
▁Alkalmazás 30159
▁lányt 30157
▁tesszük 30157
▁jobbra 30155
▁válni 30152
jainak 30151
▁Iz 30150
▁2003 30146
▁import 30143
▁jelentősége 30143
▁fogás 30142
▁magadnak 30141
▁kezdet 30127
▁előfordul 30126
▁meghallgatás 30124
▁2004- 30123
▁dupla 30122
▁had 30121
▁nedves 30116
▁személyt 30113
▁szavakat 30106
▁kezében 30096
ical 30095
▁29. 30095
▁anyanyelvűek 30094
▁karácsonyi 30092
▁növekedést 30087
wo 30081
▁nála 30079
▁előnyös 30078
zív 30068
▁tudjátok 30068
▁Verseny 30067
▁doktor 30066
▁szovjet 30064
sho 30052
▁Farm 30052
▁Ob 30050
jelzés 30047
▁szek 30045
▁formátumban 30030
hof 30028
▁Találj 30026
▁kaphassa 30026
alma 30022
▁hatályon 30016
▁puha 30013
▁nyilatkozta 30005
▁megállapítása 30004
▁Erő 29998
▁készítő 29989
–1 29988
▁laboratórium 29988
▁Cy 29983
minőség 29976
▁Fal 29974
hatott 29973
▁keményen 29972
▁jövőbeni 29964
▁kategóriák 29963
▁tét 29957
öböl 29956
kiegyensúlyozott 29951
▁látnivaló 29948
▁évtized 29944
EX 29940
▁célpont 29939
▁YouTube 29930
▁dolláros 29928
spec 29924
▁latin 29921
▁Land 29909
▁egyetemes 29908
▁Rad 29897
▁változatos 29897
technikai 29892
▁Nik 29886
▁tapasztalattal 29879
▁Fen 29875
▁foglalkozás 29875
▁utcán 29873
▁teljesül 29862
▁lágy 29852
▁lejátszó 29844
▁Próbál 29841
▁végzi 29839
▁érdekli 29839
▁kortárs 29836
▁Sem 29835
▁valósul 29834
rick 29832
▁Címkék 29827
▁Square 29827
▁chat 29825
▁tipp 29825
▁Szeretnék 29822
▁szintre 29821
▁Bele 29819
▁munkavállaló 29818
▁Ország 29811
▁maszk 29804
keresés 29802
▁terasszal 29802
vad 29797
olog 29786
▁Megtalál 29784
▁mérő 29783
vesztés 29782
▁gyakorlatban 29781
▁dekoráció 29779
▁Kim 29777
▁Jean 29776
össze 29775
▁Norvégia 29773
▁testi 29769
▁gondolják 29766
szon 29763
▁aktivál 29762
▁ural 29762
▁American 29761
KK 29739
hajtás 29736
ovo 29729
▁Ron 29727
▁Lind 29726
UT 29725
▁WiFi 29722
▁következ 29722
▁csapata 29721
▁Cél 29718
▁vizsgált 29716
▁Regisztráció 29713
▁immár 29711
▁szabványok 29711
▁lő 29703
5/ 29702
megállapodás 29702
▁rajzol 29702
▁ébred 29689
▁17- 29685
▁találtunk 29678
▁itthon 29676
▁meta 29675
fü 29674
venni 29672
zene 29663
Én 29659
▁miről 29659
ddal 29658
▁der 29652
gyöngyök 29651
▁foglalni 29646
▁Megállapodás 29644
▁nevezte 29644
↑ 29629
▁Bob 29629
megkülönböztetés 29621
riszt 29621
jam 29618
▁javítani 29616
▁szolgált 29612
▁megoldani 29610
▁fegyverek 29607
▁szál 29606
▁hercegnő 29605
▁lövés 29603
▁Feltételek 29599
▁funkcionális 29595
ous 29594
▁hálás 29594
▁bizony 29588
▁mindenképpen 29587
olo 29583
▁Pet 29581
▁dolgozom 29577
▁szintjén 29574
▁Modern 29571
▁elindul 29571
▁üldöz 29567
▁dia 29562
▁4* 29557
▁csúsz 29557
▁ezekre 29557
▁kocsival 29557
▁címét 29555
▁Ügy 29552
▁Jackson 29547
▁21- 29546
▁hozzáadása 29546
roll 29545
▁parancsnok 29540
▁Lakosztály 29538
▁Lee 29534
gazdaság 29532
▁kormányzat 29528
▁feltöltés 29527
▁Town 29525
▁(11 29523
▁nyugat 29515
▁elhelyezkedés 29512
túl 29510
▁nyilván 29506
cm 29504
▁Lab 29503
hassanak 29489
▁für 29482
lock 29478
▁elemzése 29476
▁id 29476
▁lassú 29476
▁turisztikai 29475
▁látod 29472
▁kívánság 29470
▁címmel 29467
▁elõtt 29465
▁azonosított 29464
ükkel 29462
ao 29461
▁történni 29459
▁szivattyú 29458
▁csatá 29450
orvos 29446
pá 29446
kéz 29444
OC 29439
▁ökológiai 29434
▁dohány 29432
▁mindegyike 29430
▁Der 29428
▁Dam 29427
formá 29424
▁injekciós 29421
▁Miközben 29420
ade 29419
▁pályaudvar 29419
▁Telefon 29417
▁virágok 29417
▁mindenhol 29414
▁Munká 29410
▁megpróbálja 29403
gyi 29386
▁hoztak 29378
▁Son 29376
▁99 29375
▁kielégítő 29365
▁érzékel 29357
▁hova 29354
▁hangot 29353
▁Hongkong 29351
hull 29350
▁övé 29349
▁üzenetek 29349
lagos 29346
▁Rent 29346
▁Music 29344
RS 29338
▁NA 29333
▁völgy 29333
▁utcai 29332
▁MI 29329
▁HA 29328
▁Lim 29325
▁megvalósítása 29325
▁műhely 29319
▁Mell 29316
▁figyelj 29316
▁páciens 29316
▁szórakoz 29313
▁hoznak 29303
▁Díj 29295
▁kimutatás 29295
▁szükségletei 29294
ns 29293
özés 29292
▁58 29291
▁támadó 29289
▁gyerekeket 29277
▁alkotás 29266
▁barlang 29263
▁Erről 29258
csapat 29256
▁elnevezés 29252
▁fedezet 29240
▁törvényt 29240
▁Bed 29232
nny 29231
▁amatőr 29227
▁Mun 29221
tartási 29215
▁állítható 29215
▁küldeni 29214
▁elérhetőek 29213
ial 29211
▁kristály 29207
▁emelkedett 29206
▁Gua 29202
terjed 29198
▁Eddig 29194
▁térd 29194
▁hagyhat 29193
▁csatorná 29190
▁Tel 29186
▁Orbán 29185
DR 29178
▁javítja 29177
▁rendszerint 29173
Xóõ 29168
▁kidolgozás 29165
▁csepp 29162
▁Tamás 29159
▁hová 29147
▁továbbfejleszt 29142
szalag 29138
▁69 29136
tatta 29135
00- 29129
▁Végre 29127
mas 29125
▁pénznem 29122
▁dohányzó 29115
▁legközelebb 29114
▁öltöz 29103
▁nevezett 29099
▁GDP 29096
▁vitte 29094
▁Raj 29091
tud 29090
▁Dánia 29089
ale 29088
▁foly 29087
rich 29086
▁rendelettel 29080
PE 29075
▁telefonon 29072
-4 29068
wal 29067
▁gondozás 29064
▁termelők 29062
▁építeni 29057
üzem 29051
▁látvány 29051
beleértve 29048
rm 29044
▁korlátoz 29036
▁polgármester 29035
ash 29032
▁bevonat 29031
▁AS 29030
tartott 29022
hó 29021
▁juthatok 29021
▁másokat 29020
negyed 29019
▁tartozékok 29015
FE 29013
▁érhet 29008
NC 29006
▁felismerés 29006
teszt 29005
énnyel 29005
szab 29000
▁Cons 28995
▁Audi 28993
▁protokoll 28993
▁ötven 28989
▁Karácsony 28986
▁elvek 28986
erős 28984
▁mélyebb 28983
▁utasok 28981
▁pe 28974
▁tartom 28974
▁krónikus 28968
▁művel 28967
▁Köszönjük 28965
▁Megtekintés 28961
▁órá 28960
▁módját 28955
▁átalakítás 28950
▁Akik 28943
▁Opera 28941
▁Pla 28940
▁MachineryZone 28933
▁(9 28925
▁lőtt 28923
rid 28922
MO 28918
hessenek 28917
szim 28913
▁mindkettő 28911
▁front 28910
▁megismerés 28908
▁hetedik 28905
▁kifejezett 28904
▁Irak 28901
▁kegyetlen 28899
bocsát 28898
▁Nam 28897
▁világosan 28892
▁mennyisége 28889
▁becsült 28885
rov 28866
▁[2] 28864
▁fényt 28859
VI 28855
▁Mes 28854
CR 28849
▁találkoz 28842
▁Francisco 28840
▁foglalhat 28838
▁töltse 28835
arány 28829
▁remél 28829
▁vezérlés 28826
▁nyertes 28823
▁Gene 28817
csa 28816
▁életemben 28810
▁gyereket 28808
▁évesen 28802
▁benyújt 28799
▁jelenléte 28797
▁fér 28796
▁nékik 28796
2017 28795
▁prémium 28795
▁kifizetések 28783
▁megmarad 28783
▁vidék 28779
▁700 28776
▁kifejlesztett 28776
aknak 28771
sszal 28770
▁Stan 28767
▁legalacsonyabb 28764
▁bevált 28761
▁azokban 28760
▁videót 28760
▁válaszolt 28756
fur 28754
▁Poli 28750
▁lézer 28748
▁cikket 28745
▁jöjjön 28745
ménnyel 28744
▁elfogadása 28742
▁bajnokság 28741
▁lefelé 28741
▁szembesül 28740
▁várjuk 28740
▁korrupció 28735
▁szemet 28731
▁eljárásokat 28730
▁aggódj 28727
▁csatornák 28727
ÉK 28726
▁helyszínekre 28726
indi 28725
▁hacsak 28725
▁Ant 28721
▁(12 28720
▁post 28718
▁tanulók 28716
▁Ji 28713
▁színvonal 28707
ans 28705
▁Videó 28702
▁tetején 28699
zy 28691
▁kihívást 28691
eli 28690
▁oldalra 28690
▁hátul 28685
▁elrendezés 28684
RP 28681
▁szentel 28681
▁eurót 28680
▁jelentkezés 28679
/2006/ 28676
▁egyszemélyes 28675
▁kelljen 28674
▁őriz 28669
▁Main 28658
▁kereskedők 28655
▁jellemzi 28654
▁GPS 28652
▁amerikaiak 28651
▁barátod 28651
▁látványosságok 28650
▁finanszíroz 28647
▁Keményen 28645
▁Medi 28645
▁előállított 28643
▁Brazília 28637
▁szerződéses 28633
aid 28626
▁mellékletének 28625
▁szerető 28622
technika 28618
alizáció 28614
▁szerepelnek 28611
▁takarít 28610
▁statisztikák 28606
▁tanító 28604
kg 28597
3/ 28586
▁Real 28583
▁cseleked 28582
▁eljárási 28578
▁DC 28577
▁ismerem 28576
művész 28570
szállásainak 28568
▁legutóbb 28566
▁társaságok 28563
▁illető 28551
▁vizek 28551
TH 28546
▁adták 28545
kis 28536
▁kiterjed 28536
▁szíved 28534
utak 28527
ñ 28522
▁szerezte 28517
▁Állami 28515
▁konyhá 28513
▁történetet 28513
▁Tech 28510
▁Rose 28509
▁vaj 28505
▁Mill 28502
▁alkot 28502
▁ruházat 28499
cept 28495
▁dohányzás 28493
▁kutat 28487
▁képességei 28481
▁népe 28479
gyűjtő 28475
▁egyenlőség 28469
▁Lakás 28460
▁Tedd 28456
▁su 28455
▁tulajdonképpen 28454
bír 28452
▁ellop 28449
asztott 28446
▁59 28441
sing 28438
▁másokkal 28436
adatok 28428
▁részes 28425
árd 28424
▁máshol 28423
▁szabványos 28419
spekt 28416
▁igazából 28414
▁nyers 28411
▁elkerülése 28406
▁bátorság 28405
▁Wo 28404
▁max 28400
ítási 28398
▁választások 28393
▁felfüggesztés 28391
cht 28388
▁Azóta 28386
▁vizsgá 28386
észet 28380
ákkal 28379
csere 28370
▁olimpiai 28368
▁vásárló 28368
szerző 28367
mely 28361
▁hátrány 28357
▁rég 28357
▁meghallgat 28356
▁Sel 28355
/2013/ 28354
▁Management 28353
▁Frankfurt 28351
akar 28349
AP 28348
▁áruház 28347
▁Spi 28342
▁strukturális 28340
▁holttest 28335
▁képezik 28335
ncs 28328
▁EM 28328
elet 28325
▁gyűlölet 28324
▁vallásos 28324
használ 28323
▁Time 28323
▁Fotó 28321
rent 28319
▁ahelyett 28319
his 28317
▁Kapcsolódó 28317
ítette 28316
▁siet 28314
▁árai 28313
kötés 28307
▁diplomá 28305
▁mor 28305
cess 28301
▁panaszkod 28297
▁sertés 28295
▁feladatot 28292
▁Wood 28285
▁bennük 28285
▁különben 28285
▁juh 28283
IO 28276
sim 28276
▁szorul 28274
600 28270
abbak 28269
▁határozottan 28269
▁hallott 28268
▁Cas 28264
▁sokféle 28259
▁Rh 28258
▁módosul 28256
ppen 28254
▁anyá 28242
▁ráadásul 28232
▁kezelését 28222
▁Zár 28221
▁látnivalóval 28221
▁áldozatok 28221
rob 28218
▁működtet 28214
▁Pop 28210
▁tevékenységeket 28210
▁váltak 28209
▁szeretnéd 28204
▁Shar 28200
cit 28195
▁Mak 28192
hitel 28188
▁válasszon 28188
▁Albert 28184
▁vese 28180
anunk 28170
▁számítás 28167
ggy 28158
▁Ill 28157
▁külföldön 28156
▁tol 28153
▁felesleges 28150
pénz 28144
▁Gondol 28142
▁Times 28142
▁pezsgő 28141
▁éri 28140
fé 28135
vállalat 28133
▁Cer 28133
▁nevelés 28131
▁Pénzügyi 28130
▁megjeleníti 28130
▁Camp 28127
▁következménye 28125
▁Pap 28119
▁tábornok 28119
▁újdonság 28119
izáló 28118
▁követelés 28118
képző 28117
▁megment 28117
család 28104
díjat 28102
▁teljesíteni 28102
▁hagyott 28099
▁léphet 28099
▁nyilatkozatot 28098
rab 28096
▁erejét 28088
sburg 28085
▁autóval 28081
▁önmagát 28078
▁Izland 28076
▁budapesti 28074
▁helyeken 28069
mondója 28067
▁mon 28066
kla 28063
▁szerek 28046
▁szemei 28041
▁kanadai 28040
▁melletti 28029
▁66 28019
▁bemutatja 28018
▁fogyaszt 28016
▁szerződő 28007
uláris 28004
▁ellenőrzi 28004
▁százalékát 28003
▁összetétel 28002
▁támaszkod 28001
▁Charlie 27997
▁Mass 27992
▁ennyit 27989
▁mozgalom 27989
▁szülés 27989
▁sújt 27988
▁Alig 27985
rendez 27979
▁évad 27976
cam 27975
kábel 27974
▁rendeletet 27973
▁részleges 27969
▁Os 27968
▁Linux 27965
▁fölé 27964
beszéd 27960
▁tartották 27956
▁hinni 27944
▁keresési 27943
kulcs 27940
▁Volvo 27939
szabály 27929
▁Sony 27921
▁kockázatát 27915
▁György 27913
▁vízben 27904
▁használunk 27902
▁kijelentette 27899
▁változást 27899
▁esélyt 27898
▁gyermeket 27898
▁várom 27897
▁mentek 27895
álja 27894
úgy 27890
▁hétig 27890
▁jelöl 27889
▁póker 27882
▁Belső 27881
ky 27878
▁Mindannyian 27873
▁eleme 27873
▁hossz 27870
IE 27869
▁tartotta 27866
▁Tam 27864
▁bejegyzések 27859
▁végrehajtását 27858
▁kijelentés 27854
▁jelennek 27852
▁megfigyelő 27850
▁Étterem 27841
▁Mobil 27819
▁sofőr 27819
itz 27817
esse 27815
▁szobával 27814
▁elemei 27813
▁Palace 27811
▁amennyit 27811
▁ölni 27810
▁billentyű 27807
▁nőnek 27806
▁Play 27804
▁fenntart 27804
▁süti 27804
▁Gr 27801
gent 27800
▁sima 27797
▁dizájn 27796
▁értékesít 27796
▁elítél 27794
íció 27787
▁jutni 27787
▁Sho 27786
kategóriá 27783
▁Game 27776
▁kattintva 27772
▁munkahelyek 27770
▁megkönnyíti 27765
▁vinni 27753
OD 27752
▁Bun 27751
▁bajnok 27751
▁figyelmeztet 27746
asszony 27741
▁23- 27741
▁Tíz 27734
▁forduljon 27733
▁Hír 27728
▁vezér 27720
tatok 27719
▁Nagyszerű 27719
▁nálam 27719
▁Tudjuk 27716
▁oltár 27714
▁megbíz 27705
ue 27704
▁adtam 27702
▁turisták 27702
▁túlmenően 27702
▁rekord 27700
▁rólad 27697
das 27696
▁hete 27695
▁VPN 27694
▁Halál 27693
▁MS 27688
▁találkozott 27685
▁részesül 27684
▁Hasonlítsa 27679
ery 27673
▁formál 27672
▁Méret 27664
▁bál 27663
▁élvezze 27663
wer 27658
iro 27654
▁érzelmek 27654
▁csinálta 27651
tették 27644
▁Kit 27642
-20 27640
▁mérnök 27634
rát 27628
▁imádság 27625
mán 27624
7/ 27622
▁függvény 27622
▁kínáló 27622
▁szán 27622
gyártó 27615
▁Igazság 27612
▁szíve 27612
rop 27611
▁Galéria 27610
▁zsák 27608
▁tölteni 27598
▁Iskola 27595
▁Hamarosan 27592
▁szigorúan 27591
nar 27583
▁96 27581
▁részletei 27573
▁palesztin 27572
▁kiigazítás 27570
jegyzék 27567
▁táp 27560
▁NEM 27559
▁kötelesség 27559
▁fenyeget 27553
▁otthont 27547
▁tipikus 27546
star 27543
▁szerviz 27542
▁Ste 27540
▁Tegnap 27538
▁gyémánt 27538
ítették 27537
▁kísérő 27536
▁tevékenységét 27536
▁szöveget 27534
▁származnak 27527
▁Név 27521
▁meghív 27517
▁biztonságot 27514
▁processzor 27514
▁Előfordulhat 27510
▁Puerto 27505
cil 27502
▁törvényei 27500
▁kint 27494
▁megadni 27490
▁megállapítja 27483
▁célokat 27481
dorf 27480
▁csináltam 27477
▁Egyébként 27474
▁élők 27474
Európa 27469
▁Residence 27463
▁végrehajtására 27462
▁terjesztés 27461
▁Csillag 27459
PO 27458
rád 27458
▁diploma 27458
▁Teremtő 27457
▁csinálja 27456
▁üzemeltetés 27456
▁nyilvánvalóan 27451
HS 27450
key 27450
▁elfelejt 27446
▁vásárlók 27443
▁elkövet 27441
▁védelmére 27430
▁hordoz 27425
▁nézel 27425
▁szőr 27423
adott 27419
▁Wikipédia 27417
▁békét 27417
ever 27415
fol 27415
▁érteni 27415
▁View 27403
▁Áttekintés 27402
▁Fejlesztési 27401
▁nézett 27401
▁Ros 27398
▁törekszik 27396
▁Megvan 27393
▁Fra 27391
lista 27385
▁elsőként 27382
▁rang 27382
▁Kh 27376
▁Tha 27376
▁Tudj 27375
▁Ig 27374
▁könnyebben 27372
▁zuhany 27371
külön 27369
érzékelő 27368
▁megkérdezte 27368
▁Flash 27360
▁Amazon 27359
IK 27358
▁tractorpool 27355
▁amin 27354
▁infrastruktúrá 27354
▁látták 27351
érvény 27344
tartomány 27338
iták 27334
str 27332
ác 27329
ocs 27327
rém 27324
▁talp 27324
▁zóná 27318
hű 27317
▁tagállamokat 27316
▁adataim 27313
▁garantálja 27309
▁robbanás 27307
▁javulás 27305
látó 27300
▁Oly 27300
▁emlékezet 27300
▁fejed 27295
▁kalap 27293
▁okozó 27290
▁hozzáadott 27285
▁megelőz 27281
▁felügyelő 27278
▁Minél 27271
▁vedd 27269
▁Western 27266
vil 27261
▁Light 27259
cus 27253
▁Budapesti 27251
▁Reggel 27251
▁másképp 27250
▁mez 27248
▁csökkenés 27247
▁otthonából 27246
▁iskolába 27242
▁Tevepata 27239
▁megőriz 27238
▁generációs 27235
▁működött 27235
▁tükrözi 27235
fordul 27232
▁meghaladó 27232
modell 27227
▁különbségek 27225
▁Érdekes 27209
▁Sh 27200
▁közeled 27200
▁választó 27200
▁tüz 27191
▁Összesen 27191
▁Scott 27188
▁Dob 27184
jan 27181
▁Addig 27174
▁specifikációk 27174
▁jelei 27173
▁irodalom 27171
▁Drive 27167
▁választék 27167
▁felhasználásra 27163
▁feledje 27156
▁19- 27154
▁adok 27152
▁Bitcoin 27151
afrikai 27146
▁Szeretem 27144
▁EGT 27141
▁Steve 27140
őt 27138
▁érvényesül 27137
▁hormon 27136
bro 27134
▁Europe 27132
▁lóg 27131
összeg 27125
ÉR 27124
▁repülőjegyet 27120
▁nevek 27113
▁2019- 27111
▁Felső 27110
▁kkv 27109
örök 27106
▁pan 27095
▁Data 27094
▁gyakorlás 27092
▁tranzakciók 27091
▁láz 27088
board 27087
▁Fre 27085
▁kezelhető 27085
▁kreativitás 27084
▁un 27083
járás 27081
▁véleményét 27081
▁Life 27079
▁co 27076
Ny 27074
back 27074
:// 27069
▁ezúttal 27068
▁hatodik 27068
lob 27063
▁Vic 27058
▁megtanít 27057
▁értelmez 27056
▁ahová 27052
▁top 27052
▁gazdá 27045
▁pontosság 27044
▁erejű 27043
▁wifi 27042
ebbé 27038
▁Hozzáadás 27037
apa 27031
▁felépítés 27031
▁csokoládé 27023
▁Divat 27017
ray 27016
▁Luc 27015
▁beszéltem 27012
ésében 27008
emre 27002
▁Costa 27000
▁gyomor 27000
▁Atyá 26996
▁[-] 26996
irány 26994
▁országában 26994
▁máris 26991
▁Rio 26986
▁turizmus 26976
▁Service 26971
▁megvitat 26965
") 26964
▁halak 26964
▁kabát 26961
cska 26960
▁megbeszél 26960
▁kompakt 26956
▁Mennyire 26950
▁Művészeti 26949
▁kedvezményes 26948
tartalom 26945
ern 26938
torok 26936
▁2004 26933
ST 26932
▁(20 26931
▁megálló 26931
ánc 26928
osított 26923
▁Les 26923
KO 26921
▁manapság 26921
▁rugalmasság 26921
▁telepített 26921
▁rosszindulatú 26919
▁alapító 26918
▁Por 26915
▁Vigyázz 26912
▁Akadémia 26911
Zéland 26910
▁próbálkoz 26908
ÉL 26903
▁kihagy 26903
▁démon 26900
templom 26899
▁Cser 26892
▁College 26889
▁angolul 26889
2014 26888
▁expozíció 26887
▁110 26885
▁támogatására 26885
▁számon 26884
sto 26882
war 26882
▁Szerbia 26881
hívó 26879
▁kormányzás 26879
▁szintjét 26875
termelő 26873
▁operatív 26871
▁elhagyta 26870
2015 26867
lie 26867
hara 26866
▁képviselője 26866
▁összefoglaló 26864
▁átalakulás 26860
ries 26859
▁készítés 26858
▁fo 26855
▁tudatában 26855
riz 26850
▁Pass 26850
▁ÚR 26842
kezelési 26841
▁előrelépés 26838
▁megkapta 26838
▁1998 26837
▁legyél 26837
jar 26836
▁28- 26836
▁lakik 26835
▁Bachelor 26827
▁felébred 26825
▁fogadott 26825
▁részletesen 26825
odnak 26818
▁Debrecen 26818
▁bekapcsol 26811
▁termékekre 26810
vette 26804
▁Nick 26802
▁gyerekekkel 26801
▁fogy 26800
▁Édes 26800
▁cucc 26799
▁hívta 26797
Hi 26796
▁beruházási 26796
▁fogadni 26789
▁hagyjuk 26788
▁magától 26787
▁ruhák 26781
▁apostol 26778
▁Ut 26773
▁menjünk 26772
▁területei 26772
▁áttekintése 26771
▁csillagok 26769
Azt 26768
▁Global 26768
▁immun 26766
▁megteremt 26756
▁Jen 26753
dale 26751
▁Gyártók 26751
/7 26746
▁Szerencsére 26742
▁anyád 26733
▁felemel 26732
▁Francia 26730
▁Sk 26726
▁õket 26726
tessék 26725
▁Elfogad 26724
▁tápanyag 26724
▁többen 26720
csökkentő 26716
▁ág 26716
rõl 26712
úg 26711
▁szeme 26702
▁táplálkozás 26702
ép 26701
törvény 26695
▁felhasználási 26689
árak 26687
▁elveszít 26687
▁Key 26686
sejtek 26683
▁gondolni 26680
▁táncol 26679
▁vizsgál 26677
▁hangsúlyozta 26675
bia 26671
▁kenyér 26670
▁szauna 26668
▁használta 26667
▁bizonyítani 26665
▁ügylet 26664
zanak 26663
max 26661
▁képesítés 26661
▁teljesít 26660
▁semleges 26659
▁listát 26655
▁kapcsolatokat 26645
▁ásványi 26642
▁bátor 26640
2011 26638
köv 26635
▁Zrt 26635
▁Ahol 26623
▁vásárolt 26623
▁kiindulópont 26621
▁címre 26620
▁képernyőn 26615
ellenőrzés 26613
▁fenntartja 26613
:10 26611
ward 26611
▁ún 26611
▁képviselők 26610
▁futball 26603
▁sütiket 26601
▁elkövetett 26599
▁javasoljuk 26599
▁elmondani 26593
hessék 26592
▁svájci 26592
play 26589
▁Jim 26585
▁Kik 26585
▁költségei 26583
FR 26581
▁övezet 26577
-8 26576
sáv 26573
▁pet 26573
tervezet 26569
▁Csi 26560
▁forduló 26559
▁teljesítés 26559
▁Ért 26556
rv 26554
pán 26553
▁mára 26553
▁henger 26550
grad 26549
▁póló 26548
▁adatlap 26547
▁jogalkotási 26544
▁Sátán 26542
▁tulajdonságok 26540
ezd 26533
▁megtudja 26525
▁Egyedül 26524
airól 26521
ségben 26520
hidr 26515
▁ruhát 26514
▁végzés 26509
800 26506
▁felmerült 26496
▁szállásokat 26496
pper 26493
▁Var 26491
olin 26489
▁adagolás 26489
ezési 26488
▁Fil 26488
med 26484
▁Hagy 26484
air 26481
▁epizód 26480
▁viseli 26480
▁városközpont 26479
▁62 26473
ezve 26465
▁hűség 26463
▁Eco 26460
▁fentiek 26460
▁lényege 26457
▁elvár 26450
▁koordinál 26441
▁idejét 26439
▁egyszeri 26438
▁her 26438
ékony 26436
▁értékelni 26434
anci 26433
▁kollektív 26427
▁Nyer 26418
▁távoz 26417
▁értékei 26412
▁Gen 26411
▁torony 26410
▁élhet 26409
▁mindannyiunk 26404
▁vigye 26402
▁LE 26399
pre 26393
▁rendezett 26393
▁aggodalm 26389
▁éjszaká 26387
▁mostani 26385
▁nyugodtan 26383
▁rövidebb 26383
▁Stúdió 26377
▁kór 26374
küldés 26372
finanszírozás 26362
szabad 26357
▁működtetés 26357
ć 26356
▁Word 26356
▁vállalkozó 26352
oma 26351
ML 26350
▁csatlakozik 26348
▁Nemzetek 26346
▁Kérdez 26343
▁biztonságát 26338
▁trend 26337
▁Párt 26331
ápolás 26328
▁mentesség 26322
▁Tenger 26320
▁megszabadul 26319
▁Kiemelt 26312
▁mindazok 26311
▁szélesség 26311
▁ötletek 26311
csal 26310
ozzák 26310
▁elterjedt 26308
▁2000- 26307
frekvenciá 26305
▁Shan 26305
▁londoni 26305
▁elérte 26300
▁elutasít 26299
▁márkák 26298
edre 26297
rendezés 26297
▁tisztaság 26296
▁technikák 26291
▁helyreállít 26285
▁biztosítsa 26283
▁Out 26280
▁hatásos 26280
dzsi 26278
AB 26268
▁találkozni 26268
▁tisztít 26268
▁192 26265
köp 26257
▁gondosan 26257
▁váljon 26256
▁ur 26255
▁kormányzó 26252
▁Mas 26248
▁gépkocsi 26247
▁halász 26241
▁korlátlan 26237
▁másoknak 26228
eur 26223
▁Moz 26223
kérdez 26221
eus 26219
▁Csinál 26219
▁fájdalmas 26219
▁NATO 26218
▁fitnesz 26217
▁tekercs 26214
▁opciók 26213
▁elvei 26210
mmal 26209
▁megragad 26209
▁Lau 26199
▁Talál 26192
▁sose 26187
1% 26184
▁93 26182
▁átvétel 26181
UC 26174
▁Gora 26169
▁partnere 26168
▁inzulin 26165
▁találhatóak 26158
▁folyékony 26157
▁dühös 26152
uck 26147
▁63 26147
gno 26145
költ 26143
▁láthatatlan 26143
▁BA 26136
▁leggyorsabb 26136
▁vonul 26136
▁szolidaritás 26134
▁állsz 26134
▁építő 26130
▁Kri 26121
▁sajnál 26121
▁kapcsol 26120
▁támogatják 26119
hem 26117
▁Fórum 26116
▁társul 26116
▁Chicago 26114
▁adomány 26109
▁adunk 26109
▁irányadó 26106
▁megtör 26103
▁leghatékonyabb 26101
▁vásárlása 26098
▁hátrányos 26097
▁meditáció 26096
▁vizsgálatban 26096
▁magyaráz 26092
▁tagállamai 26092
▁megenged 26088
▁Doktor 26080
▁következőképpen 26079
ferenc 26075
▁Bizony 26074
GS 26073
szál 26068
szakad 26060
▁javára 26060
▁kinyit 26058
▁Pul 26057
▁elemeket 26057
nyelv 26053
2008 26048
▁épületben 26048
▁mennyezet 26047
▁igazgatási 26045
▁idejű 26044
▁mindaddig 26044
▁áldozatai 26041
▁Tér 26039
▁interaktív 26036
▁Peking 26034
▁alkalmával 26034
▁hotelt 26034
▁tulajdonság 26034
▁(18+) 26031
▁Steam 26031
vett 26030
▁bennünk 26030
hivatal 26027
osa 26027
▁hatékonyságát 26026
▁kérdezte 26024
▁Azután 26015
▁tárol 26015
stein 26011
▁megjelenítés 26009
emelés 26007
szervezés 26004
▁látok 26004
▁ügyletek 25998
szabályozás 25996
etikus 25995
▁Természetes 25994
▁múlik 25991
▁89 25988
▁ugyanezt 25978
▁számítógépek 25975
sport 25973
törő 25973
felől 25972
▁Amerikában 25972
▁26- 25965
▁megteszi 25965
biztosítási 25963
▁megvalósítás 25963
▁városra 25960
2009 25957
▁Hy 25957
▁terjedő 25956
▁Ázsiai 25954
▁nyíl 25953
▁viták 25952
▁közelmúltban 25947
▁alapját 25945
▁néktek 25945
ora 25942
beteg 25941
ukra 25940
▁mondok 25930
▁hívni 25921
átus 25920
▁előfizetés 25920
▁parancsot 25918
▁végrehajtani 25918
▁állampolgárság 25918
▁katalógus 25917
size 25911
▁merevlemez 25911
etlenség 25908
▁Fed 25908
▁szemem 25907
▁2003- 25906
▁magukban 25906
szerek 25904
▁bérlésére 25904
▁gerinc 25900
▁Japánban 25896
▁hozták 25896
▁nevel 25889
▁Instagram 25888
▁zuhanyzók 25887
▁múltban 25884
▁számviteli 25884
▁Manchester 25883
▁vásárolhat 25880
▁Speciális 25879
▁korlátozások 25879
▁klíma 25878
ásáról 25872
▁Ind 25870
▁minősége 25867
▁felszámolás 25866
▁találkoztam 25856
▁Mondja 25854
▁vágó 25854
▁Támogatás 25853
▁készülnek 25850
▁Arm 25849
▁menekül 25842
▁igénybevétel 25841
inc 25838
sil 25834
▁mindenütt 25831
stro 25830
kro 25826
▁Hozzászólások 25825
ane 25821
▁javasolja 25821
▁joghatóság 25820
eknél 25819
▁maradhat 25815
▁elszámolás 25809
▁réz 25808
▁takarítás 25796
▁érdekeit 25796
▁leáll 25792
▁sorol 25792
PM 25791
omba 25783
▁(8) 25781
▁hónapok 25781
küld 25768
▁tartok 25766
▁liter 25765
▁Obama 25764
▁Chat 25760
▁68 25759
▁Ezeknek 25759
▁sorban 25759
2.1 25758
▁Tru 25751
▁gyári 25741
ancia 25736
▁Ciprus 25736
▁összeállítás 25731
elte 25730
tális 25723
▁felkeres 25719
▁Határ 25717
▁kiadvány 25717
▁átadás 25714
▁receptek 25712
▁Gran 25711
eh 25705
méter 25693
▁olyasmi 25690
▁színpad 25688
▁öngyilkosság 25678
▁beállítása 25677
ódó 25675
▁elhelyezkedése 25675
▁köszönhető 25673
▁találkoztunk 25673
▁nemzetek 25672
▁folytatta 25662
▁olvasom 25657
csó 25656
▁kártérítés 25656
▁biztonságosan 25654
▁kommunikál 25654
▁státusz 25654
ions 25647
menő 25647
▁joggal 25646
ebbek 25644
▁ca 25643
▁2003. 25636
▁Azzal 25633
▁Bridge 25632
▁FOGLALÁS 25628
▁ösztönöz 25627
▁kényelmet 25626
▁hívott 25624
▁Sy 25623
▁mentett 25620
▁felhasználható 25618
▁maradj 25612
▁finanszírozásá 25610
ith 25608
▁garantál 25606
▁rohan 25606
eimet 25605
ülő 25597
▁haladás 25597
▁Kemping 25592
▁feltenni 25592
"? 25584
ory 25581
▁Amszterdam 25579
▁fenntartása 25577
▁jövőre 25577
▁jogellenes 25571
adta 25567
▁vicc 25566
▁Könyvtár 25565
▁őszintén 25564
ovi 25558
szerződés 25557
▁Kas 25556
▁Képes 25553
EE 25552
▁elősegíti 25551
▁bevásárló 25550
▁szerencsejáték 25550
▁Zen 25548
▁magánélet 25541
▁hiszik 25538
▁mellék 25535
▁történetét 25532
▁elintéz 25530
▁szeretek 25530
▁Egyre 25529
▁fenyegetés 25528
▁figyelem 25524
▁életének 25524
▁arányos 25521
▁függő 25520
▁emberrel 25516
▁mióta 25512
▁Gondolj 25508
▁halászat 25508
▁módszertan 25504
▁segéd 25500
jelentkez 25499
▁beadás 25498
▁újságíró 25495
hír 25487
▁szemlélet 25484
hús 25483
▁vasaló 25481
▁töreked 25479
követelményeinek 25477
▁gondoskodni 25475
▁alapítvány 25471
▁pályázati 25471
▁biz 25470
marad 25458
▁con 25455
gra 25454
▁menedzser 25445
▁éltek 25443
▁magányos 25440
▁enyhít 25438
▁költő 25435
rang 25430
pótlás 25426
▁előnyök 25426
▁felügyelete 25426
▁meghalni 25426
▁korosztály 25425
▁helyszínt 25424
▁városba 25422
▁Önnel 25421
cent 25420
▁rendszereket 25418
▁vasútállomás 25418
tekintő 25414
▁feltüntet 25412
nis 25411
▁élek 25407
▁engedélyezés 25404
▁kW 25404
ünknek 25402
▁ukrán 25399
▁ru 25398
Isten 25391
eként 25388
▁bél 25388
mát 25381
vak 25381
▁módszereket 25380
▁munkavégzés 25379
▁Panzió 25377
▁belföldi 25373
képek 25370
hom 25360
unkkal 25360
▁Bla 25360
Se 25358
row 25352
js 25349
▁megvalósul 25349
zu 25347
erg 25344
/2009/ 25341
▁állok 25338
▁bátorít 25334
▁reakciók 25334
levél 25326
mbo 25326
▁Külső 25324
stone 25318
▁irányelvben 25318
▁Ré 25317
▁Trans 25317
▁végrehajtó 25314
▁címen 25312
▁elvégez 25306
▁bizonytalanság 25300
▁italok 25296
▁teendő 25295
vész 25291
▁főz 25288
▁61 25286
▁méz 25282
▁kényszer 25279
▁negyven 25279
book 25276
▁88 25272
▁megtud 25271
▁megerősítette 25267
▁korban 25266
▁valóságos 25264
▁91 25258
struktúrá 25257
▁megosztása 25257
▁tevékenysége 25256
Po 25253
▁Up 25250
képes 25248
▁100%- 25245
ájának 25239
▁felszabadít 25237
▁nőket 25235
váltó 25233
▁Tűz 25233
ise 25231
▁országba 25229
▁Kert 25224
▁irányított 25224
▁folytatódik 25223
▁mágneses 25219
▁számlák 25216
▁árnyalat 25216
▁Ham 25214
▁letilt 25213
▁Igazából 25212
Sp 25204
▁stratégiák 25203
▁Studio 25199
uga 25195
rendelkezéseinek 25194
ui 25193
▁rendezvények 25187
▁néznek 25186
▁előzetesen 25184
▁villa 25182
▁Pad 25177
▁EP 25176
lán 25174
▁Jézust 25173
▁rez 25173
▁lelkiismeret 25172
▁funkciói 25170
▁működésének 25170
▁ételt 25170
▁Gondolom 25162
▁értünk 25162
bál 25161
▁ajtók 25161
amely 25160
tép 25158
▁kölyök 25158
▁különálló 25158
ónak 25157
▁Vég 25155
▁365 25154
▁jelentik 25154
▁Webhely 25153
▁szett 25153
▁France 25152
▁67 25145
DC 25144
ENT 25137
ș 25135
▁katasztrófa 25129
▁mindegy 25129
▁egymásnak 25124
▁beszélj 25121
▁tanítvány 25118
ajtó 25116
▁Személy 25110
hetőség 25106
▁jössz 25104
almaz 25103
elmélet 25103
▁fűszer 25103
▁személynek 25098
▁Könnyű 25097
▁alábbiakban 25093
▁kétség 25088
úl 25087
▁utcá 25087
papír 25084
▁hetente 25084
▁ismerni 25080
▁többnyire 25080
Fel 25078
▁területre 25077
▁üt 25075
▁Kedvenc 25071
dol 25063
▁info 25062
▁lényegében 25062
▁Dur 25061
▁uraim 25058
▁350 25055
▁Szovjetunió 25055
▁szerezhet 25053
kés 25049
AZ 25037
▁allergiás 25036
▁fejt 25035
▁olyat 25034
▁bűncselekmények 25030
csoportok 25029
Akkor 25028
▁falvak 25028
▁nyomtatott 25027
▁Opti 25026
chu 25025
▁kezdeményez 25024
▁foglalkozni 25021
▁Használja 25020
▁Jegy 25020
▁beállításai 25020
figyel 25019
▁mozgó 25019
▁1990- 25012
▁Töltse 25012
▁érvényben 25012
▁tar 25007
kedj 25001
csont 24998
▁Sav 24998
▁eltávolít 24996
▁Paris 24993
▁migráció 24993
táblá 24992
▁aktus 24991
pic 24990
▁várnak 24990
▁számának 24987
▁Rend 24986
▁szobaszerviz 24986
fék 24985
▁Fun 24983
▁forradalmi 24983
pillant 24982
▁rizs 24982
▁Sze 24980
▁Store 24974
▁Terület 24972
▁rózsaszín 24971
trop 24961
PI 24960
▁kivitelezés 24952
▁kérdésekre 24952
▁minőségét 24951
tevő 24946
jaként 24940
▁bizonyítékok 24938
▁világra 24931
▁értesíti 24928
▁növelésé 24925
▁utak 24924
▁humanitárius 24922
▁legegyszerűbb 24922
▁esti 24921
/11 24917
▁Chan 24917
▁kegyelme 24917
zé 24909
▁Science 24907
▁mondanom 24907
2000 24904
elle 24901
Porn 24899
▁jelző 24897
hatná 24891
▁megmutatja 24887
▁Ky 24885
▁Spricc 24882
▁életbe 24880
▁létszám 24879
ged 24878
zoci 24877
▁csodás 24876
ÉSZ 24875
▁szakpolitikai 24871
▁országai 24870
▁rendőrök 24870
▁ausztrál 24868
▁vir 24867
▁dis 24866
▁készítsen 24864
▁900 24859
▁unió 24859
▁hor 24858
▁vért 24858
▁útját 24855
mentesség 24854
művészeti 24854
töltő 24854
▁Szlovákia 24852
▁indok 24845
▁jók 24844
▁1999 24841
▁változtatás 24841
▁Fü 24840
▁kapjon 24840
▁ellenséges 24838
visz 24829
▁szoftvert 24826
vezeték 24823
megállapításáról 24821
▁Company 24810
▁Londonban 24808
Con 24805
▁Fut 24804
▁hűséges 24800
▁teherautó 24800
▁Gyorsan 24796
ezi 24791
▁befejezés 24790
▁szenvedett 24790
▁tiltakoz 24790
▁étkező 24790
etett 24787
atom 24786
omány 24785
kas 24783
▁27- 24783
▁Mb 24783
▁jegyzet 24783
▁kapcsolatai 24782
▁gazdálkodó 24778
▁Good 24776
view 24774
▁nyerte 24774
▁rájön 24774
gazdálkodás 24771
▁felújított 24771
▁végrehajtásának 24769
▁bővítés 24767
▁(0 24752
▁paraméterek 24749
laszt 24748
▁hab 24744
▁csend 24743
gro 24741
gram 24738
ődnek 24733
▁Mármint 24733
▁labor 24731
kön 24724
öző 24718
sex 24716
▁feltüntetett 24714
▁Lehetséges 24707
▁Love 24707
3% 24699
▁nadrág 24699
▁Analytics 24697
halad 24695
tis 24695
▁Virág 24694
dag 24691
▁State 24689
nai 24687
▁történhet 24683
▁ellenőriz 24679
eau 24677
▁vezeti 24677
▁egyelőre 24675
▁üdvözli 24675
▁hozzák 24672
▁Vásárlás 24671
▁diagnosztizál 24670
▁portugál 24669
utal 24666
▁Latin 24660
▁késedelem 24660
▁asszisztens 24657
OG 24656
▁Majdnem 24655
▁feltételeit 24653
▁gyógyulás 24651
▁légitársaságok 24650
▁tartunk 24649
▁végeztek 24649
▁szakmá 24645
▁gör 24644
szél 24642
▁monetáris 24642
▁játsz 24640
▁büntet 24639
▁2,5 24638
▁nyomán 24636
▁kötelez 24630
▁nemzetség 24623
▁szentség 24618
téve 24617
gén 24610
▁írtam 24610
▁neuro 24606
▁München 24605
▁gyártása 24605
▁gyalogos 24604
▁Peru 24601
▁vigyáz 24593
adék 24592
lí 24592
▁nyújtson 24591
▁engedélyezi 24589
▁Ball 24588
▁bemutatása 24587
mill 24586
▁muszáj 24586
Amikor 24581
▁működése 24579
▁Gri 24578
▁AG 24577
▁Valamennyi 24575
▁tartjuk 24575
▁tisztító 24574
▁énekel 24574
▁Tör 24573
▁háborút 24571
▁egyúttal 24570
▁hallgass 24568
▁másodlagos 24565
▁vegyen 24564
▁kapcsolód 24560
▁védelméhez 24558
▁hallás 24557
▁Tak 24551
▁térképünk 24551
▁Net 24546
ico 24545
▁lelkek 24543
▁erőfeszítés 24536
▁pop 24532
▁államban 24528
▁lépésre 24523
▁énekes 24521
IZ 24519
▁dokumentumokat 24519
▁hangja 24519
tron 24517
▁elemző 24517
hajt 24516
▁részvény 24516
2012 24514
▁aktívan 24512
▁változásokat 24511
kapcsol 24509
▁Network 24509
▁történtek 24508
▁Modell 24507
▁tanítványai 24507
host 24504
▁irányába 24497
kény 24493
▁SP 24493
▁elkészült 24493
▁kölcsönhatás 24493
▁elkészítés 24492
▁Afganisztán 24491
▁helyzete 24490
ç 24485
▁lel 24480
▁függvényében 24479
dó 24476
▁irányítási 24476
▁böngészés 24471
▁pszicho 24468
▁Adj 24467
KE 24466
▁előmozdítása 24464
▁MEG 24461
▁algoritmus 24460
▁törölni 24458
NO 24457
▁Csatlakozás 24457
▁szükségessé 24449
▁felhívja 24446
úton 24445
▁tájékoztatni 24441
▁vezérel 24440
▁célzott 24438
▁óriás 24437
▁Olasz 24433
▁elkerülhetetlen 24432
yan 24430
▁Mindezek 24429
▁29- 24427
▁börtönben 24426
▁elvégzett 24424
▁(14 24423
▁McC 24423
ítik 24421
▁Dublin 24421
▁munkaerőpiac 24415
esztés 24413
unkra 24411
jává 24408
▁kormányok 24407
▁Canon 24400
▁Tárgy 24400
▁halandó 24397
10.1 24396
▁megnövel 24395
▁lefoglal 24392
LD 24389
▁Gro 24389
▁jogainak 24389
▁keletkez 24389
▁tartás 24382
örg 24379
▁Neki 24379
▁tegyék 24378
▁adapter 24376
▁szabadidős 24374
tábor 24373
▁technológiával 24372
ánia 24370
▁Biztosan 24370
9/ 24364
▁csövek 24362
▁gyanúsított 24358
▁kereszténység 24358
▁befektető 24357
▁benyújtani 24354
2019 24350
▁Tokió 24346
▁igy 24341
▁szempontok 24332
▁pri 24330
▁kísérletek 24329
▁szemmel 24328
▁mentem 24323
▁Gyógyszer 24319
▁füst 24318
▁fűz 24318
▁hibrid 24314
▁farm 24313
edni 24310
▁részeg 24307
▁Második 24305
▁kórházban 24305
▁Ang 24302
▁tárgyát 24302
▁bánásmód 24301
áramlás 24296
▁3000 24296
▁formái 24296
▁nyújtja 24294
száma 24292
▁FBI 24290
▁határon 24288
▁élvezet 24286
ogén 24280
▁csatol 24280
▁hallotta 24280
▁nevezték 24280
▁szövetséges 24277
▁analóg 24275
▁egyesület 24273
▁szobákkal 24273
▁pontjának 24271
zin 24268
▁napokban 24268
▁vállalta 24267
▁tüdő 24264
dge 24263
▁Ultra 24261
▁köszönt 24259
▁határozni 24258
▁balra 24257
háló 24255
tern 24254
▁megvalósítható 24252
rik 24251
választ 24246
elemek 24245
assa 24243
▁BE 24243
▁ismerjük 24230
▁logisztikai 24230
▁RE 24229
ságra 24220
▁másikat 24220
▁kereset 24218
▁ágazatok 24216
▁CH 24211
▁kétágyas 24211
▁Berg 24209
▁Lélek 24205
▁előnyeit 24204
▁forgat 24202
▁Mindenkinek 24201
▁négyzet 24201
ste 24198
▁87 24196
▁Blu 24194
▁vélem 24191
pur 24190
▁rock 24188
▁lu 24186
▁50%- 24182
▁túra 24180
TT 24179
▁Különböző 24179
▁http 24177
▁Kicsit 24173
zási 24170
▁Chris 24170
▁rajtam 24170
▁gazdagság 24169
▁diagnózis 24166
futó 24163
vita 24162
jüket 24160
▁vásárlói 24151
▁inspirál 24150
pia 24141
▁körüli 24141
▁érzik 24136
▁exkluzív 24130
▁nézz 24124
▁Karácsonyi 24119
▁End 24117
▁kerüljön 24115
▁audio 24114
Nagy 24113
▁Jer 24113
▁cellá 24111
kapcsoló 24110
sper 24104
▁Xi 24100
▁Hum 24099
mailt 24095
▁motiváció 24094
▁megvéd 24089
▁fejlődését 24084
▁szegények 24084
▁jelenthet 24082
getés 24081
▁sátor 24077
▁megjelölt 24076
▁politikus 24076
ogass 24075
▁püspök 24073
light 24072
▁elképesztő 24072
sejt 24070
hird 24069
záró 24069
▁Vis 24069
▁lep 24062
folyam 24059
▁kérelmek 24058
▁témájú 24053
▁szu 24047
▁portfólió 24046
állapot 24042
▁írásbeli 24042
nézet 24040
▁legtöbbet 24038
▁projektet 24037
▁kiemel 24034
▁eszmé 24029
▁lehetünk 24025
▁Bet 24017
▁életük 24014
▁pihen 24012
▁javít 24010
▁Környezet 24009
▁1.1 24008
▁preambulumbekez 24008
▁rúg 24007
ódni 24006
▁bevon 24003
▁tanárok 23999
helyiség 23998
lux 23998
napi 23993
▁felét 23993
▁emelked 23992
▁Lesz 23990
annyi 23989
Britannia 23985
▁minták 23983
mba 23978
átorok 23977
eddel 23975
▁Harmadik 23975
▁kezelésének 23970
/2004/ 23969
▁gazdaságos 23967
▁kerülő 23964
▁mennyei 23964
▁160 23962
▁állást 23962
tesz 23956
▁Mat 23952
▁Olaszországban 23952
▁Nan 23951
▁álljon 23948
▁bekerül 23943
ásakor 23941
▁tök 23941
▁bemutatott 23939
▁Friss 23935
▁Place 23933
▁neved 23933
▁ellenfele 23931
▁elemet 23928
yu 23925
▁rés 23925
uta 23924
szervezet 23923
ress 23921
▁megnézni 23917
▁Unión 23916
▁tőké 23916
tivitás 23914
▁küldése 23913
gatás 23910
▁Magán 23906
▁kombinált 23903
▁előkészítés 23899
▁Gyerek 23897
▁munkám 23896
▁tartózkod 23894
▁Véd 23892
▁kudarc 23890
▁Wild 23884
▁Bud 23880
▁Esetleg 23879
▁honlapon 23878
▁védi 23877
aya 23875
csábít 23875
▁Dubai 23872
▁pillanatra 23872
▁felkészült 23869
ágazat 23867
▁bab 23865
▁Ettől 23863
▁fordítani 23862
olják 23860
▁Oc 23860
▁kizár 23859
▁részek 23859
▁Marg 23858
sak 23856
▁mod 23855
▁Elektromos 23854
▁alakított 23854
▁Viktor 23853
▁Casino 23852
▁konferenciá 23852
▁kilátást 23849
▁merev 23849
▁tegyük 23848
▁feldolgozása 23847
▁Egyetemen 23845
rug 23844
▁választékát 23834
▁Ash 23832
yr 23830
▁Vedd 23830
kedv 23829
▁dokumentumot 23826
▁fer 23826
▁kártyák 23825
▁Dis 23823
▁Összehasonlítás 23823
▁játssz 23820
▁értékeket 23810
ellen 23808
▁Szintén 23808
csú 23807
▁Athén 23806
▁Show 23806
▁elrejt 23800
▁bizonyít 23799
vor 23798
▁DE 23796
beállítás 23791
▁nyilvánosan 23790
▁ízlés 23788
nye 23786
▁többféle 23785
▁Hagyd 23784
▁földrengés 23780
▁Tegye 23778
▁tört 23778
▁szintek 23777
rix 23776
▁kifejez 23775
▁Rod 23772
▁elhunyt 23770
▁gl 23768
▁társulás 23767
▁kezdje 23765
▁alkalmazkod 23763
▁Szerző 23762
▁folyóirat 23761
klub 23755
▁fejem 23755
▁köré 23754
▁elsőbbséget 23752
▁értékel 23751
sko 23749
▁háztartási 23749
▁inni 23749
nyh 23748
▁gyakorló 23748
▁sokféleség 23745
▁fennmarad 23742
kór 23741
▁metróállomás 23741
hány 23737
▁beszerzés 23736
▁elismer 23733
▁kiterjedt 23733
súly 23729
lla 23728
bach 23727
vágás 23723
csin 23719
▁munkáltató 23717
▁foglalkoztatási 23716
▁tartva 23715
gott 23713
▁nyilvántartásba 23712
▁Flor 23707
/2008/ 23706
ítható 23705
▁mérnöki 23704
▁Cur 23698
▁közvetítők 23698
▁tervezet 23696
rális 23694
▁mesé 23694
vit 23689
rl 23688
▁labdarúgó 23686
▁vészhelyzet 23684
▁Texas 23681
▁lapos 23677
umi 23667
▁Nyári 23667
bontás 23662
▁meghosszabbít 23662
▁íróasztal 23662
▁ösztönző 23661
erge 23657
▁művészek 23655
őrök 23650
zön 23643
▁mennyit 23635
▁Ah 23633
▁Mali 23632
▁maguknak 23631
▁Találja 23630
▁Lin 23627
▁megszeg 23626
▁termelékenység 23626
▁növelni 23625
▁képessége 23624
▁jogosultak 23622
▁Ellenőrizze 23620
▁tizenkét 23617
választó 23612
kedő 23610
légkondicionálás 23610
▁kifejtett 23607
ezze 23600
▁előfordulás 23597
▁katoná 23596
▁fejlesztések 23591
LY 23590
▁kapcsolatosan 23587
▁együttesen 23584
nyúl 23582
któl 23580
▁eszembe 23575
▁késztet 23573
▁nyerni 23573
▁Micro 23570
▁Tessék 23568
▁Rewards 23564
▁származási 23560
terápia 23558
▁Glo 23557
bó 23555
pil 23554
▁felgyorsít 23553
▁emberei 23550
▁erősíti 23546
▁kongresszus 23546
▁központok 23544
Li 23543
▁húzza 23542
▁Hallott 23538
▁érdemel 23535
For 23534
cro 23530
▁nézzük 23529
▁veszélye 23527
▁Tanácsnak 23525
▁mikrofon 23525
▁December 23523
soft 23521
▁Hilton 23517
▁kiegyenlít 23516
▁meghívás 23515
FC 23514
teljesítmény 23514
▁tested 23508
▁puszta 23501
▁elmondja 23498
▁listán 23496
▁megsértésé 23492
▁sürgős 23492
▁televíziós 23492
▁fura 23491
öntött 23481
▁megtudni 23478
▁IS 23475
▁Wien 23472
▁EC 23469
▁Disney 23460
▁Lang 23459
▁Roman 23459
▁System 23458
társai 23456
nagykereskedelmi 23454
▁Kha 23454
▁terápiás 23452
AF 23450
▁Örök 23447
▁Úgyhogy 23444
led 23440
▁vállalkozók 23438
umok 23437
▁foglalkoz 23436
▁akciók 23434
▁csakis 23429
▁károsodás 23428
építő 23421
▁létfontosságú 23420
▁Allah 23419
xel 23417
▁Szeged 23417
bőr 23416
BI 23411
zõ 23411
▁feje 23408
▁naprakész 23407
▁töm 23399
▁Szükség 23396
▁kialakult 23396
▁Kulturális 23395
▁tartalmazzák 23395
já 23393
▁találkozik 23392
fizet 23391
közösség 23384
▁teret 23383
▁Mezőgazdasági 23377
▁állvány 23376
▁eltávolítani 23372
▁vállalni 23372
▁Cég 23367
ugh 23366
▁eszik 23366
▁segítségre 23362
▁bácsi 23360
UP 23359
▁másként 23358
▁igazságos 23357
▁háborús 23354
▁lezárás 23353
▁megölni 23351
ello 23346
▁pontszám 23335
▁termékeink 23334
ick 23330
▁jöttél 23327
▁oroszlán 23324
▁listáját 23322
▁normák 23322
▁hangzás 23321
▁gondolt 23320
szűrő 23307
essze 23306
▁megelőzése 23304
ánnyal 23296
▁fontosak 23296
▁helyére 23296
▁eltávolítás 23290
▁szava 23285
nélkülözhetetlen 23283
▁rendeletnek 23277
▁folytatás 23270
▁Hanem 23266
▁járatkereső 23266
▁elnyer 23265
▁terápia 23257
▁sérti 23253
▁Ross 23250
▁Sil 23249
▁példát 23248
▁Angel 23243
▁elosztás 23243
has 23240
▁Johnson 23238
▁Mid 23231
UM 23229
▁140 23229
▁PR 23225
cid 23223
▁egyetemek 23222
▁kapunk 23219
ple 23218
▁praktikus 23213
▁idõ 23211
▁Ye 23210
▁munkacsoport 23207
típusok 23204
▁gyümölcsök 23203
▁tanított 23201
▁rutin 23200
▁Szépség 23199
▁kimond 23199
▁állapotát 23199
▁hiányzó 23198
▁páros 23196
▁Eli 23195
▁lakói 23195
▁Istentől 23192
▁útja 23188
▁Pres 23184
▁rendszerének 23181
▁Ment 23178
TU 23177
▁felhasználni 23174
▁Fogad 23173
dug 23172
▁tanfolyamok 23171
▁stílusban 23170
...” 23167
:15 23167
▁Kész 23166
ília 23163
▁valósít 23162
▁létrehozásáról 23161
▁76 23160
GE 23159
▁magamnak 23159
▁mutatta 23159
▁jelentkezik 23156
▁telephely 23156
▁felfüggeszt 23155
▁székhelye 23155
▁bizonytalan 23152
▁ült 23150
fegyver 23149
szolgáltatások 23148
▁varázs 23145
▁Inf 23144
▁teremtmény 23140
ítsuk 23138
▁lemond 23136
költség 23135
▁Foglaljon 23134
▁ugyanabban 23128
▁Sokat 23124
bus 23121
▁felszerelve 23119
▁tudjon 23115
▁Ádám 23112
▁meggyilkol 23111
▁szin 23109
▁látszólag 23108
▁alkalmazására 23106
▁fókusz 23105
▁tudtak 23104
▁összegű 23104
▁Számítógép 23096
völgy 23095
▁ív 23093
kártyá 23092
▁megfizet 23092
▁megbán 23087
▁Kereszt 23086
▁Plat 23086
▁Hoz 23085
▁munkanélküliség 23084
▁parkolási 23084
▁csapás 23082
▁soron 23079
▁importál 23074
▁kikapcsolódás 23073
▁óránkénti 23073
▁hálószobás 23072
▁ellenáll 23071
▁támaszt 23063
▁lelkes 23059
▁0,0 23057
▁farkas 23053
▁csökkentésére 23052
sey 23049
▁juttatás 23049
növekedés 23048
▁utasításokat 23047
▁kezdtem 23046
▁náci 23045
2007 23044
▁turné 23038
▁Jabal 23035
bevásárlóközpont 23034
2006 23033
▁mennyiségben 23031
▁szüleim 23031
▁bosszú 23030
▁sztori 23028
kocká 23027
▁időkben 23023
▁keretrendszer 23023
▁specifikus 23022
▁77 23019
▁Mentés 23018
▁Szőke 23018
elli 23016
osis 23016
fri 23014
sétek 23012
▁szolgái 23011
▁időm 23008
▁tétele 23008
▁megállapod 23007
▁csőd 23005
ls 23002
▁szöveges 23002
elmi 22990
▁fotós 22990
▁térfogat 22988
SO 22987
▁másrészt 22987
▁fajtá 22986
▁közvetítő 22983
▁kódot 22980
ázis 22979
▁adjuk 22969
liber 22968
▁szállított 22967
AI 22966
fotó 22965
▁PornHub 22963
▁megtett 22962
▁végzik 22959
▁Körülbelül 22958
húzó 22955
▁2002. 22953
CL 22946
ij 22946
kö 22944
▁fogyás 22942
▁kezei 22941
▁ME 22937
mind 22933
▁különbözik 22931
energia 22929
▁kilép 22925
▁Fan 22916
▁Gazdaság 22916
▁csoportban 22915
▁napjai 22911
▁igazságosság 22910
▁hozzáad 22909
▁polc 22904
▁Sco 22899
▁ügyekben 22899
▁konfiguráció 22898
▁Cab 22896
▁elve 22896
▁gépet 22895
▁Habár 22892
▁foci 22891
▁helyzetét 22890
-18 22889
▁Annyi 22889
▁szelep 22889
spi 22887
▁Táv 22886
▁módot 22886
épület 22882
▁havonta 22882
▁témá 22882
mérés 22881
▁kijavít 22878
▁béké 22874
tisztító 22871
▁partján 22871
▁funkcióval 22868
ésekor 22866
▁felfelé 22862
▁követett 22862
▁irányelvnek 22858
▁kiterjedő 22858
stat 22851
enberg 22850
▁ellenségei 22848
▁megszállt 22848
▁szálcsiszolt 22848
ew 22847
▁erővel 22847
▁gól 22846
tina 22843
▁dokumentál 22837
fit 22833
aktív 22832
▁Jav 22830
▁szerzője 22830
SÉG 22829
üsz 22828
▁Tudtam 22826
▁finn 22821
chen 22820
biztosítás 22818
NT 22817
▁keze 22817
▁házas 22816
▁sért 22816
▁rámutat 22815
▁viselt 22814
▁foto 22812
▁megkeres 22811
▁nyugalom 22811
bont 22806
▁Kávé 22804
▁mik 22804
sztán 22801
▁ölt 22795
4/ 22794
▁News 22793
▁szertartás 22789
▁támadások 22789
▁korona 22784
ásnak 22783
rátor 22778
▁szállítmány 22778
▁egymásra 22775
▁fényében 22775
▁Jon 22771
▁szabadságot 22768
oro 22764
▁pályán 22764
▁bekövetkezett 22763
▁kiáll 22756
▁with 22755
▁minisztérium 22746
▁megtisztít 22745
tasd 22744
▁sűrű 22738
▁Afrika 22737
▁fáradt 22735
néd 22733
▁fős 22731
▁elmarad 22727
▁kidolgozása 22726
▁bizonnyal 22723
▁hivatkozásokat 22723
▁környezetbarát 22723
▁légzés 22723
▁Travel 22720
adják 22718
▁letölt 22716
támad 22714
▁hajtás 22713
ELL 22709
▁étterme 22709
konfigurál 22708
▁lejátszás 22703
▁Emlékszel 22702
lõ 22701
ünkön 22701
▁felelőssége 22696
▁durva 22695
▁eszköze 22693
▁megerősít 22693
▁alapértelmezett 22692
▁megkeresés 22692
▁Bot 22691
Cs 22689
▁hajnal 22689
▁közepé 22686
Br 22684
▁mutatók 22684
▁Java 22679
▁irányítása 22677
▁fejlőd 22676
▁tilt 22674
▁gyűjtés 22663
▁Shop 22661
▁országa 22656
▁előnyben 22655
▁vérzés 22655
▁végbe 22654
▁ösztöndíj 22651
▁hatáskörrel 22649
▁Tudni 22646
▁valakivel 22645
▁modellt 22644
▁közelít 22643
▁ismerte 22642
▁várj 22642
menedzsment 22640
pap 22640
feszít 22637
▁keresésed 22636
▁norvég 22634
▁költségeit 22631
▁mondjam 22630
▁Victoria 22628
▁cserébe 22628
▁előírja 22628
▁óv 22625
▁Rand 22623
bru 22618
▁tartozék 22615
▁oldalakon 22611
EST 22607
▁eszközzel 22605
▁kígyó 22605
onia 22604
375 22603
nép 22603
▁nagyra 22597
▁modellje 22596
▁belépő 22591
Kö 22588
▁megbeszélés 22580
▁festett 22579
▁világában 22577
▁Nov 22574
▁XP 22570
▁jelentőségű 22569
▁közlés 22567
▁erőfeszítései 22566
▁céljára 22561
zöld 22553
▁baktériumok 22553
kötő 22549
▁Anglia 22547
▁foglalják 22544
▁folytatja 22537
▁félév 22535
▁áttekintés 22535
▁tudna 22533
▁ellenkező 22532
szekrény 22528
▁engedélyek 22528
torony 22521
ométer 22520
▁forrásai 22520
ettük 22518
▁legerősebb 22518
▁immunrendszer 22517
nöm 22516
▁csoportja 22516
▁tetoválás 22514
▁tulajdonjog 22513
▁érni 22513
▁demokráciá 22507
tartalma 22504
▁sugár 22504
szálló 22502
polgár 22499
▁együttműködve 22499
▁Emiatt 22491
rri 22488
▁Classic 22488
▁terminál 22488
▁motorunkat 22487
vágó 22486
▁italokat 22485
▁védeni 22484
▁hangszóró 22482
órák 22477
▁okot 22477
▁hiszek 22475
▁my 22471
▁függőleges 22468
▁vonalak 22466
fojt 22462
▁Egyedi 22456
perc 22455
▁Bru 22449
▁szerkesztés 22448
▁Mutatás 22446
letes 22445
▁kérhet 22442
▁sikert 22439
anod 22437
▁telefont 22435
▁igénylő 22434
db 22425
BU 22424
hur 22422
▁Média 22422
▁tanúsítás 22422
▁vállalt 22420
NET 22417
▁megfelelni 22417
▁körülötte 22416
▁jártam 22415
Nagyon 22413
▁Outlook 22413
▁megkezdése 22413
▁építész 22412
▁Tipp 22410
▁Állj 22409
▁legjelentősebb 22408
▁módosítások 22405
▁Brown 22404
▁84 22403
▁Varsó 22403
▁alkotott 22400
▁automata 22400
▁Kongresszus 22399
▁temetés 22391
▁Tanszék 22390
▁indokolatlan 22386
▁Ugyanaz 22383
gyel 22382
▁társadalomban 22378
▁Tony 22377
▁szíriai 22373
▁visszaélés 22373
▁Repül 22372
sson 22370
▁MO 22370
▁bővít 22369
▁épületet 22369
▁ellátási 22368
!!! 22362
lö 22360
▁csirke 22360
teszi 22359
▁Villák 22359
▁fű 22359
kból 22354
▁Hitler 22354
▁futás 22352
▁vizsga 22352
egyház 22350
▁értékelést 22350
▁73 22349
▁Csomag 22346
▁rejlő 22343
omra 22339
▁áldoz 22339
▁érkez 22339
▁Galaxy 22337
▁mindenekelőtt 22333
▁audit 22332
▁elvet 22331
▁angyalok 22330
▁megbocsát 22330
▁szeretlek 22330
▁érzékenység 22329
▁hiper 22322
▁tagjainak 22319
fogó 22313
▁felülvizsgálatá 22313
▁elvesztette 22312
▁ing 22311
now 22310
harc 22309
▁eljárással 22309
▁ellenőrzött 22307
▁tonná 22306
▁megváltoztatni 22305
▁Projekt 22301
rál 22297
unknak 22297
▁turista 22296
▁Kate 22294
2% 22292
▁78 22291
▁Gábor 22286
vették 22283
▁folyton 22283
▁adom 22281
▁készüléket 22281
▁pilóta 22280
pes 22277
▁napfény 22277
▁gyengeség 22275
ozat 22273
▁Tower 22271
▁helyettesít 22271
▁Fedezze 22268
▁Boston 22265
▁elkövetkező 22262
dh 22261
PD 22257
felhasználás 22257
▁itteni 22257
▁szorongás 22255
zatok 22249
▁rejlik 22243
▁tekintély 22243
▁Egyetemista 22242
▁bíróságok 22242
onda 22240
▁macskák 22240
▁támogatta 22239
▁festmény 22238
▁textil 22238
▁kedv 22237
zenek 22236
▁kezelőorvos 22236
▁nőknek 22236
▁UV 22234
▁grill 22234
▁egyiptomi 22232
▁Download 22231
▁Külön 22231
zan 22230
▁sztár 22230
▁tévedés 22230
▁befizetés 22226
▁125 22221
▁képességek 22220
▁támogatását 22219
▁elkészít 22218
íthető 22217
▁muszlim 22216
▁elárul 22213
▁mutatnak 22212
fém 22209
▁ifjúsági 22207
▁listájá 22206
▁tennünk 22206
ulin 22204
▁gyermekkor 22204
▁kontinens 22200
▁pad 22200
szállodá 22199
▁memóriá 22198
▁tervezése 22197
▁megközelítést 22196
▁130 22195
▁használatához 22193
▁megállapítani 22190
▁szervezetben 22186
▁Zuhany 22181
▁dalt 22181
▁versenyző 22179
▁birtokol 22174
▁Szálláshely 22173
▁Mobile 22172
▁futam 22172
▁Benne 22169
▁vigyázz 22169
uv 22168
▁webes 22168
▁Igazán 22167
▁kiszolgálás 22167
▁mekkora 22167
▁lehetsz 22161
orientált 22157
▁Bármilyen 22155
▁koroná 22155
▁környékét 22155
▁lefed 22150
olva 22149
▁elteltével 22147
▁hivatkozott 22145
▁létrehozását 22143
▁tárhely 22143
▁Rab 22138
▁SMS 22138
TO 22134
▁hoteltől 22134
iskola 22133
▁változásai 22133
▁terror 22131
gress 22129
▁titán 22127
cur 22126
▁menny 22126
▁szor 22126
▁egyrészt 22125
▁fókuszál 22125
▁behozatali 22124
ound 22121
▁értesít 22121
▁Of 22117
▁bocsánatot 22116
kerék 22111
▁megtervez 22111
▁Plan 22110
Or 22108
▁Birodalom 22108
▁Osztály 22108
▁nyelvtanfolyam 22107
▁szelet 22105
▁róluk 22104
▁plazma 22103
▁partnerei 22100
▁hím 22097
▁Irány 22095
▁mosdó 22095
▁Panziók 22092
▁lemondás 22092
▁zuhanyzó 22090
▁Korábban 22089
▁Access 22088
▁Est 22086
VR 22085
▁Emel 22085
lent 22083
▁2002- 22081
HI 22074
angol 22071
▁Fair 22071
▁Pécs 22071
lehetőségek 22070
▁állított 22070
▁sérülések 22066
▁alkalmaznak 22063
ors 22061
▁problémája 22061
▁büntető 22060
▁Firenze 22055
▁megadja 22055
adták 22054
▁Válassz 22052
keres 22050
comTM 22049
▁Privát 22049
mész 22042
▁rosszat 22042
▁javul 22040
vidék 22039
▁kiskereskedelmi 22036
▁nagymértékben 22035
▁tanúsít 22034
▁képlet 22031
▁megtámad 22030
▁Júda 22028
▁levegőt 22028
▁használatos 22027
▁gondolatok 22026
gl 22025
▁74 22025
▁Párizsban 22019
▁Titkos 22018
▁dán 22018
▁Készen 22009
▁napirend 22009
▁Természet 22002
▁betöltött 22001
▁Suite 22000
▁bont 21999
cen 21998
▁Christ 21998
▁időnk 21998
▁ajándékot 21997
▁arcát 21997
lépett 21993
▁Vin 21993
kereskedelm 21991
▁határok 21989
▁szegmens 21986
▁Vezető 21984
▁tartása 21984
▁(9) 21980
▁álltak 21979
▁üdvösség 21977
▁szemed 21974
▁autóút 21970
▁időnként 21965
odor 21961
▁tudomásul 21956
▁Kicsi 21955
kereszt 21954
▁Vietnam 21948
▁Eric 21947
eri 21944
▁gyújt 21943
nica 21941
▁szület 21940
▁titok 21940
▁SE 21939
▁programja 21937
nadrág 21936
EA 21935
▁joguk 21935
▁LG 21933
▁Vegy 21933
▁epi 21933
COM 21932
▁éhes 21931
▁fiát 21923
0.00 21922
▁élvezhetik 21922
épül 21921
▁Kézi 21917
KÖ 21915
▁dolgai 21914
▁korszerű 21912
▁Ins 21911
▁metró 21911
dák 21910
6/ 21909
▁korlátozza 21905
▁megsemmisít 21903
ókat 21900
▁következtetés 21900
▁pszichológiai 21900
éria 21898
hallgat 21894
▁Lou 21892
▁irányelve 21892
▁repülőjáratok 21891
▁mostanában 21890
▁villamosenergia 21890
▁garázs 21886
cast 21884
▁csevegés 21884
▁csésze 21884
▁művek 21880
▁posta 21880
▁bűnözés 21879
▁hajót 21879
▁megbízott 21878
▁éj 21875
gató 21867
vállal 21866
sebesség 21861
▁hozzájárulása 21861
▁készítése 21860
gas 21859
▁Honlap 21859
▁körülményei 21858
▁kosár 21853
▁verzióját 21853
▁kezdeményezések 21850
ári 21844
▁(13 21842
▁képtelen 21842
▁engedhet 21841
▁biztonsága 21839
▁Újabb 21838
▁gondoljuk 21837
tétek 21836
▁tettél 21835
▁iráni 21833
▁táská 21831
▁Velence 21829
▁jövője 21829
▁Ren 21822
▁amiatt 21821
▁elenged 21814
▁készítmények 21812
▁kötelesek 21812
▁párhuzamosan 21802
▁tanácsok 21801
▁Oroszországban 21799
▁szex 21797
▁vél 21796
▁filmben 21791
umot 21789
áf 21789
▁munkái 21786
▁elkészített 21785
▁képzelni 21784
:11 21783
▁hallgatói 21779
▁Látod 21775
Csak 21774
▁tartottak 21769
▁fürdőszobákkal 21768
▁szokott 21767
▁kollekció 21764
▁geo 21762
▁Tü 21760
pus 21759
▁lámpák 21758
▁verziója 21757
▁növekedését 21755
forma 21746
▁kerti 21746
▁képviseli 21744
olvas 21742
ecske 21739
▁fejlődése 21738
állam 21734
− 21734
▁határozatok 21734
▁Azerbajdzsán 21732
állat 21731
amat 21730
▁hívnak 21726
odban 21722
▁erőd 21717
▁Tr 21716
▁megvalósít 21716
▁Met 21715
▁Sm 21714
▁minibárral 21714
▁berendezett 21713
▁alapelv 21711
▁bérleti 21711
▁94 21710
▁Felhők 21707
▁Jones 21705
▁támogatjuk 21705
ender 21703
ruha 21703
▁kevered 21696
▁használhatók 21695
▁kiber 21692
▁segítik 21687
▁fordító 21684
hetett 21683
▁látványos 21680
kém 21678
▁Ég 21678
▁növeked 21677
▁enyhe 21671
▁lovas 21671
ars 21668
▁intelligencia 21668
▁táplál 21666
Hotels 21663
TR 21660
▁2002 21660
▁halottak 21660
▁felfed 21659
▁eljut 21658
▁megerősítése 21658
▁frekvencia 21656
szerkesztő 21650
▁fényképek 21650
▁gyakoriság 21647
▁kivált 21647
▁otthona 21647
▁Orvosi 21644
▁Dolgoz 21642
öcs 21640
▁Williams 21637
▁szerb 21636
▁hitelesítés 21634
koztat 21632
▁Ann 21627
▁formáját 21626
▁Ajánlott 21623
chin 21621
ettel 21620
▁időpontban 21620
▁papok 21620
▁ponton 21619
▁ellenálló 21611
2%- 21610
▁hétköznapi 21609
▁bébi 21606
▁céget 21605
küd 21603
▁Cou 21602
▁sebességű 21602
mmel 21600
▁Software 21600
▁elutasítás 21600
▁kibocsátott 21599
▁Érdemes 21599
▁középpontjában 21598
▁Pico 21597
▁részleteket 21590
zúz 21589
▁Komolyan 21588
▁célkitűzései 21587
▁Szól 21585
ffi 21584
▁Od 21583
kiszolgáló 21581
▁javítására 21579
▁Automatikus 21577
▁Javaslat 21572
▁szélén 21572
▁ellenőrizheted 21571
▁Üzenet 21571
▁grafikus 21567
▁izgatott 21567
irányú 21562
▁helyezni 21558
hám 21557
▁Hit 21556
vári 21553
ságú 21552
▁íróasztallal 21551
üss 21550
rma 21543
foglalások 21541
▁Menjünk 21540
▁látnivalótól 21536
személyes 21533
▁ágazatban 21533
chan 21529
ációk 21527
▁funkciókat 21521
▁garantált 21518
▁vendégeink 21517
7% 21506
▁halálra 21506
▁PA 21500
▁Pit 21493
▁rakodó 21493
▁András 21492
▁eltelt 21492
▁egészségügy 21488
▁túlélő 21486
▁internetkapcsol 21482
ural 21481
szakasz 21478
▁Wars 21477
▁területeket 21477
▁Istennel 21474
▁hamarabb 21471
▁megköveteli 21471
▁teljesítményét 21471
001 21468
▁sokaság 21468
▁találunk 21468
▁megcsinál 21467
▁antibiotikum 21465
▁Saul 21464
ünkkel 21463
▁Indiában 21462
▁adj 21462
▁egykor 21462
▁ütköz 21461
▁Cloud 21459
▁bejegyzett 21458
néztem 21456
▁kegyelem 21448
szféra 21445
áh 21442
▁Ismerje 21442
▁Nekünk 21438
▁Bell 21437
▁megfog 21435
ido 21432
▁Butt 21432
▁kérheti 21432
▁választható 21430
▁választása 21427
▁kockáztat 21425
Férfi 21424
ikat 21424
▁beszéljen 21424
▁teljesítménye 21421
▁hatalmat 21419
▁vágya 21419
▁megkönnyít 21418
▁Market 21417
▁NO 21415
▁fennmaradó 21413
▁Helyszín 21410
világítás 21408
▁gu 21408
▁foglalkoztat 21406
fiú 21403
telek 21402
▁GDPR 21401
nch 21395
▁küszöb 21394
érvényesítéséhez 21386
▁amelyhez 21385
▁támadt 21385
▁hatósági 21384
▁Isztambul 21377
▁megmaradt 21377
▁szlovák 21377
▁Ábrahám 21377
▁kötelessége 21372
▁0,5 21369
▁vezetnek 21369
▁éjszakához 21368
jéhez 21367
szülött 21365
▁Stu 21365
törlő 21363
▁védelméről 21362
▁nékem 21360
▁kedvéért 21355
▁laboratóriumi 21354
▁adók 21352
▁tiltott 21352
▁Ul 21348
▁félig 21348
▁bejut 21346
▁megteremtésé 21343
ÉNY 21341
Olvas 21339
▁tengerész 21336
▁lovak 21335
▁ösvény 21334
▁kaptunk 21330
mand 21329
döbben 21325
pályák 21324
▁értesítést 21323
▁bicikli 21318
▁magához 21318
▁titokban 21316
▁rajongó 21314
▁irányban 21310
ukkal 21309
nus 21306
ato 21304
▁Copyright 21303
▁1997 21301
▁kifogás 21299
▁smink 21297
lesz 21295
▁[3] 21295
ségű 21293
▁irodai 21293
▁81 21291
▁istenek 21284
▁nevezzük 21284
rill 21283
▁megszokott 21283
Bu 21275
ekbe 21267
▁Nin 21267
▁hidrogén 21267
▁szankciók 21267
▁2001. 21266
▁PS 21266
▁szeretsz 21266
tassák 21264
▁Lar 21264
▁kombinál 21262
▁nehez 21262
▁részesült 21261
▁tanulmányi 21261
ügyminisztérium 21260
▁mindenre 21258
▁intézményi 21252
▁galaxis 21250
lick 21249
óma 21247
sétál 21243
▁Gil 21241
▁sivatag 21240
▁válaszolni 21240
▁ilyenkor 21239
▁Vid 21236
▁másod 21234
ránt 21232
▁élveznek 21230
uto 21219
▁Kár 21217
▁töltötte 21217
hőmérséklet 21216
▁indítvány 21215
▁képe 21213
▁palotá 21213
6% 21211
mini 21207
IX 21206
tün 21203
▁Pay 21201
▁fontosságát 21200
ole 21199
▁kertre 21196
▁mel 21194
▁legel 21190
▁szavakkal 21190
▁Nő 21188
▁érintettek 21187
▁fürdőszobák 21186
▁Kongó 21185
▁kitettség 21185
▁helyszínek 21181
▁megtekintés 21180
▁Room 21173
▁vész 21169
▁exportál 21168
▁támogatásával 21160
szóró 21157
▁daganat 21157
▁érv 21156
▁képességét 21149
▁sablon 21146
▁Clar 21145
▁Hamburg 21145
számítás 21144
▁engedélyez 21142
▁humor 21140
ablak 21138
live 21138
▁birtokában 21138
km 21136
▁népszerűség 21136
ozta 21135
▁tabletták 21134
▁Emírségek 21133
▁Játsz 21133
▁Mand 21132
vezérlő 21123
▁Von 21123
▁szorít 21122
OZ 21121
▁családot 21121
▁hetes 21121
▁97 21120
▁befejezése 21120
▁terápiá 21119
▁Sarah 21115
3%- 21109
▁médiá 21105
▁sárkány 21103
dam 21102
▁Brad 21102
▁Hard 21099
▁Sötét 21098
▁Szoftver 21097
▁Szíria 21095
▁Clark 21091
▁Lor 21090
▁ga 21090
▁Kapcsol 21089
▁rajtad 21089
▁továbbítja 21087
▁megtekintheti 21086
▁kezébe 21084
▁hatóságoknak 21080
halál 21078
▁keresünk 21076
▁szeminárium 21076
▁Készíts 21075
▁Boy 21073
INT 21072
ront 21070
▁előforduló 21066
mai 21065
2010 21063
▁példája 21062
eck 21059
▁radi 21059
▁vállalja 21058
▁fest 21054
▁kultúrák 21054
MG 21053
▁ápolás 21053
▁csökkentés 21049
▁Brand 21048
▁szereted 21046
▁működ 21045
▁megjelölés 21044
▁Cla 21043
▁valószínűséggel 21037
▁öv 21036
▁rendeletre 21034
udi 21032
▁mondanak 21032
vy 21031
▁profilalkotást 21029
▁bőrt 21028
▁Segíts 21026
foly 21025
▁Bern 21025
▁feleségül 21025
▁kezelések 21024
▁vizsgálatokat 21023
▁drágám 21021
▁összegtől 21017
kutató 21016
▁javaslatok 21016
10- 21015
▁elősegítése 21014
▁részese 21012
kusz 21011
▁sorrendben 21010
▁készítette 21007
▁mindazt 21007
tlan 21004
▁előrehaladás 21004
▁kliens 21004
kám 21003
▁írták 21001
▁megegyez 20996
nam 20992
ort 20992
▁Gla 20990
▁megérint 20990
▁Lak 20989
▁Vall 20988
▁üzembe 20988
▁suli 20983
▁befektetések 20976
Mon 20970
▁pusztít 20967
kísér 20964
▁tekintik 20964
▁tudtuk 20964
▁lakott 20962
▁cer 20961
cég 20960
1%- 20957
▁Bull 20957
onnal 20956
▁gázok 20953
▁infúzió 20947
▁optimalizál 20946
▁olvastam 20941
▁Ideális 20940
▁konyhában 20940
▁matematikai 20938
▁BlackBerry 20935
▁versenyez 20934
tórium 20932
▁Zu 20931
▁ST 20930
UL 20929
cská 20929
virág 20929
▁elsõ 20929
▁nagykövet 20928
▁szakad 20928
▁zajló 20927
▁etikai 20925
▁Közösségi 20924
▁hasznosítás 20923
▁eltérések 20921
rendszert 20920
▁tapasztalható 20920
▁felszereltség 20918
▁Szobaárak 20917
▁nyissa 20917
▁ábra 20913
igen 20912
▁tölti 20912
▁hagyom 20904
▁Pack 20902
▁egyetértés 20902
▁PRO 20899
▁kredit 20899
▁definiál 20886
fogás 20878
▁Történelmi 20876
▁WEB 20872
▁nyomást 20871
▁Eredeti 20870
ségre 20869
▁életüket 20869
PU 20867
▁igazságügyi 20866
▁megállít 20866
▁1996 20865
▁félek 20865
▁ismételt 20864
ugrott 20863
Tr 20861
▁tudnia 20860
szövet 20857
hab 20856
ézi 20856
Lo 20855
▁Alacsony 20854
hisz 20853
▁Rendkívül 20852
plex 20851
▁Chile 20850
▁óvatosan 20849
osító 20848
▁Szava 20848
▁bírál 20848
▁Stock 20842
▁eltör 20842
illo 20841
▁vidám 20840
tevékenység 20833
▁vallomás 20833
▁Utána 20832
pir 20831
▁Szerzői 20831
▁megtörténik 20826
LP 20822
▁váratlan 20819
▁Idén 20816
▁kibocsátási 20816
▁percnyi 20812
▁mennyiségét 20809
▁írva 20808
▁Október 20807
▁kifejezést 20807
▁Tiszta 20806
▁élvezni 20805
▁kényelmesen 20802
ram 20801
▁egyedüli 20801
▁ókori 20801
-9 20799
ations 20798
▁fertőzött 20796
vegye 20794
▁fedett 20794
git 20792
▁meghatározására 20790
vadász 20789
▁megérte 20789
▁Urat 20787
▁ügyfele 20786
tassuk 20785
▁hotelben 20785
▁utó 20784
▁fürdőszobában 20782
lár 20781
▁Károly 20780
▁86 20779
▁radikális 20778
▁kérdéses 20776
▁befogad 20774
▁klímaváltozás 20774
▁készültek 20774
▁járvány 20769
▁Téma 20764
▁elvárásai 20763
▁Vág 20761
▁igényeit 20760
card 20758
▁Rev 20755
▁elismeri 20755
▁Gyönyörű 20754
▁befolyásolják 20751
árium 20746
ense 20744
gene 20744
GI 20743
jobb 20740
▁billentyűzet 20740
réteg 20739
▁elvi 20739
▁Figyel 20738
▁SD 20738
▁tárgya 20738
művészet 20737
▁Arról 20737
▁levág 20736
bud 20732
mod 20732
▁mögé 20731
eller 20728
lav 20727
▁páratlan 20725
▁csecsemő 20724
izációs 20720
▁bizonyítékot 20719
▁megvalósítani 20718
▁teljesített 20715
▁táblá 20714
▁ugyancsak 20714
olvasás 20713
▁képei 20713
▁igényt 20712
▁all 20711
▁óráig 20711
▁narancs 20707
▁elefánt 20706
▁sziklá 20700
▁értékelési 20699
▁kezek 20696
ila 20695
▁lehetőséggel 20695
őbb 20693
▁viccel 20690
▁végrehajt 20690
▁nagyban 20689
▁United 20688
▁üzeneteket 20688
right 20684
▁kérelmez 20684
parancs 20683
▁költséghatékony 20683
▁Jobban 20682
▁2001- 20680
▁Elfelejtette 20680
▁Merc 20678
odra 20676
▁Marina 20676
▁fertőzések 20674
▁hatásait 20672
nagyméretű 20670
▁Ag 20666
elési 20665
ragad 20665
▁Jaj 20664
▁közvetít 20660
▁Adam 20658
▁Kód 20656
▁mellkas 20656
▁törvényi 20656
▁ellenőrzést 20650
▁maradtak 20650
fejlesztő 20649
Amerikai 20647
▁kedvencekhez 20646
▁kérje 20646
▁kontraszt 20642
▁múzeumok 20639
▁egészségre 20632
▁bronz 20630
▁felvenni 20630
▁kamerák 20630
▁Tart 20629
▁Tin 20629
▁sa 20626
▁tárgyaló 20626
▁bekezdésével 20625
▁csomagot 20620
▁jövök 20616
▁alkalmasak 20613
▁Dzs 20612
▁módszerei 20611
kup 20610
ektor 20609
ézis 20609
▁Yorkban 20609
▁Atlanti 20604
futás 20603
▁sütővel 20603
specifikus 20599
▁infláció 20598
▁irányítja 20597
kelet 20590
▁Indonézia 20590
▁ezeken 20589
▁Boutique 20587
▁csomagmegőrző 20585
▁érintés 20584
▁lábak 20583
▁egyházi 20581
▁elmagyaráz 20579
▁munkaidő 20578
▁agresszív 20577
Com 20576
▁reg 20575
trans 20569
▁engedelmesked 20569
▁Gésagolyók 20566
ükön 20564
▁Marco 20562
▁Id 20561
▁Golden 20559
▁producer 20557
veszi 20554
▁Gun 20553
▁szabályozza 20553
▁kültéri 20551
▁sebész 20551
▁nedvesség 20550
▁randiz 20550
▁munkánk 20546
kapcsolódó 20545
▁megtehet 20545
▁Őr 20540
▁vol 20535
▁Hua 20532
▁tehetünk 20532
▁Clo 20528
▁Hollywood 20528
▁megalkot 20528
▁profit 20528
▁ily 20524
▁Rag 20522
▁Kir 20521
▁1500 20520
▁festő 20517
à 20515
▁mostantól 20513
▁kötelezettséget 20510
özött 20509
▁csinálnak 20509
EP 20507
▁drámai 20498
▁tél 20493
▁kidolgozott 20488
▁hálószobá 20485
▁műve 20485
thy 20477
▁Edward 20477
▁vezetési 20477
TÓ 20475
▁összegét 20475
▁tünet 20471
▁üzemel 20470
▁órája 20469
▁vén 20468
▁koordináció 20467
▁Szeptember 20465
▁célunk 20465
▁fordulhat 20462
zed 20459
hozza 20458
▁mérési 20458
nöd 20457
körül 20455
▁Chu 20455
áldozat 20452
▁Atyám 20450
rium 20448
mir 20446
▁hajtó 20446
▁kérdőív 20446
▁Facebookon 20443
▁csapatot 20440
less 20439
szobás 20438
▁Thi 20438
mák 20436
▁hagyják 20432
▁nyerj 20431
▁Phil 20430
▁arca 20423
▁látogatást 20421
▁elkezdte 20412
▁tréning 20412
▁Ves 20411
▁Néz 20410
vu 20406
▁beton 20406
▁elhelyezkedésű 20406
▁félelme 20406
esik 20404
▁megsemmisítés 20404
▁igyekez 20403
▁kifoghatsz 20403
▁dolgoztam 20401
rah 20400
4% 20399
▁jelszava 20399
▁kórházba 20398
▁bandá 20397
▁vizsgáló 20395
▁állítólag 20391
▁Jess 20387
▁pen 20386
▁ifjú 20384
gazdálkodási 20383
:12 20381
▁gyöngy 20377
▁köszönhet 20377
▁témakör 20377
▁végét 20377
▁elérhetők 20374
▁megtudhat 20374
▁Wan 20373
napos 20372
▁jellege 20371
▁mindezek 20371
▁útvonalak 20371
▁fizetendő 20370
▁lakos 20367
▁alapította 20366
▁Jar 20364
▁biztosítunk 20364
▁tetejére 20358
▁közvélemény 20354
▁spa 20354
▁adatokhoz 20352
vonat 20351
▁Kösz 20351
ítjuk 20348
▁Rus 20348
Š 20346
▁Ou 20346
▁kiszállítás 20346
▁megnyitja 20346
▁eredet 20343
kai 20342
oddal 20342
▁Vista 20341
▁Ingatlan 20336
Ar 20335
projekt 20335
▁Marokkó 20332
▁helyénvaló 20330
iano 20326
▁telefonál 20326
enda 20325
▁emelkedik 20325
▁kifinomult 20325
▁újból 20321
▁Guest 20319
▁kesztyű 20319
▁lent 20319
fű 20317
▁kártyát 20317
▁megaláz 20317
▁Digital 20316
▁erősítés 20314
▁randi 20313
▁fogadta 20302
▁71 20300
▁Link 20299
▁látunk 20299
▁5000 20293
▁kezelésében 20291
▁polírozott 20289
▁megakadályoz 20284
▁országokból 20280
▁Ajánl 20279
▁varázsló 20277
▁Deutsch 20275
▁szeretetet 20274
▁párizsi 20272
▁hibái 20270
▁ékszer 20270
▁kérelmé 20268
hetné 20266
telepítés 20266
▁Photo 20261
űek 20257
▁Wiki 20254
▁Szi 20252
▁levelek 20252
▁azonosítani 20250
▁kertben 20249
További 20247
▁Food 20245
▁feldolgoz 20245
put 20244
▁járhat 20237
fenntartó 20236
hányszor 20235
▁rájött 20235
▁múl 20233
úsz 20232
▁ujjlenyomat 20231
▁játékokat 20230
metri 20229
▁hektár 20227
▁1995 20224
▁Hálózat 20224
▁megőrzése 20223
▁parancsol 20223
head 20222
halmaz 20221
▁dolgom 20221
▁82 20215
▁Ajándék 20215
▁Sí 20207
unt 20206
▁javaslatokat 20205
aritás 20201
▁buk 20199
▁szil 20197
▁többlet 20197
▁érkeztek 20193
▁tájékoztassa 20189
▁kormánya 20188
▁alapjai 20186
▁tesztoszteron 20179
▁ügyes 20179
▁Bárcsak 20171
▁egészségi 20169
▁Joseph 20167
▁eredményeképpen 20166
▁tál 20163
alizált 20159
▁Bab 20159
▁felelősek 20149
▁mindnyájan 20149
▁rózsa 20149
dis 20148
▁politikusok 20148
▁megér 20147
▁stílusos 20147
▁szólva 20147
▁ragyogó 20142
▁tüntet 20139
ázó 20137
▁Buda 20132
▁Fest 20132
▁hiányosságok 20132
▁Sándor 20129
Ho 20127
usa 20127
▁végrehajtásához 20125
▁cukorbetegség 20121
▁Egyáltalán 20119
▁gyanús 20117
/12 20116
vonul 20115
▁aláír 20115
▁középső 20114
edtek 20112
▁árát 20111
bou 20107
hassuk 20104
▁Nézzük 20100
▁hozzáférési 20100
▁zuhanyzókkal 20100
▁Project 20098
▁Zoltán 20098
▁magyarok 20098
▁mégpedig 20098
0,000 20097
▁Semmit 20095
▁szólít 20091
▁mediterrán 20089
▁java 20088
▁Baj 20086
▁cselekedetei 20084
▁kombinációja 20084
sztár 20081
▁osztályozás 20078
▁rendelkezünk 20075
▁ismertető 20074
▁Porto 20073
távol 20072
▁intenzitás 20071
▁azokról 20066
▁ismerked 20065
▁Fred 20064
▁kitalál 20064
íts 20061
▁gramm 20061
▁táska 20061
tőke 20059
▁tavasz 20059
▁Akar 20055
▁szeretnek 20055
érem 20053
▁kötés 20052
▁Gall 20051
▁ragasztó 20051
ől 20050
▁elvárások 20041
▁Philips 20040
▁korlát 20039
▁testre 20039
▁témában 20039
▁Bir 20035
▁elhárít 20035
▁irodájá 20030
▁színésznő 20030
▁sim 20029
▁Kolumbia 20027
▁esté 20027
errel 20019
▁megérti 20018
▁létesít 20016
pánt 20008
▁düh 20003
ziós 20002
▁Tisztá 20002
számok 20000
▁felszereltsége 19999
▁Melbourne 19993
▁ellenőr 19992
▁piperecikkek 19992
▁car 19991
▁5( 19989
▁irányítani 19989
eria 19986
▁környező 19984
▁csinálok 19979
▁előnyöket 19978
hegység 19974
▁idézet 19974
laj 19971
lehetőséget 19970
ütötte 19969
▁sorrend 19969
pcs 19968
porn 19968
▁trón 19967
▁vonatkoz 19967
▁felkelt 19961
▁Bemutat 19955
▁kövek 19955
▁Kevesebb 19954
▁Klasszikus 19953
▁dug 19953
▁ezekhez 19949
▁díszítés 19948
▁használjon 19947
▁szándékosan 19946
▁Cro 19944
▁Konferencia 19942
RD 19941
▁mexikói 19940
terhelés 19939
▁kommunista 19938
▁Palm 19937
▁Változ 19935
Benz 19933
gui 19933
▁hála 19933
▁csodál 19930
▁fellebbezés 19925
▁kezeléséhez 19922
játékok 19921
▁Január 19917
▁csónak 19916
▁gyerekei 19916
▁Hasznos 19915
▁halált 19915
▁amelyből 19914
▁vendégház 19913
▁unoká 19911
amin 19909
éséről 19909
önyö 19908
▁Bag 19907
▁összegyűjtött 19906
▁Edition 19903
▁érvényesek 19902
CD 19900
dos 19898
▁ker 19897
boly 19896
▁Act 19895
▁Junior 19892
takarít 19891
▁tűzoltó 19889
1.1 19886
▁főzés 19886
▁gyakrabban 19885
▁szokásai 19885
olási 19884
▁URL 19877
▁megszerez 19877
▁kompromisszum 19876
dina 19874
▁szerzetes 19873
problémá 19872
▁győződjön 19872
▁Szeretet 19871
▁megkérdőjelez 19866
▁börtönbe 19865
▁Technology 19864
▁esztendő 19863
2005 19862
▁csökkentheti 19862
▁lejárt 19862
▁ünnepség 19856
▁kezelheti 19855
▁újjá 19854
▁válasza 19851
▁Főleg 19849
▁lépnek 19843
▁Seg 19842
▁fokú 19842
roid 19838
▁fejlesztésére 19833
▁irányelvet 19833
▁palota 19831
▁Teszt 19830
▁hagyj 19829
late 19828
▁elindult 19825
▁térségben 19823
▁döntöttem 19821
▁megváltoztatásá 19821
▁másnap 19820
▁búj 19814
▁meghall 19810
▁felszerelések 19809
▁anyagból 19808
▁választották 19805
▁középkori 19801
▁finomíthat 19800
▁kinevezés 19799
▁tucat 19799
Th 19797
● 19793
▁1.0 19789
erry 19785
▁növel 19782
▁észlelt 19782
▁végeredmény 19781
▁örvend 19781
▁Rádió 19780
hetnék 19779
▁bort 19779
minősít 19777
▁megoldása 19777
▁másodperccel 19777
▁igényes 19775
mia 19774
▁ii 19773
▁Lady 19772
peri 19770
lah 19767
▁megrendezésre 19765
▁keresek 19763
▁országnak 19758
▁rögzíti 19758
▁akikkel 19755
▁gyakorlása 19752
▁építészeti 19751
cor 19748
▁aranyos 19745
▁Kívánságlistája 19739
▁jelentő 19739
▁termés 19739
Amerika 19738
▁fertőző 19737
▁Nar 19736
▁Törvény 19736
ogató 19733
▁NY 19729
▁buborék 19729
udvar 19725
▁csík 19725
▁--- 19722
▁list 19720
rúg 19718
▁érintkezés 19716
▁boszorkány 19712
▁ugyanez 19711
▁tehetséges 19709
▁utód 19709
▁Shu 19708
▁négyzetméter 19702
▁Castle 19701
▁figyelni 19700
házban 19696
▁3,5 19694
▁univerzális 19693
him 19692
▁alapot 19689
work 19688
▁Tube 19688
▁elképzelni 19688
▁vásár 19687
▁sokoldalú 19686
▁töröl 19684
▁Book 19682
▁arányban 19680
ÁT 19679
▁Közgyűlés 19679
▁tüzet 19679
▁műfaj 19676
2004 19670
▁Nézz 19670
▁ö 19670
▁Bin 19669
▁mérgező 19669
▁oldalról 19668
ffer 19666
▁Sziget 19665
▁térben 19664
▁kapcsolt 19660
Jó 19659
▁oldali 19658
▁Lodge 19657
▁Vér 19655
támadás 19651
▁következtetésre 19649
fájlok 19647
gul 19639
ulu 19639
▁Mindketten 19639
▁evolúció 19639
▁titokzatos 19639
helyettes 19634
▁vizelet 19634
csökkenés 19633
▁rendszám 19630
hullám 19627
▁Istene 19626
▁előttünk 19624
▁egészül 19623
▁létez 19622
▁iránymutatások 19618
see 19614
▁tényt 19613
hong 19612
▁osztályú 19612
▁elit 19611
▁Regionális 19609
▁Bőr 19608
▁átmenet 19608
ozási 19602
teszem 19602
▁hűtőszekrénnyel 19602
ÁN 19601
▁nano 19601
lid 19599
▁Band 19598
▁létezett 19598
▁ES 19597
rib 19593
ril 19593
▁ültet 19589
pál 19587
technológia 19586
▁összeköt 19585
▁egyeztetés 19583
▁kizárás 19582
Magyar 19580
földi 19579
▁üzemmód 19578
mentem 19577
úak 19575
▁Card 19570
▁szolgálni 19570
▁Sárga 19569
▁szár 19565
▁magasan 19563
▁83 19559
▁ront 19559
▁tudhat 19557
▁szíves 19554
▁pihenő 19553
labda 19552
▁pénteken 19549
▁veszteségek 19548
▁visszautasít 19548
oh 19547
▁kozmetikai 19544
▁használva 19542
▁méretek 19542
anga 19540
▁Vad 19534
▁2017.06. 19529
uda 19528
▁Ura 19528
▁ihlet 19522
▁2004/ 19520
olyan 19519
▁Bármely 19519
▁Mély 19519
▁helyezte 19519
▁aznap 19517
▁hidro 19517
LL 19513
készítő 19513
▁megvédeni 19513
▁módban 19512
mez 19509
▁környezetre 19505
▁összehangolt 19503
▁találkozhat 19502
▁Wil 19501
▁Felhasználási 19500
pontja 19498
▁vehetik 19498
▁méltányos 19495
▁bolygón 19494
figurá 19493
Szer 19491
ambo 19491
uld 19491
▁Brian 19491
vető 19486
▁roham 19483
tulajdonos 19482
▁Tea 19482
▁takar 19482
hatalma 19480
termet 19478
▁lelke 19475
lass 19473
▁tartományban 19472
kins 19470
she 19469
▁gyakorolni 19465
▁elhinni 19463
▁bemutatásá 19462
▁mondj 19461
pakol 19458
▁felfedezéséhez 19455
level 19452
1000 19450
nkban 19449
ányi 19448
▁hűtés 19447
▁Kl 19444
▁tervezte 19443
▁végeznek 19443
▁akadályok 19437
▁adót 19436
▁halálát 19434
▁felkel 19431
metrikus 19430
▁fenyegető 19430
éb 19428
▁Parlamentnek 19428
▁Vendégházak 19426
▁2-3 19424
▁térképének 19423
hard 19422
▁Pir 19421
lang 19420
▁sikertelen 19418
▁viselni 19418
föl 19416
▁rendbe 19416
▁sebességgel 19416
▁Vélemények 19414
▁eseményt 19414
▁intézkedésekről 19414
▁Átlagos 19413
▁harmad 19412
▁megegyezik 19412
▁helyzetbe 19409
▁utalás 19409
▁megsértése 19408
▁vitamin 19408
sca 19407
▁családban 19403
▁megfizethető 19402
▁menyasszony 19401
▁Fotók 19394
▁Oscar 19394
▁célját 19393
▁Us 19390
gyal 19389
sanak 19389
▁teát 19389
▁szombaton 19385
inter 19383
▁néked 19382
yle 19381
▁ablakok 19375
▁elmenekül 19373
▁Önre 19373
▁elektro 19371
▁Beszállítók 19370
▁mindjárt 19370
kapu 19369
▁gyanú 19366
ennel 19365
▁nevezetességtől 19364
▁érezzük 19362
▁jellegzetes 19356
játszás 19355
▁Kereskedők 19355
▁Mióta 19354
▁reggelivel 19354
volt 19353
központú 19352
örög 19350
▁építkezés 19349
▁használtak 19348
▁gyom 19347
▁közgyűlés 19347
▁tartalmaznia 19347
▁testét 19346
▁Hű 19345
▁Last 19340
Val 19339
▁Nagyobb 19339
▁elveszíti 19338
▁Nokia 19335
▁lehetek 19334
▁keletkezett 19332
Több 19331
▁Domin 19328
▁igényelnek 19328
▁eladni 19327
bbá 19326
▁meggyőz 19320
▁megél 19320
▁alelnök 19319
▁Kara 19318
▁gyűjt 19318
▁tervezi 19314
graph 19312
▁rejtély 19310
▁készségeket 19309
▁tiltakozás 19309
▁Vezeték 19308
▁filozófiá 19307
▁Kül 19306
▁befogadó 19306
▁Brüsszelben 19304
esített 19303
szeretet 19303
óta 19302
fort 19298
▁fejlesztését 19298
▁becslések 19297
▁megmentés 19295
320 19294
▁üzemeltet 19293
▁témát 19287
▁Kalifornia 19283
▁Amatőr 19282
▁adományoz 19282
▁emelkedés 19282
▁tennem 19282
▁chip 19280
▁edény 19277
▁árú 19277
▁emelés 19276
▁Bosch 19272
▁kempinget 19272
▁Stockholm 19271
▁információkkal 19269
▁Arts 19268
▁ép 19265
megoldás 19264
▁felvonó 19263
▁kollégái 19263
▁domb 19261
▁kibocsátó 19260
▁Institute 19258
▁mellyel 19258
▁Donald 19257
▁incidens 19253
▁esküvői 19252
rn 19251
▁Osz 19250
▁Visszatér 19246
▁Sara 19240
faj 19239
▁lábai 19238
▁rács 19238
▁Látom 19237
▁számítanak 19236
▁Bou 19234
▁irányt 19234
▁Ari 19233
▁fát 19232
▁SIM 19229
nder 19218
▁megalapozott 19216
▁versenyek 19216
▁labda 19215
▁születik 19212
▁3.0 19211
▁Szuper 19211
▁Michel 19210
▁túllép 19209
▁Vállalat 19208
▁közöl 19208
▁bevándorlók 19204
DP 19200
omor 19200
▁formá 19200
▁go 19200
▁étkezési 19199
▁nemrégiben 19195
▁keveset 19193
▁Services 19192
▁aktusok 19192
▁bőséges 19191
▁exportáló 19188
▁elemez 19187
▁köre 19187
▁Május 19185
▁végezhet 19184
▁sikerrel 19182
▁golf 19174
▁működéséről 19173
▁lámpá 19172
▁súlyosan 19172
szeres 19171
▁Éjszaka 19170
▁készíthet 19169
▁miénk 19169
▁követik 19167
alatt 19160
vinni 19160
▁hisznek 19158
▁lakások 19158
▁kezelik 19157
▁Érintett 19156
rch 19155
▁fokoz 19155
▁megmenteni 19154
▁Tini 19153
▁trükk 19151
ech 19149
▁Roll 19146
▁létrehozására 19146
rod 19145
igazgató 19144
▁ró 19140
▁amellett 19139
ggyel 19137
õs 19137
▁segítse 19134
kedik 19133
▁Szolgálat 19133
▁unalmas 19132
▁közbeszerzési 19131
▁opera 19129
▁FM 19128
▁megfeleljen 19126
▁Legfelsőbb 19120
▁oldalunkon 19118
▁betölt 19117
ásban 19116
▁szívünk 19115
▁tulajdonában 19112
▁Takar 19109
▁vevők 19109
ségük 19107
▁Gáz 19106
▁egyetemen 19106
▁Mikro 19105
kockázat 19104
▁jelentkeznek 19104
▁munkára 19099
▁teste 19092
▁képviselt 19090
élés 19089
▁Juan 19082
ž 19077
▁Érett 19077
▁450 19076
▁megtalálta 19076
▁IC 19075
▁hívták 19074
kent 19072
▁helyszíne 19070
folyás 19069
forgalom 19069
▁tartalmazhat 19068
▁emlékezni 19067
klór 19066
▁költsége 19066
▁válogatott 19066
▁sta 19064
gyors 19063
lóg 19061
▁deviza 19060
▁esetlegesen 19058
▁Porn 19056
▁felkészül 19053
▁nátrium 19053
▁promóció 19053
▁csomagok 19049
szolgáltatók 19048
Kelet 19045
FO 19044
zul 19043
▁korlátok 19041
▁rost 19038
▁mozdul 19037
▁közöttük 19036
▁negyedév 19034
▁kijelölés 19033
cip 19032
▁elérheti 19032
▁sürgősségi 19030
▁kirándulás 19029
▁Mások 19027
tartály 19022
épít 19018
▁tevő 19017
▁nyújthat 19014
▁származ 19011
▁eseményeket 19006
▁kérdésben 19006
▁Nők 19004
csarnok 19001
▁megérkezett 18999
▁szoftverrel 18997
▁Pala 18996
▁teszek 18996
▁weboldalán 18993
követés 18991
▁Health 18990
▁magatok 18990
▁Call 18987
▁Piros 18987
▁párhuzamos 18986
sebb 18979
▁mozdulat 18979
▁fejleszteni 18978
▁direkt 18974
▁stratégiát 18974
▁vesztette 18971
▁Rendező 18969
▁fűtő 18969
▁erejé 18965
▁Hozzáad 18964
▁csináld 18964
▁kedvezőtlen 18964
▁helikopter 18963
▁jogszabályai 18962
éket 18961
▁minőségének 18960
▁utazik 18958
▁Orvos 18955
▁állíthat 18955
▁Enterprise 18953
▁Wellness 18953
▁rendelkezéseit 18953
▁energiaforrások 18952
▁1990 18951
▁harap 18951
▁szálláshelye 18947
▁bő 18946
▁2001 18945
▁értékeli 18944
▁Információk 18943
▁rendszeren 18943
ódtak 18940
▁adatokkal 18938
▁alternatívái 18938
▁történelmé 18937
▁Extra 18936
▁Forma 18936
▁Vélemény 18935
▁tap 18933
▁menteni 18932
▁birodalom 18931
első 18930
▁szteroid 18929
▁Next 18928
▁adatokra 18928
ogó 18926
← 18926
▁átutalás 18924
▁egyesült 18923
▁79 18921
▁Kérdések 18919
▁rajtuk 18917
▁Mindkettő 18916
utóbb 18915
figyelő 18914
▁városába 18912
▁kontextus 18908
AK 18905
▁témája 18904
▁kifizet 18901
▁rajongók 18896
▁tavalyi 18896
▁kapcsolata 18894
▁Noha 18893
▁hibáz 18892
▁súlya 18892
▁érzel 18891
▁szal 18886
▁összeomlás 18885
▁találkozz 18884
rám 18881
bilis 18880
▁mellette 18880
▁felében 18879
▁megnyitás 18878
▁függőség 18875
▁Had 18873
▁előír 18872
▁előírásoknak 18872
▁Szövetségi 18869
▁tekintett 18867
▁illik 18866
▁megszűnt 18866
▁szolgáltatásait 18865
▁lássa 18863
▁szerelés 18863
▁Oktatási 18861
▁ejt 18858
▁menti 18855
tory 18854
▁ellát 18854
emlék 18850
nna 18849
számot 18849
keleti 18848
▁tömeges 18848
▁Megint 18845
▁javasolta 18839
▁áldozatot 18839
▁szakterület 18835
▁ösztönzés 18835
▁nevezetesen 18834
▁felsőoktatási 18831
▁ju 18831
▁karbantartási 18830
▁elkerülni 18829
0.1 18827
▁stock 18827
TÁS 18826
kedett 18823
pult 18822
▁felkészülés 18822
▁Szok 18821
▁ügynökségek 18821
PG 18820
▁bukkan 18820
▁csökkentett 18820
▁testünk 18820
▁néni 18817
szünet 18815
▁átél 18815
para 18810
▁jövőt 18809
▁találjuk 18809
hatta 18808
olvasó 18808
rón 18808
▁Kre 18806
▁trendek 18805
veszély 18801
▁harci 18801
die 18799
▁ultra 18799
▁versenyen 18799
▁sokszínűség 18798
▁Egyéni 18795
▁tartoz 18795
▁horvát 18793
▁jogsértés 18792
-7 18791
▁emlékszik 18791
bs 18790
terjeszt 18789
▁Ever 18788
▁kettőt 18787
▁Testület 18786
cum 18785
▁tudást 18785
híd 18784
▁információkért 18784
▁kielégít 18784
▁Szil 18782
▁elhagyja 18782
▁folyamata 18782
▁teljesíti 18782
▁követelményei 18779
vul 18773
▁Roger 18772
▁következtetések 18771
fokú 18770
▁kiemeli 18770
▁ajánlások 18767
▁bizonyított 18766
▁kezeljük 18763
▁társai 18763
▁üzletág 18763
ültek 18762
▁Creek 18761
▁fárad 18761
▁barátnő 18760
fest 18759
▁Szakmai 18759
▁vs 18759
▁kam 18757
▁tü 18754
▁azokhoz 18751
▁gyógyítás 18750
arn 18749
▁30%- 18749
▁Front 18749
▁elhelyezett 18748
lj 18746
▁fax 18746
▁iTunes 18746
RF 18745
▁lelkem 18744
▁színt 18742
tengeri 18741
▁társalgó 18741
▁Romantikus 18739
▁elérés 18738
▁Alt 18736
▁kop 18736
▁Mul 18735
▁liberális 18734
▁mezők 18734
▁testvérek 18731
ője 18728
▁Kinek 18728
▁kövér 18727
▁művei 18724
▁hibáztat 18719
▁bárány 18718
▁Szállítási 18716
rét 18713
▁ápol 18712
fogad 18711
▁Control 18710
üzlet 18709
▁idegrendszer 18706
.3. 18705
▁kezdtek 18705
nders 18704
▁évtizedek 18704
▁befogadás 18702
▁macská 18702
▁téves 18700
▁Emlék 18697
▁fakad 18697
▁dolga 18696
▁kézbesítés 18694
GP 18693
▁Kutatási 18693
▁Anyu 18691
házi 18687
hir 18686
▁díja 18685
LU 18684
▁hotelei 18682
▁szívét 18680
long 18679
▁megtekintéséhez 18678
▁következetes 18673
▁földgáz 18669
▁mérlegel 18669
tömeg 18668
▁Könnyen 18668
:14 18665
tec 18665
▁egyeztet 18665
▁vendégszobá 18664
testvér 18663
▁Alább 18663
▁interakció 18661
▁meghosszabbítás 18661
mentesen 18660
▁feldolgozó 18660
▁legismertebb 18660
▁feltételezés 18659
▁csók 18658
TL 18655
ais 18654
IDE 18653
▁2006/ 18652
▁megadása 18652
▁támogatásra 18652
gető 18651
▁Bil 18650
▁pamut 18650
▁TE 18648
▁Tiszt 18648
unkon 18647
▁skálájá 18646
jelölt 18644
▁labdát 18643
▁legrégebbi 18641
helye 18640
▁Eszköz 18640
▁munkanap 18639
▁elpusztul 18636
▁nézőpont 18636
▁Side 18634
azaz 18633
adtam 18630
▁repülőtere 18630
▁átvitel 18627
▁igazgatótanács 18625
▁feltámadás 18624
▁tudnám 18623
▁Megfelelő 18621
hozzáférés 18620
▁dalszöveg 18620
▁kétoldalú 18616
▁általánosan 18615
aro 18611
▁tiltakozzon 18610
inform 18608
bab 18606
HD 18605
▁PE 18603
kodni 18602
▁étvágy 18597
▁másnak 18596
▁foglaltság 18595
▁Tap 18594
▁törvényeket 18594
▁elkövető 18592
▁ápoló 18591
vírus 18589
▁nyomtatási 18587
▁KN 18586
BER 18585
▁Freemeteo 18585
▁ellenőrzésére 18584
TRA 18583
▁Keresse 18580
▁kalóz 18579
▁Bus 18578
▁látnak 18578
▁merre 18577
▁mosoda 18575
▁hoztam 18574
▁pozíciók 18570
▁1970- 18569
▁Üveg 18564
odon 18563
▁egységet 18563
▁németek 18562
▁Den 18560
▁170 18559
úd 18552
▁Hosszútávú 18552
▁Tajvan 18552
▁helyezi 18552
▁noha 18551
▁állatokat 18550
▁értesül 18550
▁1994 18549
gyűrű 18547
▁kösz 18546
RL 18544
▁Lettország 18544
exe 18543
▁évszak 18543
▁forrásból 18542
▁stadion 18542
inkat 18540
▁művészi 18540
▁ütés 18540
▁temető 18539
▁hozzájárulását 18536
▁figyelmeztető 18535
aidat 18534
fárad 18533
rándul 18532
▁fokozza 18531
▁Valley 18529
▁megnövekedett 18529
▁legkevésbé 18525
▁Feleség 18522
tettem 18519
▁rab 18518
▁költözött 18516
▁Vill 18513
▁fl 18512
▁átad 18508
▁bevitel 18507
▁dönthet 18507
▁repülőjegyek 18503
▁autóipar 18502
vetett 18499
állít 18499
▁Read 18498
▁Chang 18497
▁hangos 18492
szolgál 18491
▁ügyész 18491
▁különböz 18488
igazgatás 18486
▁mintavétel 18486
▁Abu 18483
▁Imád 18483
▁rezgés 18483
▁Line 18481
▁Lip 18481
▁volumen 18481
▁navigációs 18480
▁erdők 18477
▁hatálybalépésé 18475
vezetők 18474
▁elkezdett 18474
▁Üzlet 18471
▁Rang 18469
RU 18468
almát 18463
core 18462
▁állampolgárai 18460
zam 18458
gio 18457
▁Lehetőség 18457
raszt 18451
▁székhely 18451
los 18450
▁Bak 18450
▁Kiállítás 18450
▁Taylor 18450
▁20%- 18449
õr 18447
▁tábla 18446
▁kódex 18443
▁köd 18442
▁ügyel 18441
feld 18440
▁FEL 18439
▁amelyről 18439
▁ülő 18439
▁keretek 18438
▁Klub 18434
PR 18431
▁hétfőn 18430
▁mondás 18429
▁gabona 18426
▁színben 18423
▁összeköttetés 18422
információ 18419
▁bemutatni 18419
▁eurós 18419
▁lev 18414
▁magáról 18413
▁munkatárs 18413
▁SC 18412
iana 18411
▁Bárki 18409
▁jegyek 18398
▁szemlél 18398
▁China 18397
▁Megnézem 18397
▁diákoknak 18397
▁napjainkban 18397
▁Vicces 18396
▁Cse 18395
▁MBA 18395
▁viszonyok 18392
▁feldolgozott 18390
▁országokkal 18390
▁non 18389
▁Északi 18389
▁Végezetül 18385
▁módszerrel 18385
▁Masszázs 18381
ito 18380
▁munkatársa 18379
▁csalódás 18378
hall 18377
▁File 18376
▁Hatalmas 18376
▁megalapít 18376
▁élvezhet 18375
enza 18373
▁mérsékelt 18373
▁külügyminiszter 18372
atta 18370
rian 18369
vállalkozások 18369
▁Playa 18366
▁erőfeszítéseket 18366
▁Fire 18363
▁elöl 18361
▁Tekintse 18354
▁szűrés 18351
▁Téged 18350
▁fejezete 18347
▁kicserél 18347
▁Felnőtt 18345
▁promóciós 18344
▁fájdalma 18340
ping 18338
▁tömegközlekedés 18337
▁állítása 18336
▁hp 18335
ela 18334
▁köröm 18334
▁csökkenése 18331
VER 18330
▁Player 18330
▁megyei 18329
▁terrorista 18329
700 18327
▁megismétel 18326
▁címkék 18324
▁helyzetek 18323
:16 18321
▁Neu 18319
▁kolostor 18318
Csúcs 18317
▁hatály 18317
▁rakéta 18316
▁disznó 18311
▁interfész 18309
▁eltűnik 18308
▁féle 18308
Õ 18307
▁kedvelt 18303
▁1980- 18301
▁(30 18300
▁hangsúlyoz 18297
▁hétvégére 18295
▁autós 18294
▁jótékony 18292
▁Biztonság 18290
óceán 18288
▁törvénye 18288
▁tarthat 18285
▁útmutatás 18281
olvad 18279
viszem 18279
▁szokások 18279
8%- 18278
▁következőnek 18278
▁komponens 18277
próbá 18276
érzet 18275
▁Angliában 18273
▁testben 18272
uni 18269
▁kritiká 18268
▁gyengé 18267
/2007/ 18265
▁békesség 18265
▁Távol 18263
▁lovag 18261
7%- 18260
közlés 18255
EI 18253
▁házastárs 18252
▁végrehajtásáról 18251
zók 18250
▁More 18247
▁Vasút 18245
▁Eladás 18241
▁csinálunk 18240
▁Tags 18239
▁varr 18237
▁váz 18234
rist 18233
▁polgárai 18233
hibá 18231
▁anyák 18226
vízi 18222
▁Előre 18221
▁látó 18221
üreg 18220
▁etnikai 18220
▁szerezzen 18217
Úgy 18215
▁Iszlám 18215
▁tv 18213
▁küldte 18212
▁Executive 18211
▁Kategóriák 18210
▁Vevő 18207
▁bizonyára 18207
▁amúgy 18206
▁vereség 18205
▁tork 18204
▁mutatták 18203
▁Kuala 18200
▁HTML 18199
edben 18197
▁mosolyog 18194
▁láthatja 18192
900 18191
▁programjai 18189
▁önállóan 18189
▁Stone 18187
hessük 18186
▁kiabál 18185
▁tért 18184
▁módok 18183
▁sült 18183
▁elnevezésű 18182
▁keretein 18181
▁helyekre 18180
haj 18179
-15 18178
nyugati 18178
▁hangját 18176
▁feltétele 18174
▁konzultációt 18174
▁webhelyek 18174
TX 18172
eld 18172
▁veszélyeztet 18170
▁továbbítás 18168
részt 18167
ege 18165
▁megkötésé 18164
▁üdvözöl 18163
▁ima 18161
utat 18160
portál 18159
olták 18157
▁türelmes 18156
▁munkások 18155
▁Hétvégi 18154
6%- 18152
▁Távolság 18152
▁egyszerűsítés 18152
▁nyugtalan 18152
▁Ágytípus 18152
▁végezte 18151
▁megmondani 18150
▁üzen 18149
polis 18148
▁Szerv 18147
▁lába 18144
▁Élvezze 18142
▁kattintással 18141
▁Cross 18138
▁többéves 18138
uer 18137
▁FA 18137
feldolgozó 18136
▁fejezte 18136
▁esetre 18134
▁pici 18133
ejtett 18131
▁megpróbálta 18129
▁értékesített 18128
▁Szöveg 18125
▁motoros 18125
térkép 18124
tervező 18119
▁folyamatokat 18118
▁elmenni 18116
▁1999- 18115
▁adható 18115
környezetvédelem 18111
▁Másodszor 18111
▁haladó 18108
▁szobaára 18106
▁bizonyítás 18103
▁vártam 18100
jeit 18099
▁101 18099
▁beállított 18099
▁tegyenek 18099
▁időpontjában 18098
▁statisztiká 18098
aga 18097
▁keresik 18097
▁Manager 18096
▁Templom 18095
als 18094
▁tavaszi 18094
▁fiainak 18090
▁országbeli 18089
vö 18086
▁utazások 18084
▁pisztoly 18083
▁utcák 18083
▁fakadó 18080
▁előkészít 18077
▁lennünk 18074
eljen 18072
háború 18071
▁Húsvét 18071
öntés 18069
▁kezdetén 18063
evo 18059
▁Tat 18058
▁próbálta 18058
▁érkeznek 18057
▁Meleg 18056
:13 18053
rog 18053
▁életemet 18053
ciális 18051
▁programozási 18050
▁szakasza 18047
▁vállalkozói 18047
szán 18044
▁Bul 18042
▁kiló 18041
▁szakma 18038
▁üzletet 18037
▁Március 18036
▁1988 18035
szava 18031
▁természetben 18031
▁kialakítani 18028
Qu 18027
▁kerületben 18026
▁egyesülés 18025
[...]
