e n 25621
e r 21999
i n 21012
t i 19207
e n</w> 17576
c h 14684
a n 13706
e r</w> 11607
u n 10736
r e 10704
t h 10554
o n 9130
d i 9017
a ti 8042
i t 7839
a l 7827
o l 7821
i s 7531
o n</w> 6969
t e 6796
a r 6698
i n</w> 6348
en t 6290
o r 5973
s e 5761
s i 5681
r o 5657
b e 5444
r a 5240
i p 5188
d er</w> 4873
d e 4797
o f</w> 4717
m i 4511
g e 4461
th e</w> 4203
l e 4119
ati ent 4032
s t 3953
o r</w> 3851
l i 3795
o u 3717
a t 3615
e in 3598
a l</w> 3575
a c 3481
s ch 3449
s e</w> 3419
p o 3340
o m 3327
an d</w> 3269
l o 3252
u r 3235
di e</w> 3094
un g</w> 3048
un d</w> 2952
m e 2929
a u 2841
e l 2739
e i 2726
a b 2716
in g</w> 2655
t e</w> 2612
en ,</w> 2608
mi t</w> 2553
d o 2540
t o</w> 2537
i e</w> 2529
en .</w> 2519
w er 2468
h a 2345
ra z 2332
ip ip 2314
ipip raz 2314
w it 2233
s u 2231
c h</w> 2211
A r 2198
wit h</w> 2183
t en</w> 2182
a s 2175
m a 2144
p atient 2136
t r 2113
i s</w> 2106
d en</w> 2070
un g 2066
s p 2053
m o 2046
i g 2032
i e 1963
d er 1948
i r 1928
i ch 1898
P atient 1896
B e 1882
v on</w> 1860
ti on</w> 1856
c on 1851
be i</w> 1838
v er 1832
w e 1820
a p 1808
u l 1806
i l 1797
e d</w> 1769
f f 1742
ati on</w> 1742
i c 1731
s h 1729
b e</w> 1724
e ti 1710
e c 1662
is ch 1657
p ro 1655
e s 1646
A n 1590
te d</w> 1578
l u 1570
en t</w> 1567
s ol 1550
t er 1545
patient s</w> 1537
o der</w> 1518
a s</w> 1517
p er 1499
L I 1478
u m 1471
a d 1465
l d</w> 1464
T h 1460
ou ld</w> 1450
A B 1439
A b 1439
m p 1436
a n</w> 1414
re a 1410
ipipraz ol 1410
h an 1405
e s</w> 1391
d u 1381
sh ould</w> 1376
l y</w> 1366
v e</w> 1363
al f 1354
wer d 1350
s y 1331
e b 1328
h r 1316
s ,</w> 1315
n o 1293
Patient en</w> 1288
eti n</w> 1284
w en 1283
I LI 1278
AB ILI 1278
ABILI F 1278
th ro 1275
po etin</w> 1275
in c 1256
f or</w> 1254
) .</w> 1249
m m 1247
f ü 1242
ti on 1242
th er 1242
E r 1217
E R 1207
p re 1204
t en 1203
l in 1203
sol l 1203
ü b 1202
z u 1194
c om 1186
a ch 1172
r i 1159
g en 1157
ein e</w> 1157
I n 1156
S t 1147
l e</w> 1142
ati on 1137
li ch 1136
m in 1123
g lo 1116
glo b 1114
mo glob 1096
ABILIF Y</w> 1089
se d</w> 1082
t er</w> 1076
e t 1067
si s</w> 1065
ar ipiprazol 1062
h y 1060
ich t</w> 1057
d e</w> 1056
f or 1056
0 0</w> 1052
I n</w> 1045
s ti 1040
a t</w> 1036
d l 1029
e x 1015
u m</w> 997
i er 989
s te 982
e k 981
t a 980
alf a</w> 980
m it 978
o l</w> 976
d l</w> 976
ther ap 975
l a 968
o p 949
w ir 941
c e</w> 913
no t</w> 913
u s 912
g e</w> 908
ipipraz ol</w> 904
Ar ipiprazol</w> 904
4 . 900
I S 897
m ent</w> 892
re at 883
i d 877
Ar z 875
D o 872
m b 869
s .</w> 867
werd en.</w> 863
han dl 857
di c 848
mit te 840
do se</w> 837
n icht</w> 833
z u</w> 833
t .</w> 828
ein er</w> 827
t s</w> 817
soll te</w> 816
T I 812
tr ol 810
a r</w> 808
a h 804
t ra 802
a e 800
e h 800
V er 799
Be handl 799
u di 792
l ac 790
w h 786
au f</w> 786
ung en</w> 782
D ie</w> 781
mm ol 780
is t</w> 776
h al 773
g en</w> 773
fü r</w> 770
du c 764
de s</w> 762
e ,</w> 758
ha e 754
an ge 752
y thro 749
aripiprazol e</w> 739
e p 738
S ie</w> 737
g /</w> 732
H ä 730
i z 729
g / 722
Th e</w> 721
a m 719
isch en</w> 719
t om 718
Behandl ung</w> 718
in g 714
üb er</w> 714
w ur 713
inc rea 709
i m 701
A R 699
b er 698
r an 695
o ch 695
se a 695
mp tom 689
v en 684
d .</w> 682
ei t</w> 670
lac eb 666
i c</w> 665
m on 663
k on 659
O L 659
g n 658
0 0 657
k an 649
re c 645
e it 643
l l 643
n ei 641
al s</w> 640
ar e</w> 633
nei mitte 631
o ti 626
di s 623
u t 619
li ch</w> 619
Arz neimitte 619
S ch 617
t ,</w> 615
R IS 615
moglob in</w> 613
le d</w> 610
o d</w> 609
at e</w> 605
e poetin</w> 602
q u 602
h ar 600
- M 598
ou s</w> 597
ab le 596
th er</w> 595
ae mi 595
i f 594
s en 592
U N 588
f ol 578
k g</w> 577
ac h</w> 570
l )</w> 569
) ,</w> 567
Q U 566
me d</w> 563
m g</w> 562
s is 561
1 2</w> 561
ic al</w> 560
t reat 559
B lu 556
b lo 554
D E 553
E poetin</w> 553
ä n 553
re d</w> 553
e .</w> 552
hae moglobin</w> 552
o c 549
E in 549
as s 549
a f 545
i en 544
me dic 544
t or 543
o h 541
v i 541
ma y</w> 540
s ur 539
it y</w> 539
ou r</w> 539
e ff 538
e in</w> 537
1 0</w> 536
W och 530
ER S</w> 526
g/ dl</w> 523
i b 519
I N 518
p r 517
h ö 514
an t</w> 514
ti g 513
C Y 512
isch e</w> 512
CY P 512
el l 510
ei g 509
ent s</w> 507
i a 504
ent r 504
min is 504
al y 503
I B 501
v as 499
t o 498
i m</w> 498
te s</w> 498
C H 495
Ab sea 494
ythro po 494
g er 493
au f 493
d ur 489
ad minis 489
sy ch 488
S QU 486
B RIS 486
T OL 486
Y ERS</w> 486
-M YERS</w> 486
SQU IB 486
BRIS TOL 486
BRISTOL -MYERS</w> 486
moglob in 483
r is 482
o g 482
w as</w> 482
su b 482
blo od</w> 482
d r 479
c lin 477
r en 477
Absea med</w> 474
i el 471
l y 470
wir k 470
SQUIB B</w> 468
m en 467
üb er 467
d ,</w> 464
o b 463
b y</w> 463
s er 462
St udi 462
c k 461
si gn 461
werd en,</w> 461
laceb o 460
e v 458
m en</w> 456
ha s</w> 456
ran k 456
e m</w> 455
Blu t 455
Hä moglobin 453
f a 452
se s</w> 451
p a 449
6 . 447
eff ec 447
3 0</w> 446
an c 445
si ch 445
s :</w> 443
su ff 443
d a 441
hr en 441
in tra 440
be en</w> 439
A U 438
medic in 438
pro duc 437
hö h 437
k in 435
hy d 435
pre s 434
p sych 433
ä mi 432
y o 431
de m</w> 430
thro mb 430
ä r 429
an ti 429
ha ve</w> 428
t rea 425
t z 424
s in 424
n it 424
m ent 424
U /</w> 423
tr i 423
al l 422
mp f 422
T el 421
h e 420
m an 420
e u 419
sy mptom 419
increa sed</w> 419
c ul 417
k lin 417
de l 414
li er 414
A N 413
de d</w> 413
ge b 413
k eit</w> 411
we ek 411
an aemi 409
si on</w> 407
zu r</w> 405
psych oti 405
un ter</w> 404
li e 404
treat ment</w> 404
Th er 403
o ther</w> 402
al ly</w> 402
j ec 400
mmol / 400
le v 399
i k 397
5 . 396
g i 394
p p 393
wen n</w> 393
therap y</w> 391
y ,</w> 388
et in 388
Be i</w> 384
c tion</w> 383
ac k 383
Studi en</w> 383
clin ical</w> 382
intra ven 381
d as</w> 380
mmol /</w> 380
an der 379
th at</w> 378
ung s 378
T H 377
m l</w> 376
ol og 375
k ö 373
si on 373
sch nit 373
g r 372
5 0</w> 371
di a 371
k rank 370
u f 369
in suff 369
sch en</w> 369
ig n 369
c ar 368
th an</w> 368
t s 367
w ach 367
id en 367
v or 366
yo u</w> 366
h o 364
d en 364
han del 364
t able 362
. E 362
har m 362
m al 361
b in 360
Tel :</w> 360
s en</w> 359
i f</w> 358
d ung</w> 358
ti v 358
re p 358
di aly 358
con trol 357
sign if 356
harm ac 356
u sed</w> 352
M a 352
ta k 352
t u 351
c au 351
U n 351
or der 350
c o 349
O N</w> 349
Ar ipiprazol 348
d ing</w> 347
Do sis</w> 347
s am 346
Arzneimitte l</w> 346
it ä 345
Ab schnit 345
r on 344
g lich 344
G e 344
li k 343
wen de 343
a k 342
se ction</w> 342
trea ted</w> 342
E N 341
n e 340
M A 340
re com 340
v ing</w> 339
p ar 338
y .</w> 337
soll ten</w> 337
An ämi 336
Abschnit t</w> 335
I .E 334
k eine</w> 334
r it 334
ar k 334
s t</w> 333
f e 333
be handel 332
h ab 331
m e</w> 331
si er 331
st udi 330
2 5</w> 328
H y 328
E I 327
ex c 327
ti ve</w> 325
lo w 325
ythropo ie 324
p ri 323
ö s 323
alf a 323
g ra 320
v ed</w> 320
con t 320
cul ar</w> 320
s f 319
W ir 319
R e 318
as s</w> 317
s on 316
g a 315
si eh 315
in jec 314
I.E . 314
b is</w> 312
ou r 312
ein em</w> 312
entr ation</w> 312
inc lu 311
kan n</w> 310
n en</w> 309
Wir k 309
s s</w> 308
0 00</w> 308
E S 308
e l</w> 307
e mpf 306
an ce</w> 306
on e</w> 306
n o</w> 305
n ach</w> 305
0 . 305
v ol 305
z y 305
ur e</w> 305
ange wende 305
sieh e</w> 305
I f</w> 303
p lacebo 302
er e</w> 302
er z 302
wer e</w> 302
I U/</w> 301
h ig 301
i ch</w> 300
P R 300
ab le</w> 300
tr an 300
mmol/ l)</w> 300
A l 299
se e</w> 299
rec ei 299
s a 298
E N</w> 298
iz ien 298
for m 297
r in 296
O R 296
ro m</w> 296
hy per 296
wir d</w> 296
ris k</w> 296
u se</w> 295
An wen 295
um or 295
dis order 295
y our</w> 294
p er</w> 294
ä l 294
i t</w> 293
z w 293
ch ron 293
ein en</w> 292
hyd ro 291
kö n 291
I.E. / 291
ö r 290
th is</w> 290
Do sis 290
t on 289
1 2 289
is o 289
er en</w> 288
al l</w> 288
wur de</w> 288
anaemi a</w> 288
E s</w> 287
ch en</w> 287
o per 285
an g 285
trol lier 285
A L</w> 284
me s</w> 284
n ah 283
0 , 283
v en</w> 283
R is 283
( siehe</w> 282
S y 281
a ge 281
n eh 281
ti c 281
ra x 281
t or</w> 280
Ab rax 280
e se</w> 279
ier en 279
f rom</w> 278
vas cular</w> 278
3 A 277
Patient en,</w> 277
fü hr 277
insuff izien 277
d ass</w> 276
eb en 276
T umor 275
z eig 275
kon trollier 275
a ted</w> 274
k ul 274
w ä 274
m us 273
ro u 272
ung ,</w> 272
DE R</w> 272
Abrax an 272
j ek 271
in f 271
an y</w> 271
ip ol 270
el l</w> 270
oh l 270
rep or 270
si ch</w> 269
h t</w> 268
E U 267
K on 267
po ten 267
b a 266
er ythropoie 266
o ver 265
sti e 264
to x 264
si b 263
Arzneimitte l 263
ren al</w> 263
b o 262
er höh 262
In jek 261
control led</w> 261
( see</w> 260
al e</w> 260
te il 260
ou t</w> 260
Ther ap 260
angewende t</w> 260
Ris ik 260
W en 259
sp ec 259
recom men 259
Wen n</w> 259
t en,</w> 258
UN G</w> 258
re qu 256
pr o</w> 256
klin ischen</w> 256
Anwen dung</w> 256
ab ol 254
do c 253
c y 252
u lo 252
tion s</w> 252
ach te 252
u st 250
op hren 250
iz ophren 250
Woch en</w> 250
I.E./ kg</w> 250
we is 249
lich e</w> 249
thromb o 249
empf ohl 249
O F</w> 248
ab il 248
ter ed</w> 248
a g 247
l is 247
x im 247
do sis</w> 247
g le 246
an d 246
con c 246
x i 245
increa se</w> 244
wer t</w> 243
wer den</w> 243
isch er</w> 243
ol y 242
se .</w> 242
ap pro 242
d y 241
A TI 241
N ieren 241
ste ll 241
adminis tr 240
S T 239
in ,</w> 239
CYP 2 239
k o 238
g t</w> 238
- - 238
CYP 3A 237
e le 236
al u 236
i li 235
ö glich 235
se ,</w> 235
medicin al</w> 235
( 7 234
v or</w> 234
CYP2 D 234
oc c 233
adminis tered</w> 233
ander en</w> 233
a ,</w> 232
ich te 232
wh o</w> 232
h r</w> 231
p ati 231
ut an 231
at ri 230
recommen ded</w> 230
m or 229
hal t 229
wirk ungen</w> 229
Abraxan e</w> 229
c anc 228
N eben 228
therap ie</w> 228
effec ts</w> 228
administr ation</w> 228
o se</w> 227
1 0 227
ti al</w> 227
ar y</w> 227
be t 227
anti psychoti 227
wach sen 227
kul är 227
m al</w> 226
m ul 226
v e 226
ti mes</w> 226
h en</w> 225
k ar 225
d re 225
T able 225
st o 225
kin eti 225
k eit 224
l as 224
1 .</w> 224
ch e 224
e k</w> 223
u s</w> 223
Ü ber 223
te ly</w> 223
sur e</w> 223
sin d</w> 223
zw ischen</w> 223
i th 222
m at 222
ul t</w> 222
symptom s</w> 222
di es 221
we ek</w> 221
V or 220
k om 220
Nieren insuffizien 220
h ib 219
u die</w> 219
is se</w> 219
we en</w> 218
ation ,</w> 218
dr u 218
ro p 217
bet ween</w> 217
G Y 216
. 5</w> 216
ta in 216
itä t</w> 216
recei ving</w> 216
n es 215
A T 215
au t 215
Anämi e</w> 215
A us 214
b en 213
D e 213
w a 213
w ar 213
1 / 213
ev ents</w> 213
s or 212
w ie</w> 212
ber ichte 212
low ing</w> 212
t re 211
K E 211
Z iel 211
vas kulär 211
po etin 210
wur den</w> 210
B E 209
s o</w> 209
it or 209
kon z 209
i al</w> 208
u tion</w> 208
2 7 208
er g 208
di o 208
se :</w> 208
e mb 207
Woch e</w> 207
1 3</w> 206
3 00</w> 204
1 5</w> 204
sp en 204
ation s</w> 204
ation en</w> 204
se l 203
hr en</w> 203
Er ythro 203
kontrollier ten</w> 203
repor ted</w> 203
S u 202
p harmac 202
z in 202
in e</w> 202
ch en 202
ma in 202
Sy mptom 202
stie g</w> 201
i a</w> 200
in u 200
Hy per 200
t ten</w> 199
E re 199
au s 199
ati c</w> 198
Er wachsen 198
in dic 197
Arz t</w> 197
laceb o</w> 197
dur ing</w> 197
er n 196
is en 196
t ing</w> 195
p ass 195
o di 195
d y</w> 195
O N 195
j e 195
1 4</w> 195
T a 195
E isen 195
re duc 195
ge w 195
af ter</w> 195
weis e</w> 195
g ly 194
lo w</w> 194
An ti 194
wh en</w> 194
im al</w> 194
doc tor</w> 194
Ere ign 194
e - 193
g .</w> 193
w eig 193
re ich 193
it a 193
ä ß 192
ti n</w> 192
Er krank 192
Injek tion 192
f o 191
f all 191
be ob 191
es ,</w> 191
konz entration</w> 191
beob achte 191
w n</w> 190
ma n</w> 190
AR MA 190
dialy sis</w> 190
ABILIF Y 189
St udie</w> 189
sti tu 189
hren d</w> 189
signif ic 189
a th 188
M on 188
fa il 188
iden ce</w> 188
che mo 188
A uf 187
, 5</w> 187
ad j 187
mitte l 187
tran sf 187
sib le</w> 187
c a 186
un t</w> 186
si e</w> 186
har ma 186
ös ung</w> 185
h l 184
y e 184
- f 184
6 0</w> 184
F OR 184
sch e</w> 184
sy rin 184
l ).</w> 183
un den</w> 183
er tig 182
re ,</w> 182
v it 181
M e 181
z ier 181
ig e</w> 181
sy ste 181
TH E</w> 181
B ipol 180
u man</w> 180
E poetin 180
ü n 180
Risik o</w> 180
canc er</w> 180
p ha 179
v er</w> 179
ge geb 179
i d</w> 178
i kan 178
( 1 178
ig er</w> 178
zu m</w> 178
m öglich 177
u r</w> 177
er eb 177
in i 177
tri al 177
behandel t</w> 177
gra m 177
cont inu 177
a v 176
h en 176
ä h 176
er h 176
TI C 176
sur ger 176
ell en</w> 176
kön nen</w> 176
p ack 175
z ep 175
ge m 175
ma xim 175
du k 175
den en</w> 175
inclu ding</w> 175
Ereign isse</w> 175
s om 174
y l 174
H b</w> 174
ti c</w> 174
sp on 174
sier ung</w> 174
empfohl en 174
4 .</w> 173
or der</w> 173
po s 173
gen den</w> 173
rit z 173
occ ur 173
h uman</w> 172
m en.</w> 172
2 .</w> 172
H ARMA 172
P HARMA 172
tion ,</w> 172
injec tion</w> 172
s s 171
o gen</w> 171
at ing</w> 171
tri als</w> 171
pati ent</w> 171
e e 170
- controlled</w> 170
u sion 170
di sea 170
sp re 170
Er ythropo 170
ass oc 170
produc t</w> 170
thromb oti 170
Therap ie</w> 170
3 5 169
M E 169
P ro 169
E n 169
ü ck 169
or th 169
ra te</w> 169
Vor sich 169
a se</w> 168
di ff 168
sp ritz 168
ob ser 168
L A 167
ar t</w> 167
signif ikan 167
wä hrend</w> 167
abol is 167
dies er</w> 167
te .</w> 166
te ,</w> 166
00 0 166
a ge</w> 165
m äß 165
2 1</w> 165
1 /</w> 165
T E 165
si ve</w> 165
er for 164
il led</w> 164
is ch</w> 163
ae di 163
UN G 163
m ar 162
F ertig 162
re g 162
su ch 162
ho sp 162
disorder s:</w> 162
CYP2D 6</w> 162
-f illed</w> 162
Fertig spritz 162
S p 161
m u 161
u g 161
An stieg</w> 161
E P 160
R eti 160
µ l</w> 160
er en 160
me t 160
tak e</w> 160
Un ter 160
son der 160
3 .</w> 159
M en 159
Z U 159
au s</w> 159
ten ance</w> 159
intraven ous</w> 159
hig h 159
c utan 158
d ar 158
6 , 158
A L 158
P lacebo 158
sch w 158
pro te 158
Er halt 158
emb ol 158
cutan e 158
S S 157
n ec 157
l ita 157
ac lita 157
aclita x 157
s ä 156
h än 156
en :</w> 156
sch ie 156
sol ution</w> 156
op en 156
pa red</w> 156
gi ven</w> 156
tox ic 156
p la 155
A pp 155
( e.</w> 155
ge l 155
au ch</w> 155
h at 154
i mp 154
P harmac 154
ther e</w> 154
orth op 154
I C 153
se ver 153
sch af 153
com pared</w> 153
fol lowing</w> 153
I hren</w> 152
s )</w> 152
k a</w> 152
y p 152
H al 152
pre -filled</w> 152
studi es</w> 152
zy ten 152
adj ust 152
6 .</w> 151
st ro 151
ou s 151
po si 151
ia ted</w> 151
AU C</w> 151
Niereninsuffizien z</w> 151
assoc iated</w> 151
t h</w> 150
t w 150
- alfa 150
0 4 150
inc idence</w> 150
Neben wirkungen</w> 150
Ziel konzentration</w> 150
27 6 150
Epoetin -alfa 150
t al 149
me dia 149
lev el 149
s it 148
h eit 148
D is 148
5 .</w> 148
f ac 148
be tr 148
sch le 148
con tain 148
sh o 148
ste ig 148
g lich</w> 147
w ie 147
K om 147
an pass 147
re spon 147
sch izophren 147
as t</w> 147
Ab ili 147
tion .</w> 147
Dosis anpass 147
Abili f 147
t um 146
n or 146
do ses</w> 146
ma tely</w> 146
Th ro 146
form ation</w> 146
xi mately</w> 146
appro ximately</w> 146
harma ko 146
obser ved</w> 146
r u 145
l z 145
D i 145
D ie 145
P ack 145
er fol 145
TH O 145
Injektion s 145
Thro mb 145
e f 144
7 5</w> 144
5 %</w> 144
w ith 144
P o 144
E p 144
it s</w> 144
su ch</w> 144
treat ment 144
dur ch 144
neh men</w> 144
t ar 143
p e 143
re s</w> 143
di vi 143
le ss</w> 143
Blut dru 143
c or 142
1 8 142
E ff 142
ati ve</w> 142
co unt</w> 142
Aripiprazol e</w> 142
placebo -controlled</w> 142
PR C 142
chron ischer</w> 142
p l 141
d om 141
per i 141
ation .</w> 141
for e</w> 141
chron ic</w> 141
ATI ON</w> 141
Ta g</w> 141
Patient s</w> 140
Hämoglobin - 140
Ge w 140
Erythropo etin 140
b en</w> 139
z un 139
er hal 139
re ac 139
de f 139
lich en</w> 139
da y</w> 139
lie ß 139
t on</w> 138
c lo 138
z ah 138
se in 138
il y</w> 138
table ts</w> 138
a d</w> 137
c ell 137
ä di 137
te m</w> 137
gen om 137
CYP3A 4</w> 137
ereb ro 137
h in 136
m ark 136
m erz 136
G es 136
A C 136
ie ,</w> 136
ic i 136
St ör 136
4. 4 136
wh ich</w> 136
am t 136
dur ch</w> 136
gr und</w> 136
Ges amt 136
d at 135
u rop 135
E urop 135
ß nah 135
is t,</w> 135
si der 135
ge se 135
st and 135
ir on</w> 135
con sider 135
ien c 135
ia ,</w> 135
mor e</w> 135
hib itor 135
t :</w> 134
b ar 134
A d 134
H o 134
E ing 134
an f 134
lin e</w> 134
week s</w> 134
vaskulär e</w> 134
Eing ri 134
i um</w> 133
G en 133
A M 133
v ar 133
K in 133
th ose</w> 133
ge führ 133
we it 133
ep iso 133
Symptom e</w> 133
App lik 133
un ter 132
ig en</w> 132
es s 132
signific ant</w> 132
Abilif y</w> 132
c ell</w> 131
de c 131
at en</w> 131
(7 .5</w> 131
berichte t.</w> 131
fail ure</w> 131
erfor der 131
M an 130
P r 130
te l 130
sch ließ 130
me hr</w> 130
su l 130
con com 130
um an 130
vi v 130
dialy se 130
requ i 130
dre imal</w> 130
weig ht</w> 130
Epoetin-alfa - 130
Hämoglobin- Zielkonzentration</w> 130
concom it 130
a de 129
c an</w> 129
er k 129
st u 129
ad ult</w> 129
com p 129
aripiprazol e.</w> 129
AU THO 129
AUTHO RIS 129
S P 128
S er 128
t ent</w> 128
s sen</w> 128
i g</w> 128
g en.</w> 128
1 1</w> 128
F T 128
ch sel 128
ll en</w> 128
pri or</w> 128
W hen</w> 127
re du 127
cutane ous</w> 127
i um 126
p hy 126
H erz 126
ti g</w> 126
ab hän 126
PR O 126
hyper ten 126
g reat 125
6 2</w> 125
2 00</w> 125
E x 125
er t</w> 125
ge gen 125
gegeb en</w> 125
Fertigspritz e</w> 125
genom men</w> 125
great er</w> 125
a il 124
g u 124
M et 124
ER K 124
tor en</w> 124
effec t</w> 124
our s</w> 124
erythropoie tin</w> 124
surger y</w> 124
schle ch 124
Ep iso 124
h uman 123
en th 123
behandel ten</w> 123
av ail 123
nec ess 123
4 9</w> 122
E U/</w> 122
/ 1/ 122
in al</w> 122
al so</w> 122
ing ,</w> 122
kan n 122
Sch w 122
EU /1/ 122
sever e</w> 122
a z 121
s o 121
f f</w> 121
w ar</w> 121
1 , 121
ti l</w> 121
ch tig 121
un til</w> 121
patient s.</w> 121
4. 4</w> 121
6. 2</w> 121
man ic</w> 121
zyten zah 121
k ulo 120
r ig 120
g in 120
on - 120
is t.</w> 120
de si 120
pro gram 120
4. 2</w> 120
Hämoglobin wert</w> 120
AN D</w> 120
hydro - 120
Kon trol 120
cy te</w> 120
ulo cyte</w> 120
Erythro poetin</w> 120
pha se:</w> 120
äh n 120
Reti kulo 120
Eff ek 120
g rou 119
A )</w> 119
z iden 119
U C 119
in - 119
ge t</w> 119
li c 119
In ziden 119
wur d 119
qu ate</w> 119
lev el</w> 119
ye ar 119
Inziden z</w> 119
sch merz 118
ung en,</w> 118
aripiprazol e,</w> 118
dia be 118
-- -- 118
ele c 118
4.4 ).</w> 118
o kineti 117
z ei 117
U M 117
or t 117
sch e 117
mal ign 117
EI CH 117
son sti 117
P harmako 116
zeig te</w> 116
ßnah men</w> 116
s c 115
L eb 115
ö ß 115
in to</w> 115
do se.</w> 115
sp er 115
per for 115
tor s</w> 115
über le 115
sam e</w> 115
kön n 115
Table tten</w> 115
syrin ge</w> 115
ün sch 115
adjust ment</w> 115
Dosisanpass ung</w> 115
gegen über</w> 115
y - 114
p ul 114
0 7 114
1 . 114
1 50</w> 114
ab e</w> 114
ad ver 114
gr öß 114
lis ter 114
chemo therapy</w> 114
Thromb o 114
d on 113
O R</w> 113
ra l</w> 113
ge sch 113
sp or 113
g ro 112
en d</w> 112
Ver gle 112
tic al</w> 112
Gew ich 112
0 %</w> 111
1 00</w> 111
P lacebo</w> 111
in ter 111
be low</w> 111
auf tre 111
Erkrank ungen</w> 111
sonder e</w> 111
D AT 110
H b 110
th ese</w> 110
Tumor patient 110
Arzneimittel n</w> 110
conc entration</w> 110
level s</w> 110
a te 109
t t 109
g ung</w> 109
o gen 109
- kontrollierten</w> 109
or al</w> 109
si de</w> 109
do ch</w> 109
ta in</w> 109
stitu tion</w> 109
PHARMA C 109
AUTHORIS ATION</w> 109
S Z 108
o x 108
b u 108
b ri 108
d ge</w> 108
m g/</w> 108
m g/ 108
C he 108
3 3</w> 108
L M 108
H T 108
K FT 108
Ó GY 108
th or 108
be im</w> 108
ER ES 108
ex per 108
ah er</w> 108
Hä mo 108
DE LM 108
Ein e</w> 108
vol um 108
nah me</w> 108
erhöh tes</w> 108
thrombo embol 108
GY ÓGY 108
KE DELM 108
maxim um</w> 108
empfohlen e</w> 108
aclitax el</w> 108
schließ lich</w> 108
ERK ERES 108
SZ ERKERES 108
bri dge</w> 108
Che mo 108
KFT .</w> 108
GYÓGY SZERKERES 108
KEDELM I</w> 108
GYÓGYSZERKERES KEDELMI</w> 108
t s,</w> 107
p hosp 107
N atri 107
sch re 107
tion al</w> 107
mon :</w> 107
dis continu 107
h ä 106
e )</w> 106
A u 106
me ,</w> 106
es s</w> 106
pre gn 106
5. 1 106
wa hr 106
LA SS 106
EP S</w> 106
t ly</w> 105
y s</w> 105
l and</w> 105
b re 105
6 - 105
5 HT 105
1 4 105
er al</w> 105
sch wer 105
he art</w> 105
abil ity</w> 105
g on 104
( <</w> 104
N ach</w> 104
an ger 104
un d 104
it o 104
se - 104
ic ally</w> 104
therap y.</w> 104
UN D</w> 104
antipsychoti c</w> 104
adver se</w> 104
k et 103
o ton 103
- C 103
j or</w> 103
( E 103
v alu 103
1 3 103
re e</w> 103
si mi 103
ma jor</w> 103
Sch izophren 103
over all</w> 103
tw o</w> 103
tum our</w> 103
dec rea 103
stu dy</w> 103
avail able</w> 103
sper sible</w> 103
Gewich ts 103
s sion</w> 102
d ro 102
A ll 102
7 %</w> 102
T reat 102
er ,</w> 102
in ed</w> 102
in formation</w> 102
me lz 102
ha t</w> 102
con di 102
sti mul 102
la r</w> 102
Sch melz 102
man age 102
redu zier 102
simi lar</w> 102
Treat ment</w> 102
Schmelz table 102
B er 101
C om 101
D ia 101
4 - 101
( 2 101
1 8</w> 101
ä llen</w> 101
in divi 101
is ier 101
st en</w> 101
ver ,</w> 101
il dr 101
St unden</w> 101
therap eu 101
än der 101
olog ous</w> 101
tiv ity</w> 101
(7 ,5</w> 101
sto ff 101
aut ologous</w> 101
Men schen</w> 101
tar get</w> 101
indivi du 101
V E</w> 100
l ösung</w> 100
C I 100
D as</w> 100
A lu 100
f lu 100
z we 100
Be stand 100
la ted</w> 100
pres sure</w> 100
tak en</w> 100
Su b 100
som e</w> 100
Erhalt ungs 100
Vergle ich</w> 100
b lu 99
O .</w> 99
z en</w> 99
in n 99
be ste 99
ig en 99
ach ie 99
sin d,</w> 99
atri c</w> 99
main tenance</w> 99
ade quate</w> 99
s kin 98
n e</w> 98
( S 98
1 7 98
er krank 98
in d 98
an n 98
di e 98
st at 98
ein schließlich</w> 98
ac c 98
ad di 98
cau se</w> 98
äl t</w> 98
poten tial</w> 98
je doch</w> 98
spre chen 98
with out</w> 98
Pr ä 98
wurd en,</w> 98
I h 97
I t</w> 97
a ff 97
h oh 97
k e 97
k al 97
e si 97
r ie 97
v is 97
en de</w> 97
ent sprechen 97
ou g 97
es .</w> 97
hab en,</w> 97
diff eren 97
I - 96
i de 96
i do 96
g ent 96
o ver</w> 96
d - 96
% .</w> 96
in te 96
ar n 96
st a 96
ein genommen</w> 96
ic ienc 96
rec ep 96
intraven ö 96
dar f</w> 96
dat a</w> 96
t y</w> 95
n ie 95
it te</w> 95
mi eren</w> 95
ung .</w> 95
sp ha 95
TI ON</w> 95
hal t</w> 95
wur de 95
sen si 95
fol genden</w> 95
sis ,</w> 95
tor y</w> 95
IN FOR 95
hab en</w> 95
conc entr 95
Über do 95
ME D 95
contain s</w> 95
sho wn</w> 95
Injektions lösung</w> 95
INFOR MA 95
C ma 94
D ur 94
2 8</w> 94
F ol 94
z el 94
U M</w> 94
an tly</w> 94
re lev 94
ab out</w> 94
ex ten 94
Do sierung</w> 94
Wirk sam 94
dio vascular</w> 94
met abolis 94
high er</w> 94
var i 94
h ep 93
l on 93
D UC 93
u s,</w> 93
G abe</w> 93
2 4</w> 93
ol ogen</w> 93
li th 93
op f 93
mon ito 93
Ein nahme</w> 93
intraven ös 93
mul ti 93
ben ef 93
ZU LASS 93
zun ah 93
Eingri ff</w> 93
PRO DUC 93
intravenös er</w> 93
I T 92
g re 92
b la 92
4 12 92
F e 92
N AM 92
ä gt</w> 92
er s</w> 92
in vol 92
al pro 92
me a 92
wir d,</w> 92
af le 92
eu ro 92
sa ge</w> 92
ang s 92
ba se 92
posi tion</w> 92
enth ält</w> 92
5.1 ).</w> 92
NAM E</w> 92
a - 91
t s.</w> 91
h is 91
r o</w> 91
n on- 91
l ä 91
b i 91
N UM 91
un der 91
al th 91
al le</w> 91
or odi 91
ra u 91
patient s,</w> 91
ap p 91
all erg 91
Ther e</w> 91
keit ,</w> 91
vit ro</w> 91
UNG S 91
Placebo -kontrollierten</w> 91
Cma x</w> 91
orodi spersible</w> 91
h ours</w> 90
e z 90
g o 90
b ipol 90
m on</w> 90
- Anstieg</w> 90
4 0. 90
4 0, 90
E igen 90
ar - 90
po tent</w> 90
IN AL</w> 90
sub stitution</w> 90
Blut spen 90
studi es,</w> 90
Re zep 90
kom bin 90
aut ologen</w> 90
Bipol ar</w> 90
Bipol ar- 90
IC INAL</w> 90
gin n</w> 90
Retikulo zytenzah 90
elec tive</w> 90
don ation</w> 90
Natri um 90
MED ICINAL</w> 90
Fe 2 90
S I 89
p ec 89
m y 89
m is 89
m en,</w> 89
C on 89
N G</w> 89
en en</w> 89
wer te</w> 89
ma ch 89
ung en:</w> 89
oh ne</w> 89
pr ol 89
symptom ati 89
EU TIC 89
fall s</w> 89
grou p 89
PHARMAC EUTIC 89
e st 88
e ur 88
0 3 88
2 ).</w> 88
E R</w> 88
er re 88
in es</w> 88
ti es</w> 88
th ree</w> 88
me di 88
sp ie 88
IS CH 88
hae mo 88
ing s</w> 88
aemi a</w> 88
disorder s</w> 88
Pack ungs 88
Leb er 88
oton in</w> 88
B .</w> 87
a m</w> 87
t ur 87
h eit</w> 87
o s 87
C h 87
u re 87
M AR 87
T ER 87
en s</w> 87
ar d</w> 87
po th 87
sub cutaneous</w> 87
medicin es</w> 87
AN G 87
cau tion</w> 87
pharmac okineti 87
Vorsich t</w> 87
treatment .</w> 87
blu t 87
p lacebo</w> 86
A .</w> 86
f er 86
z ellen</w> 86
en c 86
mi c 86
thro ug 86
fü hl 86
In halt</w> 86
ga in 86
Anti psychoti 86
Chemo therapie</w> 86
poth ek 86
I R 85
i ti 85
b le 85
D aten</w> 85
3 9</w> 85
L ösung</w> 85
er ung</w> 85
re m</w> 85
be wahr 85
In f 85
for mieren</w> 85
ier t</w> 85
mon th 85
hig h</w> 85
gle ich 85
tel l</w> 85
viv al</w> 85
t te</w> 84
k no 84
p le 84
A pothek 84
w w 84
1 %</w> 84
te d.</w> 84
be fore</w> 84
st ar 84
st än 84
st ör 84
tion en</w> 84
TI NG</w> 84
sub k 84
sub jec 84
pres c 84
klin isch</w> 84
olog ical</w> 84
table t</w> 84
KE TING</w> 84
transf usion 84
nor mal</w> 84
Schw anger 84
bu t</w> 84
Gewichts zunah 84
zwe i</w> 84
Dur ch 84
MAR KETING</w> 84
f e</w> 83
ch ildr 83
an z 83
ip i 83
ge l</w> 83
ge stell 83
ab o 83
su pp 83
ach en</w> 83
In form 83
sti mm 83
TI ON 83
clin ically</w> 83
uf ig 83
sa mm 83
neh men.</w> 83
spen sion</w> 83
reduc tion</w> 83
syste m 83
imp a 83
gese tz 83
Ho we 83
t yp 82
M IT 82
W e 82
Z N 82
er w 82
le afle 82
st e</w> 82
po pul 82
ver lu 82
zu samm 82
wh ose</w> 82
hyd ra 82
kö r 82
ts ma 82
alfa .</w> 82
placebo .</w> 82
nes s,</w> 82
gly c 82
Vorsich tsma 82
aedi c</w> 82
orthop aedic</w> 82
Di aly 82
monito red</w> 82
euro pa 82
his tory</w> 82
h och 81
b il 81
5 , 81
w ei 81
re kombin 81
al ,</w> 81
ge f 81
ic ac 81
über wach 81
bin ation</w> 81
bin ant</w> 81
Aripiprazol - 81
recom binant</w> 81
odi um</w> 81
beobachte t</w> 81
trial ,</w> 81
erh iel 81
aedi atric</w> 81
6, 2</w> 81
concomit ant</w> 81
human en</w> 81
Dia be 81
Wirksam keit</w> 81
hoch wirk 81
rekombin an 81
t en.</w> 80
c le 80
y n 80
m ,</w> 80
6 %</w> 80
u sion</w> 80
L S</w> 80
2 2</w> 80
( N 80
T ATI 80
/ µl</w> 80
ti gen</w> 80
re tic 80
re lated</w> 80
be kann 80
ge s</w> 80
sch er</w> 80
lo we 80
du led</w> 80
wen iger</w> 80
pre donation</w> 80
AR ZN 80
mon o 80
eff icac 80
EI MIT 80
exc ee 80
Erwachsen en</w> 80
ABILIFY .</w> 80
mittel s</w> 80
thromboti c</w> 80
schaf t</w> 80
Ad ult</w> 80
Kin der 80
necess ar 80
sche duled</w> 80
valu es</w> 80
Blutspen de 80
TATI VE</w> 80
retic ulocyte</w> 80
ARZN EIMIT 80
ARZNEIMIT TE 80
r ho 79
n ach 79
A n</w> 79
1 00 79
be d</w> 79
le ast</w> 79
st ati 79
ein es</w> 79
ei ch 79
Patient en 79
DE S</w> 79
erhöh te</w> 79
ele k 79
zin om 79
ini tial</w> 79
sit e</w> 79
Pharmako kineti 79
efficac y</w> 79
a mm 78
c s</w> 78
i le 78
3 7 78
2 0</w> 78
H in 78
T - 78
% )</w> 78
W E 78
W ie</w> 78
ö ch 78
en den</w> 78
in duc 78
re f 78
re gel 78
de mon 78
ac tive</w> 78
po st 78
me an</w> 78
ver y</w> 78
therap y,</w> 78
hal oper 78
im media 78
mal e</w> 78
mus s</w> 78
Auf grund</w> 78
manage ment</w> 78
ido l</w> 78
haemo dialysis</w> 78
regel mäß 78
demon st 78
AB EN</w> 77
poten z 77
ca ses</w> 77
betr u 77
durch geführ 77
Überdo sierung</w> 77
ANG ABEN</w> 77
Inform ationen</w> 77
p y 76
p en 76
d s</w> 76
d ri 76
3 - 76
L t 76
2 %</w> 76
K no 76
K rank 76
re sul 76
ge le 76
sp ez 76
Th ese</w> 76
no t 76
ex po 76
id ol 76
klin ische</w> 76
gi g</w> 76
car diovascular</w> 76
ga b</w> 76
syste m</w> 76
reg ul 76
Hal oper 76
t an 75
c an 75
k ein</w> 75
8 . 75
. :</w> 75
1 6 75
ü tz 75
/ 276 75
er weise</w> 75
th e 75
do pa 75
Th is</w> 75
lich .</w> 75
Ein zel 75
ev alu 75
eu tical</w> 75
Kon z 75
spec i 75
pos sib 75
Pharmac eutical</w> 75
stro k 75
04 /</w> 75
04 /276 75
276 /</w> 75
consider ed</w> 75
EU/1/ 04/276 75
Effek te</w> 75
lister pack 75
Schmelztable tten</w> 75
nie dr 75
INFORMA TION</w> 75
dopa min 75
EU/1/04/276 / 75
c our 74
r hy 74
r ing 74
L ith 74
F Ü 74
z eit</w> 74
W A 74
K opf 74
ra ch 74
ein mal</w> 74
ha d</w> 74
ter n 74
wen di 74
Do sier 74
hydro x 74
disea se</w> 74
I- Stör 74
inte st 74
gre ssion</w> 74
Bipolar- I-Stör 74
not wendi 74
rhy th 74
FÜ R</w> 74
t in 73
s al 73
s be 73
m ents</w> 73
3 %</w> 73
u pp 73
H - 73
H IN 73
f at 73
f our</w> 73
T ran 73
F AL 73
N S</w> 73
sch in 73
sch rie 73
lo ss</w> 73
do sen</w> 73
la g 73
4. 8 73
hae mat 73
sur vival</w> 73
week ,</w> 73
Ma schin 73
Aus g 73
signifikan te</w> 73
mar ro 73
Blutdru ck 73
Applik ation</w> 73
Met abolis 73
chtig keit</w> 73
abo ve</w> 73
Howe ver,</w> 73
can not</w> 73
t su 72
o k 72
b one</w> 72
m g 72
D er</w> 72
O tsu 72
U B 72
in hibitor 72
di ese</w> 72
ar ly</w> 72
de hydro- 72
ge ,</w> 72
ge hen 72
st ,</w> 72
st ens</w> 72
me ta 72
do sage</w> 72
mo der 72
ad y- 72
ta gon 72
ho kin 72
Ma xim 72
rou te</w> 72
bo dy</w> 72
hib it 72
e- treated</w> 72
ück sich 72
toxic ity</w> 72
orthop ädi 72
Europ e</w> 72
sonsti gen</w> 72
sensi tivity</w> 72
base line</w> 72
Vorsichtsma ßnahmen</w> 72
Lt d.</w> 72
marro w</w> 72
Otsu ka</w> 72
V ER 71
n ,</w> 71
l ),</w> 71
8 .</w> 71
G EN 71
w or 71
U S 71
N UNG</w> 71
Z EICH 71
li fe</w> 71
mp h 71
pre cau 71
ri bed</w> 71
är k 71
teil e</w> 71
nes s</w> 71
BE ZEICH 71
betr ägt</w> 71
Die se</w> 71
erfol gen.</w> 71
Episo den</w> 71
year s</w> 71
intravenö s</w> 71
invol ving</w> 71
impa ir 71
überwach t</w> 71
moder ate</w> 71
BEZEICH NUNG</w> 71
S c 70
s k 70
i l</w> 70
n ur</w> 70
p aediatric</w> 70
f ib 70
( 6.2</w> 70
( 6,2</w> 70
9 .</w> 70
E X 70
U L 70
ß er 70
re l 70
ent s.</w> 70
ra ted</w> 70
de pen 70
ge s 70
Be ginn</w> 70
im pro 70
rec tion</w> 70
mmol/ l).</w> 70
ander e</w> 70
rit ten</w> 70
Erwachsen e</w> 70
Eisen substitution</w> 70
ath is 70
Blutdru c 70
Gesamt überle 70
episo des</w> 70
desi red</w> 70
program m</w> 70
Kontrol l 70
Tumorpatient en</w> 70
erre icht</w> 70
kno wn</w> 70
Schwanger schaft</w> 70
elek tiv 70
precau tions</w> 70
fib ro 70
ßer dem</w> 70
Gesamtüberle ben</w> 70
s ).</w> 69
e speci 69
u se 69
F a 69
F or</w> 69
P aclitaxel</w> 69
K ra 69
Z us 69
in e 69
wir d.</w> 69
Injek tion</w> 69
dre i</w> 69
Niereninsuffizien z 69
ähn liche</w> 69
Kinder n</w> 69
especi ally</w> 69
t ä 68
s ;</w> 68
y mptom 68
m a</w> 68
3 . 68
7 .</w> 68
z eit 68
er .</w> 68
ent s,</w> 68
st ärk 68
com mon</w> 68
et ing</w> 68
inclu ded</w> 68
Me dic 68
spre chen</w> 68
schaf ten</w> 68
ous ly</w> 68
unter such 68
concentr ations</w> 68
Eigen schaften</w> 68
WE IS 68
Kno chen 68
HIN WEIS 68
Tran sf 68
B a 67
k einen</w> 67
e d.</w> 67
o re 67
C H</w> 67
5 6</w> 67
1 6</w> 67
ch ar 67
ch ange 67
se qu 67
de pres 67
mi d 67
su d 67
ment al</w> 67
man ischen</w> 67
tak ing</w> 67
low er</w> 67
Me di 67
abhän gig</w> 67
Bestand teile</w> 67
PRODUC T</w> 67
betru g</w> 67
S te 66
B listerpack 66
D aher</w> 66
A sp 66
P AR 66
E in</w> 66
ä m 66
is ed</w> 66
te c 66
se hr</w> 66
ra p 66
de tec 66
ung spha 66
we chsel 66
ex pec 66
Ver l 66
am in</w> 66
AR S</w> 66
Ein nehmen</w> 66
ly .</w> 66
10 .</w> 66
Mon o 66
FOR M</w> 66
TIC UL 66
empfohlen en</w> 66
met abol 66
ke hr 66
sud den</w> 66
PAR TICUL 66
PARTICUL ARS</w> 66
S CH 65
c ould</w> 65
i on</w> 65
d a</w> 65
C )</w> 65
z erebro 65
R o 65
J e 65
re k 65
de ve 65
ge gen</w> 65
hal ten</w> 65
auf bewahr 65
Aripiprazol .</w> 65
Wirk ung</w> 65
dy skin 65
trial s,</w> 65
DAT E</w> 65
Com mon:</w> 65
ind lich 65
spie gel</w> 65
gestell t</w> 65
deve lo 65
u b 64
L T 64
A R</w> 64
M us 64
un der</w> 64
it us</w> 64
ro l</w> 64
de d.</w> 64
de ath 64
le ,</w> 64
ou se</w> 64
mo st</w> 64
ig h 64
es t</w> 64
ter m</w> 64
ad ach 64
us in 64
af et 64
he adach 64
cont rol</w> 64
aus reich 64
Sp ec 64
peri o 64
erebro vascular</w> 64
ünsch te</w> 64
volum e</w> 64
Gewichtszunah me</w> 64
Konz entr 64
S .</w> 63
S . 63
i den</w> 63
g er</w> 63
p oly 63
D y 63
3 , 63
2 6</w> 63
f ir 63
w öch 63
M al 63
P oly 63
Z ell 63
an tagon 63
ab er</w> 63
ad ren 63
tion :</w> 63
aripiprazol e-treated</w> 63
iz ität</w> 63
ven ous</w> 63
wirk ung</w> 63
Hämoglobin werte</w> 63
ABILIFY ,</w> 63
möglich erweise</w> 63
mu lier 63
erhal ten</w> 63
schmerz en,</w> 63
TION S</w> 63
zusamm en</w> 63
afet y</w> 63
B ES 62
t ro 62
t al</w> 62
s w 62
o z 62
C ar 62
3 2</w> 62
7 4</w> 62
4 7</w> 62
M EN 62
ü t 62
ti ge</w> 62
be stimm 62
de stens</w> 62
st open 62
pro gression</w> 62
min destens</w> 62
pres su 62
he alth 62
rou te.</w> 62
reduc ed</w> 62
PRC A)</w> 62
requi re 62
decrea sed</w> 62
All gem 62
bla stopen 62
We chsel 62
kör per 62
Diabe tes</w> 62
Knochen mark 62
S ti 61
B R 61
i led</w> 61
o t</w> 61
l ar 61
A s 61
4 0</w> 61
4 50</w> 61
9 %</w> 61
z ie 61
J a 61
un k 61
al dosis</w> 61
se ss 61
mi x 61
ac k</w> 61
Be sondere</w> 61
pro per 61
sion .</w> 61
alfa ,</w> 61
mus t</w> 61
ee p</w> 61
respon se</w> 61
sein .</w> 61
cell s</w> 61
multi p 61
medi zin 61
stati sti 61
immedia tely</w> 61
cour se</w> 61
s ch</w> 60
k el 60
g ib 60
p or 60
p lik 60
b le</w> 60
m oly 60
D o</w> 60
6 7 60
0 1</w> 60
2 00 60
f requ 60
, 25</w> 60
R at 60
U r 60
W EN 60
N ut 60
en en 60
in tenance</w> 60
on e 60
ati ven</w> 60
it one 60
ou t 60
ac tion</w> 60
hr e</w> 60
ther e 60
sti mulier 60
dl ,</w> 60
therap ie 60
4. 8</w> 60
4. 3</w> 60
ran ge</w> 60
ven tion</w> 60
ser um</w> 60
da ily</w> 60
week ly</w> 60
Ma intenance</w> 60
exc ipi 60
oper ative</w> 60
abil ität</w> 60
kar dio 60
000 /</w> 60
Unter such 60
pe a 60
PRC A</w> 60
dialyse patient 60
Epoetin-alfa- Therapie</w> 60
comp lic 60
spor in</w> 60
gro ß 60
schre it 60
Schizophren ie</w> 60
individu al</w> 60
benef it</w> 60
Fe2 + 60
ISCH E</w> 60
gesetz t</w> 60
rekombinan tem</w> 60
excee ds</w> 60
Blutspende programm</w> 60
depen d 60
Kra mpf 60
Ro ad</w> 60
Spec ial</w> 60
mix ed</w> 60
proper ties</w> 60
multip le</w> 60
gib t</w> 60
n is 59
3 6</w> 59
u e</w> 59
u p</w> 59
f i 59
P ar 59
ä tz 59
en sure</w> 59
re spec 59
te s,</w> 59
be ing</w> 59
ip h 59
sch ein 59
au ch 59
ver schie 59
ic ul 59
An f 59
ex pla 59
ger ung</w> 59
höh ere</w> 59
tri al</w> 59
antipsychoti schen</w> 59
war n 59
duk tion</w> 59
Pro b 59
Ser um 59
abhän g 59
Ex position</w> 59
ort ant</w> 59
thromboembol ic</w> 59
achie ved</w> 59
Ih rem</w> 59
Pharmakokineti k</w> 59
amm en 59
demonst rated</w> 59
Zus ammen 59
health y</w> 59
depend ent</w> 59
S ter 58
c i 58
- B 58
3 8 58
5 ).</w> 58
M öglich 58
P er 58
R ed</w> 58
N e 58
° C</w> 58
er v 58
er war 58
ti ally</w> 58
re .</w> 58
al en</w> 58
ro ut 58
be il 58
ge steig 58
ung en 58
Er ythropoie 58
lich er</w> 58
min o 58
4. 5).</w> 58
dis po 58
auf grund</w> 58
sich er 58
ak tiv 58
fe el 58
pri mar 58
Wirk stoff 58
zeig ten</w> 58
ag ents</w> 58
gem isch 58
pos sible</w> 58
Unter schie 58
media ted</w> 58
erforder lich</w> 58
hyperten sive</w> 58
---- ---- 58
condi tion</w> 58
therapeu tic</w> 58
Packungs beil 58
potenz iel 58
primar ily</w> 58
e ed</w> 57
o de 57
b ar</w> 57
m ü 57
H au 57
f lich 57
Y Y 57
ä hig 57
on ce</w> 57
ar di 57
se i 57
ra gen</w> 57
com par 57
com bination</w> 57
ation s.</w> 57
id ent 57
ren ce</w> 57
fa k 57
lie gt</w> 57
lie genden</w> 57
Hy dro 57
exc eed</w> 57
signifikan t</w> 57
requi red</w> 57
phy si 57
differen c 57
lith ium</w> 57
u h 56
G ly 56
A k 56
A mino 56
2 - 56
% ).</w> 56
ti schen</w> 56
ti sche</w> 56
di es</w> 56
de ut 56
li g 56
ur ther</w> 56
do s 56
der ly</w> 56
sh al 56
um on 56
ange l 56
lik e</w> 56
ne umon 56
fe st 56
äl le</w> 56
ang er</w> 56
ba sed</w> 56
Risik o 56
prote c 56
fac tors</w> 56
pregn ant</w> 56
bre ast</w> 56
entsprechen d</w> 56
äm ische</w> 56
Packungsbeil age</w> 56
B el 55
t ol 55
c erebrovascular</w> 55
l f 55
b itte</w> 55
d le 55
m ol 55
G E 55
2 0 55
H ep 55
P sych 55
er ase</w> 55
si g 55
do sis 55
gen er 55
In formieren</w> 55
Ver änder 55
ien ce</w> 55
hyper glyc 55
Sy n 55
Arzneimittel s</w> 55
Table tte</w> 55
ON D 55
Au ßerdem</w> 55
prol on 55
develo p 55
Krampf anf 55
B usin 54
s ser 54
y oly 54
m l)</w> 54
C ell</w> 54
0 6</w> 54
u te</w> 54
O x 54
O U 54
L ang 54
A pla 54
2 6- 54
H un 54
H ouse</w> 54
H igh 54
( 0 54
v ent 54
M id 54
M NS</w> 54
1 H 54
x bridge</w> 54
T é 54
P ark 54
P ure</w> 54
P AC 54
z ü 54
U xbridge</w> 54
N E 54
ü f 54
ol ep 54
or e</w> 54
se x</w> 54
su g 54
su peri 54
In hibitor 54
min der 54
for d</w> 54
ber eit 54
OL .</w> 54
ut rop 54
ser otonin</w> 54
sign s</w> 54
6. 8</w> 54
hab en.</w> 54
hab dom 54
Hy po 54
CYP3A 4 54
dies en</w> 54
indic ated</w> 54
weig h 54
(1 . 54
stro intest 54
Dis order 54
SP OL.</w> 54
5HT 2 54
ket o 54
(S )</w> 54
hep atic</w> 54
erhiel ten,</w> 54
ARZNEIMITTE LS</w> 54
4.8 ).</w> 54
UB 8</w> 54
inhibitor s</w> 54
hokin a 54
LT D</w> 54
Bel gi 54
dle sex</w> 54
Busin ess</w> 54
Ox ford</w> 54
Lang zeit 54
Apla si 54
Hun ton</w> 54
High bridge</w> 54
Mid dlesex</w> 54
Té l 54
Park ,</w> 54
PAC K 54
habdom yoly 54
s afety</w> 53
e p</w> 53
p H- 53
l or 53
b er</w> 53
b rea 53
G a 53
A LI 53
H M 53
f ter</w> 53
f la 53
T O</w> 53
U m 53
er n</w> 53
un erw 53
di enen</w> 53
de u 53
ge sam 53
ge wä 53
st atic</w> 53
ac ter 53
ie .</w> 53
Be dienen</w> 53
pro vi 53
Er geb 53
zu g 53
la be 53
mon th</w> 53
ass oz 53
12 .</w> 53
requ ir 53
Mon at</w> 53
ini ti 53
heit s 53
wurde .</w> 53
PHARMACEUTIC AL</w> 53
subk utan 53
dri ve</w> 53
Maschin en</w> 53
assoz i 53
B r 52
a min 52
t sch 52
g t.</w> 52
O ber 52
O ral</w> 52
2 . 52
2 5%</w> 52
( ≥</w> 52
( PRCA)</w> 52
1 ,</w> 52
T S</w> 52
F ähig 52
E D</w> 52
E CI 52
W AR 52
K eep</w> 52
ü r 52
ü chtigkeit</w> 52
er ythro 52
an k 52
re b 52
on ly</w> 52
te il</w> 52
or rek 52
se ly</w> 52
mi c</w> 52
st üchtigkeit</w> 52
at r 52
at or 52
sch ütz 52
ur in 52
su spension</w> 52
patient s:</w> 52
tr ä 52
per iph 52
no ch</w> 52
mm un 52
ex is 52
Ver kehr 52
ber ücksich 52
trea t</w> 52
Ther e 52
vor gese 52
Erythro blastopen 52
av o 52
6, 8</w> 52
fac e</w> 52
ici ent</w> 52
Kin der</w> 52
SP ECI 52
die ses</w> 52
aff ec 52
popul ation</w> 52
durchgeführ t</w> 52
spez if 52
protec t</w> 52
Br ust 52
WAR N 52
schütz en.</w> 52
Verkehr stüchtigkeit</w> 52
vorgese hen</w> 52
SPECI AL</w> 52
c e 51
h alf 51
e de 51
- ,</w> 51
u su 51
L E 51
H OL 51
w a</w> 51
( C 51
( G 51
x / 51
F OR</w> 51
P ati 51
N - 51
en g 51
ch t 51
an den</w> 51
it y,</w> 51
is e</w> 51
ar ter 51
st art</w> 51
li ver</w> 51
do se- 51
il ity</w> 51
pro phy 51
et wa</w> 51
la x 51
ut an</w> 51
sub st 51
pa in,</w> 51
week .</w> 51
lie gt.</w> 51
5. 2).</w> 51
insuff icienc 51
itä ts 51
thrombo sis</w> 51
kom men.</w> 51
sä tz 51
clo sely</w> 51
weit ere</w> 51
erforder lich.</w> 51
größ eren</w> 51
mis sion</w> 51
fir st</w> 51
half - 51
HOL DER</w> 51
prophy lax 51
S ,</w> 50
t l 50
h ol 50
k ing</w> 50
b lin 50
d au 50
C or 50
u se.</w> 50
O ver 50
7 .5</w> 50
7 ,5</w> 50
2 , 50
) :</w> 50
w th</w> 50
v ie 50
U nit 50
W arn 50
N M 50
K ing 50
K orrek 50
ti f 50
ch e</w> 50
th ei 50
th oug 50
is ol 50
te m 50
ra ble</w> 50
st age 50
om e</w> 50
ur g 50
ei ch</w> 50
do m</w> 50
sp ro 50
ir n 50
con az 50
ver mittel 50
pro gra 50
es ymptom 50
Er höh 50
for t 50
ier te</w> 50
mit tl 50
kon n 50
da mit</w> 50
symptom atic</w> 50
lie gen</w> 50
gr upp 50
par tic 50
Anämi esymptom 50
0. 62</w> 50
0, 62</w> 50
inf ark 50
spec ial</w> 50
main tain</w> 50
fo et 50
UNG EN</w> 50
imp ortant</w> 50
Kom plik 50
Erythropoetin - 50
Gen eral</w> 50
Applik ation.</w> 50
desi rable</w> 50
gro wth</w> 50
Hb -Anstieg</w> 50
stimul ating</w> 50
vis ion</w> 50
allerg ic</w> 50
40. 000</w> 50
40, 000</w> 50
Retikulozytenzah l</w> 50
necessar y.</w> 50
zinom e,</w> 50
Hin weise</w> 50
gele gent 50
sbe sondere</w> 50
ges unden</w> 50
impro ve 50
Blutdruc k</w> 50
Nut zen</w> 50
Prob anden</w> 50
(1. 25</w> 50
Pati ent</w> 50
Cor rection</w> 50
Unit ed</w> 50
King dom</w> 50
thei r</w> 50
progra mm 50
Anämiesymptom e</w> 50
c le</w> 49
k l 49
G E</w> 49
( 1</w> 49
M P 49
K al 49
K ar 49
K ör 49
ch n 49
un it</w> 49
be ein 49
be sonder 49
de ,</w> 49
at ure</w> 49
ein nehmen.</w> 49
lo ssen</w> 49
me ll 49
der en</w> 49
il l 49
es ti 49
gen e</w> 49
ex tra 49
4. 9</w> 49
Ein flu 49
medic al</w> 49
ren z 49
über sch 49
anc y</w> 49
produc ts.</w> 49
car dia 49
wach ung</w> 49
tiv el 49
ne ed</w> 49
par ti 49
exc lu 49
inclu de</w> 49
Al tern 49
repor ts</w> 49
bo dy 49
Über wachung</w> 49
gly co 49
beobachte t.</w> 49
möglich e</w> 49
AL S</w> 49
Erhalt ungspha 49
aclitax el 49
Pharmac o 49
schlech ter 49
Kontrol le</w> 49
perfor ated</w> 49
gesch lossen</w> 49
und en.</w> 49
reduzier t</w> 49
recep tors</w> 49
angs dosis</w> 49
pharmacokineti cs</w> 49
month s</w> 49
childr en</w> 49
haloper idol</w> 49
mg )</w> 49
Sc ale</w> 49
kardio vaskulär 49
respec tivel 49
verschie den 49
Anf angsdosis</w> 49
physi ci 49
1H U</w> 49
dose- dependent</w> 49
Einflu ss</w> 49
S ich 48
I E</w> 48
a tes</w> 48
s - 48
e mea 48
o b</w> 48
o ede 48
b lich 48
D A 48
F AC 48
P las 48
N icht</w> 48
Z u 48
Z um</w> 48
er reich 48
un c 48
se tz 48
el y</w> 48
ma sch 48
ie ty</w> 48
pro duk 48
fü g 48
ach y 48
ation :</w> 48
min i 48
hal ten 48
oc ardi 48
pr ä 48
to se</w> 48
produc ts</w> 48
sam en</w> 48
ES A 48
mus cle</w> 48
inf ar 48
De hydro- 48
vit ro 48
diff icul 48
ru pp 48
relev an 48
under go 48
my ocardi 48
Leber insuffizien 48
ple ase</w> 48
Je de</w> 48
zie h 48
Ster blich 48
differenc es</w> 48
trä chtig 48
eng masch 48
setz en</w> 48
myocardi al</w> 48
s en,</w> 47
y to 47
A ff 47
. B.</w> 47
5 8 47
5 7</w> 47
2 5 47
' s</w> 47
P hosp 47
z .B.</w> 47
K et 47
K reat 47
an imal</w> 47
al ed</w> 47
si v 47
ra ts</w> 47
ra mid 47
ge hö 47
st ate</w> 47
isch aemi 47
In tra 47
IS T</w> 47
to tal</w> 47
über schreit 47
ne g 47
ga in</w> 47
doc tor 47
itor ing</w> 47
pharmac ist.</w> 47
ern d</w> 47
äh ernd</w> 47
Placebo .</w> 47
prote in 47
erhal b</w> 47
concomit antly</w> 47
EU/1/ 07 47
07 /</w> 47
exper ience</w> 47
schre ib 47
ann ähernd</w> 47
acc ident 47
py ramid 47
regul ar</w> 47
Haloper idol 47
the y</w> 47
strok e</w> 47
Lith ium</w> 47
impair ment 47
expec ted</w> 47
zerebro vaskuläre</w> 47
dyskin esi 47
expla ined</w> 47
Erythropoie tin</w> 47
Hydro x 47
EU/1/07 / 47
V alpro 46
s achen</w> 46
k g 46
n ation 46
g l 46
H arn 46
v alpro 46
R E 46
R EICH 46
J ah 46
in hal 46
un its</w> 46
re ve 46
it y.</w> 46
al ter 46
te ten</w> 46
st ri 46
ac t</w> 46
el derly</w> 46
do es</w> 46
Ar t</w> 46
han g</w> 46
ste ch 46
Sch lag 46
IN H 46
psychoti c</w> 46
hydro gen 46
disea se,</w> 46
Po ten 46
diabe tes</w> 46
412 /</w> 46
412 / 46
a- related</w> 46
bipol ar</w> 46
Antipsychoti ka</w> 46
Durch stech 46
Medic ines</w> 46
Mus kel 46
Altern ati 46
EU/1/07/ 412/ 46
valpro ate</w> 46
a .</w> 45
t ö 45
s odium</w> 45
h er 45
D op 45
u re,</w> 45
L E</w> 45
4 7 45
2 60</w> 45
M IN 45
M ik 45
M ark 45
9 8</w> 45
F älle</w> 45
E ach</w> 45
R .</w> 45
R . 45
% ,</w> 45
ö tz 45
ati gu 45
de men 45
ur z 45
su ici 45
es c 45
über gehen 45
vor übergehen 45
pri ate</w> 45
sa m</w> 45
inf ec 45
over dose</w> 45
dy n 45
las t</w> 45
ben ö 45
De men 45
nor mal 45
pl ötz 45
zun eh 45
episo de</w> 45
Episo de</w> 45
so for 45
sonsti ge</w> 45
auftre ten 45
DAT UM</w> 45
hä uf 45
hochwirk same</w> 45
mono therapy</w> 45
rhyth mi 45
dehydro- aripiprazole</w> 45
hibit or</w> 45
Blisterpack ung</w> 45
Mal ign 45
antagon is 45
zü glich</w> 45
Inhibitor en</w> 45
Sich erh 45
difficul ty</w> 45
Durchstech fla 45
h ate</w> 44
k ämi 44
e th 44
n isse</w> 44
p ack</w> 44
o ff 44
d en.</w> 44
G r 44
O G 44
5 3</w> 44
( Hb</w> 44
v es 44
P re 44
W ert</w> 44
er te</w> 44
er ial</w> 44
ch lor 44
an ge</w> 44
re ach</w> 44
ge zeig 44
patient s)</w> 44
An zei 44
um ul 44
gen de</w> 44
OL OG 44
än glich</w> 44
CH T 44
hyd rate</w> 44
Ma ßnahmen</w> 44
tran s 44
recei ve</w> 44
mat erial</w> 44
gly kämi 44
fo re,</w> 44
syrin ges</w> 44
maxim ale</w> 44
erfol gt</w> 44
treatment ,</w> 44
def icienc 44
viv o</w> 44
so wie</w> 44
schwer er</w> 44
mea su 44
anz ap 44
Zusammen hang</w> 44
lig h 44
unerw ünschte</w> 44
assozi iert</w> 44
chn olog 44
Anzei chen</w> 44
s ing 43
h out</w> 43
b um 43
8 , 43
f re 43
T ox 43
F rau 43
P ha 43
R EN 43
R ück 43
Z EU 43
al er</w> 43
is ation</w> 43
ent ly</w> 43
ent lich</w> 43
or ig 43
de ep</w> 43
st abil 43
ac cor 43
el le</w> 43
ei ther</w> 43
ver ring 43
dl )</w> 43
ier en</w> 43
ass er</w> 43
ser i 43
6. 1</w> 43
effec tive</w> 43
da ys</w> 43
5. 3 43
studi en</w> 43
Al l</w> 43
stie gen</w> 43
cy clo 43
halt en.</w> 43
sor g 43
Hyper glykämi 43
PHARMA ZEU 43
Pro te 43
comp le 43
necess ary</w> 43
addi tion,</w> 43
bipol ar 43
throug h</w> 43
throug hout</w> 43
Ausg angs 43
Fähig keit</w> 43
There fore,</w> 43
Hydrox y 43
PHARMAZEU T 43
I mmun 42
h tt 42
i .</w> 42
b lis 42
d aher</w> 42
m ange 42
u me 42
A t</w> 42
4 3 42
4 2</w> 42
H er 42
H ae 42
1 1 42
9 5</w> 42
T age 42
P P 42
W hat</w> 42
ö se</w> 42
/ ww 42
in de 42
in ten 42
ti s,</w> 42
re di 42
re st 42
ge we 42
at t 42
we ak 42
pro ble 42
zu führ 42
zu sätz 42
com mon:</w> 42
In ter 42
us ing</w> 42
lac t 42
Hä mat 42
ing redi 42
ven öse</w> 42
DE N</w> 42
vi er</w> 42
auf .</w> 42
ly ,</w> 42
Blut verlu 42
6. 6</w> 42
AU C)</w> 42
medicin e</w> 42
5. 2</w> 42
5. 1</w> 42
fe el</w> 42
our s.</w> 42
OR T 42
som n 42
000 ,</w> 42
IC AL</w> 42
schizophren ia</w> 42
bar en</w> 42
perfor med</w> 42
-C S 42
Alu min 42
Prä vention</w> 42
wurde ,</w> 42
mach ines</w> 42
leafle t</w> 42
Dialy se 42
possib ility</w> 42
EU/1/04/276/ 0 42
Maxim aldosis</w> 42
HINWEIS E</w> 42
Sti ll 42
Ergeb nisse</w> 42
labe l</w> 42
5.3 ).</w> 42
htt p 42
blis ter</w> 42
Tage s 42
/ww w 42
S eh 41
a e</w> 41
c in 41
s at 41
k olog 41
i v 41
b wer 41
d ing 41
D ar 41
3 5</w> 41
6 7</w> 41
f äl 41
w el 41
w ell</w> 41
z ur 41
W eit 41
ö n 41
Z un 41
in du 41
ti ef 41
ar rho 41
st - 41
sch lu 41
au er</w> 41
as sess 41
ma zep 41
ver minder 41
ul ly</w> 41
ic ity</w> 41
ri t</w> 41
4. 6</w> 41
am ma 41
pr üf 41
tig ung</w> 41
6. 5</w> 41
6. 4</w> 41
da y.</w> 41
sin d.</w> 41
5. 3</w> 41
insuff icient</w> 41
ts zeit</w> 41
bin ding</w> 41
Un common:</w> 41
Wirk ungen</w> 41
empf indlich 41
Tumor en</w> 41
ba mazep 41
erythropoie tin 41
teil ung</w> 41
keit s 41
Über empfindlich 41
wa ys</w> 41
tre ten</w> 41
fo und</w> 41
reac tion</w> 41
ädi atr 41
bar keit</w> 41
Eingri ff 41
kann .</w> 41
schmerz en</w> 41
könn en.</w> 41
stat us</w> 41
supp le 41
induc ed</w> 41
haemat ological</w> 41
orthopädi schen</w> 41
Zell en 41
Wechsel wirkungen</w> 41
dosis abhäng 41
OU TE 41
berücksich tig 41
insufficienc y</w> 41
half- life</w> 41
sorg fäl 41
Ausgangs wert</w> 41
Hae moglobin</w> 41
-CS F</w> 41
bwer tszeit</w> 41
zur ück 41
sorgfäl tig</w> 41
V enen 40
B 12</w> 40
B itte</w> 40
a gain 40
t ung</w> 40
t able</w> 40
c /</w> 40
c ereb 40
c ulocyte</w> 40
s /</w> 40
y s 40
n .</w> 40
g yn 40
g renz 40
l -Anstieg</w> 40
m us</w> 40
C - 40
C ic 40
C anc 40
D auer</w> 40
3 1</w> 40
3 4</w> 40
6 1</w> 40
6 00</w> 40
5 % 40
4 5</w> 40
( 6 40
( 8. 40
P ul 40
P hen 40
´ s</w> 40
W ach 40
W IR 40
N o</w> 40
J u 40
an aly 40
re as 40
th och 40
di z 40
ent sor 40
de ter 40
st um 40
el om 40
do se,</w> 40
ir urg 40
ver stärk 40
LI N 40
pre vent 40
gen o 40
min im 40
ste p 40
ste ady- 40
la mm 40
op ti 40
4. 7</w> 40
4. 5</w> 40
4. 1</w> 40
TI TATIVE</w> 40
if er 40
sen :</w> 40
QU AN 40
QU ALI 40
Blu thoch 40
eig ht</w> 40
ris e</w> 40
über prüf 40
Hämoglobin konzentration</w> 40
6. 3</w> 40
6. 1.</w> 40
anc ie 40
anti körper 40
ment ation</w> 40
anaemi c</w> 40
car cin 40
0. 5</w> 40
Al le</w> 40
oper ativen</w> 40
Tumor en,</w> 40
inf lamm 40
Therap ie 40
thrombo sen</w> 40
occ ur</w> 40
pati bil 40
kar zinome,</w> 40
indic ations</w> 40
beobachte t,</w> 40
ca ref 40
hl t</w> 40
ye t</w> 40
vit amin</w> 40
(1 ,25</w> 40
pack age</w> 40
occur s,</w> 40
000 /µl</w> 40
Reti culocyte</w> 40
divi ded</w> 40
reac tions</w> 40
cell s/</w> 40
hyperten sion.</w> 40
malign ancie 40
Hb - 40
Tumorpatient en,</w> 40
Hämo dialysepatient 40
Sub k 40
Sub cutaneous</w> 40
Erhaltungs dosen</w> 40
ZULASS UNG</w> 40
40. 000/µl</w> 40
40, 000/</w> 40
Rezep toren</w> 40
Retikulozytenzah l-Anstieg</w> 40
Con tra 40
eur ys 40
tur phase:</w> 40
Antipsychoti k 40
stän den</w> 40
post operative</w> 40
elektiv en</w> 40
fibro sis</w> 40
char acter 40
pea k</w> 40
gewä hlt</w> 40
subkutan er</w> 40
affec t</w> 40
Korrek turphase:</w> 40
isol ated</w> 40
stage s:</w> 40
partic ip 40
gelegent lich</w> 40
übersch ritten</w> 40
body - 40
Erhaltungspha se:</w> 40
FAC T- 40
undergo ing</w> 40
Pha sen:</w> 40
Hämat ok 40
tief e</w> 40
supple mentation</w> 40
Zellen /µl</w> 40
cereb ral</w> 40
Cic lo 40
Canc er</w> 40
stum s 40
prevent ing</w> 40
QUAN TITATIVE</w> 40
QUALI TATIVE</w> 40
Bluthoch dru 40
caref ully</w> 40
I L 39
I F 39
s le 39
r on</w> 39
r ip 39
p las 39
o m</w> 39
d ou 39
G rupp 39
O ther</w> 39
L y 39
M il 39
T ier 39
F ragen</w> 39
z ,</w> 39
en om 39
er tain</w> 39
un ver 39
re produc 39
th od</w> 39
on ,</w> 39
di d</w> 39
de at 39
me hr 39
ab gesetzt</w> 39
ma in</w> 39
tr ib 39
mo del 39
der hol 39
An sprechen</w> 39
um ,</w> 39
rea k 39
ten tion</w> 39
zu ck 39
Ver schlechter 39
Blu t</w> 39
IN G 39
IN G</w> 39
Studi en 39
Blut zuck 39
fa hr 39
AU F 39
vor han 39
vor liegenden</w> 39
cau ses</w> 39
ak athis 39
Re duktion</w> 39
recei ved</w> 39
Anwen d 39
äl t 39
poten tially</w> 39
achte t</w> 39
appro ved</w> 39
kar di 39
Aus sch 39
aus ge 39
aus geschlossen</w> 39
gew ünsch 39
Auf treten</w> 39
gem ein 39
sä ure 39
wie derhol 39
sc al 39
exper ienc 39
phosp hat 39
Erhaltungs dosis</w> 39
Fol lowing</w> 39
symptomati scher</w> 39
enc e,</w> 39
presc rip 39
niedr ig 39
dopamin e</w> 39
change s</w> 39
Asp ar 39
aufbewahr en,</w> 39
dau er 39
Komplik ationen</w> 39
improve ment</w> 39
esti ma 39
produk tion 39
engmasch ig</w> 39
deat h</w> 39
Verschlechter ung</w> 39
S ol 38
I tal 38
V IS 38
B LI 38
t as 38
s mo 38
e ther</w> 38
r ange 38
p ir 38
D ue</w> 38
- Kon 38
3 %).</w> 38
G M 38
2 C 38
) ;</w> 38
( 4</w> 38
z eu 38
W EI 38
N or 38
en zy 38
an ap 38
th en</w> 38
it e</w> 38
ol e</w> 38
ar in 38
be ha 38
li min 38
at er</w> 38
po tas 38
ha z 38
sp as 38
Patient en.</w> 38
ver wende 38
ver füg 38
lu co 38
com e</w> 38
sti ll 38
Arz t,</w> 38
trol y 38
wh ether</w> 38
Hä ufig 38
mon itoring</w> 38
blo o 38
ev idence</w> 38
anti hypertensive</w> 38
man ischer</w> 38
TH ER</w> 38
sion ,</w> 38
glich e</w> 38
Ge schlech 38
par a 38
sier end</w> 38
pri m 38
Re produktion 38
vol l 38
tran si 38
mor tal 38
Aus wirkungen</w> 38
De pres 38
1/ 100 38
Hyper ton 38
könn en,</w> 38
exten sive</w> 38
pharmacokineti c</w> 38
star ting</w> 38
ile p 38
expo su 38
FAL L 38
meta static</w> 38
sk in</w> 38
feel ing</w> 38
dos ing</w> 38
utrop en 38
ator y</w> 38
subst ance</w> 38
besonder s</w> 38
Plas ma 38
Leberinsuffizien z</w> 38
Ket o 38
BLI ST 38
anap hy 38
potas si 38
c ir 37
e :</w> 37
p neumon 37
b zw 37
- Studien</w> 37
6 ,</w> 37
f urther</w> 37
( M 37
T ak 37
W eight</w> 37
ö de 37
er gab</w> 37
in nen</w> 37
ti me</w> 37
un explained</w> 37
al k 37
se d,</w> 37
be inhal 37
ge me 37
st er</w> 37
ac id</w> 37
sch n 37
sch es</w> 37
po or</w> 37
ung )</w> 37
der e</w> 37
Be tra 37
ver schrie 37
es s,</w> 37
op le</w> 37
ange zeig 37
rec ur 37
medic ally</w> 37
tor s.</w> 37
oh ol</w> 37
auf geführ 37
gle it 37
sor b 37
erg ic</w> 37
signific antly</w> 37
fail ure,</w> 37
transf erase</w> 37
continu e</w> 37
occur red</w> 37
Men sch 37
schizophren ic</w> 37
Ih nen</w> 37
relev ant</w> 37
bi o 37
mic ro 37
presc ribed</w> 37
europa th 37
Patienten grupp 37
Bipolar-I-Stör ung</w> 37
Metabolis ier 37
Mono therapie</w> 37
Konzentr ationen</w> 37
üt ter</w> 37
Ja hre</w> 37
medizin isch</w> 37
gemisch ten</w> 37
sei zu 37
hyperglyc aemi 37
Disorder ,</w> 37
ischaemi c</w> 37
reve aled</w> 37
Schlag anf 37
steady- state</w> 37
Sol ution</w> 37
transi ent</w> 37
bzw .</w> 37
Betra ch 37
S lo 36
S el 36
S ):</w> 36
I UM</w> 36
V .</w> 36
V ON</w> 36
B H</w> 36
B ER 36
c al</w> 36
h l</w> 36
y :</w> 36
g s</w> 36
p han 36
l .</w> 36
b lister 36
d :</w> 36
- treated</w> 36
- term</w> 36
8 0</w> 36
8 00 36
6 6 36
u p 36
u x 36
G IUM</w> 36
L .</w> 36
L ux 36
L GIUM</w> 36
A - 36
A B</w> 36
7 49</w> 36
5 7 36
H I 36
j a</w> 36
f ul 36
T ),</w> 36
T EI 36
T ode 36
T lf 36
F ällen</w> 36
N ot</w> 36
N erv 36
Q T</w> 36
Q T- 36
Τ η 36
λ :</w> 36
en n 36
in ity</w> 36
ati tis,</w> 36
ol esc 36
be schrie 36
be züglich</w> 36
mi ly</w> 36
le ich 36
me thor 36
el lu 36
ic id 36
isch ämische</w> 36
ad olesc 36
wen den</w> 36
In duk 36
hy po 36
sti ff 36
us .</w> 36
reat ine</w> 36
iz id 36
am ne 36
vi al</w> 36
CYP 1 36
ly mph 36
fa mily</w> 36
Tel .:</w> 36
lier ung</w> 36
psychoti schen</w> 36
rep ub 36
lik a</w> 36
fe male</w> 36
Re ak 36
ga in,</w> 36
ST OR 36
CYP3A 4- 36
antipsychoti c 36
Table t</w> 36
BE LGIUM</w> 36
ün d 36
35 2</w> 36
ME A)</w> 36
En zy 36
schw anger</w> 36
prote in</w> 36
heit ,</w> 36
heit en</w> 36
Dis order</w> 36
AM MEN 36
überle gene</w> 36
discontinu ation</w> 36
bre ch 36
(E MEA)</w> 36
aff inity</w> 36
PHARMACEUTIC ALS</w> 36
Inf ek 36
Aripiprazol- Dosis</w> 36
Krank heit</w> 36
Verl än 36
tro methor 36
fi x 36
Amino transferase</w> 36
Veränder ung</w> 36
prolon g 36
(0 ) 36
superi or</w> 36
CYP3A4 ,</w> 36
hokina se,</w> 36
mittl eren</w> 36
beein trächtig 36
demen ti 36
beha vi 36
Betrach t</w> 36
Slo ven 36
800 )</w> 36
Lux emb 36
ful l</w> 36
Tlf :</w> 36
QT- Verlän 36
Τη λ:</w> 36
ellu lo 36
repub lika</w> 36
tromethor phan 36
s en.</w> 35
s ach 35
s sed</w> 35
g st 35
D a</w> 35
O DER</w> 35
v ig 35
9 5%</w> 35
F all 35
Z UNG</w> 35
Z ust 35
an s</w> 35
un abhängig</w> 35
te st</w> 35
se c 35
si z 35
ro k 35
mi li 35
ge fühl 35
om it 35
ab dom 35
ie d</w> 35
Be ur 35
la g</w> 35
AN WEN 35
disorder ,</w> 35
hydro xi 35
ton gu 35
appro priate</w> 35
stell en,</w> 35
tain ed</w> 35
berichte t,</w> 35
pharmac ist</w> 35
auftre ten</w> 35
hä ufig 35
TER E</w> 35
Fa mili 35
sofor t</w> 35
Durchstechfla sche</w> 35
Ly mph 35
WEI TERE</w> 35
potassi um</w> 35
vig il 35
Fall s</w> 35
S T</w> 34
a mo 34
t ting</w> 34
c y</w> 34
h .</w> 34
h el 34
e an</w> 34
e ding</w> 34
p aclitaxel</w> 34
8 4</w> 34
f achen</w> 34
w om 34
( R 34
v omit 34
M erk 34
F ie 34
W asser</w> 34
N I 34
in al 34
al um 34
is ,</w> 34
te t</w> 34
or ale</w> 34
de sc 34
le id 34
st an 34
ein ig 34
ein ige</w> 34
ab sor 34
ich te</w> 34
Patient innen</w> 34
ul e</w> 34
ter .</w> 34
St ore</w> 34
dl .</w> 34
wh ere</w> 34
Ein heiten</w> 34
suff er</w> 34
itä ten</w> 34
ag on 34
ag it 34
ST R 34
kar ton</w> 34
gew ie 34
Fertigspritz en</w> 34
mark eting</w> 34
Europ ean</w> 34
Ser otonin</w> 34
volum en</w> 34
Ber ichte</w> 34
inn erhalb</w> 34
os mol 34
nach gewie 34
untersuch t</w> 34
Medi ce</w> 34
SCH R 34
mü ssen</w> 34
Ga strointest 34
Kal ium 34
ves tig 34
Alumin ium 34
Tages dosis</w> 34
alum ini 34
desc ribed</w> 34
einig tes</w> 34
S S</w> 33
I I 33
B ,</w> 33
h n 33
e ).</w> 33
y ou 33
n au 33
g luco 33
p flich 33
l s</w> 33
D 2 33
D AR 33
3 0 33
3 9 33
G eb 33
G ER 33
O - 33
L eu 33
A s</w> 33
A T</w> 33
2 8 33
f atigu 33
M ER 33
M ah 33
1 7</w> 33
F F 33
P erfor 33
Z eit</w> 33
en )</w> 33
er halten.</w> 33
in t</w> 33
ti l 33
un ts</w> 33
re con 33
di stri 33
te chnolog 33
ar ance</w> 33
or mon 33
se con 33
se s,</w> 33
be l 33
le x 33
le ad</w> 33
at ,</w> 33
at yp 33
sch land</w> 33
hy poten 33
for der 33
ange geb 33
ran dom 33
dis order</w> 33
ut schland</w> 33
ob tained</w> 33
sich t 33
AU F</w> 33
hyper osmol 33
ba sis</w> 33
empfohl en.</w> 33
Über le 33
De utschland</w> 33
je wei 33
wie der</w> 33
cor rec 33
consider ation</w> 33
5HT 1 33
schwer wie 33
condi tions</w> 33
addi tional</w> 33
ZULASS UNGS 33
NUM BER 33
NUM MER 33
UNGS FORM</w> 33
childr en.</w> 33
(N )</w> 33
lowe d</w> 33
expo sure</w> 33
Einzel dosen</w> 33
pressu re,</w> 33
sicher zu 33
requir e</w> 33
REICH UNGSFORM</w> 33
Pre gn 33
abdom inal</w> 33
alumini um</w> 33
you .</w> 33
DAR REICHUNGSFORM</w> 33
Mah lz 33
Perfor ierte</w> 33
ZULASSUNGS NUMMER 33
NUMBER (S)</w> 33
ZULASSUNGSNUMMER (N)</w> 33
S pr 32
S odium</w> 32
c l 32
s er</w> 32
e den</w> 32
o f 32
l en</w> 32
d . 32
L UNG</w> 32
A D 32
A fter</w> 32
f l 32
( ></w> 32
( gl 32
( AUC)</w> 32
v ein</w> 32
M y 32
M ell 32
E S</w> 32
K ön 32
er en.</w> 32
re ich</w> 32
di arrho 32
te le 32
te d,</w> 32
ro s 32
be sser 32
ra sh 32
de x 32
mi eden</w> 32
ge m</w> 32
ab lis 32
ig reich</w> 32
ver mieden</w> 32
pre sen 32
gen ann 32
St ra 32
St off 32
la k 32
op ath 32
handl ung</w> 32
Ver einigtes</w> 32
Behandl ungs 32
hal opath 32
ange stiegen</w> 32
00 00</w> 32
if est 32
än n 32
CH AR 32
Dosis ,</w> 32
spec if 32
ve d.</w> 32
(1 0000</w> 32
hen den</w> 32
pla tele 32
hat .</w> 32
Hal bwertszeit</w> 32
Stör ung</w> 32
zei tig</w> 32
decrea se</w> 32
Ber eich</w> 32
Rezep tor 32
est ablis 32
gef ä 32
bekann t</w> 32
ady- St 32
Ste ady-St 32
Um karton</w> 32
exis ting</w> 32
Erythroblastopen ie</w> 32
avo ide 32
(G las 32
Kör per 32
parti cul 32
benö tigen</w> 32
Sicherh eit</w> 32
measu red</w> 32
Her stell 32
Weit ere</w> 32
aufgeführ ten</w> 32
Spr it 32
d. h.</w> 32
Kön igreich</w> 32
diarrho e 32
S AR 31
B auch 31
c al 31
s y</w> 31
k urz 31
r are</w> 31
g an 31
g en,</w> 31
g ie,</w> 31
b ing</w> 31
u cle 31
G eh 31
L ac 31
A c 31
A ug 31
( D 31
( P 31
1 9</w> 31
9 .5</w> 31
9 ,5</w> 31
z ell 31
er at 31
in k 31
ch ange</w> 31
re main</w> 31
di g 31
ati o</w> 31
se in,</w> 31
be gon 31
de la 31
le - 31
st able</w> 31
lo cal</w> 31
su per 31
ver ur 31
ver such 31
An aemia</w> 31
sol u 31
sol id</w> 31
sol iden</w> 31
ad ul 31
com for 31
la ger 31
tra t</w> 31
ange pass 31
sea ,</w> 31
dis comfor 31
fol gen 31
fol lowed</w> 31
sub cutane 31
ly ing</w> 31
fa v 31
anti - 31
AN D 31
geb rach 31
den k 31
Ge f 31
zy ten</w> 31
zw ei 31
empfohl en,</w> 31
ko si 31
sel ten</w> 31
Su spension</w> 31
Symptom en</w> 31
Hyper sensitivity</w> 31
Eisen mange 31
chemo therapy,</w> 31
transf usion</w> 31
surger y,</w> 31
sho w</w> 31
def in 31
Ho w</w> 31
malign ant</w> 31
inter action</w> 31
isier ung</w> 31
beste ht</w> 31
SI CHT 31
mach in 31
fühl en,</w> 31
stän di 31
subk utan</w> 31
transfusion s</w> 31
supp or 31
system s:</w> 31
regelmäß ig</w> 31
Kopf schmerzen</w> 31
notwendi g</w> 31
orthopädi scher</w> 31
EX P</w> 31
ausreich ende</w> 31
bestimm t</w> 31
Rat ten</w> 31
Möglich keit</w> 31
dispo sed</w> 31
potenziel l</w> 31
Ak athis 31
PACK A 31
urin ary</w> 31
thoug h 31
gezeig t</w> 31
somn ol 31
Still zeit</w> 31
deter min 31
Beur teilung</w> 31
platele t</w> 31
begon nen</w> 31
super vision</w> 31
angepass t</w> 31
discomfor t,</w> 31
S ome</w> 30
I ron</w> 30
V ol 30
V ita 30
B AT 30
c ally</w> 30
s we 30
s gesam 30
e u</w> 30
e poetin 30
g ical</w> 30
p harmako 30
p ädiatr 30
b en.</w> 30
d ;</w> 30
d one</w> 30
- stimulating</w> 30
G lu 30
G mb 30
. ).</w> 30
( 5. 30
( 5, 30
M ore 30
M amma 30
9 000</w> 30
x /</w> 30
F ü 30
J J 30
ä ch 30
ä moglobin 30
Z eit 30
/ Tag</w> 30
en er 30
en dem</w> 30
en therapie</w> 30
er schein 30
in um</w> 30
in formieren</w> 30
in sbesondere</w> 30
ti eren</w> 30
ti sch</w> 30
ch irurg 30
un common</w> 30
on d</w> 30
ar d 30
se l</w> 30
si f 30
be i 30
be handlung</w> 30
mi g 30
ge erschein 30
st om 30
st and</w> 30
st ab 30
st udie</w> 30
st reb 30
li mit 30
at inum</w> 30
ein ge 30
el ae</w> 30
ei dung</w> 30
ab normal</w> 30
ha ving</w> 30
su sta 30
ver gleich 30
sh or 30
sh ämoglobin 30
per itone 30
Ab ständen</w> 30
Er fahr 30
soll te.</w> 30
zu reich 30
min -B 30
dic ally</w> 30
Ver ring 30
hae moly 30
ange streb 30
Hä moly 30
AR T 30
Sch ritten</w> 30
fol ate</w> 30
sis -stimulating</w> 30
af ter.</w> 30
sur gical</w> 30
iel le</w> 30
ser ven</w> 30
Blut transfusion 30
fa iled</w> 30
höh er</w> 30
control s.</w> 30
exc es 30
cont ents</w> 30
vol ume 30
ton .</w> 30
12 - 30
ang shämoglobin 30
erythropoie sis</w> 30
erythropoie tic</w> 30
over ,</w> 30
tox ische</w> 30
thrombo sis,</w> 30
lis ted</w> 30
Neben wirkung</w> 30
Ziel ,</w> 30
hl entherapie</w> 30
thromboti c/</w> 30
mu ch</w> 30
sä ure</w> 30
Pharmac okineti 30
sever al</w> 30
Dosisanpass ung,</w> 30
Die ses</w> 30
Die ser</w> 30
pl atinum</w> 30
Erythropoetin e</w> 30
hin weise</w> 30
dialyse pflich 30
Epoetin-alfa- Behandlung</w> 30
program me 30
grou p</w> 30
ogen icity</w> 30
mg/ m 30
Hämo bla 30
se- stimulier 30
achie ve</w> 30
oug h</w> 30
Fol säure 30
metabolis m</w> 30
vari ous</w> 30
lon g</w> 30
non- platinum</w> 30
Fe2 +</w> 30
prol ifer 30
symptomati schen</w> 30
Packungs größ 30
Apothek er.</w> 30
star ted</w> 30
subjec ts,</w> 30
typ e</w> 30
Dialy se</w> 30
bekann te</w> 30
evalu ation</w> 30
niedr iger</w> 30
Ausg angshämoglobin 30
elektiv er</w> 30
fibro se</w> 30
Transf usion 30
Ba sed</w> 30
sequ elae</w> 30
metabol it 30
headach es</w> 30
perio dically</w> 30
wöch entlich</w> 30
Allgem einen</w> 30
Knochenmark fibrose</w> 30
statisti cally</w> 30
itone al 30
there after.</w> 30
complic ations</w> 30
groß en</w> 30
Fe2+ /</w> 30
Fe2+ /Tag</w> 30
warn ings</w> 30
Per itoneal 30
compar able</w> 30
angel ,</w> 30
usu al</w> 30
x/ Woche</w> 30
Over dose</w> 30
Warn hinweise</w> 30
Erhöh ung</w> 30
infark t</w> 30
foet al</w> 30
programm e</w> 30
mell itus</w> 30
exclu ded.</w> 30
respectivel y.</w> 30
verschieden er</w> 30
halten :</w> 30
Dehydro- Aripiprazol</w> 30
Kreat in 30
doctor .</w> 30
deficienc y,</w> 30
cyclo sporin</w> 30
zuführ en</w> 30
st- fe 30
erythropoietin s</w> 30
berücksichtig t</w> 30
zurück zuführen</w> 30
Venen thrombosen</w> 30
again st</w> 30
(8. 1</w> 30
Wach stums 30
WIR K 30
step s</w> 30
überprüf t</w> 30
antikörper vermittel 30
Hb- Wert</w> 30
particip ating</w> 30
body- mediated</w> 30
Ciclo sporin</w> 30
Bluthochdru ck 30
plas ma</w> 30
model s</w> 30
vorhan den</w> 30
gewünsch ten</w> 30
dauer ha 30
Pregn ancy</w> 30
Stra hlentherapie</w> 30
zwei mal</w> 30
Vol um 30
Vita min-B 30
BAT CH</w> 30
sgesam t</w> 30
epoetin s</w> 30
Gmb H</w> 30
(5. 9</w> 30
(5, 9</w> 30
More over,</w> 30
ener sat 30
geerschein ungen</w> 30
susta ined</w> 30
peritone al</w> 30
angestreb t</w> 30
Hämobla sto 30
Ausgangshämoglobin wert</w> 30
Wachstums fak 30
Vitamin-B 12 30
I TIONS</w> 29
t s:</w> 29
h au 29
h in,</w> 29
n or</w> 29
d ary</w> 29
m erk 29
C OND 29
- blin 29
u ta 29
L in 29
L eben 29
j u 29
w o 29
( alu 29
( Alu 29
( z.B.</w> 29
M M 29
1 - 29
T e 29
T ag 29
F re 29
F ak 29
P rec 29
U R 29
N on- 29
K ü 29
K re 29
{ MM 29
Z ur</w> 29
/ Alu 29
er ven 29
er wachsen 29
ti er 29
ti ce</w> 29
un zureich 29
it u 29
ar ,</w> 29
be merk 29
ra c 29
ra um</w> 29
ra te.</w> 29
ge ts</w> 29
st -M 29
ou s,</w> 29
ein igen</w> 29
ac tivity</w> 29
ur ine</w> 29
patient s).</w> 29
ung :</w> 29
ich tig 29
ver glich 29
il e</w> 29
pro por 29
sol og 29
ter ,</w> 29
no tice</w> 29
ier ten</w> 29
ier ig 29
mon ke 29
Sch l 29
Sch wit 29
Sch wä 29
vi a</w> 29
CH T</w> 29
ris ik 29
ly :</w> 29
symptom s,</w> 29
symptom s.</w> 29
week s.</w> 29
ander er</w> 29
rep e 29
Un desirable</w> 29
Aripiprazol ,</w> 29
ak ter 29
EN TS</w> 29
injec tion.</w> 29
tran spor 29
3A 4</w> 29
führ ung</w> 29
bo und</w> 29
alu )</w> 29
sto x 29
kineti schen</w> 29
keit .</w> 29
signifikan ten</w> 29
dar auf</w> 29
Po st-M 29
Po solog 29
Europ ä 29
bar .</w> 29
weit er 29
Herz erkrank 29
enth al 29
könn te</w> 29
gesch ätz 29
thromboembol ische</w> 29
discontinu ed.</w> 29
entsprechen des</w> 29
alth ough</w> 29
group .</w> 29
ure .</w> 29
ble -blin 29
Apothek er,</w> 29
subjec ts</w> 29
erw ogen</w> 29
haloper idol 29
Haloper idol</w> 29
Dosier ung,</w> 29
ine mäß 29
Niereninsuffizienz :</w> 29
ore x 29
SCH A 29
sw al 29
require d.</w> 29
statisti sch</w> 29
there fore</w> 29
nis ses</w> 29
rout ine</w> 29
rout inemäß 29
shal b</w> 29
sug ge 29
itäts risik 29
konn ten</w> 29
extra pyramid 29
aclitaxel .</w> 29
kardiovaskulär en</w> 29
gehö r 29
neg ative</w> 29
auftreten de</w> 29
zusätz liche</w> 29
keits reak 29
dou ble-blin 29
Grupp e</w> 29
trib u 29
wiederhol ter</w> 29
estima ted</w> 29
haz ard</w> 29
Reproduktion stox 29
voll ständi 29
mortal ity</w> 29
exposu res</w> 29
gefühl ,</w> 29
nau sea,</w> 29
recon stitu 29
secon dary</w> 29
CHAR GEN 29
Geh irn 29
suppor tive</w> 29
somnol ence,</w> 29
swe at 29
pharmako kinetischen</w> 29
bei be 29
mig ht</w> 29
COND ITIONS</w> 29
(alu /</w> 29
(Alu /Alu 29
bemerk en,</w> 29
Post-M ark 29
Posolog y</w> 29
(Alu/Alu )</w> 29
I m</w> 28
a ).</w> 28
t achy 28
c ol 28
e lev 28
o u</w> 28
l är 28
d o</w> 28
m ou 28
C o</w> 28
D - 28
8 0 28
3 8</w> 28
u l</w> 28
O THER</w> 28
L ös 28
L ungen 28
A ,</w> 28
A X 28
A gen 28
7 7%</w> 28
5 9 28
f rig 28
w il 28
M P</w> 28
1 5 28
1 )</w> 28
P ütter</w> 28
E l 28
E C 28
E T 28
N eur 28
° C 28
Y ou</w> 28
Ä N 28
in ität</w> 28
an t.</w> 28
un lik 28
un change 28
re )</w> 28
re cht 28
ati o 28
it us,</w> 28
al .</w> 28
al op 28
te ili 28
se )</w> 28
se m</w> 28
be come</w> 28
de :</w> 28
de shalb</w> 28
ab or 28
ab normal 28
do pp 28
sp ee 28
ig keit</w> 28
Patient inn 28
Be gleit 28
ver pack 28
es :</w> 28
ad y</w> 28
ation s 28
lich ,</w> 28
ste h 28
ah me</w> 28
increa ses</w> 28
Sch lä 28
hö ch 28
ia )</w> 28
ob en</w> 28
ev en</w> 28
ungs stör 28
car ton</w> 28
car bamazep 28
vor genommen</w> 28
Ge sich 28
ne ur 28
äl ter 28
Arzneimittel n,</w> 28
ag ents,</w> 28
halt ung</w> 28
10 - 28
sto ff</w> 28
las sen 28
tain ing</w> 28
main taining</w> 28
high est</w> 28
toxic ity,</w> 28
pe ople</w> 28
pl an 28
Gew icht</w> 28
erhal ten,</w> 28
Stör ungen</w> 28
Ad di 28
erk lär 28
human s</w> 28
ox y 28
ox etin 28
discontinu e</w> 28
schwer en</w> 28
erkrank ungen</w> 28
die sem</w> 28
hoh es</w> 28
group s</w> 28
fat al</w> 28
detec table</w> 28
Mono therapie 28
death s</w> 28
Untersuch ung</w> 28
gesteig ert</w> 28
Unterschie de</w> 28
-------- -------- 28
Psych i 28
Krampfanf äl 28
Kar zinom 28
oede ma</w> 28
infar ction</w> 28
relevan te</w> 28
Aff inität</w> 28
Poten tial</w> 28
zuneh men.</w> 28
att ack 28
Inter action</w> 28
ingredi ents</w> 28
Zun ahme</w> 28
analy sis</w> 28
para me 28
recur rence</w> 28
Metabolisier ern</w> 28
Schlaganf all</w> 28
Stoff wechsel 28
Zeit raum</w> 28
Verring erung</w> 28
tachy cardia 28
elev ated</w> 28
unlik ely</w> 28
teili gung</w> 28
dopp el 28
Patientinn en,</w> 28
Schlä frig 28
S k 27
B e</w> 27
s su 27
h il 27
k g/</w> 27
k g/ 27
e sie</w> 27
r habdomyoly 27
n ieren 27
b lichen</w> 27
d ra 27
d ate</w> 27
- Dosis</w> 27
- Exposition</w> 27
- marketing</w> 27
6 5</w> 27
G alle</w> 27
A tt 27
f as 27
w ater</w> 27
( EP 27
v ul 27
M ü 27
1 6.</w> 27
T R 27
z er 27
z ogen</w> 27
" mini 27
E limin 27
ä t 27
/ Tel:</w> 27
en e</w> 27
in hibitor</w> 27
ti sches</w> 27
an g</w> 27
an xi 27
un regelmäß 27
re x 27
al iti 27
ol e 27
ol anzap 27
te mp 27
or tical</w> 27
be sch 27
be cause</w> 27
de t</w> 27
le s</w> 27
lo wer 27
su icid 27
as pir 27
der :</w> 27
ir regular</w> 27
ver se 27
An dere</w> 27
um fas 27
AB ER</w> 27
gen d 27
ex hibit 27
Ver k 27
Ver halten</w> 27
Ver schlu 27
Behandl ung.</w> 27
wh ite</w> 27
rec over 27
sen k 27
oc ortical</w> 27
ia .</w> 27
og rap 27
pa th 27
produc tion</w> 27
psych o 27
man ia</w> 27
lie d.</w> 27
sion *</w> 27
ho w</w> 27
den - 27
Aripiprazol -</w> 27
fe at 27
Wirk stoff</w> 27
placebo -treated</w> 27
rin den- 27
0, 5</w> 27
CYP2D 6- 27
Neben nieren 27
BE R</w> 27
Su izid 27
ABILIFY -Dosis</w> 27
pack ed</w> 27
Sp ät 27
mu s,</w> 27
schizophren en</w> 27
Pack ung</w> 27
Effek t</w> 27
ate -Exposition</w> 27
mg/ kg/ 27
thor isation</w> 27
ket on 27
(2 °C</w> 27
CI :</w> 27
recep tors.</w> 27
app lied.</w> 27
blut ung</w> 27
Inf usion 27
stör ungen</w> 27
hydra t</w> 27
bil e</w> 27
wei blichen</w> 27
hochwirk samen</w> 27
post -marketing</w> 27
Lith ium 27
hydrox y 27
sal iv 27
fat aliti 27
dehydro- aripiprazole,</w> 27
meta sta 27
3. 5%</w> 27
Ba sierend</w> 27
Asp ir 27
death ,</w> 27
Konzentr ation 27
Dy skin 27
adren ocortical</w> 27
erwar ten,</w> 27
dispo se</w> 27
Wirkstoff en</w> 27
potenziel le</w> 27
Risiko fak 27
Syn dro 27
Krampfanf ällen</w> 27
26- week</w> 27
26- week,</w> 27
olep tic</w> 27
keto ac 27
NM S,</w> 27
überschreit en.</w> 27
accident al</w> 27
dyskinesi a</w> 27
Valpro at 27
kg ,</w> 27
INH ABER</w> 27
R. O.</w> 27
suici de</w> 27
Demen z</w> 27
trans itor 27
Ju gend 27
diz zin 27
Antipsychotik a,</w> 27
Tak ing</w> 27
beinhal teten</w> 27
angezeig t,</w> 27
adolesc ents</w> 27
Induk toren</w> 27
stiff ness</w> 27
amne se</w> 27
antipsychotic s,</w> 27
Enzy me</w> 27
QT-Verlän gerung</w> 27
Merk mal 27
gluco se</w> 27
lex ib 27
though ts</w> 27
1- adren 27
Gehirn s</w> 27
wil l</w> 27
spee ch</w> 27
Schläfrig keit,</w> 27
Att ack 27
Mü dig 27
"mini "</w> 27
aspir ation</w> 27
exhibit ed</w> 27
ograp h 27
Nebennieren rinden- 27
mg/kg/ Tag</w> 27
I F</w> 26
I N</w> 26
I ser 26
B AR</w> 26
e e</w> 26
e t</w> 26
e ted.</w> 26
i al 26
i mm 26
d lich</w> 26
m )</w> 26
D R 26
D ER 26
D UNG</w> 26
8 °C 26
3 7</w> 26
6 38</w> 26
0 12</w> 26
A PP 26
A IL 26
7 2</w> 26
7 000</w> 26
( bei</w> 26
( for</w> 26
( zur</w> 26
v el 26
M angel 26
1 1.</w> 26
1 4.</w> 26
1 3.</w> 26
1 5.</w> 26
E AR</w> 26
W ie 26
K uh 26
ö hn 26
Ü bel 26
en k 26
in s</w> 26
in e,</w> 26
re :</w> 26
te ile 26
be vor</w> 26
ge zogen</w> 26
le u 26
le tz 26
ac id 26
lo h 26
An gst 26
um gehen 26
ER E</w> 26
lin ical</w> 26
handl ing</w> 26
qu al 26
Ein stell 26
Ein ige</w> 26
all en</w> 26
bin ations 26
sam er</w> 26
MA TER 26
injec tions</w> 26
gew öhn 26
En tz 26
reg ard</w> 26
adjust ment 26
contain ing</w> 26
Kom binations 26
durch blutung</w> 26
mark eted.</w> 26
Man ic</w> 26
Man ische</w> 26
phosp hate</w> 26
hoh em</w> 26
rau ch 26
lowe g</w> 26
ARZNEIMITTE L</w> 26
ref rig 26
Dosier ungen</w> 26
FAL LS</w> 26
EX P 26
3, 5%</w> 26
BES OND 26
BR AU 26
BR AIL 26
200 7</w> 26
Hau t</w> 26
Gly c 26
GE BRAU 26
Langzeit studie</w> 26
pH- Einstell 26
pH- adjustment 26
periph eral</w> 26
WARN HINWEIS 26
58 638</w> 26
hydrogen phosphat 26
Alternati vel 26
Dop amin</w> 26
sing le</w> 26
IF T</w> 26
prescrip tion.</w> 26
siz es</w> 26
ANWEN DUNG</w> 26
NI CHT</w> 26
SCHR IFT</w> 26
Packungsgröß en</w> 26
ierig keit 26
Europä ischen</w> 26
D- 58638</w> 26
Iser loh 26
8°C ).</w> 26
APP EAR</w> 26
Mangel durchblutung</w> 26
Wie der 26
Kuh loweg</w> 26
MATER I 26
Kombinations therapie</w> 26
BESOND ERE</w> 26
Alternativel y,</w> 26
c ur 25
c are</w> 25
s s,</w> 25
e ach</w> 25
r ü 25
i en</w> 25
b st 25
D IE</w> 25
L ot</w> 25
A tem 25
2 3</w> 25
f all</w> 25
f eren 25
f unk 25
( T 25
R es 25
er sten</w> 25
in k</w> 25
in di 25
re d 25
or p 25
si e 25
st er 25
ein mal 25
con ven 25
ver mu 25
ic kl 25
sti p 25
ia :</w> 25
höh eren</w> 25
är en</w> 25
cont act</w> 25
erhöh ter</w> 25
ag ents.</w> 25
respon ding</w> 25
Di ff 25
redu ce</w> 25
Ex c 25
mg/ ml</w> 25
Bestand teile 25
NUM BER</w> 25
ISCH EN</w> 25
IR Y</w> 25
Apothek er</w> 25
(N =</w> 25
VER FALL 25
US E</w> 25
tä glich</w> 25
tem per 25
tö t 25
Mark eting</w> 25
OUTE R</w> 25
Fie ber 25
Mahlz eit 25
verur sach 25
Gef äß 25
Schwä che 25
CHARGEN BEZEICHNUNG</w> 25
imm er</w> 25
bst töt 25
Res orp 25
VERFALL DATUM</w> 25
I U 24
s ha 24
h ält 24
o xi 24
l ang 24
d ür 24
d ank 24
m s</w> 24
m ö 24
- Di 24
8 3</w> 24
6 9</w> 24
6 4</w> 24
0 16</w> 24
L icht</w> 24
. eu</w> 24
H and 24
f en</w> 24
f lä 24
w us 24
9 1</w> 24
9 3</w> 24
E IN 24
R ah 24
U p 24
K G 24
in vestig 24
ti ssu 24
ti red 24
an zu 24
an other</w> 24
di k 24
is tic 24
be ding 24
ge dank 24
le gent 24
st sein 24
tr it 24
ung sp 24
Be wus 24
An y</w> 24
ad v 24
ad dre 24
werd en 24
inc e</w> 24
pre vi 24
zu ge 24
ste ar 24
gn esi 24
sur face</w> 24
mpf indlich 24
Ma gen 24
co unts</w> 24
Ge legent 24
Re ad</w> 24
rin gen</w> 24
war en</w> 24
gegeb en.</w> 24
gram s</w> 24
mäß ige</w> 24
hat ten</w> 24
Kom bination</w> 24
with in</w> 24
cor responding</w> 24
weit eren</w> 24
Schw ierigkeit 24
Au thorisation</w> 24
14 4</w> 24
(E 17 24
Schmelztable tte</w> 24
enc y</w> 24
europa .</w> 24
resul ting</w> 24
impair ment</w> 24
use d.</w> 24
frequ ency</w> 24
WEN DE 24
Aplasi a</w> 24
provi de</w> 24
periph ere</w> 24
emea .</w> 24
emea . 24
Zu ck 24
schreib ungsp 24
EU/1/07/412/ 00 24
ligh t.</w> 24
Keto az 24
Sel bsttöt 24
amo unt</w> 24
absor p 24
agon is 24
Mell itus</w> 24
Steady-St ate-Exposition</w> 24
Agen cy</w> 24
dizzin ess,</w> 24
EXP IRY</w> 24
indi zier 24
ickl ung</w> 24
Fieber ,</w> 24
IU )</w> 24
mö glich</w> 24
Rah men</w> 24
Bewus stsein 24
schreibungsp flich 24
S AMMEN 23
B EN 23
s ),</w> 23
h ormon 23
k s</w> 23
k open 23
e tr 23
y )</w> 23
p on 23
p ur 23
l ist</w> 23
b l 23
d ance</w> 23
m s,</w> 23
8 9</w> 23
u ter 23
u se,</w> 23
O rig 23
4 3</w> 23
9 9</w> 23
P O 23
z o 23
z ö 23
W IE</w> 23
N ich 23
er ated</w> 23
in ale</w> 23
un ig 23
un used</w> 23
un zug 23
th y 23
ati v</w> 23
al bum 23
ent s:</w> 23
or age</w> 23
be schle 23
ge om 23
le ss 23
st orage</w> 23
con stip 23
we der</w> 23
An schw 23
An forder 23
fü n 23
fü hl</w> 23
et yl 23
ste l 23
id ne 23
if heit</w> 23
UN TER 23
ass )</w> 23
dr ü 23
medicin e.</w> 23
intraven ously</w> 23
Ge gen 23
injec tion,</w> 23
Ris k</w> 23
age ment</w> 23
lis tung</w> 23
canc er.</w> 23
kom ple 23
BE WA 23
Ta gen</w> 23
fo od</w> 23
Auf listung</w> 23
gram m</w> 23
En tw 23
Sp rach 23
ZU SAMMEN 23
ZU BEWA 23
peri od</w> 23
hin aus</w> 23
Gesamt dosis</w> 23
Man agement</w> 23
ate d.</w> 23
(S ee</w> 23
benef its</w> 23
spie gel 23
gleich zeitig</w> 23
16 5</w> 23
Kopf schmerzen,</w> 23
upp er</w> 23
US ED</w> 23
Ste ifheit</w> 23
aufbewahr en.</w> 23
Poly sorb 23
require ment 23
Untersuch ungen</w> 23
fi ve</w> 23
sig ht</w> 23
NE HM 23
NM S</w> 23
conaz ol</w> 23
MP O 23
nation al</w> 23
nation alen</w> 23
Frau en</w> 23
orig inal</w> 23
accor dance</w> 23
bipolar er</w> 23
PHARMAZEUT ISCHEN</w> 23
AUF ZUBEWA 23
micro grams</w> 23
tongu e,</w> 23
jewei ls</w> 23
sicherzu stellen,</w> 23
vollständi ge</w> 23
metasta sier 23
pH-Einstell ung)</w> 23
hydrogenphosphat -Di 23
Diff eren 23
Exc ipi 23
flä che</w> 23
tissu e</w> 23
istic s</w> 23
zuge lassen 23
Orig inal 23
unzug änglich</w> 23
beschle unig 23
geom etr 23
UNTER NEHM 23
AUFZUBEWA H 23
UNTERNEHM ERS</w> 23
S ur 22
S ET 22
B lo 22
a mic</w> 22
t ;</w> 22
t ?</w> 22
t open 22
c ro 22
c ellulo 22
s sen 22
s ity</w> 22
h le 22
h ours.</w> 22
k or 22
e di 22
e ar 22
y p</w> 22
i o 22
i - 22
n den</w> 22
n erv 22
l ung,</w> 22
b ur 22
b ili 22
b ru 22
d ule</w> 22
m .</w> 22
C O 22
D N 22
- label</w> 22
G ra 22
G UNG</w> 22
7 1</w> 22
4 4</w> 22
4 6</w> 22
4 %</w> 22
4 00</w> 22
4 0%</w> 22
2 0. 22
2 0, 22
( i.</w> 22
( d.h.</w> 22
v ation</w> 22
M ä 22
M it</w> 22
1 25</w> 22
1 11</w> 22
9 0</w> 22
F al 22
W ä 22
N A 22
K G</w> 22
en do 22
en ce</w> 22
er ent</w> 22
ch ne 22
re main 22
on o 22
di p 22
di c</w> 22
di ation</w> 22
it et</w> 22
al isier 22
te l</w> 22
se d 22
si mul 22
ro ter</w> 22
ip pe 22
ge d</w> 22
ou ter</w> 22
au ß 22
su spec 22
ma ,</w> 22
ic e</w> 22
ec ts</w> 22
pro ce 22
ter s</w> 22
LI CH</w> 22
ad vis 22
Ab fall 22
us t</w> 22
us ted</w> 22
Do sen</w> 22
Sch lu 22
-M ono 22
ell ing</w> 22
ris ks</w> 22
wirk sam</w> 22
medicin es,</w> 22
produc ed</w> 22
gi on 22
gr ippe 22
vor .</w> 22
rep lac 22
hab ung</w> 22
ga stro 22
Wirk verlu 22
12 1</w> 22
neh m 22
mat olog 22
mat ern 22
Aus wirkung</w> 22
wa ste</w> 22
Erkrank ung,</w> 22
adj usted</w> 22
trial s.</w> 22
occur .</w> 22
nec k</w> 22
open -label</w> 22
ogen ität</w> 22
exper im 22
14 6</w> 22
therapeu tischen</w> 22
beste henden</w> 22
17 4</w> 22
allerg ische</w> 22
Eigen blut 22
100 ,</w> 22
Blutdruck ,</w> 22
Medic inal</w> 22
Medi an</w> 22
Allgem ein 22
medizin ische</w> 22
Par ti 22
Ne utropen 22
gener ally</w> 22
weigh t,</w> 22
tsch achte 22
DA S</w> 22
Intra venous</w> 22
Intra venöse</w> 22
infec tion</w> 22
dyn am 22
dyn amic</w> 22
OLOG ICAL</w> 22
Tox izität</w> 22
seri ous</w> 22
kolog ische</w> 22
entsor gen.</w> 22
minim ise</w> 22
character istics</w> 22
verwende tes</w> 22
Gastrointest inal</w> 22
til ity</w> 22
hypoten sion</w> 22
(gl ass)</w> 22
presen ce</w> 22
avoide d.</w> 22
(Glas )</w> 22
Aug ust</w> 22
verglich en</w> 22
Übel keit,</w> 22
sie gel 22
Hand habung</w> 22
Anforder ungen</w> 22
fün f</w> 22
Entw icklung</w> 22
requirement s.</w> 22
SET ZUNG</w> 22
Blo od</w> 22
Fal tschachte 22
Wä hrend</w> 22
Abfall material</w> 22
Eigenblut spen 22
V T 21
V ar 21
B enom 21
s an 21
s weise</w> 21
s zellen</w> 21
k le 21
k idne 21
e d,</w> 21
i abilität</w> 21
n europath 21
g ia,</w> 21
p iel 21
d licher</w> 21
8 8</w> 21
8 5</w> 21
G -CSF</w> 21
A us</w> 21
7 0</w> 21
. emea. 21
5 2</w> 21
5 5</w> 21
4 8</w> 21
2 )</w> 21
2 9 21
H ol 21
H aut 21
H irn 21
j en 21
f un 21
f ra 21
w hat</w> 21
( n 21
( F 21
M änn 21
1 5, 21
9 9 21
F eu 21
E pre 21
U m</w> 21
W er 21
N ieren</w> 21
ü s 21
Ü ber</w> 21
/ /www 21
: //www 21
en en,</w> 21
er s,</w> 21
er mittel 21
er ster</w> 21
in e- 21
in toxic 21
an sp 21
un desirable</w> 21
re ted</w> 21
re gion 21
it y:</w> 21
al on 21
is t 21
is tu 21
is piel 21
se k 21
se ;</w> 21
se prophylax 21
si a,</w> 21
ro chen</w> 21
be ispiel 21
ra te,</w> 21
ra diation</w> 21
mi gr 21
mi gra 21
le m</w> 21
st r 21
st s</w> 21
st ütz 21
at aly 21
ein gele 21
lo ss 21
ur red</w> 21
me ans</w> 21
ab reich 21
as k</w> 21
mo istu 21
ie :</w> 21
Be sser 21
Be hält 21
con f 21
we g 21
pro f 21
lu st</w> 21
um ber</w> 21
tion ),</w> 21
ten )</w> 21
lin ie</w> 21
lin e,</w> 21
In dik 21
min u 21
ste chen 21
ta min 21
Do se</w> 21
tra indizier 21
eh r</w> 21
Ver teil 21
Ver abreich 21
Ver lust</w> 21
ep halopath 21
g/ dl)</w> 21
mon ary</w> 21
kon traindizier 21
dis pos 21
Sch la 21
qu es 21
sis .</w> 21
än ear 21
men sch 21
über wie 21
fa hren</w> 21
anc ed</w> 21
produc tion.</w> 21
ämi e</w> 21
sin formation</w> 21
man ische</w> 21
anaemi a,</w> 21
ik ation,</w> 21
krank heit,</w> 21
vor zu 21
bin dung</w> 21
Anämi e,</w> 21
injec tion:</w> 21
Al s</w> 21
Al ter,</w> 21
izien z</w> 21
age ,</w> 21
erythropoie t 21
tox izität</w> 21
abol it 21
abil ity,</w> 21
and /</w> 21
stell en.</w> 21
Neben wirk 21
10 4</w> 21
indic ation</w> 21
indic ating</w> 21
indic ates</w> 21
ON S 21
Mon at 21
syste mic</w> 21
pha se</w> 21
occur rence</w> 21
disea se.</w> 21
obser ved.</w> 21
Men ge</w> 21
sit u 21
contain er</w> 21
respon ded</w> 21
tum ours</w> 21
Injektions stel 21
def ined</w> 21
cell s.</w> 21
anf änglich</w> 21
Gen er 21
Herz infarkt</w> 21
Ex posi 21
gu t</w> 21
Met abolit 21
so on</w> 21
zytenzah l</w> 21
ähn lichen</w> 21
wurd en.</w> 21
pul monary</w> 21
Thrombo zy 21
Thrombo seprophylax 21
Thrombo zytenzahl</w> 21
hä matolog 21
stimul ate</w> 21
stimul ates</w> 21
(2 3</w> 21
individu ellen</w> 21
stat us,</w> 21
kal aemia</w> 21
vari ability,</w> 21
under lying</w> 21
pec tor 21
enc ephalopath 21
month ,</w> 21
europa .eu</w> 21
lowe st</w> 21
necessar y,</w> 21
resul t</w> 21
16 7</w> 21
haemat oc 21
sw elling</w> 21
lar ge</w> 21
frequ ent</w> 21
gemisch t</w> 21
ode :</w> 21
tol er 21
weigh ed</w> 21
brea st-fe 21
Ober fläche</w> 21
konn te</w> 21
cardia c</w> 21
häuf iger</w> 21
häuf ig</w> 21
8, 7</w> 21
Prote in 21
gewe b 21
Blutverlu st</w> 21
http :</w> 21
http ://www 21
/www .</w> 21
Dar über</w> 21
indu zier 21
assess ment</w> 21
verminder te</w> 21
Phen yl 21
sle ep 21
Anwend ungs 21
Aspar ta 21
Nerv ous</w> 21
beschrie ben.</w> 21
leich ter</w> 21
beeinträchtig t</w> 21
häufig ste</w> 21
vomit ing,</w> 21
Geb rauch 21
Leu ko 21
fatigu e</w> 21
schwerwie gende</w> 21
Körper gew 21
particul arly</w> 21
kurz em</w> 21
ucle us</w> 21
versuch t</w> 21
adul ts</w> 21
Eisenmange l</w> 21
determin ed</w> 21
stab bing</w> 21
Lin ie</w> 21
verpack ung</w> 21
Verk ehr</w> 21
absorp tion</w> 21
bl urred</w> 21
constip ation,</w> 21
Original verpackung</w> 21
bru ch</w> 21
NA HM 21
chne t</w> 21
proce du 21
advis ed</w> 21
Var iabilität</w> 21
Benom men 21
Feu chtigkeit</w> 21
beispiel sweise</w> 21
migr änear 21
eingele itet</w> 21
moistu re.</w> 21
Besser ung</w> 21
dispos al</w> 21
http://www .emea. 21
Gebrauch sinformation</w> 21
S on 20
S ei 20
S ).</w> 20
S qu 20
S hel 20
S itu 20
I S</w> 20
I ON</w> 20
I st</w> 20
V as 20
B in 20
B ris 20
B ron 20
B 03 20
a :</w> 20
a ec 20
a mp 20
a mb 20
a gn 20
a sion 20
t barkeit</w> 20
c ris 20
c ertain</w> 20
c .).</w> 20
s ince</w> 20
h ei 20
k ür 20
e mi 20
e se-stimulier 20
y iel 20
y ers</w> 20
y ond</w> 20
r ol 20
r ale</w> 20
i r</w> 20
i dis 20
i ved</w> 20
g no 20
g kin 20
g -term</w> 20
l /</w> 20
l ) 20
l ] 20
l / 20
l it 20
d al 20
d gkin 20
m d 20
m mo 20
m als</w> 20
C er 20
C LA 20
C -C 20
C LIN 20
D an 20
- R 20
- lik 20
- patient</w> 20
- Hal 20
- intest 20
8 00</w> 20
8 167</w> 20
3 2%</w> 20
3 32</w> 20
3 01</w> 20
3 x/</w> 20
6 6</w> 20
0 5 20
0 8</w> 20
O W</w> 20
O rale</w> 20
L Q 20
L is 20
L ist</w> 20
L ine 20
L ÄN 20
A 01</w> 20
7 )</w> 20
7 1%</w> 20
. / 20
4 ,25</w> 20
2 000</w> 20
2 0%</w> 20
2 1,</w> 20
H az 20
H AT</w> 20
H OW</w> 20
j ah 20
f ö 20
f iden 20
f ällen</w> 20
f ist 20
w as 20
w och 20
w ichtig 20
( * 20
( ES 20
( Eisen 20
( Tag</w> 20
( greater</w> 20
( 0.62</w> 20
( 0,62</w> 20
( ESA 20
( 43 20
( FACT- 20
v all 20
v ary</w> 20
M ol 20
M or 20
M at 20
1 000</w> 20
1 9%</w> 20
9 5% 20
T achy 20
F on 20
F ro 20
F lu 20
F e- 20
F IR 20
F unc 20
P ER 20
P AN 20
z en.</w> 20
E W 20
E ORT 20
R atio</w> 20
W HAT</w> 20
N ature</w> 20
K ohl 20
K OLOG 20
K LIN 20
J un 20
X T</w> 20
X A01</w> 20
ä quate</w> 20
ä kologische</w> 20
/ vaskuläre</w> 20
/ VER 20
Q LQ 20
en - 20
en hydra 20
en z,</w> 20
en det</w> 20
in .</w> 20
in tox 20
in stitu 20
in al,</w> 20
in sgesamt</w> 20
in führung</w> 20
ti ven 20
ch ter 20
ch est</w> 20
ch ial 20
an x 20
an stieg</w> 20
an reg 20
an zei 20
an ´s</w> 20
an eurys 20
un less</w> 20
un sten</w> 20
re ly</w> 20
re vie 20
re serven</w> 20
re institu 20
on ar 20
di hydrate</w> 20
di enen,</w> 20
al og 20
al ways</w> 20
is .</w> 20
is ten</w> 20
is ed,</w> 20
te x 20
te inführung</w> 20
ar ting</w> 20
ar ende</w> 20
ent .</w> 20
or <</w> 20
or ></w> 20
or ally</w> 20
or por 20
se ssion</w> 20
si dic</w> 20
be gin 20
be ginn</w> 20
be grenz 20
be achtet</w> 20
be yond</w> 20
be dienen,</w> 20
ra ts,</w> 20
ra rely</w> 20
de hydrogen 20
ge al</w> 20
ge sich 20
ge kl 20
le k 20
le en</w> 20
st ore</w> 20
li mit</w> 20
at tention</w> 20
ein stell 20
ac tions</w> 20
ac count</w> 20
sch werden</w> 20
po int</w> 20
lo sig 20
lo ss,</w> 20
me isten</w> 20
au thor 20
ab gew 20
wer ten</w> 20
su re 20
as o</w> 20
patient ´s</w> 20
sp arende</w> 20
sp leen</w> 20
mo ve 20
ie te</w> 20
ie ).</w> 20
ie dr 20
der ,</w> 20
der ived</w> 20
ir on,</w> 20
Be handel 20
Be sei 20
Be schwerden</w> 20
con duc 20
con sis 20
con tain</w> 20
we ge,</w> 20
ap pea 20
il d- 20
il y)</w> 20
ic ation</w> 20
ic ien 20
ic al,</w> 20
es )</w> 20
es ).</w> 20
An )</w> 20
An schließ 20
An eurys 20
An agn 20
An alog 20
An gesich 20
sol chen</w> 20
ter vall 20
ad äquate</w> 20
Ab setzen</w> 20
sy n 20
eb lich</w> 20
inc orpor 20
mm 3</w> 20
tion s,</w> 20
ER TEI 20
pre de 20
pre fer 20
zu stand 20
com pati 20
ri tin</w> 20
gen eral</w> 20
gen der,</w> 20
In kom 20
In sbesondere</w> 20
In compati 20
St arting</w> 20
et ing 20
et was</w> 20
et c.).</w> 20
ex pres 20
ex amin 20
op e,</w> 20
4. 25</w> 20
4. 2.</w> 20
Do sage</w> 20
TI VE</w> 20
TI ES</w> 20
tra ten</w> 20
tra gen</w> 20
eh l 20
Ver zö 20
Behandl ung,</w> 20
lac tic</w> 20
Hä moglobin</w> 20
mon ate 20
kan stieg</w> 20
qu e 20
har yn 20
-M angel,</w> 20
-M yers</w> 20
fol geerscheinungen</w> 20
blo ck 20
än gliche</w> 20
ass en.</w> 20
ien ).</w> 20
ib b</w> 20
pr ägt</w> 20
Absea me 20
auf s</w> 20
auf zunehmen.</w> 20
ris ing</w> 20
ren aler</w> 20
men :</w> 20
sign al</w> 20
sign al.</w> 20
ev ents,</w> 20
Blut zellen</w> 20
Hämoglobin -</w> 20
Hämoglobin vari 20
Hämoglobin anstieg</w> 20
pa id</w> 20
effec tiven 20
anc e,</w> 20
da ily)</w> 20
intra mus 20
intra -patient</w> 20
pres ent 20
anti bo 20
anti thrombotic</w> 20
trea ted,</w> 20
sin one</w> 20
ment ,</w> 20
he ad</w> 20
eu tic</w> 20
cul tu 20
geb unden.</w> 20
geb rochen</w> 20
geb iete</w> 20
week ly.</w> 20
anaemi a.</w> 20
olog ical,</w> 20
sion s</w> 20
dia c</w> 20
krank heits 20
car bo 20
mal es</w> 20
control le 20
par tial</w> 20
par ath 20
Anämi eur 20
I.E .</w> 20
rit in 20
EI GEN 20
gra vation</w> 20
sf ac 20
ga strointest 20
injec tion 20
vol un 20
placebo kontrollier 20
Al bum 20
form s</w> 20
I.E./ ml)</w> 20
Dosis steig 20
Dosis management</w> 20
iso ton 20
oper ativ</w> 20
neh men,</w> 20
führ en.</w> 20
Tumor zellen</w> 20
Tumor progression</w> 20
inf usion</w> 20
erythropoie sis-stimulating</w> 20
tox ic</w> 20
bo tom 20
erhöh tem</w> 20
teil nehmen</w> 20
Therap eutic</w> 20
ag gravation</w> 20
ATI ON 20
ST AND</w> 20
occ asion 20
utan e</w> 20
sto res</w> 20
AT C</w> 20
AT C-C 20
ben zo 20
berichte t</w> 20
Ziel wert</w> 20
27 %</w> 20
Erythro zyten</w> 20
zin tervall 20
Hyper ten 20
ern iedr 20
Ta ge</w> 20
Eisen reserven</w> 20
gew ünschte</w> 20
Anti kör 20
Anti body-mediated</w> 20
Erkrank ungen:</w> 20
Injektion :</w> 20
chemo therapie 20
Auf bewahr 20
Me thod</w> 20
Epoetin e</w> 20
gegeb enen 20
(1 00</w> 20
(1 72</w> 20
möglich es</w> 20
erh eblich</w> 20
occur ,</w> 20
PHARMA KOLOG 20
disea se;</w> 20
Erythropo ese-stimulier 20
thromboti sche</w> 20
thromboti sche 20
Pro duc 20
Pro duktion</w> 20
En tsch 20
LA S).</w> 20
000 / 20
TE XT</w> 20
UNG /VER 20
schw er</w> 20
embol i 20
embol ien).</w> 20
sä ur 20
schie dlich</w> 20
Hal tbarkeit</w> 20
ous ness</w> 20
Epoetin-alfa -</w> 20
tal itätsrisik 20
level :</w> 20
Dis e 20
fac tor</w> 20
Thromb oti 20
cor rection</w> 20
18 ;</w> 20
18 00</w> 20
18 95</w> 20
Eff ects</w> 20
Erythropoetin ,</w> 20
reac tion.</w> 20
def icien 20
sein ;</w> 20
hin sicht 20
ici ent.</w> 20
Gesamt krankheits 20
Ho dgkin 20
anf ängliche</w> 20
var iety</w> 20
unter schiedlich</w> 20
dialyse - 20
dialyse behandlung</w> 20
AUTHORIS ATION 20
FT EN</w> 20
PRO PER 20
Met a 20
avail ability</w> 20
1, 18;</w> 20
Retikulo zyten 20
Pharmako dynam 20
y- like</w> 20
1. 000,</w> 20
Thrombo sen,</w> 20
auftre ten.</w> 20
ogen ic</w> 20
PHARMAC OLOGICAL</w> 20
thromboembol ischer</w> 20
-C 30</w> 20
All geme 20
reduzier ten</w> 20
(2 21</w> 20
individu elle</w> 20
Erhaltungs therapie</w> 20
beste hen</w> 20
acc umul 20
Prä klinische</w> 20
differen ti 20
differen ce</w> 20
I- 03 20
nie dri 20
sensi tiv 20
INFORMA TION 20
vari ability</w> 20
ZULASS UNG/VER 20
base line,</w> 20
under krank 20
go al</w> 20
SI TION</w> 20
my elom 20
Con sequ 20
symptomati sche</w> 20
group :</w> 20
blut sparende</w> 20
fer ritin</w> 20
fer ritin 20
leafle t,</w> 20
Blutspende programm 20
Pharmakokineti sche</w> 20
regelmäß igen</w> 20
durchgeführ t.</w> 20
Krank heits 20
tan a</w> 20
tan sprechen</w> 20
Einzel fällen</w> 20
possib le,</w> 20
EU/1/04/276/ 00 20
WA S</w> 20
Kopf -Hal 20
Bipolar-I-Stör ung,</w> 20
sal ic 20
Maxim um</w> 20
rel ative</w> 20
rel anger</w> 20
impro ve</w> 20
Blutdruc kanstieg</w> 20
Kontroll en</w> 20
Kontroll en.</w> 20
Niereninsuffizienz ,</w> 20
Verl aufs</w> 20
ub ation</w> 20
Dy spha 20
Zell linie</w> 20
Car diac</w> 20
Knochenmark szellen</w> 20
As sess 20
67 69</w> 20
Ur in</w> 20
Ur sachen</w> 20
out com 20
excipi ents</w> 20
excipi ents.</w> 20
excipi ents,</w> 20
dialysepatient en</w> 20
groß e</w> 20
nis sen</w> 20
warn ing</w> 20
Serum spiegel</w> 20
Serum ferritin 20
38 9</w> 20
Unterschie d</w> 20
Gly kosi 20
Amino säur 20
deut lich</w> 20
tol -Myers</w> 20
mol ec 20
20 %.</w> 20
brea st,</w> 20
deu ten</w> 20
zug unsten</w> 20
requir ing</w> 20
initi ating</w> 20
amin o</w> 20
Ober grenz 20
erythro cy 20
exis ts</w> 20
Erythroblastopen ie).</w> 20
spezif ischen</w> 20
(C LAS).</w> 20
arter ielle</w> 20
vie l</w> 20
Warn signal</w> 20
glyco sidic</w> 20
Pharmaco therapeutic</w> 20
Pharmaco dynamic</w> 20
kardiovaskulär er</w> 20
physici an´s</w> 20
s- Tumoren,</w> 20
oede ma,</w> 20
erreich en.</w> 20
prä operativ</w> 20
infar c 20
58 %</w> 20
Haloperidol .</w> 20
RE VIS 20
Alternati v</w> 20
47 8</w> 20
Mark teinführung</w> 20
plötz lich</w> 20
Gr und</w> 20
Gr underkrank 20
8, 1</w> 20
REN EW 20
accor ding</w> 20
seri ous,</w> 20
bipolar en</w> 20
PHARMAZEUT ISCHE</w> 20
rest less 20
lact ation</w> 20
Blutverlu st,</w> 20
wel che</w> 20
indu ce</w> 20
Überempfindlich keit</w> 20
Überempfindlich keitsreak 20
Eingriff s</w> 20
gyn aec 20
gyn äkologische</w> 20
C- QLQ 20
5% ),</w> 20
(6 83</w> 20
opti m 20
patibil itäten</w> 20
malignancie s</w> 20
Hämodialysepatient en,</w> 20
Hämodialysepatient en:</w> 20
Subk utan</w> 20
Subk utane</w> 20
Contra da</w> 20
Contra indications</w> 20
FACT- An</w> 20
Hämatok rit 20
Hämatok rit</w> 20
reproduc tive</w> 20
akathis ia</w> 20
Aussch lag 20
ausge prägt</w> 20
scal e,</w> 20
niedrig sten</w> 20
-Kon fiden 20
GM -CSF</w> 20
Geschlech t</w> 20
Hyperton ie.</w> 20
bio availability</w> 20
lymph om 20
brech en.</w> 20
behavi our</w> 20
(R R</w> 20
agit ation,</w> 20
Aluminium intox 20
GER UNG</w> 20
28 33</w> 20
technolog y</w> 20
angegeb en</w> 20
random ised,</w> 20
My elom 20
genann ten</w> 20
Behandlungs woch 20
specif ic</w> 20
Sprit zen</w> 20
dela y</w> 20
subcutane ously</w> 20
fav our</w> 20
denk en</w> 20
defin iert</w> 20
Akathis ie</w> 20
pädiatr ischen</w> 20
Mamma karzinome,</w> 20
chirurg ische</w> 20
haemoly sis,</w> 20
Bluttransfusion en</w> 20
exces sive</w> 20
volume .</w> 20
Pharmacokineti c</w> 20
dialysepflich tig</w> 20
Folsäure -</w> 20
Bluthochdruck .</w> 20
dauerha fter</w> 20
Volum enersat 20
Wachstumsfak tor 20
Vitamin-B12 -Mangel,</w> 20
Fre md 20
Prec linical</w> 20
{MM / 20
erwachsen e</w> 20
unzureich end</w> 20
Schl auch</w> 20
Schwit z 20
repe ated</w> 20
SCHA FTEN</w> 20
sugge st</w> 20
gehör t</w> 20
Reproduktionstox izität</w> 20
beibe halten</w> 20
Post-Mark eting 20
80 2</w> 20
Entz ünd 20
pH-adjustment )</w> 20
Iserloh n</w> 20
Atem wege,</w> 20
Bestandteile .</w> 20
beding ter</w> 20
addre ssed</w> 20
previ ous</w> 20
Nich tansprechen</w> 20
etyl salic 20
Gegen anzei 20
ZUSAMMEN SETZUNG</w> 20
MPO SITION</w> 20
metastasier endem</w> 20
hydrogenphosphat-Di hydrat</w> 20
Differen zier 20
zugelassen en</w> 20
hle botom 20
i- Fro 20
bur den</w> 20
bili ties</w> 20
CO MPOSITION</w> 20
20. 000/ 20
20, 000/</w> 20
endo gen 20
remain ing</w> 20
replac e 20
gastro -intest 20
experim en 20
alon e.</w> 20
str um 20
Behält nisses</w> 20
stechen de,</w> 20
Injektionsstel le</w> 20
Gener al 20
Thromboseprophylax e</w> 20
pector is,</w> 20
encephalopath y-like</w> 20
haematoc rit</w> 20
Anwendungs gebiete</w> 20
migränear tige</w> 20
Squ ibb</w> 20
Shel f</w> 20
Vas cular</w> 20
Bris tol-Myers</w> 20
Bron chial 20
B03 XA01</w> 20
amb ul 20
cris is</w> 20
yiel d</w> 20
rol it 20
l] ,</w> 20
mmo l</w> 20
Cer aso</w> 20
CLIN ICAL</w> 20
-lik e 20
Lis te</w> 20
Line ar</w> 20
LÄN GERUNG</w> 20
Haz ard</w> 20
jah relanger</w> 20
fö tal 20
fist ul 20
(ES A)</w> 20
(ESA s)</w> 20
(43 %)</w> 20
(FACT- An)</w> 20
Mol ek 20
Mor talitätsrisik 20
95% -Konfiden 20
Fon tana</w> 20
FIR ST</w> 20
Func tional</w> 20
PAN SS</w> 20
EORT C-QLQ 20
Kohl enhydra 20
KLIN ISCHE</w> 20
aneurys ms,</w> 20
reinstitu te</w> 20
gekl är 20
abgew ogen</w> 20
Behandel ten)</w> 20
Besei tigung</w> 20
appea red</w> 20
Anschließ end</w> 20
Aneurys men,</w> 20
Anagn i-Fro 20
Analog ue</w> 20
Angesich ts</w> 20
incorpor ation</w> 20
ERTEI LUNG</w> 20
zustand s</w> 20
Inkom patibilitäten</w> 20
Incompati bilities</w> 20
expres sed</w> 20
Verzö gerung</w> 20
monate -</w> 20
Hämoglobinvari abilität</w> 20
effectiven ess</w> 20
antibo dies</w> 20
carbo hydrate</w> 20
parath y 20
Anämieur sachen</w> 20
EIGEN SCHAFTEN</w> 20
gastrointest inale</w> 20
placebokontrollier te</w> 20
Dosissteig erung</w> 20
occasion al</w> 20
ATC-C ode:</w> 20
zintervall :</w> 20
erniedr ig 20
Antikör per</w> 20
chemotherapie bedingter</w> 20
Aufbewahr ung</w> 20
gegebenen falls</w> 20
PHARMAKOLOG ISCHE</w> 20
thrombotische /vaskuläre</w> 20
Entsch eidung</w> 20
deficien cy 20
hinsicht lich</w> 20
Gesamtkrankheits last</w> 20
AUTHORISATION /</w> 20
PROPER TIES</w> 20
Pharmakodynam ische</w> 20
Allgeme in</w> 20
I-03 012</w> 20
niedri gem</w> 20
ZULASSUNG/VER LÄNGERUNG</w> 20
myelom a,</w> 20
Consequ ent 20
Krankheits zustands</w> 20
Kopf-Hal s-Tumoren,</w> 20
Assess ment</w> 20
Obergrenz e</w> 20
REVIS ION</w> 20
RENEW AL</w> 20
restless ness,</w> 20
gynaec ological,</w> 20
Aluminiumintox ikation,</w> 20
Behandlungswoch en</w> 20
Gegenanzei gen</w> 20
gastro-intest inal,</w> 20
Bronchial karzinome,</w> 20
95%-Konfiden zintervall:</w> 20
EORTC-QLQ -C30</w> 20
Anagni-Fro sinone</w> 20
S ul 19
S kal 19
a ;</w> 19
t umor 19
t liche</w> 19
t lichen</w> 19
c ,</w> 19
c k</w> 19
c ed</w> 19
c ohol</w> 19
h ed</w> 19
h .E 19
h oben</w> 19
k enn 19
y el 19
r atio 19
i ation</w> 19
i ousness</w> 19
n at 19
o be 19
o sen</w> 19
o öde 19
l ter 19
l auf</w> 19
l ass</w> 19
b en,</w> 19
d an 19
m yo 19
C NS</w> 19
- risk</w> 19
- Studie</w> 19
8 4 19
L ie 19
. ,</w> 19
. -B 19
f ertig 19
f ind 19
w eit</w> 19
w ell 19
w ide 19
( 3</w> 19
( Ch 19
v ir 19
v es</w> 19
M it 19
M yo 19
T um 19
F ö 19
F ru 19
F urther</w> 19
P ol 19
P ri 19
P op 19
P harma 19
z ogen 19
R O 19
R en 19
R if 19
U se</w> 19
Ä lter 19
en d.</w> 19
en erg 19
en hän 19
en vir 19
er s.</w> 19
er tem</w> 19
er achtet</w> 19
an t,</w> 19
an gi 19
un wahr 19
un gefä 19
un usual</w> 19
re me 19
re s.</w> 19
re kon 19
re ady</w> 19
on g</w> 19
al an 19
al kal 19
is on 19
is lauf</w> 19
ent e</w> 19
se t</w> 19
ra tes</w> 19
ra dio 19
de .</w> 19
ge fol 19
le s,</w> 19
st uf 19
li fe 19
ac tiv 19
ac comp 19
ac ute</w> 19
ur . 19
me id 19
me thod</w> 19
patient 's</w> 19
ung er</w> 19
ung se 19
mo de 19
Be fore</w> 19
Be stimm 19
Be teiligung</w> 19
Be fun 19
con sc 19
ver teil 19
ap par 19
ap pe 19
ul ation</w> 19
il dung</w> 19
An gi 19
Ab bruch</w> 19
sy lated</w> 19
gen d</w> 19
In iti 19
St at 19
ation sp 19
et a 19
et ,</w> 19
IS TR 19
Ver wen 19
Ver stoff 19
wh ile</w> 19
hal f</w> 19
ange hoben</w> 19
ep ilep 19
Hä lf 19
am ong</w> 19
sis :</w> 19
auf ,</w> 19
auf tra 19
ev er</w> 19
effec ts,</w> 19
intra uter 19
är e</w> 19
ment .</w> 19
ment s,</w> 19
Tel l</w> 19
cul ation.</w> 19
car di 19
iden tif 19
tiv en</w> 19
Un kontrollier 19
co de:</w> 19
glich ,</w> 19
fe ver,</w> 19
exc ess</w> 19
exc reted</w> 19
inclu de 19
Al k 19
wä gung</w> 19
Abraxan e.</w> 19
poten ti 19
antipsychoti cs</w> 19
kar d 19
ben en</w> 19
war en.</w> 19
1/ 10 19
aus sch 19
je der</w> 19
Erkrank ungen,</w> 19
ABILIFY :</w> 19
fail ure.</w> 19
ca .</w> 19
harma kolog 19
som e 19
pos it 19
assoc iation</w> 19
mar k</w> 19
Unter nehm 19
schw anger 19
sit z 19
Ep ilep 19
geführ t</w> 19
Herz rhyth 19
hyperten sion,</w> 19
elec troly 19
pregn ancy</w> 19
Ber eich 19
acc el 19
hoh e</w> 19
sta te,</w> 19
metabolis ed</w> 19
os sif 19
Ch .-B 19
gain .</w> 19
Inf usion</w> 19
Durch schnit 19
zusamm enhän 19
eich el 19
regul arly</w> 19
wor den.</w> 19
stärk ere</w> 19
detec ted</w> 19
wechsel ung</w> 19
As k</w> 19
200 4</w> 19
Rat ten,</w> 19
complic ations.</w> 19
Serum spiegel 19
feel ings</w> 19
Wirkstoff e</w> 19
YY }</w> 19
YY YY}</w> 19
fest gestellt</w> 19
Veränder ungen</w> 19
prolon ged</w> 19
Ga be 19
spezif ische</w> 19
spro chen</w> 19
foet us.</w> 19
glyco sylated</w> 19
respectivel y,</w> 19
physici an</w> 19
vitro .</w> 19
vitro - 19
zieh en.</w> 19
Sterblich keit</w> 19
Aff en</w> 19
siv ely</w> 19
impairment .</w> 19
impairment :</w> 19
Valpro at</w> 19
kg )</w> 19
tö dlicher</w> 19
MIN ISTR 19
verring ert</w> 19
comple tion</w> 19
weak nes 19
Pul s</w> 19
carcin om 19
inflamm ation</w> 19
unver änder 19
Blutzuck er,</w> 19
akathis ia,</w> 19
ausge schie 19
enzy mes</w> 19
prim ary</w> 19
anaphy lak 19
anaphy lactic</w> 19
cir culation.</w> 19
Patientengrupp e</w> 19
hyperglycaemi a,</w> 19
wom en.</w> 19
leid en,</w> 19
nachgewie sen,</w> 19
AD MINISTR 19
(P h.E 19
Glu ta 19
stom ach</w> 19
einge stuf 19
vergleich bar</w> 19
Erfahr ungen</w> 19
Kreatin phosp 19
Leben s 19
Fak toren</w> 19
Kre islauf</w> 19
monke ys</w> 19
routinemäß ig</w> 19
extrapyramid al</w> 19
double-blin d,</w> 19
sweat ing,</w> 19
unchange d</w> 19
recht fertig 19
ungsstör ungen:</w> 19
älter en</w> 19
Addi tional</w> 19
Krampfanfäl le,</w> 19
parame ters</w> 19
temper ature</w> 19
Schwierigkeit en</w> 19
Selbsttöt ungs 19
geometr ic</w> 19
Schlu ck 19
kidne y</w> 19
sek und 19
weg ungen,</w> 19
Exposi tionen</w> 19
Son sti 19
Bin dung</w> 19
anx iety</w> 19
lek troly 19
move ments,</w> 19
controlle d,</w> 19
obe sity</w> 19
dan ach</w> 19
well -controlled</w> 19
Pharma zeu 19
Ren al</w> 19
Älter e</w> 19
energ y,</w> 19
envir on 19
angi oedema</w> 19
unwahr schein 19
ungefä hr</w> 19
rekon stitu 19
gefol gt</w> 19
life - 19
consc iousness</w> 19
appar ent</w> 19
Angi oöde 19
Initi aldosis</w> 19
Verstoff wechselung</w> 19
epilep sy</w> 19
Hälf te</w> 19
identif ied</w> 19
schwanger en</w> 19
Epilep sie</w> 19
ossif ication</w> 19
Ch.-B .:</w> 19
ADMINISTR ATION</w> 19
(Ph.E ur. 19
S U 18
S K 18
S í 18
S mo 18
S ver 18
S ),</w> 18
I M 18
I re 18
I AT 18
B V</w> 18
a ñ 18
a se:</w> 18
t g 18
t a</w> 18
c reatine</w> 18
s z 18
s fol 18
s ka</w> 18
s land</w> 18
h id 18
k á</w> 18
e d- 18
y ar 18
i dosis</w> 18
i ellen</w> 18
i ja</w> 18
n ia</w> 18
g al</w> 18
g yar 18
p anc 18
p ts 18
p hin 18
p hate</w> 18
o mi 18
o toxizität</w> 18
l abor 18
d rom</w> 18
m g.</w> 18
C P 18
C Ê 18
C O.</w> 18
C ros 18
D 2</w> 18
D 3- 18
D eta 18
- Patienten,</w> 18
8 %</w> 18
8 10</w> 18
8 %)</w> 18
8 57</w> 18
3 -</w> 18
3 000</w> 18
3 14</w> 18
3 4%</w> 18
6 07 18
6 0%</w> 18
6 40</w> 18
0 5</w> 18
0 4</w> 18
G U 18
G ES 18
G ING</w> 18
G T),</w> 18
O Y</w> 18
L at 18
L AND 18
A F 18
A A</w> 18
A ST 18
A gent 18
A ./ 18
7 00</w> 18
7 62</w> 18
7 03 18
7 3%</w> 18
7 %,</w> 18
7 31</w> 18
7 3%).</w> 18
7 04</w> 18
. Ε 18
. Π</w> 18
. 1%</w> 18
. V.</w> 18
5 00</w> 18
5 7%</w> 18
5 2- 18
5 35</w> 18
4 10</w> 18
4 300</w> 18
4 21</w> 18
4 20</w> 18
4 56</w> 18
4 40</w> 18
4 2- 18
2 10</w> 18
2 30</w> 18
2 21</w> 18
2 28</w> 18
2 36</w> 18
H F</w> 18
j ug 18
f ragen</w> 18
f arin 18
f lexib 18
( =</w> 18
( or</w> 18
( das</w> 18
( AL 18
( 57 18
( 30 18
( dex 18
( AST 18
v a</w> 18
M BH</w> 18
1 95</w> 18
9 9%</w> 18
9 38 18
9 66 18
9 700</w> 18
x ,</w> 18
T OR</w> 18
' )</w> 18
' '</w> 18
' schlech 18
' ')</w> 18
F in 18
F ran 18
F ARMA 18
, 1%</w> 18
P or 18
P OL 18
P ug 18
P uh 18
P ORT 18
z iel 18
z hei 18
E sp 18
E ME 18
E est 18
R ac 18
R om 18
R au 18
R auch 18
R habdomyoly 18
U TIC 18
U GU 18
W eb 18
N a 18
N .</w> 18
N OR 18
N erven 18
N 05 18
N .V.</w> 18
K las 18
Б ъ 18
л г 18
л .:</w> 18
а р 18
и я</w> 18
/ Belgi 18
Κ ύ 18
Κ Η 18
π ρ 18
ο ς</w> 18
Í sland</w> 18
Ö st 18
Α Ν 18
Α Γ 18
Α ΚΗ 18
Π ΑΝ 18
Ι Ω 18
Ι Ο 18
Τ Ο 18
Ε λ 18
λ ά 18
δ α</w> 18
Υ ΙΟ 18
â nia</w> 18
á g</w> 18
en ch 18
en an 18
er ter</w> 18
er gen</w> 18
er y- 18
in ur 18
in id 18
ti d 18
ti az 18
an orex 18
un be 18
re duk 18
re mission</w> 18
re atitis,</w> 18
on c 18
on e- 18
di ve</w> 18
it alop 18
al ac 18
al s.</w> 18
al one</w> 18
al pha 18
ar rhythmi 18
or ity</w> 18
or sz 18
se i</w> 18
se iz 18
se d.</w> 18
se ),</w> 18
si ven</w> 18
be ach 18
be deut 18
be wegungen,</w> 18
ra dy 18
ra m)</w> 18
ip of 18
de l</w> 18
de pri 18
de alk 18
mi :</w> 18
mi ert</w> 18
st on 18
at - 18
at temp 18
om ery- 18
ur g</w> 18
me s.</w> 18
au ton 18
ab sich 18
Ar rhythmi 18
as ymptom 18
mo tid 18
ie gel</w> 18
der land</w> 18
der ly:</w> 18
ir rho 18
con ju 18
con vul 18
ver änder 18
ver mehr 18
ap is 18
sh ort 18
ec es</w> 18
ec es.</w> 18
isch - 18
pro po 18
es ),</w> 18
es ká</w> 18
An teil</w> 18
An amnese</w> 18
lu sive</w> 18
ad enom 18
Th us,</w> 18
ther mi 18
ER PACK 18
pre - 18
pre dom 18
pre vention</w> 18
pre dispose</w> 18
ten '</w> 18
ten en</w> 18
com a</w> 18
ach e</w> 18
ri er 18
In hibitor</w> 18
glob inur 18
for med</w> 18
ex tromethorphan 18
ste m</w> 18
us c 18
us :</w> 18
tra pyramid 18
ange sprochen</w> 18
ep ide 18
ing ;</w> 18
ber eich</w> 18
Sch merz 18
qu inid 18
sen ing</w> 18
vi ja</w> 18
IN LAND 18
tig te</w> 18
ia sis</w> 18
ger aten</w> 18
SQUIB B,</w> 18
Studi en,</w> 18
fa eces.</w> 18
kin son 18
pres ents</w> 18
eu /</w> 18
ts alter 18
den n,</w> 18
dialy se</w> 18
control .</w> 18
control l 18
Ma gyar 18
tu gal</w> 18
tu va</w> 18
co al</w> 18
Ge fühl</w> 18
Re mission</w> 18
ga tes</w> 18
erz irrho 18
Al an 18
Al thoug 18
Al zhei 18
rin e</w> 18
Dosis reduk 18
Dosis bereich</w> 18
age :</w> 18
führ liche</w> 18
repor ted.</w> 18
Arzneimittel :</w> 18
and en,</w> 18
CYP2D 6.</w> 18
CYP2D 6,</w> 18
mor phin 18
10 7%,</w> 18
Aus führliche</w> 18
De hyd 18
De alk 18
vaskulär en</w> 18
27 2</w> 18
27 90</w> 18
erg er</w> 18
Su omi 18
Symptom e.</w> 18
Erwachsen en,</w> 18
reduc tions</w> 18
Anti depres 18
Mon tg 18
maxim al</w> 18
yl - 18
yl ation</w> 18
35 7</w> 18
35 8</w> 18
35 1</w> 18
35 3</w> 18
35 9</w> 18
35 4</w> 18
mäß igen</w> 18
ZU R</w> 18
AL T</w> 18
App eti 18
hat ,</w> 18
ous ness,</w> 18
schizophren er</w> 18
with dra 18
tar dive</w> 18
18 %</w> 18
reac tion,</w> 18
4.4 )</w> 18
consider ed.</w> 18
Gen der:</w> 18
Gen otoxizität</w> 18
episo de 18
Man ie</w> 18
Man ifest 18
sul phate</w> 18
SP .</w> 18
Ex trapyramid 18
Effek te.</w> 18
year s;</w> 18
diabe te 18
diabe tic</w> 18
diabe tes,</w> 18
Leb erzirrho 18
größ ere</w> 18
Hämo dialyse</w> 18
pregn ant,</w> 18
5HT 7 18
13 %</w> 18
13 01</w> 18
ildr en</w> 18
17 36</w> 18
inte s,</w> 18
recep tor</w> 18
concentr ations.</w> 18
exten siven</w> 18
metabolis ers</w> 18
lith ium 18
lith iasis</w> 18
bi di 18
go spas 18
Rezep tor</w> 18
erre ich</w> 18
Ch ildren</w> 18
ure s,</w> 18
gain :</w> 18
system ischen</w> 18
glyc aemia</w> 18
gef unden.</w> 18
Aripiprazol- Behandlung</w> 18
Diabe tes,</w> 18
yn gospas 18
(N M 18
37 2</w> 18
37 0</w> 18
37 1</w> 18
induc er</w> 18
demonst rate</w> 18
3- week,</w> 18
evalu able</w> 18
strok e,</w> 18
dopamin ergic</w> 18
dopamin erger</w> 18
WA Y</w> 18
hydrox y</w> 18
fat -Kon 18
hokin ase</w> 18
wor sening</w> 18
sk á</w> 18
Fa eces</w> 18
Transf erase</w> 18
char coal</w> 18
metabol ic</w> 18
dyskin esie</w> 18
S. A.</w> 18
S. R. 18
S. A./ 18
Mal ta</w> 18
antagon ist</w> 18
Car diovascular</w> 18
As ber 18
67 703 18
abhäng igen</w> 18
38 6</w> 18
Möglich er</w> 18
Ne derland</w> 18
aktiv ität</w> 18
neumon ie</w> 18
hyperglyc aemia</w> 18
Syn drom</w> 18
develop mental</w> 18
(0 800)</w> 18
olep tisches</w> 18
superi ority</w> 18
CYP3A4 -</w> 18
5HT2 a</w> 18
5HT2 a- 18
keto conaz 18
hokina se),</w> 18
Belgi que 18
Tél /</w> 18
Tél :</w> 18
Tél /Tel:</w> 18
initi ation</w> 18
(G GT),</w> 18
N- dealk 18
N- Dealk 18
Erhöh ungen</w> 18
fort gesetzt</w> 18
mell itus,</w> 18
Zu gehö 18
erreich en</w> 18
ESA ,</w> 18
Dehydro- Aripiprazol,</w> 18
25 1</w> 18
Phosp hokinase,</w> 18
neg ativen</w> 18
Jah re)</w> 18
EU/1/07/412/ 0 18
Demen z 18
Malign es</w> 18
eth n 18
Rück fall 18
Hyperglykämi e</w> 18
Hydroxy -</w> 18
Hydroxy lierung</w> 18
11 C- 18
dosisabhäng ige</w> 18
(6 %)</w> 18
character ised</w> 18
kardi e,</w> 18
gemein same</w> 18
experienc ed</w> 18
niedrig ere</w> 18
Aspar t 18
Ital ia</w> 18
VIS TOR</w> 18
smo k 18
range :</w> 18
GM BH</w> 18
2C 9</w> 18
2C 19</w> 18
Nor ge</w> 18
enzy mes.</w> 18
verfüg bar.</w> 18
still en.</w> 18
Häufig keit</w> 18
Depres sion 18
Plasma protein 18
BLIST ERPACK 18
cir rho 18
(M N 18
öde me,</w> 18
schn el 18
verschrie benen</w> 18
Patientengrupp en</w> 18
seizu re,</w> 18
hyperglycaemi a-related</w> 18
57 966 18
HI V 18
HI V</w> 18
Tode sf 18
Tode sfol 18
CYP1 A 18
CYP3A4- Induktoren</w> 18
fix er</w> 18
fix ed- 18
prolong ation</w> 18
(0) 21</w> 18
(0) 810</w> 18
dementi a-related</w> 18
Sloven ija</w> 18
Sloven ská</w> 18
Luxemb our 18
Luxemb urg</w> 18
Famili enan 18
distri bu 18
atyp ical</w> 18
hyperosmol ar</w> 18
5HT1 a</w> 18
cl ing</w> 18
Herstell ung</w> 18
SAR L</w> 18
(D extromethorphan 18
ink lusive</w> 18
gebrach t.</w> 18
PACKA GING</w> 18
äch lich</w> 18
12- week</w> 18
metabolit e,</w> 18
hau pts 18
Te л.:</w> 18
propor tion</w> 18
reconstitu ted</w> 18
AX 12</w> 18
59 29 18
El derly:</w> 18
Neur oleptic</w> 18
abnormal iti 18
Begleit therapie</w> 18
steh en,</w> 18
10- 30</w> 18
oxy morphin 18
Monotherapie -Studien</w> 18
Psychi atric</w> 18
Karzinom en</w> 18
tachycardia ,</w> 18
rhabdomyoly sis,</w> 18
(EP S):</w> 18
Elimin ation:</w> 18
ole lithiasis</w> 18
lower ,</w> 18
suicid al</w> 18
umfas ste</w> 18
recover ed</w> 18
path wa 18
feat ures,</w> 18
CYP2D6- Inhibitor</w> 18
Spät dyskinesie</w> 18
keton ur 18
Lithium - 18
hydroxy benzo 18
fataliti es.</w> 18
Aspir ationsp 18
Konzentration en.</w> 18
Dyskin esi 18
Risikofak toren</w> 18
ketoac idosis</w> 18
transitor ische</w> 18
1-adren ergen</w> 18
Up on</w> 18
KG AA</w> 18
san ts</w> 18
Haut aussch 18
(n =</w> 18
(F INLAND 18
http://www.emea. europa.eu</w> 18
Dan mark</w> 18
Mat ern 18
Tachy kardie,</w> 18
ild- Pug 18
Dise ase:</w> 18
Post-Marketing :</w> 18
Sul fat-Kon 18
84 11</w> 18
Lie tuva</w> 18
(Ch ild-Pug 18
Pol ska</w> 18
Alk ohol</w> 18
Herzrhyth mus 18
Bereich :</w> 18
Durchschnit tsalter 18
carcinom as</w> 18
unveränder t</w> 18
SK A</w> 18
Sí mi:</w> 18
Smo king</w> 18
Sver ige</w> 18
Ire land</w> 18
IAT E</w> 18
añ a</w> 18
hid ro 18
labor atory</w> 18
CP K</w> 18
CÊ UTIC 18
Deta iled</w> 18
607 4300</w> 18
GES MBH</w> 18
Lat vija</w> 18
Agent ur</w> 18
.Ε .</w> 18
42- 0</w> 18
farin ),</w> 18
(AL T),</w> 18
(dex tromethorphan 18
(AST ),</w> 18
'schlech ten'</w> 18
Fin land</w> 18
Fran ce</w> 18
FARMA CÊUTIC 18
Por tugal</w> 18
POL SKA</w> 18
PORT UGU 18
Esp aña</w> 18
Eest i</w> 18
Rom ânia</w> 18
Rauch er</w> 18
Rhabdomyoly se,</w> 18
Web site</w> 18
NOR WAY</w> 18
N05 AX12</w> 18
Klas se</w> 18
Бъ лг 18
ар ия</w> 18
Κύ πρ 18
Öst erreich</w> 18
ΑΓ ΙΩ 18
ΑΚΗ Σ</w> 18
ΠΑΝ ΑΓΙΩ 18
ΤΟ Υ</w> 18
Ελ λά 18
ΥΙΟ Σ</w> 18
ench y 18
tiaz em</w> 18
unbe absich 18
one- half</w> 18
italop ram)</w> 18
alpha - 18
arrhythmi as 18
orsz ág</w> 18
seiz ure</w> 18
ipof usc 18
depri miert</w> 18
omery- Asber 18
asymptom ati 18
conju gates</w> 18
predom in 18
epide mi 18
kinson is 18
Magyar ország</w> 18
Althoug h</w> 18
Alzhei m 18
Dosisreduk tionen</w> 18
Montg omery-Asber 18
withdra wn</w> 18
Leberzirrho se</w> 18
S.R. L.</w> 18
S.A./ N.V.</w> 18
67703 8</w> 18
N-Dealk y 18
Zugehö rig 18
57966 66</w> 18
Todesfol ge</w> 18
haupts ächlich</w> 18
5929 8411</w> 18
Aspirationsp neumonie</w> 18
(FINLAND )</w> 18
Sulfat-Kon jug 18
(Child-Pug h</w> 18
Durchschnittsalter :</w> 18
FARMACÊUTIC A</w> 18
PORTUGU ESA,</w> 18
Бълг ария</w> 18
Κύπρ ος</w> 18
ΠΑΝΑΓΙΩ ΤΟΥ</w> 18
Ελλά δα</w> 18
unbeabsich tigte</w> 18
S eit 17
a zep 17
a te,</w> 17
t ge 17
s odi 17
n umber</w> 17
p hen 17
p aclitaxel.</w> 17
o ther 17
l anzap 17
D ING 17
O lanzap 17
f t</w> 17
f ä 17
( 30</w> 17
( wie</w> 17
v an 17
F or 17
F et 17
P l 17
/ oder</w> 17
ol l 17
mi l 17
st .</w> 17
ein .</w> 17
me als.</w> 17
ab sol 17
rea d</w> 17
ER EN</w> 17
am e</w> 17
pr ädi 17
to o</w> 17
to se 17
CH MP 17
ger inn 17
Blut gerinn 17
sich er</w> 17
mpf ehl 17
Ma gnesi 17
par t</w> 17
0. 7</w> 17
inf usion 17
BE DING 17
spon ieren</w> 17
dar an</w> 17
sul f 17
Herz -</w> 17
malign e</w> 17
mg/ Tag</w> 17
und /oder</w> 17
oug h 17
Natrium ,</w> 17
Natrium hydroxi 17
gleich en</w> 17
stör ungen,</w> 17
immedia te 17
Bipolar-I-Stör ung:</w> 17
ungspha se</w> 17
Hau p 17
Langzeit - 17
Kör per</w> 17
Phosp hokinase),</w> 17
Kreat in- 17
Haloperidol - 17
47 %.</w> 17
Mik rok 17
vorübergehen de</w> 17
Malign ant</w> 17
Seh r</w> 17
Mil ch</w> 17
bloo d,</w> 17
1/100 ).</w> 17
BLIST ERS</w> 17
Zust and</w> 17
Überle it 17
wo bei</w> 17
Syndro me</w> 17
umgehen d</w> 17
Mahlzeit en</w> 17
wichtig ,</w> 17
(30 %).</w> 17
schnel lem</w> 17
HIV - 17
Olanzap in- 17
fä ll 17
absol ute</w> 17
prädi sponieren</w> 17
BEDING UNGEN</w> 17
Natriumhydroxi d</w> 17
S MA 16
S ONS 16
I -</w> 16
t ).</w> 16
t y,</w> 16
t ary</w> 16
c ip 16
c ap 16
k ün 16
e y 16
e d 16
e qu 16
g abe</w> 16
l än 16
C har 16
C ON 16
8 7 16
G el 16
L Y</w> 16
L on 16
A K 16
A gi 16
2 9</w> 16
j e</w> 16
f te</w> 16
f ache</w> 16
( n</w> 16
( allerg 16
T ei 16
T ENTS</w> 16
T AK 16
z tliche</w> 16
R OUTE 16
W as</w> 16
N europath 16
Z yto 16
Ö ff 16
en ;</w> 16
re mo 16
or t</w> 16
se s.</w> 16
ge ssen</w> 16
st op 16
st opf 16
lo se</w> 16
su chen</w> 16
as se 16
as par 16
con tra 16
ver gessen</w> 16
AB G 16
rea sed</w> 16
han d 16
du e</w> 16
tion s 16
zu stand</w> 16
com mon 16
ex tre 16
op ha 16
TI GE</w> 16
eh mi 16
Ein nehmen.</w> 16
CH MP</w> 16
dr ink</w> 16
ck e</w> 16
är ztliche</w> 16
krank heit</w> 16
table ts.</w> 16
tu b 16
ne utropen 16
angewende t?</w> 16
0, 7</w> 16
bo tt 16
e- a- 16
fall ,</w> 16
ME THO 16
ous ly.</w> 16
nor male</w> 16
Injektions zwe 16
zah l</w> 16
AC H</w> 16
sche dule</w> 16
Pharmako vigil 16
Natri um</w> 16
Schizophren ia:</w> 16
Schizophren ie:</w> 16
Bipolar- I-</w> 16
Leber funk 16
subjec t</w> 16
erhiel ten.</w> 16
py rex 16
3- 5</w> 16
rap id 16
MEN T</w> 16
Sti mm 16
develop ment</w> 16
Disorder :</w> 16
provi ded</w> 16
INH ALT</w> 16
Mik ro 16
auftreten s</w> 16
sing le- 16
Hyperglykämi e,</w> 16
PP LY</w> 16
proble ms</w> 16
Überle ben</w> 16
solu tion.</w> 16
machin es,</w> 16
Kü hl 16
tier th 16
besch werden,</w> 16
Verschlu ss</w> 16
acid ,</w> 16
Wieder auftretens</w> 16
Gefäß krankheit</w> 16
prof iti 16
SU PPLY</w> 16
onc e-a- 16
short -term</w> 16
SONS TIGE</w> 16
kün st 16
CON TENTS</w> 16
87 %.</w> 16
Agi tierth 16
TAK E</w> 16
ROUTE (S)</w> 16
METHO D</w> 16
once-a- day</w> 16
S UB 15
I V 15
I hr</w> 15
V an 15
B E</w> 15
B ildung</w> 15
a -</w> 15
s ing</w> 15
s zustand</w> 15
k ern 15
i de</w> 15
i dose</w> 15
o d,</w> 15
l ass 15
l ös 15
b ution</w> 15
d en,</w> 15
O FF 15
A t 15
f ul</w> 15
w o</w> 15
w der</w> 15
( EN 15
T od,</w> 15
F la 15
E FF 15
R ek 15
en der</w> 15
an wen 15
di rec 15
te ;</w> 15
se in</w> 15
de - 15
ge .</w> 15
st ability</w> 15
sch e,</w> 15
lo ok 15
me l 15
me th 15
au ßerdem</w> 15
ung ;</w> 15
ul ar</w> 15
pre cip 15
zu bereit 15
et .</w> 15
ex tent</w> 15
ier t.</w> 15
ste if 15
ange me 15
ing .</w> 15
ven tion 15
sen sor 15
oc y 15
IB LE</w> 15
AN C 15
car ton 15
bo th</w> 15
recommen d 15
ST AT 15
ST OFF 15
ST ANC 15
transf er 15
erh ält 15
orth o 15
Kom a</w> 15
ru b 15
AC TIVE</w> 15
tel le</w> 15
Natrium chlor 15
nach folgenden</w> 15
Blutdruck s</w> 15
üt tel 15
Ja hren</w> 15
schreib ung</w> 15
Muskel steif 15
schn ell</w> 15
hydroxi de</w> 15
vigil ance</w> 15
wom en</w> 15
D2 -</w> 15
distri bution</w> 15
atyp ischen</w> 15
hyperosmol a 15
5HT1 a-</w> 15
ART ON</w> 15
ART (EN 15
WIRK STOFF 15
transpor t</w> 15
enthal ten</w> 15
col our 15
mou th 15
plan en.</w> 15
verse h 15
Müdig keit</w> 15
cur r 15
conven tional</w> 15
Ketoaz idose</w> 15
Schwitz en,</w> 15
Sonsti ge</w> 15
BLISTERPACK UNGEN</w> 15
phen yl 15
mpfehl ungen</w> 15
immediate ly.</w> 15
asse ssed</w> 15
aspar ta 15
SUB STANC 15
EFF EC 15
ART(EN )</w> 15
I hre</w> 14
t - 14
c r 14
s ses</w> 14
k el</w> 14
k reb 14
y st 14
r e</w> 14
r y</w> 14
i ra 14
g ,</w> 14
b ringen</w> 14
d y.</w> 14
d bar</w> 14
m l.</w> 14
C le 14
C ellulo 14
O s 14
L es 14
L ichte 14
7 8</w> 14
5 0 14
5 9</w> 14
4 , 14
f ar 14
f ri 14
f ass 14
f rü 14
( 4 14
( including</w> 14
( IU)</w> 14
9 7</w> 14
9 00</w> 14
T ar 14
F ort 14
W el 14
K urz 14
ä ß</w> 14
ch ed</w> 14
ch es</w> 14
an fall,</w> 14
al le 14
al tered</w> 14
al line</w> 14
is sen 14
de ta 14
mi ld</w> 14
le is 14
ac tur 14
ma de</w> 14
sp ira 14
ie s</w> 14
Be zu 14
ver schw 14
ver kehr 14
per c 14
hr leis 14
tion ;</w> 14
In verkehr 14
ation al</w> 14
lich :</w> 14
la re,</w> 14
Ver schreibungspflich 14
Ver stopf 14
wh om</w> 14
ep t</w> 14
kon vention 14
auf weis 14
ris tal 14
pa in 14
man ifest 14
uf actur 14
cau ti 14
itä t,</w> 14
studi ed</w> 14
angewende t,</w> 14
kul ä 14
Arzneimittel ,</w> 14
atri um 14
canc er,</w> 14
10 9 14
Table t 14
Aus fäll 14
Injektion en</w> 14
occur s</w> 14
Pro duk 14
Sp eichel 14
Die s</w> 14
Ad minis 14
Gen ehmi 14
Ser oton 14
ähn lich</w> 14
inter national</w> 14
thor ough 14
discontinu ed</w> 14
14 ,</w> 14
manage d</w> 14
beste h 14
Prä gung</w> 14
hoh er</w> 14
vis i 14
bi olog 14
fühl en.</w> 14
Durch fall 14
evalu ated</w> 14
sk ele 14
headach e,</w> 14
Zusammen fass 14
mittl ere</w> 14
Kal ium</w> 14
fre i 14
fre ez 14
Häufig :</w> 14
Keto conazol</w> 14
Nerv os 14
nachgewie sen.</w> 14
Bauch -</w> 14
ster ile 14
sha k 14
lang sam</w> 14
gedank en,</w> 14
Magen beschwerden,</w> 14
Anschw ellen</w> 14
Sprach störungen,</w> 14
Verwen dbar</w> 14
beach ten.</w> 14
Injektionszwe cke</w> 14
Rek on 14
anwen den.</w> 14
erhält lich.</w> 14
ortho static</w> 14
cr yst 14
Les en</w> 14
Lichte mpfindlich 14
far blo 14
Bezu g</w> 14
Inverkehr bringen</w> 14
ristal line</w> 14
manifest ations</w> 14
ufactur er</w> 14
Genehmi gung</w> 14
thorough ly</w> 14
Zusammenfass ung</w> 14
cryst alline</w> 14
S al 13
S AL</w> 13
S UC 13
S ABG 13
I T</w> 13
I ENTS</w> 13
V OR 13
V ERK 13
a tely</w> 13
c ra 13
s -</w> 13
s low 13
r ück 13
i di 13
i ded</w> 13
n eu 13
p ed</w> 13
p yl 13
l ang</w> 13
b is 13
d ).</w> 13
C ES 13
C LASS 13
D IS 13
- SCHRIFT</w> 13
8 1</w> 13
G H 13
L it 13
A P 13
A lo 13
A GE</w> 13
2 6 13
H a 13
j o 13
f in 13
f le 13
( I.E. 13
( 95%</w> 13
M inu 13
M US 13
1 5. 13
T S,</w> 13
T AND 13
F l 13
F RO 13
P IENTS</w> 13
z säure</w> 13
E ,</w> 13
E L 13
E MENT</w> 13
R a 13
R ES 13
R EN</w> 13
K IN 13
Z ung 13
Z ah 13
er le 13
er st</w> 13
in t 13
un d,</w> 13
un mittel 13
re icht</w> 13
di hydro 13
it ch 13
al ent</w> 13
al ised</w> 13
ar z 13
or gan 13
ge ei 13
le ase</w> 13
li c</w> 13
at ur 13
ein ,</w> 13
ein fri 13
om en</w> 13
ab reicht</w> 13
sp ep 13
ver b 13
ver abreicht</w> 13
isch )</w> 13
pro pyl 13
per form 13
LI CH 13
LI ST</w> 13
AB FALL 13
Ab gabe</w> 13
Er yp 13
ER AL</w> 13
ER FOR 13
ER REICH 13
In tern 13
ation s,</w> 13
ation s:</w> 13
ation ale</w> 13
lich em</w> 13
ier en,</w> 13
TI GUNG</w> 13
Ver w 13
UN USED</w> 13
UN ERREICH 13
DE ST 13
IN STR 13
CH IL 13
über empf 13
sich t</w> 13
AU TIONS</w> 13
AN SCHRIFT</w> 13
gi a</w> 13
ander es</w> 13
TH AT</w> 13
EN FALLS</w> 13
ne w</w> 13
EI TIGUNG</w> 13
low .</w> 13
our s,</w> 13
ES S</w> 13
0. 3</w> 13
PR EC 13
PR IATE</w> 13
hyper sensitivity</w> 13
kul atur 13
inf ul</w> 13
ST E</w> 13
ST AMMEN 13
kar zin 13
Auf sicht</w> 13
ca se</w> 13
ca ses.</w> 13
ye lo 13
gem äß</w> 13
diff erent</w> 13
LA GER 13
TE M</w> 13
SS NAHM 13
imp act</w> 13
IC ATION</w> 13
tw ort 13
schizophren ia,</w> 13
Pack age</w> 13
18 . 13
18 , 13
PRO PRIATE</w> 13
rig idi 13
UC TIONS</w> 13
perfor me 13
größ er</w> 13
(E )</w> 13
isier ten</w> 13
CI PIENTS</w> 13
(S ),</w> 13
ind lich</w> 13
intravenö sen</w> 13
PRODUC TS</w> 13
PRODUC TS,</w> 13
app eti 13
UNGS HINWEISE</w> 13
Natrium di 13
Natrium mono 13
SI GH 13
tan e 13
EU/1/04/276/ 03 13
WA STE</w> 13
VER WENDE 13
GEN ERAL</w> 13
EX CIPIENTS</w> 13
BES TAND 13
BES EITIGUNG</w> 13
Car bamazep 13
frequ ently</w> 13
schreit en</w> 13
Per son 13
gesteig erte</w> 13
tol d</w> 13
GE GE 13
OU T</w> 13
NE CES 13
bereit s</w> 13
ALI EN</w> 13
gesam ten</w> 13
gewä hrleis 13
Brust kreb 13
WARN ING 13
WARN ING</w> 13
LE AF 13
LE -SCHRIFT</w> 13
beein flu 13
DA VON</w> 13
DA SS</w> 13
RE ACH</w> 13
MIN IM 13
MIN DEST 13
benö tig 13
Sicherh eit 13
chlor ic</w> 13
chlor ide</w> 13
REN ZUNG</w> 13
weak ness,</w> 13
diz z 13
IF ICATION</w> 13
AUF SABG 13
blister .</w> 13
up on</w> 13
TEI LE</w> 13
Reak tion</w> 13
STOR ED</w> 13
STOR AGE</w> 13
brech en,</w> 13
Infek tionen</w> 13
sec tions</w> 13
leid en.</w> 13
AD DR 13
rash ,</w> 13
SAR Y</w> 13
erat ur</w> 13
SICHT BAR</w> 13
SICHT SMA 13
PACKA GE</w> 13
mg/m 2</w> 13
Kü hl</w> 13
transpor tieren</w> 13
mou th</w> 13
Sk in</w> 13
Sk ele 13
DR EN</w> 13
DER LICH</w> 13
DER IV 13
refrig erated</w> 13
BRAIL LE</w> 13
BRAIL LE-SCHRIFT</w> 13
GEBRAU CH 13
GEBRAU CH</w> 13
WARNHINWEIS ,</w> 13
WARNHINWEIS E,</w> 13
MATERI ALS</w> 13
MATERI ALIEN</w> 13
tired ness</w> 13
trit t</w> 13
adv ice</w> 13
Gelegent lich:</w> 13
BEN ENFALLS</w> 13
PO SAL</w> 13
Polysorb at</w> 13
AUFZUBEWAH REN</w> 13
sed ation</w> 13
Faltschachte l 13
losig keit,</w> 13
Schluck en</w> 13
Schmerz en</w> 13
ey es,</w> 13
(allerg isch)</w> 13
remo ve</w> 13
stop ped</w> 13
Pharmakovigil anz 13
Mikro gramm</w> 13
Kühl sch 13
lass en,</w> 13
STAT EMENT</w> 13
WIRKSTOFF (E)</w> 13
curr ent</w> 13
Fort schreiten</w> 13
Kurz zeit 13
deta iled</w> 13
freez e.</w> 13
Rekon stitution</w> 13
Sal zsäure</w> 13
SUC H</w> 13
VOR SICHTSMA 13
VERK AUFSABG 13
slow ly</w> 13
bis :</w> 13
CLASS IFICATION</w> 13
DIS POSAL</w> 13
Lit eratur</w> 13
AP PROPRIATE</w> 13
(I.E. ),</w> 13
MUS T</w> 13
FRO M</w> 13
KIN DER</w> 13
Zung e</w> 13
unmittel bar</w> 13
dihydro gen</w> 13
geei gn 13
einfri eren.</w> 13
perform ing</w> 13
ABFALL MATERIALIEN</w> 13
Eryp o</w> 13
ERFOR DERLICH</w> 13
Intern ationale</w> 13
UNERREICH BAR</w> 13
INSTR UCTIONS</w> 13
CHIL DREN</w> 13
überempf indlich</w> 13
PREC AUTIONS</w> 13
STAMMEN DEN</w> 13
LAGER UNGSHINWEISE</w> 13
SSNAHM EN</w> 13
SIGH T</w> 13
VERWENDE TEM</w> 13
BESTAND TEILE</w> 13
GEGE BENENFALLS</w> 13
NECES SARY</w> 13
WARNING (S),</w> 13
LEAF LE 13
MINIM UM</w> 13
MINDEST ANGABEN</w> 13
ADDR ESS</w> 13
DERIV ED</w> 13
VORSICHTSMA SSNAHMEN</w> 13
VERKAUFSABG RENZUNG</w> 13
S ä 12
S ign 12
S edi 12
I ) 12
B re 12
a re 12
a id</w> 12
c c 12
c .</w> 12
c us 12
c ulo 12
c ium 12
c reased</w> 12
s st.</w> 12
h er</w> 12
h our</w> 12
k ein 12
k umul 12
e is 12
y ;</w> 12
y ).</w> 12
r ic 12
g ie</w> 12
d ach 12
m yelo 12
C hr 12
C ARTON</w> 12
D en</w> 12
3 75</w> 12
6 9%</w> 12
0 6 12
u he 12
G um 12
O ro 12
L LUNG</w> 12
A "</w> 12
7 8 12
5 1)</w> 12
2 7</w> 12
H Ü 12
w and</w> 12
( II 12
( CHMP 12
v ier 12
v id 12
M und 12
9 51)</w> 12
F atigu 12
z ünd 12
" 6 12
" A"</w> 12
E ti 12
E ben 12
E ssen</w> 12
R MP</w> 12
R uhe 12
% ),</w> 12
U rin 12
U SS 12
W ar 12
W ort 12
N eh 12
K lare,</w> 12
Z ellen</w> 12
Ä USS 12
en han 12
in e.</w> 12
an d,</w> 12
an genom 12
an twort 12
re tion</w> 12
th ra 12
th em</w> 12
on .</w> 12
on ic</w> 12
di spersible</w> 12
di rek 12
ar o 12
ent weder</w> 12
ent zünd 12
or ,</w> 12
se en</w> 12
se tting</w> 12
si e,</w> 12
si lic 12
be iden</w> 12
be low.</w> 12
ra s 12
le gen.</w> 12
li g</w> 12
ein nehmen</w> 12
ein deu 12
ein trächtig 12
po wder</w> 12
po vid 12
om men 12
ur ie,</w> 12
ur ia,</w> 12
ab ,</w> 12
su it 12
ma il 12
tr yp 12
sp ü 12
Patient en:</w> 12
Be einträchtig 12
ver hin 12
ver wor 12
ver antwort 12
il d 12
ic k 12
pro du 12
um .</w> 12
wen ige</w> 12
Er bre 12
Er brechen,</w> 12
ten den</w> 12
zu legen.</w> 12
In creased</w> 12
la gen</w> 12
Arz t.</w> 12
Ver besser 12
lac k</w> 12
lac tose</w> 12
iz ier 12
g/ dl.</w> 12
och sal 12
kon ser 12
00 - 12
dis car 12
Woch en)</w> 12
tig .</w> 12
tig er</w> 12
auf ge 12
adminis ter</w> 12
Studi es</w> 12
ck en 12
Blut körper 12
pa inful</w> 12
ment - 12
he ar 12
week s,</w> 12
week s)</w> 12
lie f 12
gi v 12
ungs volumen</w> 12
gr un 12
car rie 12
car mel 12
vor ,</w> 12
tu alisier 12
Un ru 12
ron ucleus</w> 12
studi es.</w> 12
zy ten,</w> 12
placebo ,</w> 12
Al ways</w> 12
führ te</w> 12
mus cle 12
mus kulatur 12
inf lu 12
teil nah 12
Risik en</w> 12
recommen ded.</w> 12
conc ern 12
war en,</w> 12
berichte ten</w> 12
pharmac ological</w> 12
Eisen (II 12
reich en</w> 12
Mon aten</w> 12
chemo therapy.</w> 12
syrin ge,</w> 12
möglich .</w> 12
möglich en</w> 12
continu ed</w> 12
yl it 12
EP AR 12
EP AR</w> 12
respon sible</w> 12
Injektions zubereit 12
durch zuführ 12
stand ard</w> 12
Pr üf 12
human s.</w> 12
1, 000,</w> 12
UM HÜ 12
sc ale</w> 12
Vergle ich 12
inter v 12
ate )</w> 12
ate s,</w> 12
tt muskulatur 12
(E 2 12
(E 951)</w> 12
4- 20 12
erkrank ungen:</w> 12
addi tion</w> 12
entsprechen de</w> 12
intravenö se</w> 12
bi ological</w> 12
mic ronucleus</w> 12
stän de</w> 12
possib ly</w> 12
notwendi g.</w> 12
rap id</w> 12
ausreich enden</w> 12
sicher gestellt</w> 12
minder ung</w> 12
utrop hil 12
deu te 12
usu ally</w> 12
cht barkeit</w> 12
fort gesetz 12
grupp e</w> 12
measu res</w> 12
Prote in</w> 12
Immun ogenität</w> 12
rest ric 12
Pul ver</w> 12
Ju ck 12
reas ing</w> 12
kardi ale</w> 12
experienc ing</w> 12
verwende t</w> 12
up da 12
A- 00 12
behavi ours</w> 12
Leu kopen 12
correc t</w> 12
My al 12
establis hed</w> 12
diarrhoe a</w> 12
cal led</w> 12
Lac tose 12
erat or</w> 12
gebrach t</w> 12
machin es.</w> 12
Lös ung.</w> 12
---------------- ---------------- 12
Müdig keit,</w> 12
Angst zu 12
refrig erator</w> 12
einmal igen</w> 12
Resorp tions 12
oxi d</w> 12
oxi de</w> 12
dür f 12
dür fen</w> 12
(E17 2).</w> 12
(E17 2)</w> 12
pur po 12
Sur vival</w> 12
Mä us 12
simul tane 12
auß er</w> 12
suspec ted</w> 12
grippe ähnliche</w> 12
Eigenblutspen de</w> 12
üs sig 12
ansp rach 12
tamin e</w> 12
Verteil ungsvolumen</w> 12
Schla f 12
Metabolit en</w> 12
breast-fe eding</w> 12
Phenyl ketonur 12
Asparta m</w> 12
(* )</w> 12
author is 12
Mit tel</w> 12
Na hr 12
hand s,</w> 12
bott le</w> 12
Leberfunk tion</w> 12
colour less</w> 12
(4 4-20 12
verschw ommen 12
Verschreibungspflich tig.</w> 12
besteh t.</w> 12
skele tal</w> 12
farblo se</w> 12
jo int</w> 12
Fl üssig 12
erle i</w> 12
arz neimitte 12
appeti te,</w> 12
Carbamazep in</w> 12
beeinflu sst.</w> 12
geeign e 12
Sedi erung</w> 12
culo skeletal</w> 12
kein erlei</w> 12
Chr onic</w> 12
Oro dispersible</w> 12
(CHMP )</w> 12
Eti ket 12
Eben so</w> 12
Neh men</w> 12
ÄUSS EREN</w> 12
thra cy 12
Beeinträchtig ung</w> 12
verhin der 12
verwor fen</w> 12
Erbre chen</w> 12
ochsal z 12
konser vier 12
Eisen(II I) 12
UMHÜ LLUNG</w> 12
restric ted</w> 12
Lactose -Mono 12
Resorptions rate</w> 12
simultane ously</w> 12
(44-20 )</w> 12
I ts</w> 11
V or</w> 11
B Y</w> 11
B inde 11
c reat 11
c ataly 11
s wit 11
k ur 11
k ation</w> 11
k ts:</w> 11
e ’</w> 11
e ),</w> 11
e gra 11
e chnet</w> 11
y e</w> 11
y l</w> 11
y s.</w> 11
y rex 11
r ha 11
r atio</w> 11
i p</w> 11
i er</w> 11
i der 11
n ä 11
n äch 11
g ieren,</w> 11
p lac 11
p aclitaxel 11
p rac 11
o es 11
l er</w> 11
l led</w> 11
b on 11
b at 11
b ark 11
b rok 11
d ?</w> 11
d as 11
m 2</w> 11
m ).</w> 11
m änn 11
D at 11
D iso 11
- mal</w> 11
O LI 11
4 ,</w> 11
4 5 11
w n 11
w all 11
w ider 11
( 10</w> 11
( Hirn 11
M o 11
M ito 11
M uta 11
9 . 11
T yp</w> 11
T wo</w> 11
F EN</w> 11
F OLI 11
P aediatric</w> 11
P ack</w> 11
P ädiatr 11
P aclitaxel.</w> 11
P fle 11
P yrex 11
z es 11
E ye</w> 11
R ec 11
R and 11
W ater</w> 11
Z it 11
Ö de 11
en d 11
en / 11
en ).</w> 11
er tig</w> 11
in a</w> 11
in en</w> 11
in tak 11
in e)</w> 11
in ess,</w> 11
in toler 11
ti ka</w> 11
ch ing</w> 11
an in 11
an im 11
an teil</w> 11
an wenden</w> 11
un ten</w> 11
re s,</w> 11
re d.</w> 11
re zep 11
re tur 11
re chter 11
di um</w> 11
it ung</w> 11
al tern 11
al gia,</w> 11
ent w 11
ent en</w> 11
or t:</w> 11
se ch 11
se ein 11
se al</w> 11
se s:</w> 11
ro ss</w> 11
be s:</w> 11
be endet</w> 11
be sitz 11
de m 11
de in 11
ge eich 11
ge plan 11
le itung</w> 11
st en 11
st ing</w> 11
li ed</w> 11
li qu 11
ein zel 11
ein gestellt</w> 11
ac tion.</w> 11
ac ross</w> 11
sch were</w> 11
me ss 11
ab en</w> 11
ab ly</w> 11
wer tes</w> 11
ha ir</w> 11
ung sin 11
sp r 11
sp ä 11
ir gen 11
ir enz,</w> 11
Be denken</w> 11
con nec 11
ver besser 11
we d</w> 11
ic in,</w> 11
ic kel 11
pro py 11
es sen 11
An orex 11
ter n</w> 11
mp s,</w> 11
rea gieren,</w> 11
inc reasing</w> 11
fü gung</w> 11
ten e</w> 11
üb lichen</w> 11
zu stan 11
zu grun 11
ri ff 11
gen au 11
gen icity</w> 11
St and 11
St unden.</w> 11
hy dr 11
dl ).</w> 11
ex pir 11
ex zes 11
ste s</w> 11
ta genicity</w> 11
mit o 11
la gerung</w> 11
us s</w> 11
id ing</w> 11
tra kts:</w> 11
Ver fall 11
Ver letz 11
Ver fügung</w> 11
hal tigen</w> 11
hae mor 11
ing )</w> 11
im en</w> 11
ran g 11
rec ent</w> 11
dis position</w> 11
qu ick 11
if ikan 11
fol gende</w> 11
Blu tes</w> 11
DE M</w> 11
än k 11
tor s,</w> 11
vi rap 11
Woch en.</w> 11
ib rated</w> 11
pr ur 11
ell gewe 11
ger ing 11
dr y</w> 11
iel en,</w> 11
ev ents.</w> 11
sich tig</w> 11
suff izienz</w> 11
produc t:</w> 11
produc ts,</w> 11
ämi e,</w> 11
thromb ocy 11
tz ellgewe 11
all ,</w> 11
he d.</w> 11
geb unden</w> 11
ik ation</w> 11
ungs mittel 11
dia st 11
vor sichtig</w> 11
mal er</w> 11
EN STR 11
ne ed 11
rit tenen</w> 11
fe w</w> 11
EI FEN</w> 11
exc ept</w> 11
sf ertig</w> 11
Re sul 11
injec ted</w> 11
injec table</w> 11
angewende ten</w> 11
sa mp 11
ang ina</w> 11
0, 3</w> 11
age .</w> 11
ieren den</w> 11
führ en,</w> 11
eben so</w> 11
kontrollier t</w> 11
ba u</w> 11
ba sierend</w> 11
empfohl en</w> 11
dy spep 11
kulär e</w> 11
hib it</w> 11
erg riff 11
sel ben</w> 11
indic ated.</w> 11
fall en.</w> 11
signific ance</w> 11
chemo therap 11
mittel schwerer</w> 11
ca ses,</w> 11
hen de</w> 11
surger y.</w> 11
zep halopath 11
occur s.</w> 11
En do 11
En de</w> 11
mäß iger</w> 11
reg imen</w> 11
mu tagenicity</w> 11
Unter hau 11
dar f 11
Placebo ,</w> 11
schw inde 11
hat ten.</w> 11
adjust ments</w> 11
heit spro 11
Dis position</w> 11
sho wed</w> 11
tum ours,</w> 11
treatment :</w> 11
durch ,</w> 11
pe z 11
cor e</w> 11
dat um</w> 11
bar ,</w> 11
weit er</w> 11
requi res</w> 11
ade l</w> 11
stu dy 11
stu dy.</w> 11
year s.</w> 11
1. 8. 11
gesch rittenen</w> 11
auftre ten,</w> 11
Chemo therapie 11
Au to</w> 11
condi tion 11
reduzier en.</w> 11
Ber ücksich 11
4- wöch 11
therapeu tische</w> 11
monito red.</w> 11
app lic 11
medi ate</w> 11
medi kation</w> 11
mic e).</w> 11
ble ib 11
Schwanger en</w> 11
Gewichtszunah me,</w> 11
supp lied</w> 11
typ es</w> 11
erhiel ten</w> 11
rekombinan te</w> 11
cle arly</w> 11
cle arance</w> 11
100 )</w> 11
Patienten )</w> 11
Krank heitspro 11
resul ts</w> 11
8. 7</w> 11
Konz entration</w> 11
sbe u 11
Maschin en.</w> 11
Blutdruck s,</w> 11
depres sion.</w> 11
Blisterpack ungen</w> 11
Mus culoskeletal</w> 11
perio d.</w> 11
perio d,</w> 11
bestimm t.</w> 11
Wechsel wirkung</w> 11
lar ger</w> 11
erwar ten</w> 11
Erythropoie tin 11
mü ss 11
mü ssen 11
fest gestell 11
Langzeit studien</w> 11
brea th 11
labe lled</w> 11
berücksich tigen</w> 11
spezif isch</w> 11
Brust schmerzen,</w> 11
hol d</w> 11
vermittel t</w> 11
fort geschrittenen</w> 11
improve ments</w> 11
Kar dio 11
besonder en</w> 11
ill nes 11
mini mi 11
relevan ten</w> 11
yto in,</w> 11
verring erte</w> 11
att ach 11
zusätz lichen</w> 11
ingredi ent</w> 11
wel chen</w> 11
dosisabhäng iger</w> 11
berücksichtig en.</w> 11
geno tox 11
carcin ogenic</w> 11
inflamm ation,</w> 11
mehr eren</w> 11
Blutzuck er 11
phosphat ase</w> 11
geme ssen</w> 11
blister s</w> 11
A- Te 11
beschrie ben 11
leich ten</w> 11
lymph atic</w> 11
beeinträchtig te</w> 11
Lymph systems:</w> 11
vomit ing</w> 11
inal trakts:</w> 11
Gastrointest inaltrakts:</w> 11
28 ,</w> 11
angegeb enen</w> 11
random isier 11
correc ted</w> 11
of ten</w> 11
specif ically</w> 11
establis hed.</w> 11
cal ibrated</w> 11
(D VT 11
fav irenz,</w> 11
Erfahr ung</w> 11
metabolit es</w> 11
Kreatin in</w> 11
Tag ).</w> 11
geschätz t.</w> 11
swal low 11
swal lowing</w> 11
Verschlu ss 11
Infusion sbeu 11
leu kopen 11
letz ten</w> 11
rü ch 11
investig ated.</w> 11
anzu wenden</w> 11
adv anced</w> 11
Excipi ents</w> 11
cellulo se</w> 11
cellulo se,</w> 11
ssen e</w> 11
DN A</w> 11
DN A-Te 11
matern al</w> 11
Allgemein zustan 11
Parti kel</w> 11
kle in 11
jen igen</w> 11
Epre x/ 11
ine- like</w> 11
migra ine-like</w> 11
Indik ation</w> 11
minu tes,</w> 11
Verabreich ung</w> 11
kontraindizier t.</w> 11
mensch lichen</w> 11
überwie gen.</w> 11
erythropoiet in,</w> 11
Nebenwirk ungen,</w> 11
Thrombozy topen 11
geweb s-</w> 11
induzier te</w> 11
Körpergew ich 11
emi a</w> 11
conduc ted</w> 11
present ing</w> 11
Überempfindlichkeitsreak tionen</w> 11
Ausschlag ,</w> 11
erniedrig t</w> 11
1/10 );</w> 11
some what</w> 11
(Ph.Eur. )</w> 11
EME A</w> 11
Nerven systems:</w> 11
Seit e.</w> 11
Pl an</w> 11
Blutgerinn sel</w> 11
infusion ,</w> 11
län ger 11
Gel enk 11
Tei l 11
contra indicated</w> 11
Agitierth eit 11
angeme ssene</w> 11
carton s</w> 11
rub ber 11
mouth ,</w> 11
Os sif 11
spira tor 11
Verstopf ung,</w> 11
Produk t</w> 11
cra mps,</w> 11
Alo pez 11
Minu ten</w> 11
Zah l</w> 11
itch ing,</w> 11
Skele ttmuskulatur 11
Faltschachtel n</w> 11
Sign ifikan 11
Fatigu e</w> 11
Ruhe losigkeit,</w> 11
angenom men,</w> 11
aro und</w> 11
entzünd ung,</w> 11
ras h</w> 11
suit able</w> 11
produ ce</w> 11
Verbesser ung</w> 11
discar d</w> 11
giv en.</w> 11
carrie d</w> 11
influ ence</w> 11
teilnah men,</w> 11
durchzuführ en.</w> 11
interv als</w> 11
Juck en,</w> 11
ansprach en,</w> 11
arzneimitte l</w> 11
thracy clin 11
Binde gewebs-</w> 11
creat in 11
rha ge</w> 11
prac tic 11
oes opha 11
bark eit 11
das s,</w> 11
männ lichen</w> 11
Diso dium</w> 11
Muta gen 11
FOLI ENSTR 11
Pädiatr ische</w> 11
Pfle ger</w> 11
Rand om 11
anim als</w> 11
retur n 11
seein g</w> 11
irgen dein 11
connec tive</w> 11
propy l</w> 11
Stand ard 11
hydr ation,</w> 11
expir y</w> 11
exzes si 11
Verfall datum</w> 11
haemor rhage</w> 11
quick ly</w> 11
thrombocy topen 11
tzellgewe bes:</w> 11
need le</w> 11
Resul ts</w> 11
Unterhau tzellgewebes:</w> 11
schwinde lig</w> 11
Berücksich tigung</w> 11
4-wöch igen</w> 11
Krankheitspro gression</w> 11
DNA-Te chnolog 11
Signifikan z</w> 11
FOLIENSTR EIFEN</w> 11
S h 10
S i 10
S au 10
S pre 10
S ten 10
S IN 10
I )</w> 10
I P 10
I U</w> 10
I sch 10
I mp 10
V E 10
V iel 10
V Es</w> 10
V OR</w> 10
B i 10
B ol 10
B rea 10
B akter 10
B io 10
a i 10
a )</w> 10
a ir 10
a ins</w> 10
a sure 10
t wit 10
t ation</w> 10
t an</w> 10
t ste 10
t ut 10
t ),</w> 10
t anc 10
t ure</w> 10
t ung,</w> 10
t inal</w> 10
t ket 10
t tigung</w> 10
t yp</w> 10
t nissen</w> 10
t ment.</w> 10
c ope,</w> 10
s m 10
s ati 10
s mon 10
s our 10
s kom 10
s sible</w> 10
s lower</w> 10
h iel 10
k ra 10
k lon 10
k um,</w> 10
k ataly 10
k ope,</w> 10
k ubation</w> 10
e ” 10
e ver 10
e zu</w> 10
e med</w> 10
e se.</w> 10
e afle 10
e arly</w> 10
e limin 10
e .,</w> 10
y -</w> 10
y s,</w> 10
y mid 10
y lic</w> 10
r z 10
r in</w> 10
r or 10
r ings</w> 10
r ole</w> 10
r ente</w> 10
i or</w> 10
i an</w> 10
i al,</w> 10
i mmun 10
i gem</w> 10
i ämie</w> 10
n u 10
n ö 10
n en.</w> 10
n de</w> 10
n g/</w> 10
n g/ 10
n vor 10
n ucle 10
n ene</w> 10
n atrium 10
n adel</w> 10
g o</w> 10
g in</w> 10
g än 10
g y,</w> 10
g t:</w> 10
g ree</w> 10
g igkeit</w> 10
p ig 10
p pro 10
p fl 10
p hlebotom 10
p harmakolog 10
o ,</w> 10
o ch</w> 10
o d.</w> 10
o od</w> 10
o ses,</w> 10
o idis 10
b b 10
b al 10
b ol 10
b au 10
b tes</w> 10
b acter 10
b ond</w> 10
d -</w> 10
d ” 10
d ly</w> 10
d ness,</w> 10
m ate</w> 10
m öch 10
m ouse</w> 10
m angel,</w> 10
C al 10
C han 10
C are</w> 10
C yto 10
D E</w> 10
D al 10
D ri 10
D ing 10
D VT 10
- on</w> 10
- Ab 10
- Hb</w> 10
- sta 10
- 2, 10
- Erythropoetin- 10
- 88</w> 10
- folgeerscheinungen</w> 10
- reaction.</w> 10
- Agentur</w> 10
- oxid</w> 10
8 000</w> 10
3 ,</w> 10
3 H- 10
3 2. 10
3 2, 10
3 x/Woche</w> 10
6 8%</w> 10
0 )</w> 10
0 ).</w> 10
0 6,</w> 10
u z 10
u mo 10
u rea 10
u ger 10
u tive</w> 10
G amma 10
G LICH 10
G aben</w> 10
G ood</w> 10
O U</w> 10
O FÜR</w> 10
O cc 10
L CH 10
L ik 10
L eth 10
L abor 10
L eafle 10
A der 10
A CHT 10
A ppro 10
7 21</w> 10
. 6%</w> 10
5 000</w> 10
5 0%</w> 10
4 80</w> 10
) <</w> 10
H Ä 10
H il 10
H eb 10
H ier 10
H och 10
H AN 10
H ör 10
H ormon 10
j erk 10
f ro 10
f ung 10
f usion 10
f ast</w> 10
f ru 10
f rie 10
f lon 10
f ill 10
w ing</w> 10
w är 10
w ill 10
( te 10
( ent 10
( with</w> 10
( Patienten</w> 10
( kg</w> 10
( haemoglobin</w> 10
( hyper 10
( this</w> 10
( Patienten,</w> 10
( I.E./kg</w> 10
( appro 10
( Erwachsen 10
( patient</w> 10
( approximately</w> 10
( day</w> 10
( iron</w> 10
( dreimal</w> 10
( Hb 10
( two</w> 10
( einschließlich</w> 10
( normal</w> 10
( loss</w> 10
( bone</w> 10
( most</w> 10
( BES 10
( Pure</w> 10
( dieses</w> 10
( etwa</w> 10
( please</w> 10
( days</w> 10
( cerebral</w> 10
( Knochenmarkfibrose</w> 10
( 8,7</w> 10
( beispielsweise</w> 10
( Hämoglobin</w> 10
( injection 10
( 8,1</w> 10
( Hämatokrit</w> 10
( haematocrit</w> 10
( 95%-Konfidenzintervall:</w> 10
( ca.</w> 10
( kg)</w> 10
( normale</w> 10
( Injektionszubereit 10
( mouse</w> 10
v o 10
v ei 10
v e,</w> 10
v on,</w> 10
M Ü 10
M Ö 10
M in 10
M is 10
M und</w> 10
9 , 10
9 00- 10
x .</w> 10
x ” 10
T :</w> 10
T ?</w> 10
T VEs</w> 10
T umo 10
F )</w> 10
F is 10
F ac 10
F UR 10
, 6%</w> 10
P unk 10
P hlebotom 10
P lease</w> 10
z :</w> 10
z ul 10
z zellen</w> 10
z en- 10
" Flu 10
E TI 10
E arly</w> 10
E WENDE 10
E favirenz,</w> 10
R ein 10
R ev 10
R etin 10
R AX 10
R F)</w> 10
U K</w> 10
U su 10
W ah 10
W erte</w> 10
W issen 10
W OFÜR</w> 10
N -</w> 10
N on</w> 10
N och</w> 10
K ol 10
K ul 10
K rit 10
K anz 10
K umul 10
K rise</w> 10
K ochsalz 10
K anin 10
[ 6.2</w> 10
[ Hb 10
[ 6,2</w> 10
Y OU</w> 10
* Her 10
ä use 10
ö ff 10
ü b</w> 10
ü ls</w> 10
Z we 10
Z ungen 10
Ä rz 10
“ .</w> 10
“ ),</w> 10
en di 10
en able</w> 10
en dosis</w> 10
en zephalopath 10
er e,</w> 10
er ate</w> 10
er geb 10
er rin 10
er eich 10
er ature</w> 10
er ien</w> 10
er ogenität</w> 10
in um 10
in sti 10
in kon 10
in cont 10
in dosis</w> 10
in ade 10
in stabil 10
in somn 10
in strum 10
ti s</w> 10
ti vi 10
ti scher</w> 10
ch sel</w> 10
ch mals</w> 10
ch osen</w> 10
ch ains</w> 10
an ten</w> 10
an ter 10
an am 10
an ämi 10
an steig 10
an äm 10
an ämische</w> 10
an ied</w> 10
un di 10
un de</w> 10
un behandel 10
un cle 10
un known</w> 10
un sicher 10
un stable</w> 10
un bekannte</w> 10
un treated,</w> 10
un geklär 10
un tary</w> 10
re si 10
re ments</w> 10
re vision</w> 10
re sorb 10
re sses</w> 10
