der 2924
die 2875
und 2694
mit 2483
von 1860
bei 1795
oder 1501
in 1295
Patienten 1278
Aripiprazol 874
werden. 863
nicht 833
einer 827
eine 823
zu 823
sollte 816
- 798
Die 781
für 770
auf 738
Sie 737
den 697
Behandlung 670
ist 667
des 651
über 578
ABILIFY 556
en 512
g/dl 503
en, 457
Epoetin 455
werden, 445
ein 430
alfa 425
1 417
In 412
als 412
unter 404
t 393
wenn 393
im 390
Bei 384
zur 379
das 362
Studien 346
um 344
sollten 337
Abschnitt 335
keine 334
Arzneimittel 332
dem 330
, 322
en. 314
bis 312
einem 312
er 311
kann 310
an 309
nach 305
mg 296
wird 296
wurde 288
Dosis 284
es 284
(siehe 282
mmol/l) 280
Es 277
dass 276
sich 269
+ 267
angewendet 260
Wenn 259
Anwendung 256
klinischen 256
pro 256
Wochen 250
(@@ 249
Patienten, 249
te 247
) 245
ten 245
BRISTOL-MYERS 243
12 241
Abseamed 241
t. 241
I.E./kg 240
ung 237
SQUIBB 234
anderen 233
. 227
sind 223
werden 223
zwischen 223
10 217
Anämie 215
wurden 210
vor 208
s 206
Arzt 197
einen 195
t, 189
30 184
Risiko 180
e 178
zum 178
Woche 177
behandelt 177
können 176
Ereignisse 175
denen 175
2 174
DER 173
Studie 170
dieser 167
während 167
< 156
Tel: 153
Ihren 152
be@@ 152
ver@@ 152
Niereninsuffizienz 151
ml 151
wie 151
Nebenwirkungen 150
ter 146
e, 145
3 144
-@@ 142
chronischer 142
sie 140
aus 136
durch 136
auch 135
ist, 135
ungen 135
4 134
Symptome 133
s@@ 133
x 132
berichtet. 131
Hämoglobin-Zielkonzentration 130
mehr 130
). 129
: 127
en@@ 127
t@@ 126
Fertigspritze 125
gegeben 125
behandelten 123
war 121
Erythropoetin 120
Hämoglobinwert 120
dreimal 120
ie 120
ische 120
Inzidenz 119
ge@@ 118
), 117
Abraxane 117
Ver@@ 117
ein@@ 116
zeigte 116
Dosisanpassung 115
Tabletten 115
gegenüber 115
liche 114
6 113
Erkrankungen 111
Placebo 111
Arzneimitteln 110
Therapie 110
An@@ 109
Eine 108
beim 108
empfohlene 108
erhöhtes 108
sch@@ 108
ten, 107
ab@@ 105
al@@ 105
Nach 104
UND 104
gen 104
st@@ 104
; 102
(7,5 101
> 101
Menschen 101
Stunden 101
b@@ 101
Das 100
Vergleich 100
15 99
er@@ 99
k@@ 99
sind, 99
jedoch 98
m@@ 98
wurden, 98
≥ 98
haben, 97
ung, 97
darf 96
eingenommen 96
25 95
Injektionslösung 95
haben 95
50 94
Dosierung 94
kontrollierten 94
300 93
Eingriff 93
Einnahme 93
Gabe 93
H@@ 93
ie, 93
intravenöser 93
5 92
enthält 92
le@@ 92
t: 92
wird, 92
Placebo-kontrollierten 91
ar@@ 91
autologen 90
is@@ 89
ohne 89
14 88
1@@ 88
E@@ 88
einschließlich 88
un@@ 88
13 87
Vorsicht 87
vor@@ 87
Chemotherapie 86
In@@ 86
Inhalt 86
Daten 85
Lösung 85
l 85
klinisch 84
zwei 84
au@@ 83
S@@ 82
n 82
T@@ 81
Wirksamkeit 81
beobachtet 81
humanen 81
n@@ 81
/@@ 80
Erwachsenen 80
folgenden 80
mittels 80
weniger 80
1. 79
DES 79
eines 79
erhöhte 79
• 79
Aufgrund 78
Wie 78
muss 78
8 77
G@@ 77
Informationen 77
am 77
z@@ 77
Überdosierung 77
P@@ 76
auf@@ 76
teil@@ 76
Effekte 75
Schmelztabletten 75
an@@ 75
chen 75
kein 75
R@@ 74
einmal 74
ischen 74
60 73
Applikation 73
ist. 73
signifikante 73
Be@@ 72
Der 72
Vorsichtsmaßnahmen 72
diese 72
lich 72
sonstigen 72
Anstieg 71
Diese 71
Episoden 71
I@@ 71
ak@@ 71
beträgt 71
erfolgen. 71
in-@@ 71
intravenös 71
überwacht 71
(6,2 70
2. 70
4.2 70
Beginn 70
Eisensubstitution 70
Erwachsene 70
Gesamtüberleben 70
L@@ 70
Schwangerschaft 70
Tumorpatienten 70
andere 70
erreicht 70
nur 70
s, 70
4. 69
Injektion 69
Kindern 69
drei 69
se 69
wird. 69
Eigenschaften 68
Z@@ 68
Bestandteile 67
betrug 67
keinen 67
manischen 67
ungs@@ 67
vaskuläre 67
1,@@ 66
3. 66
Daher 66
Ein 66
Einnehmen 66
empfohlenen 66
enden 66
ent@@ 66
sehr 66
te@@ 66
/ 65
5. 65
75 65
Aripiprazol. 65
Wirkung 65
ge 65
gegen 65
in@@ 65
ANGABEN 64
Abilify 64
FÜR 64
Gewichtszunahme 64
W@@ 64
alle 64
f@@ 64
zu@@ 64
0,@@ 63
200 63
CYP2D6 63
Hämoglobinwerte 63
aber 63
erhalten 63
möglicherweise 63
zusammen 63
Blut@@ 62
Er@@ 62
gen@@ 62
mindestens 62
Besondere 61
sein. 61
te, 61
4.4 60
? 60
A@@ 60
Blutspendeprogramm 60
Epoetin-alfa-Therapie 60
Schizophrenie 60
e) 60
gibt 60
rekombinantem 60
steig@@ 60
4.4). 59
Ihrem 59
K@@ 59
Pharmakokinetik 59
St@@ 59
antipsychotischen 59
ern@@ 59
höhere 59
so 59
26 58
aufgrund 58
erforderlich 58
h@@ 58
il@@ 58
zeigten 58
150 57
Un@@ 57
d 57
liegt 57
or@@ 57
ra@@ 57
signifikant 57
ähnliche 57
18 56
Ein@@ 56
Packungsbeilage 56
Paclitaxel 56
entsprechend 56
klinische 56
r@@ 56
ung. 56
über@@ 56
Arzneimittels 55
Außerdem 55
F@@ 55
Informieren 55
Tablette 55
bitte 55
u@@ 55
ARZNEIMITTELS 54
Diabetes 54
GYÓGYSZERKERESKEDELMI 54
KFT. 54
M@@ 54
MNS 54
diesen 54
erhielten, 54
haben. 54
ier@@ 54
ig@@ 54
p@@ 54
wirk@@ 54
2@@ 53
Bedienen 53
Hypo@@ 53
Maschinen 53
Monat 53
N@@ 53
em 53
o@@ 53
tion 53
wurde. 53
(< 52
100 52
6,8 52
EPS 52
Kinder 52
Verkehrstüchtigkeit 52
ation 52
durchgeführt 52
noch 52
schützen. 52
tes 52
ungen, 52
vorgesehen 52
-, 51
9 51
D@@ 51
Vor@@ 51
ationen 51
ch@@ 51
de@@ 51
den@@ 51
erforderlich. 51
größeren 51
kommen. 51
l@@ 51
liegt. 51
sp@@ 51
weitere 51
00 50
40.000 50
7,5 50
Anämiesymptome 50
Applikation. 50
Blutdruck 50
Hb-Anstieg 50
Hinweise 50
Nutzen 50
Patient 50
Probanden 50
Retikulozytenzahl 50
S 50
Woch@@ 50
ale 50
damit 50
g@@ 50
gesunden 50
liegen 50
mmol/l). 50
w@@ 50
Anfangsdosis 49
Einfluss 49
Kontrolle 49
beobachtet. 49
d@@ 49
deren 49
einnehmen. 49
falls 49
ige 49
kon@@ 49
mögliche 49
om@@ 49
reduziert 49
Überwachung 49
6. 48
Ab@@ 48
Jede 48
Nicht 48
Zum 48
kg 48
ob 48
se, 48
th@@ 48
ut@@ 48
24 47
39 47
IST 47
Lithium 47
Placebo. 47
Tag 47
annähernd 47
ation@@ 47
di@@ 47
z 47
zerebrovaskuläre 47
5.1). 46
Antipsychotika 46
Art 46
B@@ 46
BEZEICHNUNG 46
EN 46
Harn@@ 46
O@@ 46
ende 46
i@@ 46
lich@@ 46
mi@@ 46
nehmen 46
Blisterpackung 45
Episode 45
Fälle 45
Inhibitoren 45
da 45
ger@@ 45
hochwirksame 45
hr@@ 45
in, 45
je@@ 45
sonstige 45
spiegel 45
tion, 45
tische 45
33 44
Anzeichen 44
Maßnahmen 44
Tumor@@ 44
Zusammenhang 44
assoziiert 44
erfolgt 44
maximale 44
sen 44
sowie 44
ten@@ 44
unerwünschte 44
unter@@ 44
49 43
E 43
Fähigkeit 43
e. 43
ischer 43
tä@@ 43
ä@@ 43
Dialyse@@ 42
EU/1/04/276/0@@ 42
Eisen@@ 42
Ergebnisse 42
Ge@@ 42
INFORMATION 42
Maximaldosis 42
Prävention 42
auf. 42
baren 42
ben 42
daher 42
dieses 42
keit 42
re@@ 42
ter@@ 42
tige 42
vier 42
wurde, 42
21 41
AUC 41
Ausgangswert 41
Tumoren 41
Wechselwirkungen 41
Wirkungen 41
etwa 41
icht 41
kann. 41
können. 41
la@@ 41
ol@@ 41
orthopädischen 41
sind. 41
sorgfältig 41
ts@@ 41
(1,25 40
22 40
40.000/µl 40
Alle 40
Bitte 40
Dauer 40
Epoetin-alfa-@@ 40
Erhaltungsdosen 40
Erhaltungsphase: 40
Erythropoetin-@@ 40
Erythropoetin@@ 40
Herz@@ 40
Hämoglobinkonzentration 40
Korrekturphase: 40
PRCA 40
Phasen: 40
Retikulozytenzahl-Anstieg 40
Rezeptoren 40
Therapie@@ 40
Tumorpatienten, 40
ZULASSUNG 40
Zellen/µl 40
aktiv@@ 40
beobachtet, 40
elektiven 40
gelegentlich 40
gewählt 40
ko@@ 40
mus 40
operativen 40
subkutaner 40
tiefe 40
ul@@ 40
verstärk@@ 40
vitro 40
weis@@ 40
überschritten 40
11 39
Ansprechen 39
Auftreten 39
Blut 39
Erhaltungsdosis 39
Fragen 39
Hyper@@ 39
Komplikationen 39
Poly@@ 39
Reduktion 39
Studien@@ 39
Tier@@ 39
Verschlechterung 39
a@@ 39
abgesetzt 39
aufbewahren, 39
ausgeschlossen 39
d, 39
engmaschig 39
gab 39
lä@@ 39
me, 39
sen@@ 39
symptomatischer 39
vorliegenden 39
10@@ 38
Arzneimittel@@ 38
Arzt, 38
Auswirkungen 38
Leberinsuffizienz 38
Patienten. 38
Sch@@ 38
a, 38
aus@@ 38
besonders 38
d-@@ 38
de 38
kal@@ 38
können, 38
manischer 38
tem 38
ungen: 38
3,@@ 37
3@@ 37
Bipolar-I-Störung 37
CYP3A4 37
Ihnen 37
Jahre 37
Konzentrationen 37
Ma@@ 37
Mensch@@ 37
Monotherapie 37
ach@@ 37
bzw. 37
ergab 37
gemischten 37
keit@@ 37
licher 37
medizinisch 37
um@@ 37
wer@@ 37
12@@ 36
Aripiprazol-Dosis 36
B. 36
Betracht 36
Europe 36
Fällen 36
Krankheit 36
Ltd. 36
Otsuka 36
Pharmaceutical 36
Veränderung 36
ate 36
bezüglich 36
dies 36
geb@@ 36
ischämische 36
lo@@ 36
mittleren 36
n. 36
psychotischen 36
schwanger 36
sten 36
ti@@ 36
überlegene 36
74 35
9. 35
Da 35
Dosis@@ 35
Durchstechflasche 35
Falls 35
Hep@@ 35
ODER 35
WEITERE 35
alen 35
auftreten 35
berichtet, 35
ck@@ 35
da@@ 35
en: 35
gew@@ 35
hat 35
lag 35
schw@@ 35
sofort 35
unabhängig 35
13@@ 34
8. 34
Berichte 34
Einheiten 34
Fertigspritzen 34
Kalium@@ 34
Kon@@ 34
Patientinnen 34
Serotonin 34
Tagesdosis 34
Wasser 34
ander@@ 34
einige 34
fachen 34
innerhalb 34
li@@ 34
lin@@ 34
müssen 34
orale 34
tet 34
tischen 34
untersuch@@ 34
untersucht 34
000 33
10. 33
28 33
6@@ 33
7. 33
AUF 33
DARREICHUNGSFORM 33
Einzeldosen 33
Par@@ 33
Perforierte 33
Sp@@ 33
ZULASSUNGSNUMMER(N) 33
Zeit 33
ati@@ 33
ber@@ 33
empfohlen. 33
ere 33
erhalten. 33
ie. 33
ie@@ 33
me 33
r 33
sche 33
schwerer 33
sein@@ 33
wieder 33
& 32
7 32
Anti@@ 32
Bereich 32
Dosis, 32
Erythroblastopenie 32
Exposition 32
Halbwertszeit 32
Kom@@ 32
Königreich 32
Rezeptor@@ 32
Sicherheit 32
Störung 32
Umkarton 32
Vereinigtes 32
Weitere 32
abhängig 32
angestiegen 32
aufgeführten 32
bekannt 32
benötigen 32
gel@@ 32
ger 32
hat. 32
id@@ 32
iz@@ 32
me@@ 32
se@@ 32
studien 32
tre@@ 32
vermieden 32
wert 32
25% 31
47 31
5@@ 31
9,5 31
Beurteilung 31
C@@ 31
Kopfschmerzen 31
Muskel@@ 31
Möglichkeit 31
Patienten@@ 31
Ratten 31
Stillzeit 31
Suspension 31
Symptomen 31
angepasst 31
ausreichende 31
begonnen 31
besteht 31
bestimmt 31
empfohlen, 31
folgen@@ 31
fühlen, 31
gef@@ 31
gen, 31
gezeigt 31
gie, 31
hin@@ 31
isch 31
isierung 31
lager@@ 31
m 31
notwendi@@ 31
notwendig 31
orthopädischer 31
potenziell 31
regelmäßig 31
res 31
sein, 31
selten 31
soliden 31
subkutan 31
trat 31
zell@@ 31
(5,9 30
,@@ 30
0,62 30
2,@@ 30
20 30
4.3 30
4.8 30
450 30
4@@ 30
5,@@ 30
6% 30
Abständen 30
Allgemeinen 30
Anämi@@ 30
Apotheker. 30
Ausgangshämoglobinwert 30
Ciclosporin 30
Dehydro-Aripiprazol 30
Dialyse 30
Dieser 30
Dieses 30
Dosisanpassung, 30
Epoetin-alfa-Behandlung 30
Erhöhung 30
Erythropoetine 30
Fe2+/Tag 30
Fü@@ 30
Hb 30
Hb-Wert 30
Hämoblasto@@ 30
Hämoglobin@@ 30
Hämoly@@ 30
Kontroll@@ 30
Nebenwirkung 30
Peritoneal@@ 30
Re@@ 30
Road 30
Scale 30
Schritten 30
Strahlentherapie 30
Thrombo@@ 30
Transfusion@@ 30
Venenthrombosen 30
Warnhinweise 30
Ziel, 30
angestrebt 30
antikörpervermittel@@ 30
berücksichtigt 30
elektiver 30
erfol@@ 30
erhöh@@ 30
gewünschten 30
großen 30
halten: 30
hat@@ 30
höher 30
informieren 30
insbesondere 30
itä@@ 30
lier@@ 30
mmol/@@ 30
nach@@ 30
niedriger 30
ob@@ 30
oh@@ 30
sollte. 30
stimulier@@ 30
symptomatischen 30
tisch 30
toxische 30
ung@@ 30
verschiedener 30
vorhanden 30
wöchentlich 30
zurückzuführen 30
zweimal 30
ätz@@ 30
überprüft 30
(AUC) 29
(Alu/Alu) 29
(z.B. 29
4-@@ 29
4.5). 29
56 29
8@@ 29
Apotheker, 29
DEN 29
Dosierung, 29
Gruppe 29
HINWEISE 29
Haloperidol 29
Herzerkrank@@ 29
Niereninsuffizienz: 29
Risiko@@ 29
Sterblich@@ 29
Zur 29
anderer 29
ange@@ 29
auftretende 29
bemerken, 29
darauf 29
einigen 29
ell 29
entsprechendes 29
erkrank@@ 29
erwogen 29
gefühl, 29
hin, 29
ierten 29
kardiovaskulären 29
keit. 29
konnten 29
könnte 29
on@@ 29
pharmakokinetischen 29
sa@@ 29
schmerzen, 29
signifikanten 29
statistisch 29
thromboembolische 29
tr@@ 29
weiter@@ 29
wiederholter 29
yl@@ 29
zen 29
zieh@@ 29
zusätzliche 29
ö@@ 29
„ 29
2% 28
Affinität 28
Arzneimitteln, 28
Brust@@ 28
Gesich@@ 28
Gewicht 28
Hin@@ 28
Im 28
Jah@@ 28
Lungen@@ 28
Metabolisierern 28
Patientinnen, 28
Schlaganfall 28
Stoffwechsel@@ 28
Störungen 28
Unterschiede 28
Untersuchung 28
Verringerung 28
Zeitraum 28
Zunahme 28
deshalb 28
diesem 28
doppel@@ 28
e@@ 28
erhalten, 28
erklär@@ 28
erkrankungen 28
gesteigert 28
haltung 28
hohes 28
höch@@ 28
lich, 28
lichen 28
nah@@ 28
nen 28
o 28
prä@@ 28
relevante 28
s-@@ 28
schweren 28
setzen 28
siv@@ 28
vorgenommen 28
vorübergehen@@ 28
0,5 27
06 27
4.8). 27
7% 27
7@@ 27
ABILIFY-Dosis 27
Andere 27
Antipsychotika, 27
Aripiprazol- 27
Aripiprazol-@@ 27
Attack@@ 27
Basierend 27
Behandlung. 27
Business 27
CH@@ 27
Demenz 27
Effekt 27
Enzyme 27
Galle 27
Gehirns 27
Highbridge 27
House 27
Hunton 27
INHABER 27
Jugend@@ 27
Krampfanfällen 27
LTD 27
Merkmal@@ 27
Middlesex 27
Nebennierenrinden-@@ 27
Oxford 27
Packung 27
Park, 27
Psych@@ 27
QT-Verlängerung 27
R.O. 27
SPOL. 27
Schläfrigkeit, 27
Suizid@@ 27
UB8 27
Uxbridge 27
Valproat@@ 27
Verhalten 27
Wirkstoff 27
Wirkstoffen 27
angezeigt, 27
antagonis@@ 27
beinhalteten 27
ei@@ 27
erwarten, 27
hochwirksamen 27
llen 27
mg/kg/Tag 27
mit@@ 27
mus, 27
potenzielle 27
ri@@ 27
schizophrenen 27
senk@@ 27
shal@@ 27
störungen 27
tion@@ 27
unregelmäß@@ 27
weiblichen 27
zer@@ 27
überschreiten. 27
(bei 26
(zur 26
(≥ 26
.@@ 26
1/@@ 26
3,5% 26
5.2). 26
ANWENDUNG 26
ARZNEIMITTEL 26
BESONDERE 26
Ch@@ 26
Dopamin 26
Dosierungen 26
Einige 26
Europäischen 26
Haut 26
Kombinationstherapie 26
Langzeitstudie 26
Mangeldurchblutung 26
Manische 26
NICHT 26
Packungsgrößen 26
Po@@ 26
a 26
allen 26
at@@ 26
bereit@@ 26
bevor 26
e-@@ 26
gewöhn@@ 26
gezogen 26
gt 26
hen 26
hohem 26
ich@@ 26
it@@ 26
kom@@ 26
men, 26
rem 26
ro@@ 26
samer 26
se: 26
tigen 26
unk@@ 26
werte 26
6,@@ 25
Ak@@ 25
Apotheker 25
Blutdruck@@ 25
CHARGENBEZEICHNUNG 25
DIE 25
En@@ 25
Fol@@ 25
Rück@@ 25
Schwäche@@ 25
VERFALLDATUM 25
as@@ 25
ch 25
ellen 25
enen 25
erhöhter 25
erk@@ 25
ersten 25
erung 25
fest@@ 25
höheren 25
iger 25
immer 25
ität 25
men 25
om 25
plötz@@ 25
täglich 25
vermu@@ 25
verursach@@ 25
ären 25
9@@ 24
Bewusstsein@@ 24
Cmax 24
Deutschland 24
EIN@@ 24
EU/1/07/412/00@@ 24
Fieber, 24
Kombination 24
Leber@@ 24
Licht 24
Mellitus 24
Rahmen 24
Schmelztablette 24
Seh@@ 24
Steady-State-Exposition 24
Zuck@@ 24
and@@ 24
ap@@ 24
c@@ 24
gegeben. 24
gesch@@ 24
hatten 24
isier@@ 24
men@@ 24
mäßige 24
möglich 24
periphere 24
rop@@ 24
sel@@ 24
spez@@ 24
ste@@ 24
stell@@ 24
stoff@@ 24
system@@ 24
tu@@ 24
waren 24
weiteren 24
werden@@ 24
98 23
Auflistung 23
BE@@ 23
Frauen 23
Gesamt@@ 23
Gesamtdosis 23
Infek@@ 23
Kopfschmerzen, 23
Lymph@@ 23
NAME 23
O-@@ 23
PHARMAZEUTISCHEN 23
Reak@@ 23
Steifheit 23
Tagen 23
UNTERNEHMERS 23
Untersuchungen 23
VON 23
WIE 23
aler 23
aufbewahren. 23
beschleunig@@ 23
bipolarer 23
drü@@ 23
elle 23
erg@@ 23
gestellt 23
gleichzeitig 23
glich@@ 23
gung 23
hinaus 23
jeweils 23
komple@@ 23
l) 23
m, 23
nationalen 23
pH-Einstellung) 23
si@@ 23
sicherzustellen, 23
siehe 23
teil 23
tionen 23
unzugänglich 23
vollständige 23
ß@@ 23
(Glas) 22
(Hb 22
(d.h. 22
12. 22
1HU 22
53 22
6.6 22
Abfallmaterial 22
Anforderungen 22
Auswirkung 22
Blutdruck, 22
DAS 22
Dosen 22
ER@@ 22
Einzel@@ 22
Entwicklung 22
Erkrankung, 22
Handhabung 22
Intravenöse 22
Mit 22
Prä@@ 22
Toxizität 22
Wirkverlu@@ 22
Während 22
] 22
ad@@ 22
allergische 22
behandel@@ 22
bestehenden 22
ek@@ 22
entr@@ 22
entsorgen. 22
erforder@@ 22
erz@@ 22
ff@@ 22
fünf 22
ge, 22
i 22
itäts@@ 22
k 22
kontrollier@@ 22
kor@@ 22
len 22
mal@@ 22
medizinische 22
nden 22
rau@@ 22
reduzier@@ 22
roter 22
siegel@@ 22
sier@@ 22
stabil@@ 22
tan@@ 22
therapeutischen 22
us, 22
verglichen 22
verwendetes 22
vivo 22
volumen 22
vor. 22
war@@ 22
wirksam 22
wöch@@ 22
Übelkeit, 22
än@@ 22
-C@@ 21
-M@@ 21
0% 21
0@@ 21
1/100@@ 21
14@@ 21
15,@@ 21
16@@ 21
32 21
42 21
5.1 21
5.3). 21
AN@@ 21
Als 21
Alter, 21
Anämie, 21
Aus 21
Benommen@@ 21
Besserung 21
Blutverlust 21
D 21
Darüber 21
Eingriff@@ 21
Eisenmangel 21
Feuchtigkeit 21
Gebrauchsinformation 21
Herzinfarkt 21
I.E./@@ 21
Leuko@@ 21
Linie 21
Menge 21
Monat@@ 21
Männ@@ 21
Nieren 21
Nieren@@ 21
Oberfläche 21
Originalverpackung 21
Protein@@ 21
Thrombozytenzahl 21
Um 21
Um@@ 21
Variabilität 21
Verkehr 21
Verlust 21
Wer@@ 21
am@@ 21
and 21
anfänglich 21
app@@ 21
are 21
ausreich@@ 21
beeinträchtigt 21
beobachte@@ 21
beschrieben. 21
bindung 21
blin@@ 21
eingeleitet 21
en) 21
ermittel@@ 21
erster 21
fahren 21
g/@@ 21
g/dl) 21
gemein@@ 21
gemischt 21
genden 21
gut 21
hämatolog@@ 21
häufig 21
häufiger 21
häufigste 21
iert 21
ik@@ 21
individuellen 21
konnte 21
krankheit, 21
kurzem 21
leichter 21
manische 21
mg/ml 21
multi@@ 21
möglich@@ 21
patient@@ 21
proble@@ 21
rate 21
samen 21
schwerwiegende 21
sen. 21
sol@@ 21
sor@@ 21
ss@@ 21
st, 21
stan@@ 21
ste 21
stellen. 21
stütz@@ 21
t; 21
tin@@ 21
tur@@ 21
uf@@ 21
unden 21
verminderte 21
versucht 21
vorzu@@ 21
we@@ 21
wei@@ 21
wie@@ 21
wurden. 21
zei@@ 21
Über 21
ähnlichen 21
" 20
%. 20
(0,62 20
(1 20
(ESA) 20
(Eisen@@ 20
(PRCA) 20
(Tag 20
-R@@ 20
1.000, 20
20% 20
20.000/@@ 20
34 20
4,25 20
4.1 20
4.5 20
4.6 20
4.7 20
4.9 20
45 20
5.2 20
5.3 20
52 20
6.1 20
6.1. 20
6.2 20
6.3 20
6.4 20
6.5 20
600 20
61 20
67 20
ATC-Code: 20
Absetzen 20
Akathisie 20
Allgemein 20
Alternativ 20
Aluminiumintoxikation, 20
Aminosäur@@ 20
Aneurysmen, 20
Angesichts 20
Anschließend 20
Antikörper 20
Anwendungsgebiete 20
Anämieursachen 20
Atemwege, 20
Aufbewahrung 20
Behandelten) 20
Behandlung, 20
Behandlungswochen 20
Behältnisses 20
Beschwerden 20
Beseitigung 20
Bestandteile. 20
Bipolar-I-Störung, 20
Blutdruckanstieg 20
Bluthochdruck. 20
Blutspendeprogramm@@ 20
Bluttransfusionen 20
Blutverlust, 20
Blutzellen 20
Bronchialkarzinome, 20
Cancer 20
DATUM 20
Dar@@ 20
Dia@@ 20
Differenzier@@ 20
Dosismanagement 20
Dosissteigerung 20
EIGENSCHAFTEN 20
ERTEILUNG 20
EU/1/04/276/00@@ 20
Eingriffs 20
Einzelfällen 20
Eisenreserven 20
Entscheidung 20
Entzünd@@ 20
Epoetin-alfa- 20
Epoetine 20
Erhaltungstherapie 20
Erkrank@@ 20
Erkrankungen: 20
Erwachsen@@ 20
Erythroblastopenie). 20
Erythropoese-stimulier@@ 20
Erythropoetin, 20
Erythrozyten 20
Fe2+ 20
Folsäure- 20
Frau@@ 20
Fremd@@ 20
Gegenanzeigen 20
Gesamtkrankheitslast 20
Geschlecht 20
Glykosi@@ 20
Grund 20
Grunderkrank@@ 20
Haloperidol. 20
Haltbarkeit 20
Hazard 20
Hypertonie. 20
Hä@@ 20
Hämatokrit@@ 20
Hämo@@ 20
Hämodialysepatienten, 20
Hämodialysepatienten: 20
Hämoglobin- 20
Hämoglobinanstieg 20
Hämoglobinvariabilität 20
I.E. 20
I.E./ml) 20
INFORMATION@@ 20
Injektion: 20
Injektionsstelle 20
Inkompatibilitäten 20
Insbesondere 20
Ist 20
JJ@@ 20
KLINISCHE 20
Knochenmarkfibrose 20
Knochenmarkszellen 20
Kohlenhydra@@ 20
Kontrollen 20
Kontrollen. 20
Kopf-Hals-Tumoren, 20
Krankheitszustands 20
Liste 20
Mammakarzinome, 20
Markteinführung 20
Maximum 20
Molek@@ 20
Mortalitätsrisik@@ 20
Myelom@@ 20
Nichtansprechen 20
Niereninsuffizienz, 20
Niereninsuffizienz@@ 20
Nor@@ 20
Obergrenze 20
Orale 20
PHARMAKOLOGISCHE 20
PHARMAZEUTISCHE 20
Pharmakodynamische 20
Pharmakokinetische 20
Plasma@@ 20
Pr@@ 20
Produktion 20
Präklinische 20
QUALITATIVE 20
QUANTITATIVE 20
Ratio 20
Reproduktionstoxizität 20
Retikulozyten@@ 20
STAND 20
Schlauch 20
Serumferritin@@ 20
Serumspiegel 20
Situ@@ 20
Spritzen 20
Sub@@ 20
Subkutan 20
Subkutane 20
Tage 20
Therap@@ 20
Thrombosen, 20
Thromboseprophylaxe 20
Transf@@ 20
Tumoren, 20
Tumorprogression 20
Tumorzellen 20
Unterschied 20
Ur@@ 20
Urin 20
Ursachen 20
Verlaufs 20
Verzögerung 20
Vitamin-B12-Mangel, 20
Volumenersat@@ 20
WAS 20
Wachstumsfaktor@@ 20
Warnsignal 20
ZULASSUNG/VERLÄNGERUNG 20
ZUSAMMENSETZUNG 20
Zelllinie 20
Zielkonzentration 20
Zielwert 20
abgewogen 20
adäquate 20
alfa, 20
anfängliche 20
angegeben 20
anreg@@ 20
arterielle 20
assen. 20
auftreten. 20
aufzunehmen. 20
ausgeprägt 20
beachtet 20
bedienen, 20
begin@@ 20
beginn 20
begrenz@@ 20
beibehalten 20
bekannte 20
berichtet 20
bestehen 20
bestimm@@ 20
bipolaren 20
blutsparende 20
brechen. 20
chemotherapiebedingter 20
chirurgische 20
dauerhafter 20
definiert 20
deuten 20
deutlich 20
dialyse-@@ 20
dialysebehandlung 20
dialysepatienten 20
dialysepflichtig 20
du@@ 20
durchgeführt. 20
eich@@ 20
einstell@@ 20
el 20
el@@ 20
embolien). 20
erheblich 20
erhöhtem 20
erreichen. 20
erwachsene 20
erwar@@ 20
ese 20
etwas 20
experimen@@ 20
fötal@@ 20
führen. 20
gastrointestinale 20
gebrochen 20
gebunden. 20
gegebenenfalls 20
gehört 20
genannten 20
gener@@ 20
gewünschte 20
große 20
gynäkologische 20
hinsichtlich 20
hydra@@ 20
hydrogenphosphat-Dihydrat 20
ial 20
iden 20
individuelle 20
infark@@ 20
insgesamt 20
j@@ 20
jahrelanger 20
kar@@ 20
kardiovaskulärer 20
kul@@ 20
kür@@ 20
l/@@ 20
le 20
malign@@ 20
meisten 20
men: 20
metastasierendem 20
migräneartige 20
monate- 20
mögliches 20
nehmen, 20
niedrigem 20
niedrigsten 20
ome 20
opti@@ 20
oti@@ 20
placebokontrollierte 20
plötzlich 20
postoperative 20
präoperativ 20
pädiatrischen 20
reduzierten 20
regelmäßigen 20
renaler 20
s. 20
schwer 20
sein; 20
solchen 20
soll@@ 20
spezifischen 20
spro@@ 20
stechende, 20
stie@@ 20
still@@ 20
symptomatische 20
teilnehmen 20
thromboembolischer 20
thromboti@@ 20
thrombotische 20
thrombotische/vaskuläre 20
ton@@ 20
tor 20
toren 20
tragen 20
traten 20
ungen@@ 20
unterschiedlich 20
unver@@ 20
unzureichend 20
us 20
venöse 20
verfüg@@ 20
verminder@@ 20
viel 20
was 20
welche 20
werten 20
x/Woche 20
y@@ 20
zeig@@ 20
zugelassenen 20
zugunsten 20
Überempfindlichkeit 20
überschreit@@ 20
(4 19
(M@@ 19
-Studie 19
-Studien 19
Abbruch 19
Affen 19
Album@@ 19
All@@ 19
Angioöde@@ 19
Aussch@@ 19
Befun@@ 19
Bestimm@@ 19
Beteiligung 19
Bindung 19
Blutzucker, 19
Ch.-B.: 19
Dop@@ 19
Dosier@@ 19
Epilepsie 19
Ereign@@ 19
Erfahrungen 19
Erkrankungen, 19
Expositionen 19
Faktoren 19
Fö@@ 19
Gabe@@ 19
Gewichts@@ 19
Hälfte 19
Infusion 19
Initialdosis 19
KE@@ 19
Krampfanfälle, 19
Kreatinphosp@@ 19
Kreislauf 19
Lebens@@ 19
Myo@@ 19
Neutropen@@ 19
Patientengruppe 19
Pharmazeu@@ 19
Phen@@ 19
Puls 19
Ratten, 19
Rif@@ 19
Schwierigkeiten 19
Selbsttötungs@@ 19
Serumspiegel@@ 19
Skal@@ 19
Stat@@ 19
Sterblichkeit 19
Symptom@@ 19
Unkontrollier@@ 19
Unternehm@@ 19
Valproat 19
Verstoffwechselung 19
Veränderungen 19
We@@ 19
Wirkstoffe 19
abilität 19
akter@@ 19
all 19
anaphylak@@ 19
angehoben 19
ank@@ 19
auf, 19
auftra@@ 19
ausgeschie@@ 19
ben, 19
ck 19
danach 19
dat@@ 19
der@@ 19
eingestuf@@ 19
ell@@ 19
end. 19
erachtet 19
eren. 19
ertem 19
et, 19
festgestellt 19
gefolgt 19
geführt 19
gend 19
glich, 19
gly@@ 19
gra@@ 19
hohe 19
id 19
intrauter@@ 19
jeder 19
kan@@ 19
kard@@ 19
kenn@@ 19
leiden, 19
lektroly@@ 19
meid@@ 19
mg) 19
n, 19
nachgewiesen, 19
og@@ 19
olog@@ 19
potenz@@ 19
prim@@ 19
re, 19
rechtfertig@@ 19
rekonstitu@@ 19
routinemäßig 19
schlech@@ 19
schwangeren 19
se) 19
sekund@@ 19
spezifische 19
stat@@ 19
stärkere 19
ten. 19
teten 19
tiven 19
tlichen 19
tödlicher 19
um, 19
ungefähr 19
ungse@@ 19
ungsstörungen: 19
unwahrschein@@ 19
vergleichbar 19
verringert 19
verschieden@@ 19
verschrie@@ 19
verteil@@ 19
vitro-@@ 19
waren. 19
wechsel@@ 19
weise 19
weit 19
worden. 19
wägung 19
z, 19
zeu@@ 19
ziehen. 19
zogen@@ 19
zusammenhän@@ 19
{MM/@@ 19
Ältere 19
ßnah@@ 19
älteren 19
äre 19
'' 18
'') 18
'schlechten' 18
(= 18
(Dextromethorphan@@ 18
(EMEA) 18
(MN@@ 18
(das 18
,1% 18
-Patienten, 18
-kontrollierten 18
/Belgi@@ 18
1-adrenergen 18
260 18
3% 18
3- 18
352 18
5HT2a-@@ 18
749 18
AB 18
Alkohol 18
Aminotransferase 18
Anamnese 18
Anteil 18
Anwend@@ 18
Appeti@@ 18
Aripiprazol-Behandlung 18
Arrhythmi@@ 18
Arzneimittel: 18
Aspirationspneumonie 18
Ausführliche 18
BELGIUM 18
Begleittherapie 18
Bereich: 18
CYP2D6-Inhibitor 18
CYP3A4, 18
CYP3A4- 18
CYP3A4-@@ 18
CYP3A4-Induktoren 18
D3-@@ 18
Dehyd@@ 18
Dehydro-Aripiprazol, 18
Demenz@@ 18
Depression@@ 18
Diabetes, 18
Dosisbereich 18
Dosisreduktionen 18
Durchschnittsalter: 18
EU/1/07/412/0@@ 18
Effekte. 18
Erhöhungen 18
Erwachsenen, 18
Faeces 18
Familienan@@ 18
Fru@@ 18
Gefühl 18
Genotoxizität 18
Geschlech@@ 18
Gra@@ 18
Hautaussch@@ 18
Herstellung 18
Herzrhythmus@@ 18
Hydroxy- 18
Hydroxylierung 18
Hyperglykämie 18
Hyperton@@ 18
Hämodialyse 18
Häufigkeit 18
Jahre) 18
Karzinomen 18
Klasse 18
Konzentrationen. 18
Leberzirrhose 18
Lithium-@@ 18
Malignes 18
Manie 18
Manifest@@ 18
Meta@@ 18
Mon@@ 18
Monotherapie-Studien 18
Möglicher 18
N-Dealky@@ 18
PHARMACEUTICALS 18
Patientengruppen 18
Plasmaprotein@@ 18
Poten@@ 18
Pri@@ 18
Rau@@ 18
Raucher 18
Remission 18
Rezeptor 18
Rhabdomyolyse, 18
Risikofaktoren 18
Rückfall@@ 18
S.A. 18
S.A./N.V. 18
S.R.L. 18
Spätdyskinesie 18
Studien, 18
Sulfat-Konjug@@ 18
Symptome. 18
Syndrom 18
Tachykardie, 18
Tag@@ 18
Tel.: 18
Tlf: 18
Todesf@@ 18
Todesfolge 18
Tél/Tel: 18
UNGEN 18
Website 18
ZUR 18
Zugehörig@@ 18
Zust@@ 18
abhängigen 18
aktivität 18
anden, 18
angesprochen 18
ation, 18
bedeut@@ 18
bekann@@ 18
bewegungen, 18
blut@@ 18
denn, 18
deprimiert 18
deut@@ 18
diabe@@ 18
die@@ 18
dopaminerger 18
dosisabhängige 18
durch@@ 18
entsor@@ 18
erreichen 18
erter 18
ethn@@ 18
extensiven 18
fixer 18
fortgesetzt 18
fragen 18
gan@@ 18
gebracht. 18
gefunden. 18
gemeinsame 18
geraten 18
geschätz@@ 18
gliche 18
größere 18
halten 18
halten@@ 18
hat, 18
hauptsächlich 18
http://www.emea.europa.eu 18
iegel 18
iellen 18
ig 18
igkeit 18
inklusive 18
isch-@@ 18
konz@@ 18
liegenden 18
lierung 18
man@@ 18
maximal 18
mes 18
mäßigen 18
negativen 18
nehmen. 18
neur@@ 18
niedrigere 18
ograph@@ 18
oleptisches 18
per@@ 18
poor 18
reich@@ 18
republika 18
rier@@ 18
rit@@ 18
schizophrener 18
sei 18
stehen, 18
stillen. 18
systemischen 18
tose 18
transitorische 18
umfasste 18
unbeabsichtigte 18
unverändert 18
vaskulären 18
verfügbar. 18
verlu@@ 18
vermehr@@ 18
verschriebenen 18
veränder@@ 18
weit@@ 18
yl-@@ 18
z.B. 18
zerebro@@ 18
ziel@@ 18
Überdo@@ 18
ällen 18
ödeme, 18
Τηλ: 18
(wie 17
0 17
11@@ 17
16 17
17@@ 17
84 17
BEDINGUNGEN 17
Bauch@@ 17
Bipolar-I-Störung: 17
Famili@@ 17
Fet@@ 17
HIV-@@ 17
Haloperidol-@@ 17
Haup@@ 17
Herz- 17
Je@@ 17
Kreatin-@@ 17
Körper 17
Langzeit-@@ 17
Mahlzeiten 17
Medice 17
Metabolis@@ 17
Mikrok@@ 17
Milch 17
Natrium, 17
Natriumhydroxid 17
Ne@@ 17
Olanzapin-@@ 17
Sehr 17
Zustand 17
all@@ 17
at 17
daran 17
enn@@ 17
ges@@ 17
gesteig@@ 17
gleichen 17
her@@ 17
ierte 17
keit, 17
maligne 17
mg/Tag 17
mg/m@@ 17
mg@@ 17
min@@ 17
oll@@ 17
parti@@ 17
pl@@ 17
prädisponieren 17
schen 17
schnellem 17
se-@@ 17
sicher 17
säure 17
tge@@ 17
tieren 17
tra@@ 17
tro@@ 17
tung 17
u 17
umgehend 17
und/oder 17
ungsphase 17
vorübergehende 17
wichtig, 17
wobei 17
zuneh@@ 17
°C 17
Überleit@@ 17
ü@@ 17
(10000 16
(2@@ 16
(> 16
0,7 16
1, 16
15@@ 16
17 16
18@@ 16
Bipolar-I- 16
Einnehmen. 16
Gefäßkrankheit 16
Hy@@ 16
Hyperglykämie, 16
INHALT 16
Infusion@@ 16
Lös@@ 16
Natrium 16
SONSTIGE 16
Schizophrenie: 16
Stimm@@ 16
Su@@ 16
Verschluss 16
Was 16
Wiederauftretens 16
Zyto@@ 16
angewendet? 16
anz@@ 16
aten 16
d. 16
dru@@ 16
ein. 16
en; 16
eren 16
erhielten. 16
ert 16
fache 16
ft 16
fte 16
ges 16
je 16
künst@@ 16
mach@@ 16
ogen@@ 16
or 16
profiti@@ 16
ren@@ 16
suchen 16
sä@@ 16
ta@@ 16
vergessen 16
wen@@ 16
zahl 16
Öff@@ 16
Überleben 16
ähn@@ 16
ärztliche 16
57 15
5HT1a- 15
9000 15
ART(EN) 15
Au@@ 15
BLISTERPACKUNGEN 15
Bildung 15
Blutdrucks 15
D2- 15
Fla@@ 15
Glyc@@ 15
GmbH 15
Ihr 15
Jahren 15
Ketoazidose 15
Koma 15
Me@@ 15
Muskelsteif@@ 15
Müdigkeit 15
Natrium@@ 15
Natriumchlor@@ 15
Neuropath@@ 15
SI@@ 15
Schwitzen, 15
Sonstige 15
Tod, 15
WIRK@@ 15
agonis@@ 15
ass@@ 15
atypischen 15
außerdem 15
chen@@ 15
dio@@ 15
e: 15
ender 15
enk@@ 15
enthalten 15
erh@@ 15
ern 15
es@@ 15
fall 15
feren@@ 15
g 15
gleich@@ 15
gs 15
heit, 15
hren 15
hyperosmola@@ 15
ien 15
iert. 15
kern@@ 15
lös@@ 15
mpf@@ 15
mpfehlungen 15
nachfolgenden 15
nahme 15
no@@ 15
planen. 15
ran@@ 15
sche, 15
schnell 15
schreibung 15
sein 15
system 15
szustand 15
t). 15
tel@@ 15
telle 15
ts 15
ung; 15
verseh@@ 15
x@@ 15
zellen 15
zy@@ 15
üttel@@ 15
"@@ 14
2007 14
4,@@ 14
65 14
Abraxan@@ 14
Aluminium@@ 14
Angst@@ 14
Anschwellen 14
Arzneimittel, 14
Auf@@ 14
Ausfäll@@ 14
Bauch- 14
Bezug 14
Cellulo@@ 14
Co 14
Di@@ 14
Dies 14
Durchfall@@ 14
Dy@@ 14
EN@@ 14
For@@ 14
Genehmigung 14
Hau@@ 14
Herstell@@ 14
Häufig: 14
Ihre 14
Injektionen 14
Injektionszwecke 14
Inverkehrbringen 14
Kalium 14
Ketoconazol 14
Lesen 14
Lichtempfindlich@@ 14
Magenbeschwerden, 14
Nervos@@ 14
Prägung 14
Pütter 14
Sc@@ 14
Schw@@ 14
Seroton@@ 14
Speichel@@ 14
Sprachstörungen, 14
TI@@ 14
Tablet@@ 14
Verwendbar 14
Wert 14
Zusammenfassung 14
alle@@ 14
anfall, 14
ang 14
ang@@ 14
angewendet, 14
anwenden. 14
aufweis@@ 14
beachten. 14
berichte@@ 14
biolog@@ 14
den, 14
dosis@@ 14
eit 14
enthal@@ 14
erhältlich. 14
f 14
frei@@ 14
frü@@ 14
fühlen. 14
gedanken, 14
hoher 14
häufig@@ 14
ir@@ 14
ität, 14
itäten 14
konvention@@ 14
kulä@@ 14
langsam 14
mb@@ 14
mittlere 14
nachgewiesen. 14
ok@@ 14
ristalline 14
schlu@@ 14
schmerz@@ 14
sf@@ 14
spor@@ 14
st 14
tak@@ 14
ung) 14
ur@@ 14
wenden 14
zier@@ 14
ähnlich 14
(2°C 13
(I.E.), 13
(allergisch) 13
1) 13
11. 13
13. 13
14. 13
15. 13
16. 13
18,@@ 13
2). 13
3-@@ 13
35@@ 13
37 13
7000 13
80 13
8°C). 13
91 13
93 13
AB@@ 13
ABFALLMATERIALIEN 13
ANSCHRIFT 13
AUFZUBEWAHREN 13
Abgabe 13
Abseame@@ 13
Ac@@ 13
Antipsychotik@@ 13
Aufsicht 13
BESEITIGUNG 13
BESTANDTEILE 13
BRAILLE-SCHRIFT 13
Brustkreb@@ 13
Char@@ 13
D-58638 13
DASS 13
DAVON 13
ERFORDERLICH 13
EU/1/04/276/03@@ 13
FALLS 13
Fa@@ 13
Fortschreiten 13
GEBRAUCH 13
GEBRAUCH@@ 13
GEGEBENENFALLS 13
Gelegentlich: 13
Ha@@ 13
IN 13
Infektionen 13
Injektion@@ 13
Internationale 13
KINDER 13
Kuhloweg 13
Kurzzeit@@ 13
Kühl 13
Kühlsch@@ 13
LAGERUNGSHINWEISE 13
Literatur 13
MINDESTANGABEN 13
Mikrogramm 13
Natriumdi@@ 13
Natriummono@@ 13
Person@@ 13
Pharmakovigilanz@@ 13
Polysorbat 13
Reaktion 13
Rekonstitution 13
Resorp@@ 13
SICHTBAR 13
SS@@ 13
STAMMENDEN 13
Salzsäure 13
Schlucken 13
Schmerzen 13
Sicherheit@@ 13
UNERREICHBAR 13
V@@ 13
VER@@ 13
VERKAUFSABGRENZUNG 13
VERWENDETEM 13
VORSICHTSMASSNAHMEN 13
Verw@@ 13
WARNHINWEIS, 13
WARNHINWEISE, 13
WIRKSTOFF(E) 13
Wirksam@@ 13
Zun@@ 13
Zunge 13
anderes 13
anzu@@ 13
ar 13
ba@@ 13
benötig@@ 13
bereits 13
bis: 13
dung 13
einfrieren. 13
einmal@@ 13
entlich 13
erhalb 13
erst 13
et@@ 13
ev@@ 13
fer@@ 13
fol@@ 13
gefä@@ 13
gemäß 13
gesamten 13
gesteigerte 13
gewährleis@@ 13
gezeig@@ 13
größer 13
heits@@ 13
hil@@ 13
ich 13
ien@@ 13
igen 13
intravenösen 13
is 13
isierten 13
karzin@@ 13
lang 13
lassen, 13
leiden. 13
lichem 13
ll@@ 13
neu@@ 13
ort 13
po@@ 13
qual@@ 13
rück@@ 13
se. 13
sicht@@ 13
subkutan@@ 13
tier@@ 13
to@@ 13
transportieren 13
tritt 13
unmittelbar 13
verabreicht 13
verb@@ 13
verring@@ 13
y 13
zie@@ 13
är@@ 13
überempfindlich 13
ün@@ 13
144 12
165 12
23 12
35 12
37@@ 12
39@@ 12
40 12
59 12
64 12
89 12
99 12
Angstzu@@ 12
Arzt. 12
Aspartam 12
Beeinträchtigung 12
Behandlungs@@ 12
Blutkörper@@ 12
Carbamazepin 12
Cros@@ 12
Den 12
EI@@ 12
Ebenso 12
Eigenblutspende 12
Eisen(III)@@ 12
Erbrechen 12
Erbrechen, 12
Essen 12
Etiket@@ 12
Flüssig@@ 12
G 12
Geb@@ 12
Gen@@ 12
Gum@@ 12
Immunogenität 12
Inter@@ 12
Klare, 12
Knochenmark@@ 12
Lactose-Mono@@ 12
Leberfunktion 12
Leukopen@@ 12
Lösung. 12
Metaboliten 12
Mik@@ 12
Mil@@ 12
Mittel 12
Monaten 12
Mund@@ 12
Mäus@@ 12
Müdigkeit, 12
Nahr@@ 12
Nehmen 12
Pack@@ 12
Patienten: 12
Phosp@@ 12
Pro@@ 12
Protein 12
Prüf@@ 12
Pulver 12
Resorptionsrate 12
Risik@@ 12
Risiken 12
Schlaf@@ 12
Sedierung 12
Sel@@ 12
Sprit@@ 12
Sä@@ 12
Tox@@ 12
UMHÜLLUNG 12
UNG 12
UNGS@@ 12
Unru@@ 12
Unter@@ 12
Urin@@ 12
Van@@ 12
Vergleich@@ 12
Verschreibungspflichtig. 12
Verteilungsvolumen 12
War@@ 12
Wirkstoff@@ 12
Wochen) 12
Zellen 12
[@@ 12
ab, 12
arance 12
ase 12
at, 12
aufge@@ 12
ausreichenden 12
außer 12
beeinflusst. 12
beiden 12
ben@@ 12
berichteten 12
beste@@ 12
besteht. 12
chtbarkeit 12
cium@@ 12
cken@@ 12
dach@@ 12
deute@@ 12
direk@@ 12
dosisabhäng@@ 12
dürf@@ 12
dürfen 12
ein, 12
eindeu@@ 12
einmaligen 12
einnehmen 12
eis@@ 12
end 12
entsprechende 12
entweder 12
erkrankungen: 12
erweise 12
farblose 12
fe 12
fortgesetz@@ 12
führ@@ 12
führte 12
g/dl. 12
ge. 12
gebracht 12
geeigne@@ 12
gen. 12
genann@@ 12
gende 12
gie 12
grippeähnliche 12
gruppe 12
han@@ 12
handel@@ 12
heit 12
heit@@ 12
her 12
hl@@ 12
ins 12
intravenöse 12
izier@@ 12
kardiale 12
keinerlei 12
keits@@ 12
konservier@@ 12
kumul@@ 12
lagen 12
ment-@@ 12
mg/m2 12
minderung 12
mitte@@ 12
mo@@ 12
mon 12
möglich. 12
möglichen 12
neh@@ 12
notwendig. 12
over@@ 12
pon@@ 12
reichen 12
sbe@@ 12
schwerwie@@ 12
ser@@ 12
sichergestellt 12
sie, 12
sion@@ 12
spü@@ 12
stellen, 12
sterile@@ 12
stände 12
stör@@ 12
tenden 12
tiger 12
tion: 12
tualisier@@ 12
uh@@ 12
ume@@ 12
ung: 12
urie, 12
use@@ 12
ute 12
verantwort@@ 12
verhinder@@ 12
verschwommen@@ 12
verse@@ 12
verwendet 12
verworfen 12
vor, 12
wand 12
waren, 12
wenige 12
wir@@ 12
wo@@ 12
zulegen. 12
zyten, 12
ÄUSSEREN 12
ünsch@@ 12
α 12
%), 11
(Hirn@@ 11
(Ph.Eur.) 11
(R@@ 11
); 11
-mal 11
0,3 11
016 11
06@@ 11
1.@@ 11
1/10); 11
111 11
121 11
125 11
146 11
174 11
20@@ 11
31 11
36 11
4-wöchigen 11
40% 11
400 11
43 11
43@@ 11
44 11
46 11
67@@ 11
71 11
78 11
8,7 11
= 11
A-@@ 11
Agitiertheit@@ 11
Allgemein@@ 11
Allgemeinzustan@@ 11
Alopez@@ 11
Anorex@@ 11
Aripiprazol, 11
August 11
Ausschlag, 11
Auto 11
Bedenken 11
Berücksichtigung 11
Bindegewebs- 11
Blisterpackungen 11
Blu@@ 11
Blutdrucks, 11
Blutes 11
Blutgerinnsel 11
Blutzucker@@ 11
Brustschmerzen, 11
Chemo@@ 11
Chemotherapie@@ 11
DEM 11
DNA-Technolog@@ 11
De@@ 11
Depres@@ 11
Disposition 11
Ende 11
Endo@@ 11
Eprex/@@ 11
Erfahrung 11
Ergeb@@ 11
Erythro@@ 11
FOLIENSTREIFEN 11
Faltschachteln 11
Gastrointestinaltrakts: 11
Gelegent@@ 11
Gelenk@@ 11
Gewichtszunahme, 11
Glu@@ 11
IN@@ 11
Immun@@ 11
Indikation 11
Infusionsbeu@@ 11
Jucken, 11
KG 11
Kardio@@ 11
Kinder@@ 11
Komplik@@ 11
Konzentration 11
Krankheitsprogression 11
Kreatinin 11
Körper@@ 11
Körpergewich@@ 11
Langzeitstudien 11
Lymphsystems: 11
Maschinen. 11
Medi@@ 11
Minuten 11
Mito@@ 11
Mutagen@@ 11
Myal@@ 11
Nebenwirkungen, 11
Nervensystems: 11
Ober@@ 11
Ossif@@ 11
Paclitaxel. 11
Partikel 11
Patienten) 11
Pfleger 11
Placebo, 11
Produkt 11
Pyrex@@ 11
Pädiatrische 11
Ruhelosigkeit, 11
Schwangeren 11
Seite. 11
Ser@@ 11
Signifikanz 11
Skelettmuskulatur@@ 11
Standard@@ 11
Ste@@ 11
Still@@ 11
Stunden. 11
Tag). 11
Teil@@ 11
Thrombozytopen@@ 11
Typ 11
Unterhautzellgewebes: 11
Verabreichung 11
Verbesserung 11
Verfalldatum 11
Verfügung 11
Verletz@@ 11
Verschluss@@ 11
Verstopfung, 11
Vor 11
Wechselwirkung 11
Wel@@ 11
Wochen. 11
Zahl 11
Ziel@@ 11
Zit@@ 11
age@@ 11
al 11
ange 11
angegebenen 11
angemessene 11
angenommen, 11
angewendeten 11
ansprachen, 11
anteil 11
anti@@ 11
anwenden 11
anzuwenden 11
art 11
arzneimittel 11
ation. 11
atr@@ 11
auftreten, 11
bar 11
bar, 11
bar. 11
bar@@ 11
barkeit@@ 11
basierend 11
bau 11
beeinträchtigte 11
beendet 11
beispielsweise 11
berücksichtigen 11
berücksichtigen. 11
besch@@ 11
beschrieben@@ 11
besitz@@ 11
besonderen 11
bestimmt. 11
bin@@ 11
bleib@@ 11
cht@@ 11
darf@@ 11
dass, 11
dau@@ 11
de. 11
dem@@ 11
den. 11
denk@@ 11
dip@@ 11
doch 11
dosisabhängiger 11
durch, 11
durchzuführen. 11
e). 11
eb@@ 11
ebenso 11
echnet 11
egra@@ 11
einge@@ 11
eingestellt 11
einzel@@ 11
empfohlen 11
en/@@ 11
enten 11
entw@@ 11
entzündung, 11
ergriff@@ 11
erhielten 11
erniedrigt 11
erven@@ 11
erwarten 11
eth@@ 11
exzessi@@ 11
fallen. 11
festgestell@@ 11
folgende 11
form@@ 11
fortgeschrittenen 11
führen, 11
g, 11
g. 11
gebunden 11
geeich@@ 11
gemessen 11
genau@@ 11
genotox@@ 11
geplan@@ 11
gering@@ 11
geschätzt. 11
gesetz@@ 11
ha@@ 11
haltigen 11
hatten. 11
hende 11
hän@@ 11
höh@@ 11
ickel@@ 11
ielen, 11
ier 11
ierenden 11
ikation 11
induzierte 11
inen 11
ini@@ 11
inn@@ 11
inter@@ 11
intramus@@ 11
irgendein@@ 11
isch@@ 11
ite 11
jenigen 11
kardio@@ 11
klein@@ 11
kontraindiziert. 11
kontrolliert 11
kosi@@ 11
kuläre 11
kur@@ 11
lagerung 11
leichten 11
leitung 11
letzten 11
lie@@ 11
länger@@ 11
maler 11
mange@@ 11
matern@@ 11
medikation 11
mehreren 11
menschlichen 11
mess@@ 11
minimi@@ 11
mis@@ 11
mittelschwerer 11
multiple 11
männlichen 11
mäßiger 11
müss@@ 11
müssen@@ 11
nä@@ 11
näch@@ 11
of 11
omen 11
on 11
organ@@ 11
population 11
pres@@ 11
randomisier@@ 11
reagieren, 11
rechter@@ 11
reduzieren. 11
rekombinante 11
rel@@ 11
relevanten 11
rezep@@ 11
ron@@ 11
rüch@@ 11
s: 11
schwere 11
schwindelig 11
sech@@ 11
selben 11
sfertig 11
sion 11
spezifisch 11
spr@@ 11
spä@@ 11
stes 11
stiegen 11
stitu@@ 11
su@@ 11
sub@@ 11
suffizienz 11
technolog@@ 11
teilnahmen, 11
tene 11
therapeutische 11
therapie 11
tig 11
tika 11
trit@@ 11
tw@@ 11
ungsin@@ 11
ungsmittel@@ 11
unten 11
uss 11
v 11
verbesser@@ 11
vergleich@@ 11
vermittelt 11
verringerte 11
vorsichtig 11
weder 11
weiter 11
welchen 11
wertes 11
wider@@ 11
wor@@ 11
zugrun@@ 11
zurück@@ 11
zusätzlichen 11
zyten 11
zyten@@ 11
Öde@@ 11
Überempfindlichkeitsreaktionen 11
älle 11
ämie 11
ämie, 11
änk@@ 11
ör@@ 11
überwiegen. 11
üblichen 11
– 11
! 10
(*) 10
(100 10
(172 10
(221 10
(23 10
(43%) 10
(683 10
(8,1 10
(8,7 10
(95%-Konfidenzintervall: 10
(CLAS). 10
(Erwachsen@@ 10
(FACT-An) 10
(Glas@@ 10
(Hämatokrit 10
(Hämoglobin 10
(I.E./kg 10
(Injektionszubereit@@ 10
(Knochenmarkfibrose 10
(Patienten 10
(Patienten, 10
(Pure 10
(RR 10
(beispielsweise 10
(ca. 10
(dieses 10
(dreimal 10
(einschließlich 10
(ent@@ 10
(etwa 10
(kg) 10
(normale 10
(te@@ 10
*Her@@ 10
,6% 10
-2,@@ 10
-Ab@@ 10
-Agentur 10
-Erythropoetin-@@ 10
-Hb 10
-Mono@@ 10
-folgeerscheinungen 10
-oxid 10
-sta@@ 10
0) 10
08 10
1,18; 10
10-@@ 10
100, 10
1000 10
104 10
1800 10
1895 10
19% 10
2-@@ 10
2004 10
21, 10
27% 10
2833 10
3%). 10
301 10
32% 10
32.@@ 10
332 10
389 10
3A4 10
3A@@ 10
3x/Woche 10
478 10
48 10
5%), 10
50% 10
55 10
58% 10
6769 10
7) 10
70 10
71% 10
77% 10
8,1 10
800 10
802 10
8167 10
85 10
9,@@ 10
900-@@ 10
95%-Konfidenzintervall: 10
99@@ 10
A 10
ACHT@@ 10
ANG@@ 10
AUFZUBEWAH@@ 10
Abschnit@@ 10
Ader@@ 10
Akathis@@ 10
Allgem@@ 10
Anagni-Frosinone 10
Analogue 10
Anf@@ 10
Aplasi@@ 10
Applik@@ 10
Arzneimitte@@ 10
Assessment 10
Aus@@ 10
B03XA01 10
BEN@@ 10
Ba@@ 10
Bakter@@ 10
Begleit@@ 10
Bi@@ 10
Blisterpack@@ 10
Bluthochdru@@ 10
Bluthochdruck@@ 10
Blutspen@@ 10
Bluttransfusion@@ 10
Bol@@ 10
Bre@@ 10
Bristol-Myers 10
C) 10
CHMP 10
CLA@@ 10
Cell 10
Ceraso 10
Ciclo@@ 10
Contrada 10
Dal@@ 10
Dat@@ 10
Ding@@ 10
Durchstechfla@@ 10
Dyskinesi@@ 10
Dyspha@@ 10
EORTC-QLQ-C30 10
ES 10
ES@@ 10
ETI@@ 10
EWENDE@@ 10
Efavirenz, 10
Eigenblutspen@@ 10
Eisenmange@@ 10
Epoetin@@ 10
Erythropo@@ 10
FACT-An 10
Fak@@ 10
Fatigue 10
Fe-@@ 10
Fis@@ 10
Folsäure@@ 10
Fontana 10
Functional 10
G-CSF 10
GLICH@@ 10
GM-CSF 10
Gaben 10
Gamma@@ 10
General 10
Gluta@@ 10
Gly@@ 10
Grupp@@ 10
H-@@ 10
HAN@@ 10
Haloperidol@@ 10
Hb-@@ 10
Heb@@ 10
Hier@@ 10
Hil@@ 10
Hirn@@ 10
Hoch@@ 10
Hodgkin@@ 10
Hormon@@ 10
HÄ@@ 10
Hämatokrit 10
Hämoglobin 10
Hämoglobin-@@ 10
Hör@@ 10
I 10
I-03012 10
I.E.@@ 10
Indik@@ 10
Isch@@ 10
Iserlohn 10
Ital@@ 10
J@@ 10
Jun@@ 10
Kanin@@ 10
Kanz@@ 10
Kar@@ 10
Karzinom@@ 10
Kochsalz@@ 10
Kol@@ 10
Korrek@@ 10
Kre@@ 10
Krise 10
Krit@@ 10
Kul@@ 10
Kumul@@ 10
Körpergew@@ 10
LCH@@ 10
LT@@ 10
Labor@@ 10
Leben@@ 10
Leberinsuffizien@@ 10
Leth@@ 10
Linear 10
Magen@@ 10
Magnesi@@ 10
Malign@@ 10
Mamma@@ 10
Maxim@@ 10
Median 10
Min@@ 10
Mis@@ 10
Monotherapie@@ 10
Mund 10
MÖ@@ 10
MÜ@@ 10
Mä@@ 10
N- 10
NE@@ 10
Nebenwirk@@ 10
Neur@@ 10
Noch 10
Non-@@ 10
Nut@@ 10
PANSS 10
PRCA) 10
Plas@@ 10
Pop@@ 10
Potential 10
Prote@@ 10
Psychi@@ 10
Punk@@ 10
REN@@ 10
Random@@ 10
Rat@@ 10
Red 10
Rein@@ 10
Retikulo@@ 10
Retin@@ 10
Rev@@ 10
SIN@@ 10
Sau@@ 10
Spre@@ 10
Squibb 10
Sten@@ 10
Ster@@ 10
Studi@@ 10
Syn@@ 10
Syndro@@ 10
T? 10
Ta@@ 10
Th@@ 10
Thrombozy@@ 10
Tumo@@ 10
Unterschie@@ 10
VOR 10
Venen@@ 10
Verabreich@@ 10
Verl@@ 10
Viel@@ 10
Vitamin-B12@@ 10
Volum@@ 10
Vorsichtsma@@ 10
WE@@ 10
WIR@@ 10
WOFÜR 10
Wach@@ 10
Wachstumsfak@@ 10
Wah@@ 10
Wechsel@@ 10
Werte 10
Wieder@@ 10
Wir@@ 10
Wissen@@ 10
Zungen@@ 10
Zus@@ 10
Zwe@@ 10
[6,2 10
[Hb@@ 10
abil@@ 10
abnormal@@ 10
alfa. 10
alisier@@ 10
ambul@@ 10
amin@@ 10
amm@@ 10
amp@@ 10
analy@@ 10
anam@@ 10
angezeig@@ 10
ansteig@@ 10
anten 10
anti-@@ 10
antihypertensive 10
antikörper@@ 10
anäm@@ 10
anämi@@ 10
anämische 10
arin@@ 10
ation: 10
atri@@ 10
auch@@ 10
auß@@ 10
bau@@ 10
behandlung 10
beinhal@@ 10
betru@@ 10
blu@@ 10
btes 10
chirurg@@ 10
chmals 10
chnet 10
chron@@ 10
chsel 10
d- 10
d.h. 10
dal@@ 10
dauerha@@ 10
defin@@ 10
del@@ 10
dere 10
dex@@ 10
dialysepflich@@ 10
diast@@ 10
dis@@ 10
dl, 10
do@@ 10
e), 10
eff@@ 10
eidung 10
emboli@@ 10
emia 10
en). 10
en-@@ 10
endem 10
endi@@ 10
endogen@@ 10
endosis 10
enersat@@ 10
enzephalopath@@ 10
er, 10
er. 10
ere, 10
ereich@@ 10
eren@@ 10
ergeb@@ 10
erien 10
erogenität 10
erreich@@ 10
errin@@ 10
ers 10
erte 10
erythro@@ 10
ese. 10
etc.). 10
etylsalic@@ 10
extra@@ 10
extrapyramid@@ 10
ezu 10
fall@@ 10
flon@@ 10
folgeerscheinungen 10
for@@ 10
forder@@ 10
frie@@ 10
fusion@@ 10
füg@@ 10
gedank@@ 10
geerscheinungen 10
gegeb@@ 10
gegen@@ 10
geklär@@ 10
gelegent@@ 10
gesam@@ 10
geschlossen 10
gewe@@ 10
geweb@@ 10
gigkeit 10
gin@@ 10
gl@@ 10
gle@@ 10
gno@@ 10
gramm 10
grippe@@ 10
groß@@ 10
gt: 10
gän@@ 10
h 10
hal@@ 10
halten. 10
haryn@@ 10
henden 10
hiel@@ 10
hoh@@ 10
hypertensive 10
ib@@ 10
icin, 10
iden@@ 10
ident@@ 10
ielle 10
ifer@@ 10
igem 10
inde@@ 10
indosis 10
induzier@@ 10
ine 10
inkon@@ 10
instabil@@ 10
inten@@ 10
inu@@ 10
inum@@ 10
irurg@@ 10
is. 10
isol@@ 10
isoton@@ 10
it 10
izienz 10
iämie 10
jek@@ 10
jen@@ 10
jewei@@ 10
kataly@@ 10
kle@@ 10
klon@@ 10
kontraindizier@@ 10
kope, 10
kra@@ 10
kubation 10
kum, 10
kurz@@ 10
körper@@ 10
l), 10
l)@@ 10
l. 10
l], 10
lak@@ 10
lang@@ 10
lass 10
ler 10
lic@@ 10
lich. 10
lik@@ 10
lz@@ 10
males 10
mals 10
man 10
mangel, 10
mehr@@ 10
men. 10
mensch@@ 10
ments 10
metabolis@@ 10
mieren 10
mini@@ 10
mm3 10
mmol 10
mode@@ 10
mpfindlich@@ 10
myo@@ 10
möch@@ 10
nadel 10
natrium@@ 10
nde 10
negative 10
nen. 10
nene 10
nes@@ 10
ng/@@ 10
nis@@ 10
nissen 10
normal 10
nvor@@ 10
nö@@ 10
o, 10
off@@ 10
oidis@@ 10
onar@@ 10
operative 10
ort: 10
os@@ 10
ose 10
parathy@@ 10
patibil@@ 10
pectoris, 10
perio@@ 10
pfl@@ 10
pha@@ 10
pharmakolog@@ 10
placebo@@ 10
ple@@ 10
plik@@ 10
poly@@ 10
potenti@@ 10
programm 10
prolifer@@ 10
prote@@ 10
psychoti@@ 10
pädiatr@@ 10
rank@@ 10
rate, 10
rate. 10
reak@@ 10
region@@ 10
rekombinan@@ 10
rente 10
resorb@@ 10
rest@@ 10
resul@@ 10
ringen 10
rolit@@ 10
ror@@ 10
routinemäß@@ 10
s). 10
sach@@ 10
sam@@ 10
same 10
schaft 10
schein@@ 10
sches 10
schlechter@@ 10
schließlich 10
schmerzen 10
schreibungspflich@@ 10
se-stimulier@@ 10
serven 10
sgesamt 10
shor@@ 10
sicherzu@@ 10
sieh@@ 10
simul@@ 10
sis 10
sis@@ 10
skom@@ 10
smon@@ 10
sofor@@ 10
ss 10
stand 10
status 10
stear@@ 10
steh@@ 10
stens 10
strum@@ 10
sts 10
stums@@ 10
ständen 10
supportive 10
suspension 10
sy@@ 10
t), 10
tan 10
teilung 10
tel 10
tent 10
tern 10
test 10
tex@@ 10
therapeu@@ 10
thrombo@@ 10
thrombosen 10
tig@@ 10
tischer 10
tket@@ 10
tnissen 10
ton. 10
tor@@ 10
transf@@ 10
trollier@@ 10
tsch@@ 10
tste@@ 10
ttigung 10
tumor@@ 10
tung, 10
typ 10
typ@@ 10
ufig@@ 10
uger@@ 10
unbehandel@@ 10
unbekannte 10
unde 10
undi@@ 10
ungeklär@@ 10
unsicher@@ 10
usin@@ 10
usion 10
uz@@ 10
v@@ 10
vas@@ 10
vaskulär@@ 10
ver 10
verschie@@ 10
versuch@@ 10
ves 10
virap@@ 10
vitro@@ 10
volum@@ 10
von, 10
w 10
wach@@ 10
wel@@ 10
wiederhol@@ 10
will@@ 10
wär@@ 10
x/@@ 10
ymid@@ 10
ytoin, 10
z: 10
zen-@@ 10
zen. 10
zinome, 10
zug@@ 10
zul@@ 10
zytenzah@@ 10
zzellen 10
} 10
Ärz@@ 10
ämi@@ 10
ämische 10
äuse@@ 10
öff@@ 10
üb 10
üb@@ 10
überprüf@@ 10
überwach@@ 10
überwie@@ 10
üls 10
üt@@ 10
“), 10
“. 10
≤ 10
' 9
'@@ 9
(0)21 9
(0)810 9
(0800) 9
(57@@ 9
(6%) 9
(ALT), 9
(AST), 9
(C@@ 9
(Child-Pugh 9
(EPS): 9
(FINLAND) 9
(GGT), 9
(N= 9
(n= 9
)@@ 9
-B@@ 9
.E@@ 9
.Ε. 9
.Π 9
/Tel: 9
05 9
1% 9
1/100). 9
10-30 9
107%, 9
11C-@@ 9
13% 9
1301 9
1736 9
18% 9
195 9
2000 9
210 9
221 9
228 9
230 9
236 9
251 9
272 9
2790 9
2C19 9
2C9 9
3000 9
30@@ 9
314 9
34% 9
351 9
353 9
354 9
357 9
358 9
359 9
370 9
371 9
372 9
386 9
4.4) 9
410 9
42-0 9
420 9
421 9
440 9
456 9
500 9
535 9
57% 9
5796666 9
59298411 9
5HT2@@ 9
5HT7@@ 9
60% 9
6074300 9
640 9
677038 9
704 9
73% 9
73%). 9
731 9
762 9
8%) 9
800) 9
857 9
88 9
938@@ 9
9700 9
99% 9
A, 9
ABILIFY, 9
ABILIFY: 9
ANWEN@@ 9
Alan@@ 9
Alzheim@@ 9
Anschw@@ 9
Antidepres@@ 9
Arz@@ 9
Aspart@@ 9
Aspir@@ 9
Aug@@ 9
Ausschlag@@ 9
B 9
BR@@ 9
BV 9
Belgique@@ 9
Blutzuck@@ 9
CO. 9
CPK 9
CYP1@@ 9
CYP1A@@ 9
CYP2D6, 9
CYP2D6-@@ 9
CYP2D6. 9
CYP2D@@ 9
D2@@ 9
Danmark 9
Dyskin@@ 9
EU@@ 9
Eesti 9
Elimin@@ 9
Elimination: 9
Enzy@@ 9
Erhalt@@ 9
Erhaltungspha@@ 9
España 9
Extrapyramid@@ 9
FAL@@ 9
FARMACÊUTICA 9
Faltschachte@@ 9
Fie@@ 9
Finland 9
Flu@@ 9
France 9
Fre@@ 9
Fähig@@ 9
GEN@@ 9
GESMBH 9
GMBH 9
GUNG 9
Gefäß@@ 9
Gewich@@ 9
Gewichtszunah@@ 9
HF 9
HM@@ 9
Hyperglykämi@@ 9
ING@@ 9
Induk@@ 9
Induktoren 9
Inhibitor@@ 9
Ireland 9
Italia 9
Ja@@ 9
KGAA 9
Ket@@ 9
Ketoaz@@ 9
Kingdom 9
Konzentration@@ 9
Kra@@ 9
Krampfanfäl@@ 9
Krank@@ 9
L 9
LICH 9
Latvija 9
Leb@@ 9
Lietuva 9
Lithium@@ 9
Luxembour@@ 9
Luxemburg 9
Magyarország 9
Malta 9
Man@@ 9
Maschin@@ 9
Matern@@ 9
Metabolisier@@ 9
Metabolit@@ 9
Montgomery-Asber@@ 9
Möglich@@ 9
N05AX12 9
NORWAY 9
Nederland 9
Norge 9
O. 9
OY 9
POLSKA 9
PORTUGUESA, 9
Phenyl@@ 9
Phenylketonur@@ 9
Phosphokinase, 9
Placebo@@ 9
Polska 9
Portugal 9
Post-Mark@@ 9
Post-Marketing: 9
Prob@@ 9
Puh@@ 9
Pul@@ 9
Q@@ 9
QT-Verlän@@ 9
Ra@@ 9
Rac@@ 9
Reproduktion@@ 9
Reproduktionstox@@ 9
Risikofak@@ 9
România 9
S), 9
S): 9
S.@@ 9
SARL 9
SCHA@@ 9
SP. 9
SQUIBB, 9
ST@@ 9
Schl@@ 9
Schla@@ 9
Schlag@@ 9
Schlaganf@@ 9
Schwit@@ 9
Slovenija 9
Slovenská 9
Sprach@@ 9
Spät@@ 9
Suomi@@ 9
Sverige 9
Sími: 9
TE@@ 9
Teл.: 9
Transferase 9
Tum@@ 9
Tél: 9
U@@ 9
United 9
Untersuch@@ 9
VISTOR 9
Verteil@@ 9
Weit@@ 9
YYYY} 9
Z 9
ach 9
aff@@ 9
al, 9
alac@@ 9
alan@@ 9
alkal@@ 9
alpha-@@ 9
alter@@ 9
amne@@ 9
amnese 9
ann@@ 9
ansp@@ 9
antipsychoti@@ 9
apis@@ 9
ark@@ 9
arrho@@ 9
asser 9
assozi@@ 9
asymptomati@@ 9
at-@@ 9
atio@@ 9
atitis, 9
auton@@ 9
az@@ 9
barkeit 9
beibe@@ 9
ben. 9
ber 9
besser@@ 9
bidi@@ 9
bwertszeit 9
ca. 9
cau@@ 9
char@@ 9
chter@@ 9
cling 9
conazol 9
dauer@@ 9
de-@@ 9
de: 9
del 9
denken 9
deu@@ 9
don@@ 9
dos@@ 9
dyskinesi@@ 9
eh@@ 9
elek@@ 9
enchy@@ 9
endet 9
engmasch@@ 9
ente 9
enz, 9
epidemi@@ 9
erniedrig@@ 9
erwachsen@@ 9
esie 9
eská 9
etin 9
eting 9
extensive 9
fahr@@ 9
farin), 9
fl@@ 9
flexib@@ 9
funk@@ 9
führung 9
gehör@@ 9
gewünsch@@ 9
gig 9
gleit@@ 9
glich 9
globinur@@ 9
gst@@ 9
hab@@ 9
habdomyoly@@ 9
halt 9
harmakolog@@ 9
hibitor@@ 9
hidro@@ 9
hochwirk@@ 9
hokinase 9
hokinase, 9
hre 9
hydroxybenzo@@ 9
hyperten@@ 9
ia) 9
ichtig@@ 9
ido@@ 9
ild@@ 9
infarkt 9
ings 9
initial 9
insuffizien@@ 9
intes, 9
ipofusc@@ 9
italopram) 9
itoring 9
itus 9
itätsrisik@@ 9
izid@@ 9
kardi@@ 9
keitsreak@@ 9
kg, 9
kinsonis@@ 9
kombin@@ 9
laceb@@ 9
ließ@@ 9
listerpack@@ 9
ma 9
mal 9
mellitus, 9
metabol@@ 9
mg/@@ 9
model@@ 9
motid@@ 9
mul@@ 9
mus@@ 9
nisses 9
oben 9
olelithiasis 9
olep@@ 9
osen 9
ox@@ 9
oxetin@@ 9
oxymorphin@@ 9
parame@@ 9
perfor@@ 9
phy@@ 9
posi@@ 9
pri@@ 9
produk@@ 9
rady@@ 9
ral 9
raz@@ 9
reatitis, 9
recht@@ 9
relevant 9
renz@@ 9
rine 9
rupp@@ 9
sam 9
sc@@ 9
schnit@@ 9
sion* 9
sit@@ 9
sle@@ 9
spon@@ 9
sprechen 9
sta@@ 9
ston@@ 9
stärk@@ 9
sulf@@ 9
systems: 9
sätz@@ 9
säure@@ 9
tagon@@ 9
tamin@@ 9
teiligung 9
thermi@@ 9
tiazem 9
tif@@ 9
tisches 9
toler@@ 9
transitor@@ 9
ts, 9
tten 9
ucleus 9
umfas@@ 9
umgehen@@ 9
unerw@@ 9
ungsstör@@ 9
unzureich@@ 9
us. 9
uta@@ 9
vent@@ 9
vermittel@@ 9
voll@@ 9
vorhan@@ 9
vul@@ 9
warn@@ 9
x, 9
yngospas@@ 9
yo@@ 9
zeitig 9
zunah@@ 9
zü@@ 9
züglich 9
Ísland 9
Österreich 9
Überempfindlichkeitsreak@@ 9
äh@@ 9
älter@@ 9
änder@@ 9
ë@@ 9
ön@@ 9
überle@@ 9
übersch@@ 9
ücksich@@ 9
üs@@ 9
ütter 9
Č 9
ΑΚΗΣ 9
Ε 9
Ελλάδα 9
Κύπρος 9
ΠΑΝΑΓΙΩΤΟΥ 9
ΥΙΟΣ 9
България 9
“ 9
(1@@ 8
(30 8
(30%). 8
(Ph.Eur.@@ 8
(n 8
29 8
3-5 8
47%. 8
8% 8
87%. 8
AR@@ 8
Agentur 8
Bestand@@ 8
ER 8
Episo@@ 8
Erypo 8
Kno@@ 8
Lac@@ 8
Lin@@ 8
MEN@@ 8
Mahlz@@ 8
Mahlzeit@@ 8
NAHM@@ 8
NI@@ 8
Per@@ 8
Phosphokinase), 8
SCHR@@ 8
Steady-St@@ 8
Tages@@ 8
UM@@ 8
UN@@ 8
UR@@ 8
X@@ 8
absolute 8
af@@ 8
ah@@ 8
azep@@ 8
bat@@ 8
ding@@ 8
eben@@ 8
erebro@@ 8
eu@@ 8
fra@@ 8
ing@@ 8
ip@@ 8
m) 8
minim@@ 8
ml) 8
ne 8
op@@ 8
pass@@ 8
rach@@ 8
reb@@ 8
rigidi@@ 8
ros@@ 8
schreib@@ 8
sen, 8
signifikan@@ 8
sis, 8
sitz@@ 8
star@@ 8
ug@@ 8
utrophil@@ 8
van@@ 8
vol@@ 8
zel@@ 8
zunehmen. 8
ÄN@@ 8
ür@@ 8
-f@@ 7
109@@ 7
14, 7
A. 7
Abilif@@ 7
LA@@ 7
Merk@@ 7
Mit@@ 7
Mus@@ 7
Nerven@@ 7
aclitaxel@@ 7
bel@@ 7
che 7
det 7
ene 7
ep@@ 7
ess@@ 7
extre@@ 7
gestell@@ 7
hn@@ 7
hydrat 7
ili@@ 7
im@@ 7
könn@@ 7
lag@@ 7
losig@@ 7
male 7
rok@@ 7
te. 7
tenen 7
tt@@ 7
uman@@ 7
ur 7
us@@ 7
verglich@@ 7
verpack@@ 7
wa@@ 7
yp@@ 7
ädi@@ 7
"6@@ 6
"A" 6
%) 6
(44-20) 6
(CHMP) 6
(E172) 6
(E172). 6
(E2@@ 6
(E951) 6
(EP@@ 6
(S@@ 6
19 6
200@@ 6
27 6
9% 6
95% 6
A-00@@ 6
Al@@ 6
Asparta@@ 6
Blutgerinn@@ 6
Cal@@ 6
EL@@ 6
EPAR 6
EPAR@@ 6
EXP 6
Entz@@ 6
Gef@@ 6
Häufig@@ 6
IS@@ 6
Inform@@ 6
Knochen@@ 6
Lot 6
Schluck@@ 6
Seit@@ 6
T 6
Verk@@ 6
Zu@@ 6
alent 6
b 6
carmel@@ 6
ce@@ 6
che@@ 6
cro@@ 6
d: 6
dlich 6
ent 6
est 6
fühl@@ 6
gefühl@@ 6
geme@@ 6
hydrox@@ 6
ichte@@ 6
if@@ 6
ill@@ 6
mail@@ 6
meta@@ 6
mp@@ 6
niedr@@ 6
normal@@ 6
normale 6
povid@@ 6
propyl@@ 6
sachen 6
sensor@@ 6
sich@@ 6
silic@@ 6
sin@@ 6
spritz@@ 6
ssen 6
stati@@ 6
ster@@ 6
t? 6
te; 6
tox@@ 6
tri@@ 6
tryp@@ 6
verur@@ 6
vollständi@@ 6
wä@@ 6
ylit@@ 6
ält 6
(P@@ 5
(T@@ 5
,5 5
1.8.@@ 5
1H@@ 5
4.@@ 5
480 5
5000 5
8000 5
AM@@ 5
AU@@ 5
Agitierth@@ 5
Ar@@ 5
At@@ 5
Atem@@ 5
Ber@@ 5
Bestandteile@@ 5
Bio@@ 5
Durch@@ 5
EMEA 5
EREN 5
Ere@@ 5
Erythropoietin 5
European 5
GE 5
Gel@@ 5
HIN@@ 5
II@@ 5
Krampf@@ 5
LE@@ 5
Management 5
Medicines 5
Mo@@ 5
N 5
Na@@ 5
PACK@@ 5
PR@@ 5
RAX@@ 5
Risk 5
SICHT@@ 5
Schmerz@@ 5
Schwierigkeit@@ 5
Schwitz@@ 5
Selbsttöt@@ 5
Table@@ 5
Tei@@ 5
Tran@@ 5
UK 5
Verwen@@ 5
abe 5
absorption 5
ack@@ 5
ar, 5
aufgeführ@@ 5
bil@@ 5
car@@ 5
chn@@ 5
de, 5
durchgeführ@@ 5
eichel@@ 5
ens 5
euro@@ 5
ex@@ 5
for 5
fre@@ 5
fühl 5
gele@@ 5
gr@@ 5
he@@ 5
hä@@ 5
ial@@ 5
ie: 5
ieren 5
iv@@ 5
ka 5
kulär@@ 5
lassen@@ 5
le-@@ 5
lit@@ 5
lu@@ 5
luco@@ 5
län@@ 5
lösung 5
mil@@ 5
mäß@@ 5
ne@@ 5
ol 5
opha@@ 5
rauch@@ 5
ritz@@ 5
schaf@@ 5
sh@@ 5
so@@ 5
son@@ 5
st-@@ 5
such 5
t-@@ 5
temper@@ 5
the@@ 5
tion; 5
tis 5
ton 5
tose@@ 5
tte 5
Über@@ 5
ähig@@ 5
öch@@ 5
(N@@ 4
2) 4
28, 4
47@@ 4
6, 4
62 4
80@@ 4
Abrax@@ 4
Alumin@@ 4
Aripiprazol@@ 4
Beur@@ 4
CHARGEN@@ 4
CI: 4
CI@@ 4
Dis@@ 4
Do@@ 4
EME@@ 4
EU/1/07/412/@@ 4
Gr@@ 4
Hal@@ 4
Hydrox@@ 4
Leberfunk@@ 4
Ly@@ 4
MP@@ 4
O 4
ORT@@ 4
Packungsgröß@@ 4
Schwä@@ 4
Sonsti@@ 4
Stoff@@ 4
afety 4
ame 4
angeme@@ 4
angewende@@ 4
ans 4
ative 4
atrium@@ 4
beach@@ 4
beding@@ 4
beeinträchtig@@ 4
beschrie@@ 4
ches 4
cl@@ 4
cy@@ 4
dar@@ 4
dl@@ 4
ed 4
edi@@ 4
fin@@ 4
fü@@ 4
geometr@@ 4
gre@@ 4
ience 4
ildung 4
ink@@ 4
issen@@ 4
ium 4
kl@@ 4
leich@@ 4
lem 4
letz@@ 4
m. 4
maxim@@ 4
meth@@ 4
nat@@ 4
oral 4
pack@@ 4
physi@@ 4
prol@@ 4
qu@@ 4
sal@@ 4
schn@@ 4
sion, 4
spiegel@@ 4
spre@@ 4
sses 4
ster 4
sti@@ 4
studie 4
teile 4
thracyclin@@ 4
tions@@ 4
trä@@ 4
ure, 4
uter@@ 4
verwende@@ 4
wo 4
y, 4
Ö@@ 4
Übel@@ 4
äl@@ 4
ünd@@ 4
(E@@ 3
(F@@ 3
): 3
*@@ 3
--------------------------------@@ 3
.eu 3
0.@@ 3
00@@ 3
100@@ 3
6-@@ 3
69% 3
72 3
@@@ 3
ABG@@ 3
ACH 3
ARTON 3
AUF@@ 3
Agency 3
Altern@@ 3
As@@ 3
B, 3
BER@@ 3
BLISTERPACK@@ 3
C 3
CHT 3
CHT@@ 3
ERK@@ 3
ET@@ 3
Europä@@ 3
FF@@ 3
Fertigspritz@@ 3
GE@@ 3
Gegen@@ 3
Haut@@ 3
Hydroxy@@ 3
INH@@ 3
ISCH@@ 3
Iserloh@@ 3
KG@@ 3
Kühl@@ 3
LE 3
LICH@@ 3
Lon@@ 3
MA@@ 3
Mikro@@ 3
Nich@@ 3
OL@@ 3
Pharmakovigil@@ 3
Pl@@ 3
Plan 3
Produk@@ 3
Q 3
RMP 3
RO@@ 3
Schlu@@ 3
Schmelztable@@ 3
Schwanger@@ 3
Sich@@ 3
Sti@@ 3
Sy@@ 3
TEI@@ 3
Tel@@ 3
Up@@ 3
Verstopf@@ 3
Wort@@ 3
ZUSAMMEN@@ 3
achen 3
aclitaxel 3
age 3
album@@ 3
allerg@@ 3
altern@@ 3
ary 3
ate-Exposition 3
ativ 3
aufbewahr@@ 3
aut@@ 3
author@@ 3
be 3
bio@@ 3
bo@@ 3
brech@@ 3
c 3
cap@@ 3
date 3
dik@@ 3
dosis 3
ehl@@ 3
emea.@@ 3
empf@@ 3
ers, 3
est@@ 3
et 3
etyl@@ 3
europa.eu 3
evalu@@ 3
fru@@ 3
fäll@@ 3
gabe 3
gem@@ 3
gesetzt 3
gu@@ 3
har@@ 3
hen@@ 3
ho@@ 3
http://www.emea.@@ 3
hydrogenphosphat-Di@@ 3
hydrogenphosphat@@ 3
hält@@ 3
häuf@@ 3
ide@@ 3
ierig@@ 3
ies 3
inale 3
indizier@@ 3
inf@@ 3
innen 3
iph@@ 3
ised 3
kel 3
kel@@ 3
krank@@ 3
las@@ 3
leu@@ 3
lex@@ 3
line 3
lister@@ 3
mel@@ 3
mellitus 3
ment@@ 3
metastasier@@ 3
mission 3
ml. 3
mm@@ 3
mulier@@ 3
nehm@@ 3
odi@@ 3
of@@ 3
ologen 3
on, 3
on. 3
open@@ 3
opf@@ 3
ore@@ 3
pH-Einstell@@ 3
par@@ 3
pflich@@ 3
pro@@ 3
production 3
provided 3
ru@@ 3
ry 3
san@@ 3
sicher@@ 3
sie@@ 3
sierung 3
spen@@ 3
ss, 3
ssu@@ 3
st. 3
steady-@@ 3
störungen, 3
such@@ 3
the 3
tis, 3
tiv@@ 3
tliche 3
toxizität 3
trans@@ 3
tub@@ 3
ult 3
und, 3
ust@@ 3
wichtig@@ 3
xi@@ 3
zep@@ 3
zo@@ 3
zubereit@@ 3
zugelassen@@ 3
zö@@ 3
Ä@@ 3
ärk@@ 3
’ 3
” 3
(95% 2
* 2
./@@ 2
000@@ 2
012 2
03@@ 2
20,@@ 2
25@@ 2
26@@ 2
29@@ 2
4% 2
5% 2
5.1@@ 2
50@@ 2
69 2
78@@ 2
8,@@ 2
81 2
83 2
90 2
900 2
95 2
97 2
AT@@ 2
Agen@@ 2
Ausgangs@@ 2
Behandl@@ 2
C-@@ 2
CH 2
CYP2@@ 2
Cle@@ 2
Cma@@ 2
DE@@ 2
Dan@@ 2
Differen@@ 2
Dosisanpass@@ 2
Erhöh@@ 2
Ex@@ 2
Exposi@@ 2
Faltschachtel@@ 2
Fe@@ 2
Geh@@ 2
Gehirn@@ 2
Hand@@ 2
Hämat@@ 2
I-@@ 2
ISCHEN 2
IT@@ 2
Injektionszubereit@@ 2
Injektionszwe@@ 2
LI@@ 2
Lt@@ 2
MIT@@ 2
Mat@@ 2
Minu@@ 2
N-@@ 2
OLOG@@ 2
Original@@ 2
Os@@ 2
Packungsbeil@@ 2
Pha@@ 2
Post-Marketing@@ 2
SCH@@ 2
SETZUNG 2
Sei@@ 2
Skele@@ 2
Stör@@ 2
UL@@ 2
UNG@@ 2
Verring@@ 2
Verschreibungspflich@@ 2
WIRKSTOFF@@ 2
Wirk@@ 2
X 2
ZN@@ 2
ZU@@ 2
Zah@@ 2
Zeit@@ 2
Zell@@ 2
abdom@@ 2
ache 2
adj@@ 2
ag@@ 2
age. 2
aly@@ 2
anc@@ 2
angegeb@@ 2
ates 2
ations@@ 2
ativen 2
ator@@ 2
beha@@ 2
beschwerden, 2
besteh@@ 2
bl@@ 2
ble@@ 2
bruch 2
bu@@ 2
c. 2
ce 2
cke 2
d? 2
depres@@ 2
dia@@ 2
dig@@ 2
dlicher 2
dy@@ 2
dynam@@ 2
ed@@ 2
ehmi@@ 2
einigtes 2
enth@@ 2
esi@@ 2
fall, 2
farblo@@ 2
fle@@ 2
fläche 2
formation 2
frequ@@ 2
gem 2
glyc@@ 2
größ@@ 2
h. 2
hand@@ 2
handlung 2
hang 2
harma@@ 2
heiten 2
hel@@ 2
hren@@ 2
human 2
human@@ 2
hö@@ 2
icklung 2
ieren, 2
ierigkeit@@ 2
ile 2
ing 2
initi@@ 2
io@@ 2
ion 2
is, 2
isation 2
iti@@ 2
ju@@ 2
karton 2
kin@@ 2
kologische 2
lare, 2
lass@@ 2
leid@@ 2
lief@@ 2
losigkeit, 2
ly@@ 2
ma@@ 2
medi@@ 2
medicinal 2
medizin@@ 2
mpfehl@@ 2
ms 2
neuropath@@ 2
nisse 2
oc@@ 2
ochsalz@@ 2
ogen 2
or, 2
orrek@@ 2
oxid 2
periph@@ 2
pothek@@ 2
products 2
ref@@ 2
reme@@ 2
s) 2
s- 2
schließ@@ 2
sek@@ 2
ser 2
ses 2
sion. 2
smo@@ 2
som@@ 2
sorg@@ 2
sour@@ 2
spep@@ 2
spezif@@ 2
stel@@ 2
stimm@@ 2
stip@@ 2
stopf@@ 2
stri@@ 2
studi@@ 2
ständi@@ 2
tal@@ 2
therap@@ 2
though@@ 2
tivi@@ 2
transfer@@ 2
treten 2
um. 2
vari@@ 2
verschw@@ 2
wahr@@ 2
weg@@ 2
werd@@ 2
y-@@ 2
zeit 2
zusätz@@ 2
zw@@ 2
© 2
©@@ 2
äß@@ 2
ös@@ 2
ütz@@ 2
% 1
%). 1
(10 1
(30@@ 1
(4@@ 1
(6@@ 1
(7@@ 1
(Ch@@ 1
(D@@ 1
(G@@ 1
(n@@ 1
----------------@@ 1
--------@@ 1
-88 1
-CS@@ 1
-Di@@ 1
.: 1
00-@@ 1
000, 1
01 1
05@@ 1
07@@ 1
1-@@ 1
12-@@ 1
2.@@ 1
27@@ 1
28@@ 1
2C@@ 1
3.@@ 1
375 1
38 1
38@@ 1
45@@ 1
58@@ 1
6,2 1
6.@@ 1
66 1
84@@ 1
=@@ 1
A) 1
ALT 1
AUC) 1
Abraxane. 1
Alk@@ 1
Anforder@@ 1
Anwendungs@@ 1
Aripiprazole 1
Behält@@ 1
Bel@@ 1
Bereich@@ 1
Betrach@@ 1
Bin@@ 1
Blutverlu@@ 1
CHMP@@ 1
CO@@ 1
Carbamazep@@ 1
Com@@ 1
Diabe@@ 1
Dur@@ 1
Durchschnit@@ 1
Durchstech@@ 1
EU/1/07/@@ 1
Entw@@ 1
Ep@@ 1
Erhaltungs@@ 1
Erythropoietin@@ 1
Exc@@ 1
Fieber@@ 1
Fl@@ 1
Fort@@ 1
Gastrointest@@ 1
Gener@@ 1
HIV@@ 1
Herzrhyth@@ 1
Hol@@ 1
Ih@@ 1
Injektions@@ 1
Injektionsstel@@ 1
Juck@@ 1
Kal@@ 1
Kin@@ 1
Kontrol@@ 1
Kurz@@ 1
Lie@@ 1
ME@@ 1
Mono@@ 1
Natri@@ 1
Nerv@@ 1
Parti@@ 1
Pati@@ 1
Pharmako@@ 1
Pol@@ 1
Pre@@ 1
R 1
Rec@@ 1
Rek@@ 1
Rekon@@ 1
Ruhe@@ 1
SP@@ 1
SU@@ 1
Schizophren@@ 1
Schläfrig@@ 1
Sign@@ 1
Sk@@ 1
Son@@ 1
Spec@@ 1
Stra@@ 1
T-@@ 1
Tachy@@ 1
Thromb@@ 1
Thromboseprophylax@@ 1
U 1
V 1
Verbesser@@ 1
WEN@@ 1
WENDE@@ 1
Zellen@@ 1
Zusammen@@ 1
aben 1
able 1
ac@@ 1
adel 1
al. 1
all, 1
and, 1
anden 1
anf@@ 1
angenom@@ 1
anger@@ 1
anin@@ 1
ansprach@@ 1
anwen@@ 1
ard@@ 1
aro@@ 1
arz@@ 1
arzneimitte@@ 1
ate) 1
ate@@ 1
ath@@ 1
ationsp@@ 1
att@@ 1
auer 1
aussch@@ 1
beeinflu@@ 1
bei@@ 1
benen 1
bet@@ 1
bipol@@ 1
block@@ 1
blutung 1
bre@@ 1
brechen, 1
bru@@ 1
bsttöt@@ 1
cc@@ 1
chne@@ 1
com@@ 1
core 1
cra@@ 1
def@@ 1
dehydrogen@@ 1
dic 1
distribution 1
dl). 1
doc@@ 1
dre@@ 1
durchzuführ@@ 1
ec@@ 1
eit@@ 1
end@@ 1
enen, 1
entzünd@@ 1
enzy@@ 1
eral 1
erat@@ 1
erhal@@ 1
erhält@@ 1
erle@@ 1
ertig@@ 1
es, 1
et. 1
eta@@ 1
fe@@ 1
flu@@ 1
flä@@ 1
foet@@ 1
fri@@ 1
fter 1
fün@@ 1
gastro@@ 1
gebrach@@ 1
ged 1
geeign@@ 1
gehen@@ 1
gene 1
genommen 1
gerung 1
gi@@ 1
gion@@ 1
glykämi@@ 1
gn@@ 1
gon@@ 1
grun@@ 1
grupp@@ 1
gt. 1
hei@@ 1
hep@@ 1
hle@@ 1
hokinase), 1
hr 1
hrleis@@ 1
ht 1
hydration, 1
hydroxy@@ 1
hyper@@ 1
i-@@ 1
ic@@ 1
ick@@ 1
ickl@@ 1
iel@@ 1
ikation, 1
il 1
imm@@ 1
ind@@ 1
indi@@ 1
ine) 1
ine, 1
intak@@ 1
ise 1
isen@@ 1
ist@@ 1
itet 1
ium@@ 1
kann@@ 1
klin@@ 1
konzentration 1
kreb@@ 1
kulatur@@ 1
l). 1
le, 1
lek@@ 1
les 1
lich: 1
lig 1
lig@@ 1
limin@@ 1
linie 1
loss@@ 1
lung, 1
m2 1
ma, 1
mar@@ 1
mark 1
mark@@ 1
ment 1
mg. 1
mig@@ 1
migränear@@ 1
minder@@ 1
mittel@@ 1
moder@@ 1
mol@@ 1
mü@@ 1
nachgewie@@ 1
neumon@@ 1
niedrig@@ 1
nit@@ 1
och@@ 1
od 1
ohl@@ 1
oly@@ 1
only 1
order@@ 1
ortho@@ 1
pH-@@ 1
pa@@ 1
pen@@ 1
pharmako@@ 1
phase 1
phosp@@ 1
phosphat@@ 1
phosphatase 1
plan@@ 1
position 1
post@@ 1
pp@@ 1
pr@@ 1
produ@@ 1
produktion@@ 1
propor@@ 1
protein 1
prüf@@ 1
psych@@ 1
purpo@@ 1
pyrex@@ 1
random@@ 1
rang@@ 1
raum 1
rax@@ 1
rek@@ 1
reted 1
retion 1
rho@@ 1
rie@@ 1
rig@@ 1
rit 1
rochen 1
rub@@ 1
samm@@ 1
sat@@ 1
sch 1
sche@@ 1
schle@@ 1
schnel@@ 1
se; 1
sec@@ 1
shalb 1
sib@@ 1
sible 1
sive 1
solu@@ 1
some 1
somn@@ 1
sorb@@ 1
spas@@ 1
sper@@ 1
spirator@@ 1
sprechen@@ 1
sprochen 1
sser@@ 1
stand@@ 1
statisti@@ 1
steady-state 1
stechen@@ 1
sto@@ 1
stoff 1
stän@@ 1
sur@@ 1
swe@@ 1
syste@@ 1
szellen 1
teile@@ 1
teilnah@@ 1
ten) 1
tern@@ 1
this 1
thracy@@ 1
tief@@ 1
til@@ 1
tin 1
tion. 1
tran@@ 1
transfusion 1
transpor@@ 1
trea@@ 1
ttmuskulatur@@ 1
twort@@ 1
tö@@ 1
ub@@ 1
ulation 1
umber 1
umor@@ 1
und@@ 1
under 1
unveränder@@ 1
ven 1
vention@@ 1
vis@@ 1
vit@@ 1
wall@@ 1
wegungen, 1
were 1
wil@@ 1
wur@@ 1
y: 1
yelo@@ 1
yn@@ 1
yp 1
zah@@ 1
zeit@@ 1
zephalopath@@ 1
zin@@ 1
zinom@@ 1
zogen 1
zuge@@ 1
zun@@ 1
zureich@@ 1
zustand 1
zwei@@ 1
°@@ 1
µ@@ 1
º@@ 1
Überempfindlich@@ 1
ß 1
äch@@ 1
ägt 1
äß 1
öß@@ 1
üf@@ 1
 @@ 1
“@@ 1
